#ifndef ORANGEMICRODARK_WN12_V1_H
#define ORANGEMICRODARK_WN12_V1_H


unsigned int OrangeMicroDark_WN12_v1_len = 12320;
unsigned char OrangeMicroDark_WN12_v1[] = {
 0x24, 0x00, 0x00, 0x00, 0x54, 0x46, 0x4c, 0x33, 0x00, 0x00, 0x00, 0x00,
  0x00, 0x00, 0x00, 0x00, 0x00, 0x00, 0x12, 0x00, 0x1c, 0x00, 0x04, 0x00,
  0x08, 0x00, 0x0c, 0x00, 0x10, 0x00, 0x14, 0x00, 0x00, 0x00, 0x18, 0x00,
  0x12, 0x00, 0x00, 0x00, 0x03, 0x00, 0x00, 0x00, 0x98, 0x2f, 0x00, 0x00,
  0x60, 0x07, 0x00, 0x00, 0x48, 0x07, 0x00, 0x00, 0x3c, 0x00, 0x00, 0x00,
  0x04, 0x00, 0x00, 0x00, 0x01, 0x00, 0x00, 0x00, 0x0c, 0x00, 0x00, 0x00,
  0x08, 0x00, 0x0c, 0x00, 0x04, 0x00, 0x08, 0x00, 0x08, 0x00, 0x00, 0x00,
  0x08, 0x00, 0x00, 0x00, 0x36, 0x00, 0x00, 0x00, 0x13, 0x00, 0x00, 0x00,
  0x6d, 0x69, 0x6e, 0x5f, 0x72, 0x75, 0x6e, 0x74, 0x69, 0x6d, 0x65, 0x5f,
  0x76, 0x65, 0x72, 0x73, 0x69, 0x6f, 0x6e, 0x00, 0x37, 0x00, 0x00, 0x00,
  0xf4, 0x06, 0x00, 0x00, 0xe0, 0x06, 0x00, 0x00, 0xcc, 0x06, 0x00, 0x00,
  0xb0, 0x06, 0x00, 0x00, 0xa4, 0x06, 0x00, 0x00, 0x90, 0x06, 0x00, 0x00,
  0x7c, 0x06, 0x00, 0x00, 0x68, 0x06, 0x00, 0x00, 0x54, 0x06, 0x00, 0x00,
  0x40, 0x06, 0x00, 0x00, 0x2c, 0x06, 0x00, 0x00, 0x18, 0x06, 0x00, 0x00,
  0xfc, 0x05, 0x00, 0x00, 0xb8, 0x05, 0x00, 0x00, 0x94, 0x05, 0x00, 0x00,
  0x50, 0x05, 0x00, 0x00, 0x0c, 0x05, 0x00, 0x00, 0xe8, 0x04, 0x00, 0x00,
  0xa4, 0x04, 0x00, 0x00, 0x80, 0x04, 0x00, 0x00, 0x3c, 0x04, 0x00, 0x00,
  0x18, 0x04, 0x00, 0x00, 0xd4, 0x03, 0x00, 0x00, 0xb0, 0x03, 0x00, 0x00,
  0x6c, 0x03, 0x00, 0x00, 0x28, 0x03, 0x00, 0x00, 0x04, 0x03, 0x00, 0x00,
  0xc0, 0x02, 0x00, 0x00, 0x9c, 0x02, 0x00, 0x00, 0x58, 0x02, 0x00, 0x00,
  0x4c, 0x02, 0x00, 0x00, 0x20, 0x02, 0x00, 0x00, 0xfc, 0x01, 0x00, 0x00,
  0xd8, 0x01, 0x00, 0x00, 0xcc, 0x01, 0x00, 0x00, 0xa0, 0x01, 0x00, 0x00,
  0x94, 0x01, 0x00, 0x00, 0x80, 0x01, 0x00, 0x00, 0x6c, 0x01, 0x00, 0x00,
  0x58, 0x01, 0x00, 0x00, 0x3c, 0x01, 0x00, 0x00, 0x18, 0x01, 0x00, 0x00,
  0x0c, 0x01, 0x00, 0x00, 0xf8, 0x00, 0x00, 0x00, 0xe4, 0x00, 0x00, 0x00,
  0xd0, 0x00, 0x00, 0x00, 0xbc, 0x00, 0x00, 0x00, 0x90, 0x00, 0x00, 0x00,
  0x84, 0x00, 0x00, 0x00, 0x70, 0x00, 0x00, 0x00, 0x5c, 0x00, 0x00, 0x00,
  0x48, 0x00, 0x00, 0x00, 0x34, 0x00, 0x00, 0x00, 0x20, 0x00, 0x00, 0x00,
  0x04, 0x00, 0x00, 0x00, 0xea, 0xf3, 0xff, 0xff, 0x04, 0x00, 0x00, 0x00,
  0x06, 0x00, 0x00, 0x00, 0x31, 0x2e, 0x31, 0x34, 0x2e, 0x30, 0x00, 0x00,
  0x00, 0x00, 0x00, 0x00, 0x3c, 0xd3, 0xff, 0xff, 0x00, 0x00, 0x00, 0x00,
  0x00, 0x00, 0x00, 0x00, 0x00, 0x00, 0x00, 0x00, 0x4c, 0xd3, 0xff, 0xff,
  0x00, 0x00, 0x00, 0x00, 0x00, 0x00, 0x00, 0x00, 0x00, 0x00, 0x00, 0x00,
  0x5c, 0xd3, 0xff, 0xff, 0x00, 0x00, 0x00, 0x00, 0x00, 0x00, 0x00, 0x00,
  0x00, 0x00, 0x00, 0x00, 0x6c, 0xd3, 0xff, 0xff, 0x00, 0x00, 0x00, 0x00,
  0x00, 0x00, 0x00, 0x00, 0x00, 0x00, 0x00, 0x00, 0x7c, 0xd3, 0xff, 0xff,
  0x00, 0x00, 0x00, 0x00, 0x00, 0x00, 0x00, 0x00, 0x00, 0x00, 0x00, 0x00,
  0x8c, 0xd3, 0xff, 0xff, 0x00, 0x00, 0x00, 0x00, 0x5a, 0xf4, 0xff, 0xff,
  0x04, 0x00, 0x00, 0x00, 0x10, 0x00, 0x00, 0x00, 0x2f, 0x00, 0x00, 0x00,
  0xe9, 0x00, 0x00, 0x00, 0x01, 0x04, 0x00, 0x00, 0x59, 0xed, 0xff, 0xff,
  0x00, 0x00, 0x00, 0x00, 0x00, 0x00, 0x00, 0x00, 0x00, 0x00, 0x00, 0x00,
  0xbc, 0xd3, 0xff, 0xff, 0x00, 0x00, 0x00, 0x00, 0x00, 0x00, 0x00, 0x00,
  0x00, 0x00, 0x00, 0x00, 0xcc, 0xd3, 0xff, 0xff, 0x00, 0x00, 0x00, 0x00,
  0x00, 0x00, 0x00, 0x00, 0x00, 0x00, 0x00, 0x00, 0xdc, 0xd3, 0xff, 0xff,
  0x00, 0x00, 0x00, 0x00, 0x00, 0x00, 0x00, 0x00, 0x00, 0x00, 0x00, 0x00,
  0xec, 0xd3, 0xff, 0xff, 0x00, 0x00, 0x00, 0x00, 0x00, 0x00, 0x00, 0x00,
  0x00, 0x00, 0x00, 0x00, 0xfc, 0xd3, 0xff, 0xff, 0x00, 0x00, 0x00, 0x00,
  0xca, 0xf4, 0xff, 0xff, 0x04, 0x00, 0x00, 0x00, 0x10, 0x00, 0x00, 0x00,
  0xe7, 0xf6, 0xff, 0xff, 0xba, 0xfe, 0xff, 0xff, 0x63, 0xfc, 0xff, 0xff,
  0x19, 0xfe, 0xff, 0xff, 0x00, 0x00, 0x00, 0x00, 0xea, 0xf4, 0xff, 0xff,
  0x04, 0x00, 0x00, 0x00, 0x0c, 0x00, 0x00, 0x00, 0x8b, 0xdd, 0x73, 0x31,
  0x4f, 0x7f, 0x1a, 0xfb, 0x03, 0xac, 0x87, 0xa9, 0x3c, 0xd4, 0xff, 0xff,
  0x00, 0x00, 0x00, 0x00, 0x00, 0x00, 0x00, 0x00, 0x00, 0x00, 0x00, 0x00,
  0x4c, 0xd4, 0xff, 0xff, 0x00, 0x00, 0x00, 0x00, 0x00, 0x00, 0x00, 0x00,
  0x00, 0x00, 0x00, 0x00, 0x5c, 0xd4, 0xff, 0xff, 0x00, 0x00, 0x00, 0x00,
  0x00, 0x00, 0x00, 0x00, 0x00, 0x00, 0x00, 0x00, 0x6c, 0xd4, 0xff, 0xff,
  0x00, 0x00, 0x00, 0x00, 0x3a, 0xf5, 0xff, 0xff, 0x04, 0x00, 0x00, 0x00,
  0x10, 0x00, 0x00, 0x00, 0x1a, 0x04, 0x00, 0x00, 0x37, 0x02, 0x00, 0x00,
  0x9f, 0xfe, 0xff, 0xff, 0x67, 0xf1, 0xff, 0xff, 0x00, 0x00, 0x00, 0x00,
  0x00, 0x00, 0x00, 0x00, 0x00, 0x00, 0x00, 0x00, 0x9c, 0xd4, 0xff, 0xff,
  0x00, 0x00, 0x00, 0x00, 0x6a, 0xf5, 0xff, 0xff, 0x04, 0x00, 0x00, 0x00,
  0x10, 0x00, 0x00, 0x00, 0x01, 0x00, 0x00, 0x00, 0x01, 0x00, 0x00, 0x00,
  0xfd, 0x00, 0x00, 0x00, 0x01, 0x00, 0x00, 0x00, 0x00, 0x00, 0x00, 0x00,
  0x8a, 0xf5, 0xff, 0xff, 0x04, 0x00, 0x00, 0x00, 0x0c, 0x00, 0x00, 0x00,
  0x81, 0x57, 0x81, 0x99, 0x88, 0x58, 0x85, 0x83, 0xb0, 0x7f, 0xa4, 0x81,
  0x00, 0x00, 0x00, 0x00, 0x00, 0x00, 0x00, 0x00, 0xaa, 0xf5, 0xff, 0xff,
  0x04, 0x00, 0x00, 0x00, 0x10, 0x00, 0x00, 0x00, 0x46, 0xfe, 0xff, 0xff,
  0xb4, 0x02, 0x00, 0x00, 0x06, 0xff, 0xff, 0xff, 0x03, 0xfd, 0xff, 0xff,
  0x00, 0x00, 0x00, 0x00, 0x00, 0x00, 0x00, 0x00, 0x00, 0x00, 0x00, 0x00,
  0x0c, 0xd5, 0xff, 0xff, 0x00, 0x00, 0x00, 0x00, 0xda, 0xf5, 0xff, 0xff,
  0x04, 0x00, 0x00, 0x00, 0x30, 0x00, 0x00, 0x00, 0x28, 0xe8, 0x7f, 0x29,
  0x3f, 0xcf, 0x72, 0xe9, 0xc4, 0x40, 0xe6, 0x58, 0x7f, 0xd2, 0x02, 0x0d,
  0xf0, 0xc9, 0x67, 0x1f, 0x0d, 0x26, 0x11, 0xd4, 0x7d, 0x32, 0x09, 0x81,
  0xb6, 0x89, 0xc1, 0xba, 0x9c, 0x72, 0xea, 0xb1, 0xaa, 0x13, 0x81, 0x8c,
  0x0b, 0x0b, 0x5f, 0xd4, 0xfe, 0xd1, 0x33, 0xd7, 0x00, 0x00, 0x00, 0x00,
  0x1a, 0xf6, 0xff, 0xff, 0x04, 0x00, 0x00, 0x00, 0x10, 0x00, 0x00, 0x00,
  0xec, 0xfd, 0xff, 0xff, 0xaa, 0x02, 0x00, 0x00, 0x61, 0x08, 0x00, 0x00,
  0x65, 0x02, 0x00, 0x00, 0x00, 0x00, 0x00, 0x00, 0x3a, 0xf6, 0xff, 0xff,
  0x04, 0x00, 0x00, 0x00, 0x30, 0x00, 0x00, 0x00, 0xa3, 0xad, 0x5b, 0x37,
  0xdc, 0x0c, 0xdb, 0x30, 0x40, 0x77, 0xbb, 0x81, 0xd9, 0x89, 0x48, 0x21,
  0x23, 0xca, 0x7f, 0x34, 0xfe, 0x1e, 0x08, 0xfe, 0x43, 0x30, 0xba, 0x93,
  0xba, 0xf5, 0x1b, 0x0a, 0x81, 0x96, 0x39, 0x43, 0xea, 0xe2, 0x23, 0x7f,
  0x37, 0x66, 0x5c, 0x75, 0xec, 0xd7, 0xff, 0xe7, 0x00, 0x00, 0x00, 0x00,
  0x7a, 0xf6, 0xff, 0xff, 0x04, 0x00, 0x00, 0x00, 0x10, 0x00, 0x00, 0x00,
  0x33, 0x00, 0x00, 0x00, 0xa0, 0x04, 0x00, 0x00, 0x99, 0xf8, 0xff, 0xff,
  0xd5, 0xfd, 0xff, 0xff, 0x00, 0x00, 0x00, 0x00, 0x9a, 0xf6, 0xff, 0xff,
  0x04, 0x00, 0x00, 0x00, 0x30, 0x00, 0x00, 0x00, 0xd5, 0xe0, 0x3f, 0xd7,
  0xf4, 0xca, 0x15, 0x0e, 0x43, 0xc0, 0xe3, 0x81, 0x19, 0x7f, 0x39, 0x74,
  0xba, 0x09, 0x3a, 0x51, 0xf4, 0xcb, 0x06, 0xc9, 0x37, 0x1f, 0x0e, 0x67,
  0x31, 0x37, 0xec, 0xfb, 0x6e, 0xca, 0x81, 0x9f, 0x39, 0x23, 0x9f, 0x0a,
  0xa9, 0xfe, 0xe6, 0xd3, 0x7f, 0x93, 0x0a, 0x81, 0x00, 0x00, 0x00, 0x00,
  0xda, 0xf6, 0xff, 0xff, 0x04, 0x00, 0x00, 0x00, 0x30, 0x00, 0x00, 0x00,
  0xf7, 0x35, 0xe4, 0xd5, 0xce, 0x10, 0xcb, 0xf3, 0x43, 0xeb, 0x7f, 0x4b,
  0x0c, 0x7f, 0xba, 0xff, 0x48, 0xf6, 0xb0, 0xca, 0xf4, 0x0a, 0xc4, 0x20,
  0x34, 0xf1, 0xed, 0x07, 0x13, 0xc8, 0xd0, 0x18, 0xd5, 0xde, 0x81, 0x18,
  0xd1, 0x46, 0xff, 0x2d, 0x5d, 0x22, 0x04, 0xad, 0x7f, 0xe6, 0x02, 0x68,
  0x00, 0x00, 0x00, 0x00, 0x1a, 0xf7, 0xff, 0xff, 0x04, 0x00, 0x00, 0x00,
  0x10, 0x00, 0x00, 0x00, 0xc9, 0xff, 0xff, 0xff, 0x7a, 0x25, 0x00, 0x00,
  0x11, 0x01, 0x00, 0x00, 0xc0, 0xff, 0xff, 0xff, 0x00, 0x00, 0x00, 0x00,
  0x3a, 0xf7, 0xff, 0xff, 0x04, 0x00, 0x00, 0x00, 0x30, 0x00, 0x00, 0x00,
  0x81, 0xf4, 0x24, 0xe0, 0xf7, 0x07, 0xf9, 0x0c, 0xfa, 0xf2, 0xf1, 0xfd,
  0xfb, 0x34, 0x0a, 0xe8, 0xfb, 0x0d, 0x30, 0xe8, 0x7f, 0x9d, 0xd5, 0x10,
  0xf3, 0xe8, 0xec, 0x27, 0xfd, 0x16, 0xec, 0xff, 0x81, 0x16, 0x30, 0xfc,
  0x6c, 0x29, 0x7c, 0x30, 0x0d, 0x1a, 0x3c, 0x21, 0x7f, 0x19, 0x48, 0x2c,
  0x00, 0x00, 0x00, 0x00, 0x7a, 0xf7, 0xff, 0xff, 0x04, 0x00, 0x00, 0x00,
  0x10, 0x00, 0x00, 0x00, 0x1b, 0xfe, 0xff, 0xff, 0xd2, 0x02, 0x00, 0x00,
  0xe5, 0xfd, 0xff, 0xff, 0xcf, 0x28, 0x00, 0x00, 0x00, 0x00, 0x00, 0x00,
  0x9a, 0xf7, 0xff, 0xff, 0x04, 0x00, 0x00, 0x00, 0x30, 0x00, 0x00, 0x00,
  0x23, 0x68, 0x02, 0xe1, 0xd4, 0x81, 0xea, 0x5e, 0x3d, 0x49, 0x90, 0x2c,
  0x0f, 0x5c, 0xa0, 0x7f, 0x01, 0x15, 0x15, 0x20, 0x20, 0x68, 0xe7, 0xe3,
  0xbc, 0xd1, 0x0f, 0x81, 0xeb, 0xe2, 0xaf, 0xbb, 0xcf, 0x28, 0x2c, 0x0c,
  0xdd, 0xf7, 0x64, 0x94, 0xfc, 0xb8, 0x51, 0xd3, 0x07, 0xca, 0x7f, 0x4d,
  0x00, 0x00, 0x00, 0x00, 0xda, 0xf7, 0xff, 0xff, 0x04, 0x00, 0x00, 0x00,
  0x10, 0x00, 0x00, 0x00, 0xe0, 0x09, 0x00, 0x00, 0xbe, 0x04, 0x00, 0x00,
  0x5e, 0xf2, 0xff, 0xff, 0xc7, 0xe2, 0xff, 0xff, 0x00, 0x00, 0x00, 0x00,
  0xfa, 0xf7, 0xff, 0xff, 0x04, 0x00, 0x00, 0x00, 0x30, 0x00, 0x00, 0x00,
  0x81, 0xa9, 0x22, 0x44, 0xfe, 0x20, 0x83, 0x0b, 0x0b, 0xad, 0x49, 0xf0,
  0x5a, 0xb3, 0x3f, 0x5c, 0x33, 0x7f, 0x47, 0x71, 0x99, 0x04, 0xf1, 0x3e,
  0x54, 0x99, 0x81, 0x72, 0x1c, 0x20, 0xe0, 0x2f, 0xf5, 0xf5, 0xfe, 0xd8,
  0xbe, 0x2b, 0x7c, 0xbc, 0xde, 0x3a, 0x81, 0xb4, 0xb6, 0xbb, 0xa4, 0x56,
  0x00, 0x00, 0x00, 0x00, 0x3a, 0xf8, 0xff, 0xff, 0x04, 0x00, 0x00, 0x00,
  0x10, 0x00, 0x00, 0x00, 0x45, 0xfa, 0xff, 0xff, 0x54, 0xf5, 0xff, 0xff,
  0xb0, 0xf1, 0xff, 0xff, 0x66, 0xfa, 0xff, 0xff, 0x00, 0x00, 0x00, 0x00,
  0x5a, 0xf8, 0xff, 0xff, 0x04, 0x00, 0x00, 0x00, 0x30, 0x00, 0x00, 0x00,
  0xf1, 0x20, 0xdb, 0x1d, 0x19, 0xb7, 0x24, 0xf6, 0x81, 0x08, 0xa7, 0x2a,
  0x17, 0x1c, 0x5e, 0xfc, 0x0b, 0xf8, 0x6c, 0xb0, 0x00, 0x01, 0x81, 0x45,
  0xf9, 0xc0, 0xfb, 0xe4, 0xdd, 0x51, 0xfe, 0x20, 0xe2, 0xcb, 0x7f, 0xfe,
  0xb2, 0xf6, 0x5b, 0xaf, 0x4b, 0xaf, 0xd7, 0x81, 0xc4, 0xa2, 0x8e, 0xad,
  0x00, 0x00, 0x00, 0x00, 0x9a, 0xf8, 0xff, 0xff, 0x04, 0x00, 0x00, 0x00,
  0x30, 0x00, 0x00, 0x00, 0x59, 0xf2, 0x09, 0x13, 0xff, 0x43, 0xe8, 0x10,
  0x81, 0x19, 0x1a, 0xaa, 0xa6, 0xa4, 0x3e, 0x15, 0x4e, 0x36, 0xbd, 0x07,
  0xa0, 0x14, 0x7f, 0xb3, 0x27, 0x81, 0x25, 0x27, 0x25, 0x3e, 0xa1, 0x1a,
  0xfd, 0xcb, 0xef, 0xff, 0xa4, 0x1a, 0x65, 0x09, 0xe2, 0x60, 0xa1, 0xd8,
  0x7f, 0xfc, 0x9e, 0x07, 0x00, 0x00, 0x00, 0x00, 0xda, 0xf8, 0xff, 0xff,
  0x04, 0x00, 0x00, 0x00, 0x10, 0x00, 0x00, 0x00, 0x55, 0xfd, 0xff, 0xff,
  0x61, 0xfa, 0xff, 0xff, 0x59, 0xfe, 0xff, 0xff, 0x4a, 0xfe, 0xff, 0xff,
  0x00, 0x00, 0x00, 0x00, 0xfa, 0xf8, 0xff, 0xff, 0x04, 0x00, 0x00, 0x00,
  0x30, 0x00, 0x00, 0x00, 0xf1, 0xf1, 0x4b, 0x88, 0x81, 0xce, 0x4a, 0x57,
  0xe0, 0x79, 0x69, 0x22, 0x11, 0xd9, 0x43, 0x09, 0x7f, 0x8a, 0x1c, 0xdf,
  0x45, 0xd8, 0xf8, 0xd4, 0x1e, 0x58, 0xc0, 0x12, 0x25, 0x33, 0xea, 0xe5,
  0x6f, 0x73, 0x81, 0xed, 0x1e, 0xe8, 0x2d, 0x82, 0xc7, 0xe1, 0x21, 0x51,
  0x7f, 0x69, 0xe1, 0x2b, 0x00, 0x00, 0x00, 0x00, 0x3a, 0xf9, 0xff, 0xff,
  0x04, 0x00, 0x00, 0x00, 0x04, 0x00, 0x00, 0x00, 0x27, 0x03, 0x00, 0x00,
  0x00, 0x00, 0x00, 0x00, 0x00, 0x00, 0x00, 0x00, 0x8c, 0xd8, 0xff, 0xff,
  0x00, 0x00, 0x00, 0x00, 0x00, 0x00, 0x00, 0x00, 0x00, 0x00, 0x00, 0x00,
  0x9c, 0xd8, 0xff, 0xff, 0x00, 0x00, 0x00, 0x00, 0x00, 0x00, 0x00, 0x00,
  0x00, 0x00, 0x00, 0x00, 0xac, 0xd8, 0xff, 0xff, 0x00, 0x00, 0x00, 0x00,
  0x00, 0x00, 0x00, 0x00, 0x00, 0x00, 0x00, 0x00, 0xbc, 0xd8, 0xff, 0xff,
  0x00, 0x00, 0x00, 0x00, 0x00, 0x00, 0x00, 0x00, 0x00, 0x00, 0x00, 0x00,
  0xcc, 0xd8, 0xff, 0xff, 0x00, 0x00, 0x00, 0x00, 0x00, 0x00, 0x00, 0x00,
  0x00, 0x00, 0x00, 0x00, 0xdc, 0xd8, 0xff, 0xff, 0x00, 0x00, 0x00, 0x00,
  0x00, 0x00, 0x00, 0x00, 0x00, 0x00, 0x00, 0x00, 0xec, 0xd8, 0xff, 0xff,
  0x00, 0x00, 0x00, 0x00, 0x00, 0x00, 0x00, 0x00, 0x00, 0x00, 0x00, 0x00,
  0xfc, 0xd8, 0xff, 0xff, 0x00, 0x00, 0x00, 0x00, 0xca, 0xf9, 0xff, 0xff,
  0x04, 0x00, 0x00, 0x00, 0x0c, 0x00, 0x00, 0x00, 0x01, 0x00, 0x00, 0x00,
  0xf9, 0x00, 0x00, 0x00, 0x01, 0x00, 0x00, 0x00, 0x1c, 0xd9, 0xff, 0xff,
  0x00, 0x00, 0x00, 0x00, 0x00, 0x00, 0x00, 0x00, 0x00, 0x00, 0x00, 0x00,
  0x2c, 0xd9, 0xff, 0xff, 0x00, 0x00, 0x00, 0x00, 0x00, 0x00, 0x00, 0x00,
  0x00, 0x00, 0x00, 0x00, 0x3c, 0xd9, 0xff, 0xff, 0x00, 0x00, 0x00, 0x00,
  0x00, 0x00, 0x00, 0x00, 0x00, 0x00, 0x00, 0x00, 0x0f, 0x00, 0x00, 0x00,
  0x54, 0x4f, 0x43, 0x4f, 0x20, 0x43, 0x6f, 0x6e, 0x76, 0x65, 0x72, 0x74,
  0x65, 0x64, 0x2e, 0x00, 0x01, 0x00, 0x00, 0x00, 0x04, 0x00, 0x00, 0x00,
  0xfc, 0xd8, 0xff, 0xff, 0x14, 0x06, 0x00, 0x00, 0x08, 0x06, 0x00, 0x00,
  0xfc, 0x05, 0x00, 0x00, 0x04, 0x00, 0x00, 0x00, 0x1a, 0x00, 0x00, 0x00,
  0xa0, 0x05, 0x00, 0x00, 0x3c, 0x05, 0x00, 0x00, 0x08, 0x05, 0x00, 0x00,
  0xa8, 0x04, 0x00, 0x00, 0x74, 0x04, 0x00, 0x00, 0x30, 0x04, 0x00, 0x00,
  0x0c, 0x04, 0x00, 0x00, 0xc8, 0x03, 0x00, 0x00, 0xa4, 0x03, 0x00, 0x00,
  0x60, 0x03, 0x00, 0x00, 0x3c, 0x03, 0x00, 0x00, 0xf8, 0x02, 0x00, 0x00,
  0xd4, 0x02, 0x00, 0x00, 0x88, 0x02, 0x00, 0x00, 0x54, 0x02, 0x00, 0x00,
  0x10, 0x02, 0x00, 0x00, 0xec, 0x01, 0x00, 0x00, 0xa8, 0x01, 0x00, 0x00,
  0x84, 0x01, 0x00, 0x00, 0x40, 0x01, 0x00, 0x00, 0x1c, 0x01, 0x00, 0x00,
  0xd8, 0x00, 0x00, 0x00, 0xb4, 0x00, 0x00, 0x00, 0x70, 0x00, 0x00, 0x00,
  0x4c, 0x00, 0x00, 0x00, 0x04, 0x00, 0x00, 0x00, 0x36, 0xfb, 0xff, 0xff,
  0x00, 0x00, 0x00, 0x11, 0x02, 0x00, 0x00, 0x00, 0x2c, 0x00, 0x00, 0x00,
  0x20, 0x00, 0x00, 0x00, 0x04, 0x00, 0x00, 0x00, 0xc6, 0xfa, 0xff, 0xff,
  0x04, 0x00, 0x00, 0x00, 0x03, 0x00, 0x00, 0x00, 0x01, 0x00, 0x00, 0x00,
  0xf9, 0x00, 0x00, 0x00, 0x01, 0x00, 0x00, 0x00, 0x01, 0x00, 0x00, 0x00,
  0x32, 0x00, 0x00, 0x00, 0x02, 0x00, 0x00, 0x00, 0x33, 0x00, 0x00, 0x00,
  0x10, 0x00, 0x00, 0x00, 0xa6, 0xfb, 0xff, 0xff, 0x03, 0x00, 0x00, 0x00,
  0x10, 0x00, 0x00, 0x00, 0x04, 0x00, 0x00, 0x00, 0x01, 0x00, 0x00, 0x00,
  0x33, 0x00, 0x00, 0x00, 0x01, 0x00, 0x00, 0x00, 0x0f, 0x00, 0x00, 0x00,
  0x26, 0xfc, 0xff, 0xff, 0x00, 0x00, 0x00, 0x01, 0x28, 0x00, 0x00, 0x00,
  0x1c, 0x00, 0x00, 0x00, 0x04, 0x00, 0x00, 0x00, 0x18, 0xfc, 0xff, 0xff,
  0x01, 0x00, 0x00, 0x00, 0x01, 0x00, 0x00, 0x00, 0x20, 0x00, 0x00, 0x00,
  0x20, 0x00, 0x00, 0x00, 0x01, 0x00, 0x00, 0x00, 0x0f, 0x00, 0x00, 0x00,
  0x03, 0x00, 0x00, 0x00, 0x0a, 0x00, 0x00, 0x00, 0x0e, 0x00, 0x00, 0x00,
  0x11, 0x00, 0x00, 0x00, 0x06, 0xfc, 0xff, 0xff, 0x03, 0x00, 0x00, 0x00,
  0x10, 0x00, 0x00, 0x00, 0x04, 0x00, 0x00, 0x00, 0x01, 0x00, 0x00, 0x00,
  0x0a, 0x00, 0x00, 0x00, 0x01, 0x00, 0x00, 0x00, 0x0c, 0x00, 0x00, 0x00,
  0x86, 0xfc, 0xff, 0xff, 0x00, 0x00, 0x00, 0x01, 0x28, 0x00, 0x00, 0x00,
  0x1c, 0x00, 0x00, 0x00, 0x04, 0x00, 0x00, 0x00, 0x78, 0xfc, 0xff, 0xff,
  0x01, 0x00, 0x00, 0x00, 0x01, 0x00, 0x00, 0x00, 0x10, 0x00, 0x00, 0x00,
  0x10, 0x00, 0x00, 0x00, 0x01, 0x00, 0x00, 0x00, 0x0c, 0x00, 0x00, 0x00,
  0x03, 0x00, 0x00, 0x00, 0x2e, 0x00, 0x00, 0x00, 0x0b, 0x00, 0x00, 0x00,
  0x0d, 0x00, 0x00, 0x00, 0x66, 0xfc, 0xff, 0xff, 0x03, 0x00, 0x00, 0x00,
  0x10, 0x00, 0x00, 0x00, 0x04, 0x00, 0x00, 0x00, 0x01, 0x00, 0x00, 0x00,
  0x2e, 0x00, 0x00, 0x00, 0x01, 0x00, 0x00, 0x00, 0x30, 0x00, 0x00, 0x00,
  0xe6, 0xfc, 0xff, 0xff, 0x00, 0x00, 0x00, 0x01, 0x28, 0x00, 0x00, 0x00,
  0x1c, 0x00, 0x00, 0x00, 0x04, 0x00, 0x00, 0x00, 0xd8, 0xfc, 0xff, 0xff,
  0x01, 0x00, 0x00, 0x00, 0x01, 0x00, 0x00, 0x00, 0x08, 0x00, 0x00, 0x00,
  0x08, 0x00, 0x00, 0x00, 0x01, 0x00, 0x00, 0x00, 0x30, 0x00, 0x00, 0x00,
  0x03, 0x00, 0x00, 0x00, 0x2a, 0x00, 0x00, 0x00, 0x2f, 0x00, 0x00, 0x00,
  0x31, 0x00, 0x00, 0x00, 0xc6, 0xfc, 0xff, 0xff, 0x03, 0x00, 0x00, 0x00,
  0x10, 0x00, 0x00, 0x00, 0x04, 0x00, 0x00, 0x00, 0x01, 0x00, 0x00, 0x00,
  0x2a, 0x00, 0x00, 0x00, 0x01, 0x00, 0x00, 0x00, 0x2c, 0x00, 0x00, 0x00,
  0x46, 0xfd, 0xff, 0xff, 0x00, 0x00, 0x00, 0x01, 0x28, 0x00, 0x00, 0x00,
  0x1c, 0x00, 0x00, 0x00, 0x04, 0x00, 0x00, 0x00, 0x38, 0xfd, 0xff, 0xff,
  0x01, 0x00, 0x00, 0x00, 0x01, 0x00, 0x00, 0x00, 0x04, 0x00, 0x00, 0x00,
  0x04, 0x00, 0x00, 0x00, 0x01, 0x00, 0x00, 0x00, 0x2c, 0x00, 0x00, 0x00,
  0x03, 0x00, 0x00, 0x00, 0x26, 0x00, 0x00, 0x00, 0x2b, 0x00, 0x00, 0x00,
  0x2d, 0x00, 0x00, 0x00, 0x26, 0xfd, 0xff, 0xff, 0x03, 0x00, 0x00, 0x00,
  0x10, 0x00, 0x00, 0x00, 0x04, 0x00, 0x00, 0x00, 0x01, 0x00, 0x00, 0x00,
  0x26, 0x00, 0x00, 0x00, 0x01, 0x00, 0x00, 0x00, 0x28, 0x00, 0x00, 0x00,
  0xa6, 0xfd, 0xff, 0xff, 0x00, 0x00, 0x00, 0x01, 0x28, 0x00, 0x00, 0x00,
  0x1c, 0x00, 0x00, 0x00, 0x04, 0x00, 0x00, 0x00, 0x98, 0xfd, 0xff, 0xff,
  0x01, 0x00, 0x00, 0x00, 0x01, 0x00, 0x00, 0x00, 0x02, 0x00, 0x00, 0x00,
  0x02, 0x00, 0x00, 0x00, 0x01, 0x00, 0x00, 0x00, 0x28, 0x00, 0x00, 0x00,
  0x03, 0x00, 0x00, 0x00, 0x22, 0x00, 0x00, 0x00, 0x27, 0x00, 0x00, 0x00,
  0x29, 0x00, 0x00, 0x00, 0x86, 0xfd, 0xff, 0xff, 0x03, 0x00, 0x00, 0x00,
  0x10, 0x00, 0x00, 0x00, 0x04, 0x00, 0x00, 0x00, 0x01, 0x00, 0x00, 0x00,
  0x22, 0x00, 0x00, 0x00, 0x01, 0x00, 0x00, 0x00, 0x24, 0x00, 0x00, 0x00,
  0x00, 0x00, 0x0e, 0x00, 0x16, 0x00, 0x00, 0x00, 0x08, 0x00, 0x0c, 0x00,
  0x07, 0x00, 0x10, 0x00, 0x0e, 0x00, 0x00, 0x00, 0x00, 0x00, 0x00, 0x01,
  0x30, 0x00, 0x00, 0x00, 0x24, 0x00, 0x00, 0x00, 0x10, 0x00, 0x00, 0x00,
  0x00, 0x00, 0x0a, 0x00, 0x10, 0x00, 0x07, 0x00, 0x08, 0x00, 0x0c, 0x00,
  0x0a, 0x00, 0x00, 0x00, 0x00, 0x00, 0x00, 0x01, 0x01, 0x00, 0x00, 0x00,
  0x01, 0x00, 0x00, 0x00, 0x01, 0x00, 0x00, 0x00, 0x24, 0x00, 0x00, 0x00,
  0x03, 0x00, 0x00, 0x00, 0x1e, 0x00, 0x00, 0x00, 0x23, 0x00, 0x00, 0x00,
  0x25, 0x00, 0x00, 0x00, 0xfe, 0xfd, 0xff, 0xff, 0x03, 0x00, 0x00, 0x00,
  0x10, 0x00, 0x00, 0x00, 0x04, 0x00, 0x00, 0x00, 0x01, 0x00, 0x00, 0x00,
  0x1e, 0x00, 0x00, 0x00, 0x01, 0x00, 0x00, 0x00, 0x20, 0x00, 0x00, 0x00,
  0x7e, 0xfe, 0xff, 0xff, 0x00, 0x00, 0x00, 0x01, 0x28, 0x00, 0x00, 0x00,
  0x1c, 0x00, 0x00, 0x00, 0x04, 0x00, 0x00, 0x00, 0x70, 0xfe, 0xff, 0xff,
  0x01, 0x00, 0x00, 0x00, 0x01, 0x00, 0x00, 0x00, 0x20, 0x00, 0x00, 0x00,
  0x20, 0x00, 0x00, 0x00, 0x01, 0x00, 0x00, 0x00, 0x20, 0x00, 0x00, 0x00,
  0x03, 0x00, 0x00, 0x00, 0x1a, 0x00, 0x00, 0x00, 0x1f, 0x00, 0x00, 0x00,
  0x21, 0x00, 0x00, 0x00, 0x5e, 0xfe, 0xff, 0xff, 0x03, 0x00, 0x00, 0x00,
  0x10, 0x00, 0x00, 0x00, 0x04, 0x00, 0x00, 0x00, 0x01, 0x00, 0x00, 0x00,
  0x1a, 0x00, 0x00, 0x00, 0x01, 0x00, 0x00, 0x00, 0x1c, 0x00, 0x00, 0x00,
  0xde, 0xfe, 0xff, 0xff, 0x00, 0x00, 0x00, 0x01, 0x28, 0x00, 0x00, 0x00,
  0x1c, 0x00, 0x00, 0x00, 0x04, 0x00, 0x00, 0x00, 0xd0, 0xfe, 0xff, 0xff,
  0x01, 0x00, 0x00, 0x00, 0x01, 0x00, 0x00, 0x00, 0x10, 0x00, 0x00, 0x00,
  0x10, 0x00, 0x00, 0x00, 0x01, 0x00, 0x00, 0x00, 0x1c, 0x00, 0x00, 0x00,
  0x03, 0x00, 0x00, 0x00, 0x16, 0x00, 0x00, 0x00, 0x1b, 0x00, 0x00, 0x00,
  0x1d, 0x00, 0x00, 0x00, 0xbe, 0xfe, 0xff, 0xff, 0x03, 0x00, 0x00, 0x00,
  0x10, 0x00, 0x00, 0x00, 0x04, 0x00, 0x00, 0x00, 0x01, 0x00, 0x00, 0x00,
  0x16, 0x00, 0x00, 0x00, 0x01, 0x00, 0x00, 0x00, 0x18, 0x00, 0x00, 0x00,
  0x3e, 0xff, 0xff, 0xff, 0x00, 0x00, 0x00, 0x01, 0x28, 0x00, 0x00, 0x00,
  0x1c, 0x00, 0x00, 0x00, 0x04, 0x00, 0x00, 0x00, 0x30, 0xff, 0xff, 0xff,
  0x01, 0x00, 0x00, 0x00, 0x01, 0x00, 0x00, 0x00, 0x08, 0x00, 0x00, 0x00,
  0x08, 0x00, 0x00, 0x00, 0x01, 0x00, 0x00, 0x00, 0x18, 0x00, 0x00, 0x00,
  0x03, 0x00, 0x00, 0x00, 0x12, 0x00, 0x00, 0x00, 0x17, 0x00, 0x00, 0x00,
  0x19, 0x00, 0x00, 0x00, 0x1e, 0xff, 0xff, 0xff, 0x03, 0x00, 0x00, 0x00,
  0x10, 0x00, 0x00, 0x00, 0x04, 0x00, 0x00, 0x00, 0x01, 0x00, 0x00, 0x00,
  0x12, 0x00, 0x00, 0x00, 0x01, 0x00, 0x00, 0x00, 0x14, 0x00, 0x00, 0x00,
  0x9e, 0xff, 0xff, 0xff, 0x00, 0x00, 0x00, 0x01, 0x28, 0x00, 0x00, 0x00,
  0x1c, 0x00, 0x00, 0x00, 0x04, 0x00, 0x00, 0x00, 0x90, 0xff, 0xff, 0xff,
  0x01, 0x00, 0x00, 0x00, 0x01, 0x00, 0x00, 0x00, 0x04, 0x00, 0x00, 0x00,
  0x04, 0x00, 0x00, 0x00, 0x01, 0x00, 0x00, 0x00, 0x14, 0x00, 0x00, 0x00,
  0x03, 0x00, 0x00, 0x00, 0x06, 0x00, 0x00, 0x00, 0x13, 0x00, 0x00, 0x00,
  0x15, 0x00, 0x00, 0x00, 0x7e, 0xff, 0xff, 0xff, 0x03, 0x00, 0x00, 0x00,
  0x10, 0x00, 0x00, 0x00, 0x04, 0x00, 0x00, 0x00, 0x01, 0x00, 0x00, 0x00,
  0x06, 0x00, 0x00, 0x00, 0x01, 0x00, 0x00, 0x00, 0x08, 0x00, 0x00, 0x00,
  0x00, 0x00, 0x0e, 0x00, 0x14, 0x00, 0x00, 0x00, 0x08, 0x00, 0x0c, 0x00,
  0x07, 0x00, 0x10, 0x00, 0x0e, 0x00, 0x00, 0x00, 0x00, 0x00, 0x00, 0x01,
  0x38, 0x00, 0x00, 0x00, 0x2c, 0x00, 0x00, 0x00, 0x14, 0x00, 0x00, 0x00,
  0x10, 0x00, 0x14, 0x00, 0x00, 0x00, 0x04, 0x00, 0x08, 0x00, 0x00, 0x00,
  0x0c, 0x00, 0x10, 0x00, 0x10, 0x00, 0x00, 0x00, 0x01, 0x00, 0x00, 0x00,
  0x01, 0x00, 0x00, 0x00, 0x02, 0x00, 0x00, 0x00, 0x02, 0x00, 0x00, 0x00,
  0x01, 0x00, 0x00, 0x00, 0x08, 0x00, 0x00, 0x00, 0x03, 0x00, 0x00, 0x00,
  0x00, 0x00, 0x00, 0x00, 0x07, 0x00, 0x00, 0x00, 0x09, 0x00, 0x00, 0x00,
  0x00, 0x00, 0x0a, 0x00, 0x10, 0x00, 0x04, 0x00, 0x08, 0x00, 0x0c, 0x00,
  0x0a, 0x00, 0x00, 0x00, 0x03, 0x00, 0x00, 0x00, 0x10, 0x00, 0x00, 0x00,
  0x04, 0x00, 0x00, 0x00, 0x01, 0x00, 0x00, 0x00, 0x00, 0x00, 0x00, 0x00,
  0x01, 0x00, 0x00, 0x00, 0x04, 0x00, 0x00, 0x00, 0x00, 0x00, 0x0e, 0x00,
  0x18, 0x00, 0x08, 0x00, 0x0c, 0x00, 0x10, 0x00, 0x07, 0x00, 0x14, 0x00,
  0x0e, 0x00, 0x00, 0x00, 0x00, 0x00, 0x00, 0x02, 0x01, 0x00, 0x00, 0x00,
  0x34, 0x00, 0x00, 0x00, 0x28, 0x00, 0x00, 0x00, 0x10, 0x00, 0x00, 0x00,
  0x0c, 0x00, 0x14, 0x00, 0x07, 0x00, 0x08, 0x00, 0x0c, 0x00, 0x10, 0x00,
  0x0c, 0x00, 0x00, 0x00, 0x00, 0x00, 0x00, 0x01, 0x01, 0x00, 0x00, 0x00,
  0x01, 0x00, 0x00, 0x00, 0x04, 0x00, 0x00, 0x00, 0x01, 0x00, 0x00, 0x00,
  0x04, 0x00, 0x00, 0x00, 0x03, 0x00, 0x00, 0x00, 0x01, 0x00, 0x00, 0x00,
  0x03, 0x00, 0x00, 0x00, 0x05, 0x00, 0x00, 0x00, 0x00, 0x00, 0x0e, 0x00,
  0x1a, 0x00, 0x08, 0x00, 0x0c, 0x00, 0x10, 0x00, 0x07, 0x00, 0x14, 0x00,
  0x0e, 0x00, 0x00, 0x00, 0x00, 0x00, 0x00, 0x11, 0x02, 0x00, 0x00, 0x00,
  0x38, 0x00, 0x00, 0x00, 0x2c, 0x00, 0x00, 0x00, 0x0c, 0x00, 0x00, 0x00,
  0x00, 0x00, 0x06, 0x00, 0x08, 0x00, 0x04, 0x00, 0x06, 0x00, 0x00, 0x00,
  0x04, 0x00, 0x00, 0x00, 0x04, 0x00, 0x00, 0x00, 0x01, 0x00, 0x00, 0x00,
  0x01, 0x00, 0x00, 0x00, 0xfd, 0x00, 0x00, 0x00, 0x01, 0x00, 0x00, 0x00,
  0x01, 0x00, 0x00, 0x00, 0x01, 0x00, 0x00, 0x00, 0x02, 0x00, 0x00, 0x00,
  0x34, 0x00, 0x00, 0x00, 0x02, 0x00, 0x00, 0x00, 0x01, 0x00, 0x00, 0x00,
  0x32, 0x00, 0x00, 0x00, 0x01, 0x00, 0x00, 0x00, 0x34, 0x00, 0x00, 0x00,
  0x35, 0x00, 0x00, 0x00, 0x88, 0x21, 0x00, 0x00, 0xcc, 0x20, 0x00, 0x00,
  0x5c, 0x20, 0x00, 0x00, 0x60, 0x1f, 0x00, 0x00, 0xac, 0x1e, 0x00, 0x00,
  0x10, 0x1e, 0x00, 0x00, 0x8c, 0x1d, 0x00, 0x00, 0xa8, 0x1c, 0x00, 0x00,
  0x04, 0x1c, 0x00, 0x00, 0x68, 0x1b, 0x00, 0x00, 0xe4, 0x1a, 0x00, 0x00,
  0x00, 0x1a, 0x00, 0x00, 0x5c, 0x19, 0x00, 0x00, 0xb8, 0x18, 0x00, 0x00,
  0x0c, 0x18, 0x00, 0x00, 0x68, 0x17, 0x00, 0x00, 0x00, 0x17, 0x00, 0x00,
  0x80, 0x16, 0x00, 0x00, 0xfc, 0x15, 0x00, 0x00, 0x18, 0x15, 0x00, 0x00,
  0x74, 0x14, 0x00, 0x00, 0xd8, 0x13, 0x00, 0x00, 0x54, 0x13, 0x00, 0x00,
  0x70, 0x12, 0x00, 0x00, 0xcc, 0x11, 0x00, 0x00, 0x30, 0x11, 0x00, 0x00,
  0xac, 0x10, 0x00, 0x00, 0xc8, 0x0f, 0x00, 0x00, 0x24, 0x0f, 0x00, 0x00,
  0x88, 0x0e, 0x00, 0x00, 0x04, 0x0e, 0x00, 0x00, 0x20, 0x0d, 0x00, 0x00,
  0x7c, 0x0c, 0x00, 0x00, 0xe0, 0x0b, 0x00, 0x00, 0x5c, 0x0b, 0x00, 0x00,
  0x78, 0x0a, 0x00, 0x00, 0xd4, 0x09, 0x00, 0x00, 0x38, 0x09, 0x00, 0x00,
  0xb4, 0x08, 0x00, 0x00, 0xd0, 0x07, 0x00, 0x00, 0x2c, 0x07, 0x00, 0x00,
  0x90, 0x06, 0x00, 0x00, 0x0c, 0x06, 0x00, 0x00, 0x28, 0x05, 0x00, 0x00,
  0x84, 0x04, 0x00, 0x00, 0xe8, 0x03, 0x00, 0x00, 0x64, 0x03, 0x00, 0x00,
  0x80, 0x02, 0x00, 0x00, 0xdc, 0x01, 0x00, 0x00, 0x40, 0x01, 0x00, 0x00,
  0xe4, 0x00, 0x00, 0x00, 0x78, 0x00, 0x00, 0x00, 0x04, 0x00, 0x00, 0x00,
  0x5a, 0xdf, 0xff, 0xff, 0x00, 0x00, 0x00, 0x09, 0x58, 0x00, 0x00, 0x00,
  0x26, 0x00, 0x00, 0x00, 0x44, 0x00, 0x00, 0x00, 0x04, 0x00, 0x00, 0x00,
  0x04, 0xe0, 0xff, 0xff, 0x30, 0x00, 0x00, 0x00, 0x24, 0x00, 0x00, 0x00,
  0x18, 0x00, 0x00, 0x00, 0x04, 0x00, 0x00, 0x00, 0x01, 0x00, 0x00, 0x00,
  0x0a, 0x00, 0x00, 0x00, 0x00, 0x00, 0x00, 0x00, 0x00, 0x00, 0x00, 0x00,
  0x01, 0x00, 0x00, 0x00, 0x21, 0x21, 0x55, 0x3b, 0x01, 0x00, 0x00, 0x00,
  0x00, 0xcc, 0xc2, 0x3e, 0x01, 0x00, 0x00, 0x00, 0x00, 0xcc, 0xe5, 0xbe,
  0x07, 0x00, 0x00, 0x00, 0x69, 0x6e, 0x70, 0x75, 0x74, 0x5f, 0x31, 0x00,
  0x03, 0x00, 0x00, 0x00, 0x01, 0x00, 0x00, 0x00, 0xfd, 0x00, 0x00, 0x00,
  0x01, 0x00, 0x00, 0x00, 0xca, 0xdf, 0xff, 0xff, 0x00, 0x00, 0x00, 0x09,
  0x4c, 0x00, 0x00, 0x00, 0x02, 0x00, 0x00, 0x00, 0x2c, 0x00, 0x00, 0x00,
  0x04, 0x00, 0x00, 0x00, 0xbc, 0xdf, 0xff, 0xff, 0x18, 0x00, 0x00, 0x00,
  0x04, 0x00, 0x00, 0x00, 0x01, 0x00, 0x00, 0x00, 0x00, 0x00, 0x00, 0x00,
  0x00, 0x00, 0x00, 0x00, 0x00, 0x00, 0x00, 0x00, 0x01, 0x00, 0x00, 0x00,
  0x00, 0x00, 0x00, 0x3c, 0x10, 0x00, 0x00, 0x00, 0x49, 0x64, 0x65, 0x6e,
  0x74, 0x69, 0x74, 0x79, 0x5f, 0x72, 0x65, 0x6f, 0x72, 0x64, 0x65, 0x72,
  0x00, 0x00, 0x00, 0x00, 0x04, 0x00, 0x00, 0x00, 0x01, 0x00, 0x00, 0x00,
  0x01, 0x00, 0x00, 0x00, 0xf9, 0x00, 0x00, 0x00, 0x01, 0x00, 0x00, 0x00,
  0x32, 0xe0, 0xff, 0xff, 0x00, 0x00, 0x00, 0x09, 0x40, 0x00, 0x00, 0x00,
  0x01, 0x00, 0x00, 0x00, 0x28, 0x00, 0x00, 0x00, 0x04, 0x00, 0x00, 0x00,
  0x24, 0xe0, 0xff, 0xff, 0x14, 0x00, 0x00, 0x00, 0x04, 0x00, 0x00, 0x00,
  0x01, 0x00, 0x00, 0x00, 0x00, 0x00, 0x00, 0x00, 0x00, 0x00, 0x00, 0x00,
  0x01, 0x00, 0x00, 0x00, 0x00, 0x00, 0x00, 0x3c, 0x08, 0x00, 0x00, 0x00,
  0x49, 0x64, 0x65, 0x6e, 0x74, 0x69, 0x74, 0x79, 0x00, 0x00, 0x00, 0x00,
  0x03, 0x00, 0x00, 0x00, 0x01, 0x00, 0x00, 0x00, 0xf9, 0x00, 0x00, 0x00,
  0x01, 0x00, 0x00, 0x00, 0x8a, 0xe0, 0xff, 0xff, 0x00, 0x00, 0x00, 0x02,
  0x88, 0x00, 0x00, 0x00, 0x0e, 0x00, 0x00, 0x00, 0x4c, 0x00, 0x00, 0x00,
  0x04, 0x00, 0x00, 0x00, 0x7c, 0xe0, 0xff, 0xff, 0x2c, 0x00, 0x00, 0x00,
  0x04, 0x00, 0x00, 0x00, 0x04, 0x00, 0x00, 0x00, 0x00, 0x00, 0x00, 0x00,
  0x00, 0x00, 0x00, 0x00, 0x00, 0x00, 0x00, 0x00, 0x00, 0x00, 0x00, 0x00,
  0x00, 0x00, 0x00, 0x00, 0x00, 0x00, 0x00, 0x00, 0x00, 0x00, 0x00, 0x00,
  0x00, 0x00, 0x00, 0x00, 0x04, 0x00, 0x00, 0x00, 0x19, 0x67, 0x0b, 0x38,
  0xb9, 0x0e, 0xd4, 0x37, 0xf6, 0xe7, 0x1d, 0x38, 0x2f, 0xee, 0xe1, 0x37,
  0x2f, 0x00, 0x00, 0x00, 0x30, 0x34, 0x5f, 0x4f, 0x72, 0x61, 0x6e, 0x67,
  0x65, 0x4d, 0x69, 0x63, 0x72, 0x6f, 0x44, 0x61, 0x72, 0x6b, 0x5f, 0x57,
  0x4e, 0x31, 0x32, 0x5f, 0x76, 0x31, 0x2f, 0x63, 0x6f, 0x6e, 0x76, 0x31,
  0x64, 0x5f, 0x39, 0x2f, 0x63, 0x6f, 0x6e, 0x76, 0x31, 0x64, 0x5f, 0x62,
  0x69, 0x61, 0x73, 0x00, 0x01, 0x00, 0x00, 0x00, 0x04, 0x00, 0x00, 0x00,
  0x22, 0xe1, 0xff, 0xff, 0x00, 0x00, 0x00, 0x09, 0x84, 0x00, 0x00, 0x00,
  0x34, 0x00, 0x00, 0x00, 0x44, 0x00, 0x00, 0x00, 0x04, 0x00, 0x00, 0x00,
  0xcc, 0xe1, 0xff, 0xff, 0x30, 0x00, 0x00, 0x00, 0x24, 0x00, 0x00, 0x00,
  0x18, 0x00, 0x00, 0x00, 0x04, 0x00, 0x00, 0x00, 0x01, 0x00, 0x00, 0x00,
  0x02, 0x00, 0x00, 0x00, 0x00, 0x00, 0x00, 0x00, 0x00, 0x00, 0x00, 0x00,
  0x01, 0x00, 0x00, 0x00, 0x3e, 0x8e, 0x12, 0x3c, 0x01, 0x00, 0x00, 0x00,
  0x83, 0xed, 0x8e, 0x3f, 0x01, 0x00, 0x00, 0x00, 0xde, 0x09, 0x95, 0xbf,
  0x32, 0x00, 0x00, 0x00, 0x30, 0x34, 0x5f, 0x4f, 0x72, 0x61, 0x6e, 0x67,
  0x65, 0x4d, 0x69, 0x63, 0x72, 0x6f, 0x44, 0x61, 0x72, 0x6b, 0x5f, 0x57,
  0x4e, 0x31, 0x32, 0x5f, 0x76, 0x31, 0x2f, 0x63, 0x6f, 0x6e, 0x76, 0x31,
  0x64, 0x5f, 0x39, 0x2f, 0x63, 0x6f, 0x6e, 0x76, 0x31, 0x64, 0x2f, 0x53,
  0x71, 0x75, 0x65, 0x65, 0x7a, 0x65, 0x00, 0x00, 0x04, 0x00, 0x00, 0x00,
  0x01, 0x00, 0x00, 0x00, 0x01, 0x00, 0x00, 0x00, 0xf9, 0x00, 0x00, 0x00,
  0x04, 0x00, 0x00, 0x00, 0xc2, 0xe1, 0xff, 0xff, 0x00, 0x00, 0x00, 0x09,
  0xc4, 0x00, 0x00, 0x00, 0x0f, 0x00, 0x00, 0x00, 0x80, 0x00, 0x00, 0x00,
  0x04, 0x00, 0x00, 0x00, 0x6c, 0xe2, 0xff, 0xff, 0x60, 0x00, 0x00, 0x00,
  0x48, 0x00, 0x00, 0x00, 0x30, 0x00, 0x00, 0x00, 0x04, 0x00, 0x00, 0x00,
  0x04, 0x00, 0x00, 0x00, 0x00, 0x00, 0x00, 0x00, 0x00, 0x00, 0x00, 0x00,
  0x00, 0x00, 0x00, 0x00, 0x00, 0x00, 0x00, 0x00, 0x00, 0x00, 0x00, 0x00,
  0x00, 0x00, 0x00, 0x00, 0x00, 0x00, 0x00, 0x00, 0x00, 0x00, 0x00, 0x00,
  0x00, 0x00, 0x00, 0x00, 0x04, 0x00, 0x00, 0x00, 0x19, 0x67, 0x8b, 0x3b,
  0xb9, 0x0e, 0x54, 0x3b, 0xf6, 0xe7, 0x9d, 0x3b, 0x2f, 0xee, 0x61, 0x3b,
  0x04, 0x00, 0x00, 0x00, 0x85, 0xae, 0xc2, 0x3e, 0x9c, 0x66, 0xd2, 0x3e,
  0x8d, 0x7b, 0x99, 0x3e, 0x53, 0x2a, 0xe0, 0x3e, 0x04, 0x00, 0x00, 0x00,
  0x4b, 0x50, 0x0a, 0xbf, 0xc7, 0x3e, 0x9f, 0xbe, 0x26, 0xac, 0x1c, 0xbf,
  0x14, 0x1b, 0xad, 0xbe, 0x37, 0x00, 0x00, 0x00, 0x30, 0x34, 0x5f, 0x4f,
  0x72, 0x61, 0x6e, 0x67, 0x65, 0x4d, 0x69, 0x63, 0x72, 0x6f, 0x44, 0x61,
  0x72, 0x6b, 0x5f, 0x57, 0x4e, 0x31, 0x32, 0x5f, 0x76, 0x31, 0x2f, 0x63,
  0x6f, 0x6e, 0x76, 0x31, 0x64, 0x5f, 0x39, 0x2f, 0x63, 0x6f, 0x6e, 0x76,
  0x31, 0x64, 0x2f, 0x45, 0x78, 0x70, 0x61, 0x6e, 0x64, 0x44, 0x69, 0x6d,
  0x73, 0x5f, 0x31, 0x00, 0x04, 0x00, 0x00, 0x00, 0x04, 0x00, 0x00, 0x00,
  0x01, 0x00, 0x00, 0x00, 0x03, 0x00, 0x00, 0x00, 0x04, 0x00, 0x00, 0x00,
  0xa2, 0xe2, 0xff, 0xff, 0x00, 0x00, 0x00, 0x09, 0x64, 0x00, 0x00, 0x00,
  0x05, 0x00, 0x00, 0x00, 0x2c, 0x00, 0x00, 0x00, 0x04, 0x00, 0x00, 0x00,
  0x94, 0xe2, 0xff, 0xff, 0x18, 0x00, 0x00, 0x00, 0x04, 0x00, 0x00, 0x00,
  0x01, 0x00, 0x00, 0x00, 0x00, 0x00, 0x00, 0x00, 0x00, 0x00, 0x00, 0x00,
  0x00, 0x00, 0x00, 0x00, 0x01, 0x00, 0x00, 0x00, 0x00, 0x00, 0x00, 0x3c,
  0x28, 0x00, 0x00, 0x00, 0x30, 0x34, 0x5f, 0x4f, 0x72, 0x61, 0x6e, 0x67,
  0x65, 0x4d, 0x69, 0x63, 0x72, 0x6f, 0x44, 0x61, 0x72, 0x6b, 0x5f, 0x57,
  0x4e, 0x31, 0x32, 0x5f, 0x76, 0x31, 0x2f, 0x63, 0x6f, 0x6e, 0x76, 0x31,
  0x64, 0x5f, 0x39, 0x2f, 0x54, 0x61, 0x6e, 0x68, 0x00, 0x00, 0x00, 0x00,
  0x04, 0x00, 0x00, 0x00, 0x01, 0x00, 0x00, 0x00, 0x01, 0x00, 0x00, 0x00,
  0xf9, 0x00, 0x00, 0x00, 0x04, 0x00, 0x00, 0x00, 0x22, 0xe3, 0xff, 0xff,
  0x00, 0x00, 0x00, 0x02, 0x88, 0x00, 0x00, 0x00, 0x23, 0x00, 0x00, 0x00,
  0x4c, 0x00, 0x00, 0x00, 0x04, 0x00, 0x00, 0x00, 0x14, 0xe3, 0xff, 0xff,
  0x2c, 0x00, 0x00, 0x00, 0x04, 0x00, 0x00, 0x00, 0x04, 0x00, 0x00, 0x00,
  0x00, 0x00, 0x00, 0x00, 0x00, 0x00, 0x00, 0x00, 0x00, 0x00, 0x00, 0x00,
  0x00, 0x00, 0x00, 0x00, 0x00, 0x00, 0x00, 0x00, 0x00, 0x00, 0x00, 0x00,
  0x00, 0x00, 0x00, 0x00, 0x00, 0x00, 0x00, 0x00, 0x04, 0x00, 0x00, 0x00,
  0x70, 0x4e, 0x02, 0x38, 0x1e, 0x3f, 0xf3, 0x37, 0xe6, 0x1a, 0x15, 0x38,
  0xbe, 0xbe, 0xa0, 0x37, 0x2f, 0x00, 0x00, 0x00, 0x30, 0x34, 0x5f, 0x4f,
  0x72, 0x61, 0x6e, 0x67, 0x65, 0x4d, 0x69, 0x63, 0x72, 0x6f, 0x44, 0x61,
  0x72, 0x6b, 0x5f, 0x57, 0x4e, 0x31, 0x32, 0x5f, 0x76, 0x31, 0x2f, 0x63,
  0x6f, 0x6e, 0x76, 0x31, 0x64, 0x5f, 0x38, 0x2f, 0x63, 0x6f, 0x6e, 0x76,
  0x31, 0x64, 0x5f, 0x62, 0x69, 0x61, 0x73, 0x00, 0x01, 0x00, 0x00, 0x00,
  0x04, 0x00, 0x00, 0x00, 0xba, 0xe3, 0xff, 0xff, 0x00, 0x00, 0x00, 0x09,
  0x84, 0x00, 0x00, 0x00, 0x33, 0x00, 0x00, 0x00, 0x44, 0x00, 0x00, 0x00,
  0x04, 0x00, 0x00, 0x00, 0x64, 0xe4, 0xff, 0xff, 0x30, 0x00, 0x00, 0x00,
  0x24, 0x00, 0x00, 0x00, 0x18, 0x00, 0x00, 0x00, 0x04, 0x00, 0x00, 0x00,
  0x01, 0x00, 0x00, 0x00, 0xfe, 0xff, 0xff, 0xff, 0xff, 0xff, 0xff, 0xff,
  0x00, 0x00, 0x00, 0x00, 0x01, 0x00, 0x00, 0x00, 0x53, 0x09, 0x26, 0x3c,
  0x01, 0x00, 0x00, 0x00, 0xf5, 0xde, 0xa6, 0x3f, 0x01, 0x00, 0x00, 0x00,
  0xa0, 0xe7, 0xa3, 0xbf, 0x32, 0x00, 0x00, 0x00, 0x30, 0x34, 0x5f, 0x4f,
  0x72, 0x61, 0x6e, 0x67, 0x65, 0x4d, 0x69, 0x63, 0x72, 0x6f, 0x44, 0x61,
  0x72, 0x6b, 0x5f, 0x57, 0x4e, 0x31, 0x32, 0x5f, 0x76, 0x31, 0x2f, 0x63,
  0x6f, 0x6e, 0x76, 0x31, 0x64, 0x5f, 0x38, 0x2f, 0x63, 0x6f, 0x6e, 0x76,
  0x31, 0x64, 0x2f, 0x53, 0x71, 0x75, 0x65, 0x65, 0x7a, 0x65, 0x00, 0x00,
  0x04, 0x00, 0x00, 0x00, 0x01, 0x00, 0x00, 0x00, 0x01, 0x00, 0x00, 0x00,
  0xf9, 0x00, 0x00, 0x00, 0x04, 0x00, 0x00, 0x00, 0x5a, 0xe4, 0xff, 0xff,
  0x00, 0x00, 0x00, 0x09, 0xc4, 0x00, 0x00, 0x00, 0x10, 0x00, 0x00, 0x00,
  0x80, 0x00, 0x00, 0x00, 0x04, 0x00, 0x00, 0x00, 0x04, 0xe5, 0xff, 0xff,
  0x60, 0x00, 0x00, 0x00, 0x48, 0x00, 0x00, 0x00, 0x30, 0x00, 0x00, 0x00,
  0x04, 0x00, 0x00, 0x00, 0x04, 0x00, 0x00, 0x00, 0x00, 0x00, 0x00, 0x00,
  0x00, 0x00, 0x00, 0x00, 0x00, 0x00, 0x00, 0x00, 0x00, 0x00, 0x00, 0x00,
  0x00, 0x00, 0x00, 0x00, 0x00, 0x00, 0x00, 0x00, 0x00, 0x00, 0x00, 0x00,
  0x00, 0x00, 0x00, 0x00, 0x00, 0x00, 0x00, 0x00, 0x04, 0x00, 0x00, 0x00,
  0x70, 0x4e, 0x82, 0x3b, 0x1e, 0x3f, 0x73, 0x3b, 0xe6, 0x1a, 0x95, 0x3b,
  0xbe, 0xbe, 0x20, 0x3b, 0x04, 0x00, 0x00, 0x00, 0x73, 0xa7, 0x2c, 0x3e,
  0x6c, 0x14, 0xcd, 0x3e, 0xb0, 0xf0, 0x13, 0x3f, 0xa2, 0x80, 0x65, 0x3e,
  0x04, 0x00, 0x00, 0x00, 0xd3, 0x49, 0x01, 0xbf, 0xa0, 0x58, 0xf1, 0xbe,
  0x5d, 0x52, 0x94, 0xbe, 0x41, 0x7d, 0x9f, 0xbe, 0x37, 0x00, 0x00, 0x00,
  0x30, 0x34, 0x5f, 0x4f, 0x72, 0x61, 0x6e, 0x67, 0x65, 0x4d, 0x69, 0x63,
  0x72, 0x6f, 0x44, 0x61, 0x72, 0x6b, 0x5f, 0x57, 0x4e, 0x31, 0x32, 0x5f,
  0x76, 0x31, 0x2f, 0x63, 0x6f, 0x6e, 0x76, 0x31, 0x64, 0x5f, 0x38, 0x2f,
  0x63, 0x6f, 0x6e, 0x76, 0x31, 0x64, 0x2f, 0x45, 0x78, 0x70, 0x61, 0x6e,
  0x64, 0x44, 0x69, 0x6d, 0x73, 0x5f, 0x31, 0x00, 0x04, 0x00, 0x00, 0x00,
  0x04, 0x00, 0x00, 0x00, 0x01, 0x00, 0x00, 0x00, 0x03, 0x00, 0x00, 0x00,
  0x04, 0x00, 0x00, 0x00, 0x3a, 0xe5, 0xff, 0xff, 0x00, 0x00, 0x00, 0x09,
  0x64, 0x00, 0x00, 0x00, 0x06, 0x00, 0x00, 0x00, 0x2c, 0x00, 0x00, 0x00,
  0x04, 0x00, 0x00, 0x00, 0x2c, 0xe5, 0xff, 0xff, 0x18, 0x00, 0x00, 0x00,
  0x04, 0x00, 0x00, 0x00, 0x01, 0x00, 0x00, 0x00, 0x00, 0x00, 0x00, 0x00,
  0x00, 0x00, 0x00, 0x00, 0x00, 0x00, 0x00, 0x00, 0x01, 0x00, 0x00, 0x00,
  0x00, 0x00, 0x00, 0x3c, 0x28, 0x00, 0x00, 0x00, 0x30, 0x34, 0x5f, 0x4f,
  0x72, 0x61, 0x6e, 0x67, 0x65, 0x4d, 0x69, 0x63, 0x72, 0x6f, 0x44, 0x61,
  0x72, 0x6b, 0x5f, 0x57, 0x4e, 0x31, 0x32, 0x5f, 0x76, 0x31, 0x2f, 0x63,
  0x6f, 0x6e, 0x76, 0x31, 0x64, 0x5f, 0x38, 0x2f, 0x54, 0x61, 0x6e, 0x68,
  0x00, 0x00, 0x00, 0x00, 0x04, 0x00, 0x00, 0x00, 0x01, 0x00, 0x00, 0x00,
  0x01, 0x00, 0x00, 0x00, 0xf9, 0x00, 0x00, 0x00, 0x04, 0x00, 0x00, 0x00,
  0xba, 0xe5, 0xff, 0xff, 0x00, 0x00, 0x00, 0x02, 0x88, 0x00, 0x00, 0x00,
  0x11, 0x00, 0x00, 0x00, 0x4c, 0x00, 0x00, 0x00, 0x04, 0x00, 0x00, 0x00,
  0xac, 0xe5, 0xff, 0xff, 0x2c, 0x00, 0x00, 0x00, 0x04, 0x00, 0x00, 0x00,
  0x04, 0x00, 0x00, 0x00, 0x00, 0x00, 0x00, 0x00, 0x00, 0x00, 0x00, 0x00,
  0x00, 0x00, 0x00, 0x00, 0x00, 0x00, 0x00, 0x00, 0x00, 0x00, 0x00, 0x00,
  0x00, 0x00, 0x00, 0x00, 0x00, 0x00, 0x00, 0x00, 0x00, 0x00, 0x00, 0x00,
  0x04, 0x00, 0x00, 0x00, 0x4e, 0x36, 0x02, 0x38, 0xc8, 0x13, 0x9a, 0x37,
  0x9b, 0xb9, 0x02, 0x38, 0x28, 0xba, 0xe0, 0x37, 0x2f, 0x00, 0x00, 0x00,
  0x30, 0x34, 0x5f, 0x4f, 0x72, 0x61, 0x6e, 0x67, 0x65, 0x4d, 0x69, 0x63,
  0x72, 0x6f, 0x44, 0x61, 0x72, 0x6b, 0x5f, 0x57, 0x4e, 0x31, 0x32, 0x5f,
  0x76, 0x31, 0x2f, 0x63, 0x6f, 0x6e, 0x76, 0x31, 0x64, 0x5f, 0x37, 0x2f,
  0x63, 0x6f, 0x6e, 0x76, 0x31, 0x64, 0x5f, 0x62, 0x69, 0x61, 0x73, 0x00,
  0x01, 0x00, 0x00, 0x00, 0x04, 0x00, 0x00, 0x00, 0x52, 0xe6, 0xff, 0xff,
  0x00, 0x00, 0x00, 0x09, 0x84, 0x00, 0x00, 0x00, 0x32, 0x00, 0x00, 0x00,
  0x44, 0x00, 0x00, 0x00, 0x04, 0x00, 0x00, 0x00, 0xfc, 0xe6, 0xff, 0xff,
  0x30, 0x00, 0x00, 0x00, 0x24, 0x00, 0x00, 0x00, 0x18, 0x00, 0x00, 0x00,
  0x04, 0x00, 0x00, 0x00, 0x01, 0x00, 0x00, 0x00, 0x02, 0x00, 0x00, 0x00,
  0x00, 0x00, 0x00, 0x00, 0x00, 0x00, 0x00, 0x00, 0x01, 0x00, 0x00, 0x00,
  0xe6, 0x70, 0x35, 0x3c, 0x01, 0x00, 0x00, 0x00, 0xba, 0x53, 0xb1, 0x3f,
  0x01, 0x00, 0x00, 0x00, 0x30, 0x23, 0xb8, 0xbf, 0x32, 0x00, 0x00, 0x00,
  0x30, 0x34, 0x5f, 0x4f, 0x72, 0x61, 0x6e, 0x67, 0x65, 0x4d, 0x69, 0x63,
  0x72, 0x6f, 0x44, 0x61, 0x72, 0x6b, 0x5f, 0x57, 0x4e, 0x31, 0x32, 0x5f,
  0x76, 0x31, 0x2f, 0x63, 0x6f, 0x6e, 0x76, 0x31, 0x64, 0x5f, 0x37, 0x2f,
  0x63, 0x6f, 0x6e, 0x76, 0x31, 0x64, 0x2f, 0x53, 0x71, 0x75, 0x65, 0x65,
  0x7a, 0x65, 0x00, 0x00, 0x04, 0x00, 0x00, 0x00, 0x01, 0x00, 0x00, 0x00,
  0x01, 0x00, 0x00, 0x00, 0xf9, 0x00, 0x00, 0x00, 0x04, 0x00, 0x00, 0x00,
  0xf2, 0xe6, 0xff, 0xff, 0x00, 0x00, 0x00, 0x09, 0xc4, 0x00, 0x00, 0x00,
  0x12, 0x00, 0x00, 0x00, 0x80, 0x00, 0x00, 0x00, 0x04, 0x00, 0x00, 0x00,
  0x9c, 0xe7, 0xff, 0xff, 0x60, 0x00, 0x00, 0x00, 0x48, 0x00, 0x00, 0x00,
  0x30, 0x00, 0x00, 0x00, 0x04, 0x00, 0x00, 0x00, 0x04, 0x00, 0x00, 0x00,
  0x00, 0x00, 0x00, 0x00, 0x00, 0x00, 0x00, 0x00, 0x00, 0x00, 0x00, 0x00,
  0x00, 0x00, 0x00, 0x00, 0x00, 0x00, 0x00, 0x00, 0x00, 0x00, 0x00, 0x00,
  0x00, 0x00, 0x00, 0x00, 0x00, 0x00, 0x00, 0x00, 0x00, 0x00, 0x00, 0x00,
  0x04, 0x00, 0x00, 0x00, 0x4e, 0x36, 0x82, 0x3b, 0xc8, 0x13, 0x1a, 0x3b,
  0x9b, 0xb9, 0x82, 0x3b, 0x28, 0xba, 0x60, 0x3b, 0x04, 0x00, 0x00, 0x00,
  0x35, 0x0b, 0x95, 0x3e, 0xa0, 0xdf, 0x98, 0x3e, 0xa0, 0x19, 0xe8, 0x3e,
  0xc9, 0xd7, 0xd9, 0x3e, 0x04, 0x00, 0x00, 0x00, 0xe1, 0x31, 0x01, 0xbf,
  0x1a, 0xcf, 0x78, 0xbe, 0x28, 0xb4, 0x01, 0xbf, 0xb4, 0xf8, 0xde, 0xbe,
  0x37, 0x00, 0x00, 0x00, 0x30, 0x34, 0x5f, 0x4f, 0x72, 0x61, 0x6e, 0x67,
  0x65, 0x4d, 0x69, 0x63, 0x72, 0x6f, 0x44, 0x61, 0x72, 0x6b, 0x5f, 0x57,
  0x4e, 0x31, 0x32, 0x5f, 0x76, 0x31, 0x2f, 0x63, 0x6f, 0x6e, 0x76, 0x31,
  0x64, 0x5f, 0x37, 0x2f, 0x63, 0x6f, 0x6e, 0x76, 0x31, 0x64, 0x2f, 0x45,
  0x78, 0x70, 0x61, 0x6e, 0x64, 0x44, 0x69, 0x6d, 0x73, 0x5f, 0x31, 0x00,
  0x04, 0x00, 0x00, 0x00, 0x04, 0x00, 0x00, 0x00, 0x01, 0x00, 0x00, 0x00,
  0x03, 0x00, 0x00, 0x00, 0x04, 0x00, 0x00, 0x00, 0xd2, 0xe7, 0xff, 0xff,
  0x00, 0x00, 0x00, 0x09, 0x64, 0x00, 0x00, 0x00, 0x07, 0x00, 0x00, 0x00,
  0x2c, 0x00, 0x00, 0x00, 0x04, 0x00, 0x00, 0x00, 0xc4, 0xe7, 0xff, 0xff,
  0x18, 0x00, 0x00, 0x00, 0x04, 0x00, 0x00, 0x00, 0x01, 0x00, 0x00, 0x00,
  0x00, 0x00, 0x00, 0x00, 0x00, 0x00, 0x00, 0x00, 0x00, 0x00, 0x00, 0x00,
  0x01, 0x00, 0x00, 0x00, 0x00, 0x00, 0x00, 0x3c, 0x28, 0x00, 0x00, 0x00,
  0x30, 0x34, 0x5f, 0x4f, 0x72, 0x61, 0x6e, 0x67, 0x65, 0x4d, 0x69, 0x63,
  0x72, 0x6f, 0x44, 0x61, 0x72, 0x6b, 0x5f, 0x57, 0x4e, 0x31, 0x32, 0x5f,
  0x76, 0x31, 0x2f, 0x63, 0x6f, 0x6e, 0x76, 0x31, 0x64, 0x5f, 0x37, 0x2f,
  0x54, 0x61, 0x6e, 0x68, 0x00, 0x00, 0x00, 0x00, 0x04, 0x00, 0x00, 0x00,
  0x01, 0x00, 0x00, 0x00, 0x01, 0x00, 0x00, 0x00, 0xf9, 0x00, 0x00, 0x00,
  0x04, 0x00, 0x00, 0x00, 0x52, 0xe8, 0xff, 0xff, 0x00, 0x00, 0x00, 0x02,
  0x88, 0x00, 0x00, 0x00, 0x13, 0x00, 0x00, 0x00, 0x4c, 0x00, 0x00, 0x00,
  0x04, 0x00, 0x00, 0x00, 0x44, 0xe8, 0xff, 0xff, 0x2c, 0x00, 0x00, 0x00,
  0x04, 0x00, 0x00, 0x00, 0x04, 0x00, 0x00, 0x00, 0x00, 0x00, 0x00, 0x00,
  0x00, 0x00, 0x00, 0x00, 0x00, 0x00, 0x00, 0x00, 0x00, 0x00, 0x00, 0x00,
  0x00, 0x00, 0x00, 0x00, 0x00, 0x00, 0x00, 0x00, 0x00, 0x00, 0x00, 0x00,
  0x00, 0x00, 0x00, 0x00, 0x04, 0x00, 0x00, 0x00, 0x89, 0x92, 0x27, 0x38,
  0xde, 0x04, 0x3a, 0x38, 0xf6, 0x19, 0xee, 0x37, 0x89, 0xe8, 0xdc, 0x37,
  0x2f, 0x00, 0x00, 0x00, 0x30, 0x34, 0x5f, 0x4f, 0x72, 0x61, 0x6e, 0x67,
  0x65, 0x4d, 0x69, 0x63, 0x72, 0x6f, 0x44, 0x61, 0x72, 0x6b, 0x5f, 0x57,
  0x4e, 0x31, 0x32, 0x5f, 0x76, 0x31, 0x2f, 0x63, 0x6f, 0x6e, 0x76, 0x31,
  0x64, 0x5f, 0x36, 0x2f, 0x63, 0x6f, 0x6e, 0x76, 0x31, 0x64, 0x5f, 0x62,
  0x69, 0x61, 0x73, 0x00, 0x01, 0x00, 0x00, 0x00, 0x04, 0x00, 0x00, 0x00,
  0xea, 0xe8, 0xff, 0xff, 0x00, 0x00, 0x00, 0x09, 0x84, 0x00, 0x00, 0x00,
  0x25, 0x00, 0x00, 0x00, 0x44, 0x00, 0x00, 0x00, 0x04, 0x00, 0x00, 0x00,
  0x94, 0xe9, 0xff, 0xff, 0x30, 0x00, 0x00, 0x00, 0x24, 0x00, 0x00, 0x00,
  0x18, 0x00, 0x00, 0x00, 0x04, 0x00, 0x00, 0x00, 0x01, 0x00, 0x00, 0x00,
  0xf8, 0xff, 0xff, 0xff, 0xff, 0xff, 0xff, 0xff, 0x00, 0x00, 0x00, 0x00,
  0x01, 0x00, 0x00, 0x00, 0x25, 0x1f, 0xa4, 0x3c, 0x01, 0x00, 0x00, 0x00,
  0xfb, 0xf3, 0x2c, 0x40, 0x01, 0x00, 0x00, 0x00, 0x10, 0x02, 0x1a, 0xc0,
  0x32, 0x00, 0x00, 0x00, 0x30, 0x34, 0x5f, 0x4f, 0x72, 0x61, 0x6e, 0x67,
  0x65, 0x4d, 0x69, 0x63, 0x72, 0x6f, 0x44, 0x61, 0x72, 0x6b, 0x5f, 0x57,
  0x4e, 0x31, 0x32, 0x5f, 0x76, 0x31, 0x2f, 0x63, 0x6f, 0x6e, 0x76, 0x31,
  0x64, 0x5f, 0x36, 0x2f, 0x63, 0x6f, 0x6e, 0x76, 0x31, 0x64, 0x2f, 0x53,
  0x71, 0x75, 0x65, 0x65, 0x7a, 0x65, 0x00, 0x00, 0x04, 0x00, 0x00, 0x00,
  0x01, 0x00, 0x00, 0x00, 0x01, 0x00, 0x00, 0x00, 0xf9, 0x00, 0x00, 0x00,
  0x04, 0x00, 0x00, 0x00, 0x8a, 0xe9, 0xff, 0xff, 0x00, 0x00, 0x00, 0x09,
  0xc4, 0x00, 0x00, 0x00, 0x14, 0x00, 0x00, 0x00, 0x80, 0x00, 0x00, 0x00,
  0x04, 0x00, 0x00, 0x00, 0x34, 0xea, 0xff, 0xff, 0x60, 0x00, 0x00, 0x00,
  0x48, 0x00, 0x00, 0x00, 0x30, 0x00, 0x00, 0x00, 0x04, 0x00, 0x00, 0x00,
  0x04, 0x00, 0x00, 0x00, 0x00, 0x00, 0x00, 0x00, 0x00, 0x00, 0x00, 0x00,
  0x00, 0x00, 0x00, 0x00, 0x00, 0x00, 0x00, 0x00, 0x00, 0x00, 0x00, 0x00,
  0x00, 0x00, 0x00, 0x00, 0x00, 0x00, 0x00, 0x00, 0x00, 0x00, 0x00, 0x00,
  0x00, 0x00, 0x00, 0x00, 0x04, 0x00, 0x00, 0x00, 0x89, 0x92, 0xa7, 0x3b,
  0xde, 0x04, 0xba, 0x3b, 0xf6, 0x19, 0x6e, 0x3b, 0x89, 0xe8, 0x5c, 0x3b,
  0x04, 0x00, 0x00, 0x00, 0x3d, 0xbe, 0x08, 0x3f, 0xd4, 0x90, 0x38, 0x3f,
  0x04, 0xdb, 0x24, 0x3e, 0xb8, 0x2e, 0xdb, 0x3e, 0x04, 0x00, 0x00, 0x00,
  0x64, 0x43, 0x26, 0xbf, 0x63, 0xba, 0x0b, 0xbf, 0xc2, 0x3d, 0xec, 0xbe,
  0x58, 0xc1, 0xb9, 0xbe, 0x37, 0x00, 0x00, 0x00, 0x30, 0x34, 0x5f, 0x4f,
  0x72, 0x61, 0x6e, 0x67, 0x65, 0x4d, 0x69, 0x63, 0x72, 0x6f, 0x44, 0x61,
  0x72, 0x6b, 0x5f, 0x57, 0x4e, 0x31, 0x32, 0x5f, 0x76, 0x31, 0x2f, 0x63,
  0x6f, 0x6e, 0x76, 0x31, 0x64, 0x5f, 0x36, 0x2f, 0x63, 0x6f, 0x6e, 0x76,
  0x31, 0x64, 0x2f, 0x45, 0x78, 0x70, 0x61, 0x6e, 0x64, 0x44, 0x69, 0x6d,
  0x73, 0x5f, 0x31, 0x00, 0x04, 0x00, 0x00, 0x00, 0x04, 0x00, 0x00, 0x00,
  0x01, 0x00, 0x00, 0x00, 0x03, 0x00, 0x00, 0x00, 0x04, 0x00, 0x00, 0x00,
  0x6a, 0xea, 0xff, 0xff, 0x00, 0x00, 0x00, 0x09, 0x64, 0x00, 0x00, 0x00,
  0x08, 0x00, 0x00, 0x00, 0x2c, 0x00, 0x00, 0x00, 0x04, 0x00, 0x00, 0x00,
  0x5c, 0xea, 0xff, 0xff, 0x18, 0x00, 0x00, 0x00, 0x04, 0x00, 0x00, 0x00,
  0x01, 0x00, 0x00, 0x00, 0x00, 0x00, 0x00, 0x00, 0x00, 0x00, 0x00, 0x00,
  0x00, 0x00, 0x00, 0x00, 0x01, 0x00, 0x00, 0x00, 0x00, 0x00, 0x00, 0x3c,
  0x28, 0x00, 0x00, 0x00, 0x30, 0x34, 0x5f, 0x4f, 0x72, 0x61, 0x6e, 0x67,
  0x65, 0x4d, 0x69, 0x63, 0x72, 0x6f, 0x44, 0x61, 0x72, 0x6b, 0x5f, 0x57,
  0x4e, 0x31, 0x32, 0x5f, 0x76, 0x31, 0x2f, 0x63, 0x6f, 0x6e, 0x76, 0x31,
  0x64, 0x5f, 0x36, 0x2f, 0x54, 0x61, 0x6e, 0x68, 0x00, 0x00, 0x00, 0x00,
  0x04, 0x00, 0x00, 0x00, 0x01, 0x00, 0x00, 0x00, 0x01, 0x00, 0x00, 0x00,
  0xf9, 0x00, 0x00, 0x00, 0x04, 0x00, 0x00, 0x00, 0xea, 0xea, 0xff, 0xff,
  0x00, 0x00, 0x00, 0x02, 0x88, 0x00, 0x00, 0x00, 0x15, 0x00, 0x00, 0x00,
  0x4c, 0x00, 0x00, 0x00, 0x04, 0x00, 0x00, 0x00, 0xdc, 0xea, 0xff, 0xff,
  0x2c, 0x00, 0x00, 0x00, 0x04, 0x00, 0x00, 0x00, 0x04, 0x00, 0x00, 0x00,
  0x00, 0x00, 0x00, 0x00, 0x00, 0x00, 0x00, 0x00, 0x00, 0x00, 0x00, 0x00,
  0x00, 0x00, 0x00, 0x00, 0x00, 0x00, 0x00, 0x00, 0x00, 0x00, 0x00, 0x00,
  0x00, 0x00, 0x00, 0x00, 0x00, 0x00, 0x00, 0x00, 0x04, 0x00, 0x00, 0x00,
  0xcd, 0x77, 0x2d, 0x39, 0x81, 0x4b, 0x9c, 0x38, 0xfb, 0xb9, 0x84, 0x38,
  0x64, 0x33, 0xfd, 0x37, 0x2f, 0x00, 0x00, 0x00, 0x30, 0x34, 0x5f, 0x4f,
  0x72, 0x61, 0x6e, 0x67, 0x65, 0x4d, 0x69, 0x63, 0x72, 0x6f, 0x44, 0x61,
  0x72, 0x6b, 0x5f, 0x57, 0x4e, 0x31, 0x32, 0x5f, 0x76, 0x31, 0x2f, 0x63,
  0x6f, 0x6e, 0x76, 0x31, 0x64, 0x5f, 0x35, 0x2f, 0x63, 0x6f, 0x6e, 0x76,
  0x31, 0x64, 0x5f, 0x62, 0x69, 0x61, 0x73, 0x00, 0x01, 0x00, 0x00, 0x00,
  0x04, 0x00, 0x00, 0x00, 0x82, 0xeb, 0xff, 0xff, 0x00, 0x00, 0x00, 0x09,
  0x84, 0x00, 0x00, 0x00, 0x2c, 0x00, 0x00, 0x00, 0x44, 0x00, 0x00, 0x00,
  0x04, 0x00, 0x00, 0x00, 0x2c, 0xec, 0xff, 0xff, 0x30, 0x00, 0x00, 0x00,
  0x24, 0x00, 0x00, 0x00, 0x18, 0x00, 0x00, 0x00, 0x04, 0x00, 0x00, 0x00,
  0x01, 0x00, 0x00, 0x00, 0x06, 0x00, 0x00, 0x00, 0x00, 0x00, 0x00, 0x00,
  0x00, 0x00, 0x00, 0x00, 0x01, 0x00, 0x00, 0x00, 0xab, 0xe8, 0x15, 0x3d,
  0x01, 0x00, 0x00, 0x00, 0x0d, 0xf5, 0x8d, 0x40, 0x01, 0x00, 0x00, 0x00,
  0x78, 0xb0, 0x9c, 0xc0, 0x32, 0x00, 0x00, 0x00, 0x30, 0x34, 0x5f, 0x4f,
  0x72, 0x61, 0x6e, 0x67, 0x65, 0x4d, 0x69, 0x63, 0x72, 0x6f, 0x44, 0x61,
  0x72, 0x6b, 0x5f, 0x57, 0x4e, 0x31, 0x32, 0x5f, 0x76, 0x31, 0x2f, 0x63,
  0x6f, 0x6e, 0x76, 0x31, 0x64, 0x5f, 0x35, 0x2f, 0x63, 0x6f, 0x6e, 0x76,
  0x31, 0x64, 0x2f, 0x53, 0x71, 0x75, 0x65, 0x65, 0x7a, 0x65, 0x00, 0x00,
  0x04, 0x00, 0x00, 0x00, 0x01, 0x00, 0x00, 0x00, 0x01, 0x00, 0x00, 0x00,
  0xfb, 0x00, 0x00, 0x00, 0x04, 0x00, 0x00, 0x00, 0x22, 0xec, 0xff, 0xff,
  0x00, 0x00, 0x00, 0x09, 0xc4, 0x00, 0x00, 0x00, 0x16, 0x00, 0x00, 0x00,
  0x80, 0x00, 0x00, 0x00, 0x04, 0x00, 0x00, 0x00, 0xcc, 0xec, 0xff, 0xff,
  0x60, 0x00, 0x00, 0x00, 0x48, 0x00, 0x00, 0x00, 0x30, 0x00, 0x00, 0x00,
  0x04, 0x00, 0x00, 0x00, 0x04, 0x00, 0x00, 0x00, 0x00, 0x00, 0x00, 0x00,
  0x00, 0x00, 0x00, 0x00, 0x00, 0x00, 0x00, 0x00, 0x00, 0x00, 0x00, 0x00,
  0x00, 0x00, 0x00, 0x00, 0x00, 0x00, 0x00, 0x00, 0x00, 0x00, 0x00, 0x00,
  0x00, 0x00, 0x00, 0x00, 0x00, 0x00, 0x00, 0x00, 0x04, 0x00, 0x00, 0x00,
  0xcd, 0x77, 0xad, 0x3c, 0x81, 0x4b, 0x1c, 0x3c, 0xfb, 0xb9, 0x04, 0x3c,
  0x64, 0x33, 0x7d, 0x3b, 0x04, 0x00, 0x00, 0x00, 0xa6, 0x5e, 0x42, 0x3f,
  0xea, 0x12, 0x9b, 0x3f, 0x20, 0x39, 0xc7, 0x3e, 0xfd, 0x38, 0xfb, 0x3e,
  0x04, 0x00, 0x00, 0x00, 0xdd, 0x1c, 0x2c, 0xc0, 0x4a, 0xce, 0x72, 0xbf,
  0x87, 0xb0, 0x83, 0xbf, 0x09, 0x67, 0x4c, 0x3d, 0x37, 0x00, 0x00, 0x00,
  0x30, 0x34, 0x5f, 0x4f, 0x72, 0x61, 0x6e, 0x67, 0x65, 0x4d, 0x69, 0x63,
  0x72, 0x6f, 0x44, 0x61, 0x72, 0x6b, 0x5f, 0x57, 0x4e, 0x31, 0x32, 0x5f,
  0x76, 0x31, 0x2f, 0x63, 0x6f, 0x6e, 0x76, 0x31, 0x64, 0x5f, 0x35, 0x2f,
  0x63, 0x6f, 0x6e, 0x76, 0x31, 0x64, 0x2f, 0x45, 0x78, 0x70, 0x61, 0x6e,
  0x64, 0x44, 0x69, 0x6d, 0x73, 0x5f, 0x31, 0x00, 0x04, 0x00, 0x00, 0x00,
  0x04, 0x00, 0x00, 0x00, 0x01, 0x00, 0x00, 0x00, 0x03, 0x00, 0x00, 0x00,
  0x04, 0x00, 0x00, 0x00, 0x02, 0xed, 0xff, 0xff, 0x00, 0x00, 0x00, 0x09,
  0x64, 0x00, 0x00, 0x00, 0x09, 0x00, 0x00, 0x00, 0x2c, 0x00, 0x00, 0x00,
  0x04, 0x00, 0x00, 0x00, 0xf4, 0xec, 0xff, 0xff, 0x18, 0x00, 0x00, 0x00,
  0x04, 0x00, 0x00, 0x00, 0x01, 0x00, 0x00, 0x00, 0x00, 0x00, 0x00, 0x00,
  0x00, 0x00, 0x00, 0x00, 0x00, 0x00, 0x00, 0x00, 0x01, 0x00, 0x00, 0x00,
  0x00, 0x00, 0x00, 0x3c, 0x28, 0x00, 0x00, 0x00, 0x30, 0x34, 0x5f, 0x4f,
  0x72, 0x61, 0x6e, 0x67, 0x65, 0x4d, 0x69, 0x63, 0x72, 0x6f, 0x44, 0x61,
  0x72, 0x6b, 0x5f, 0x57, 0x4e, 0x31, 0x32, 0x5f, 0x76, 0x31, 0x2f, 0x63,
  0x6f, 0x6e, 0x76, 0x31, 0x64, 0x5f, 0x35, 0x2f, 0x54, 0x61, 0x6e, 0x68,
  0x00, 0x00, 0x00, 0x00, 0x04, 0x00, 0x00, 0x00, 0x01, 0x00, 0x00, 0x00,
  0x01, 0x00, 0x00, 0x00, 0xfb, 0x00, 0x00, 0x00, 0x04, 0x00, 0x00, 0x00,
  0x82, 0xed, 0xff, 0xff, 0x00, 0x00, 0x00, 0x02, 0x88, 0x00, 0x00, 0x00,
  0x17, 0x00, 0x00, 0x00, 0x4c, 0x00, 0x00, 0x00, 0x04, 0x00, 0x00, 0x00,
  0x74, 0xed, 0xff, 0xff, 0x2c, 0x00, 0x00, 0x00, 0x04, 0x00, 0x00, 0x00,
  0x04, 0x00, 0x00, 0x00, 0x00, 0x00, 0x00, 0x00, 0x00, 0x00, 0x00, 0x00,
  0x00, 0x00, 0x00, 0x00, 0x00, 0x00, 0x00, 0x00, 0x00, 0x00, 0x00, 0x00,
  0x00, 0x00, 0x00, 0x00, 0x00, 0x00, 0x00, 0x00, 0x00, 0x00, 0x00, 0x00,
  0x04, 0x00, 0x00, 0x00, 0x3c, 0x02, 0x9d, 0x38, 0xab, 0x1f, 0x41, 0x38,
  0x11, 0xed, 0x9a, 0x38, 0x00, 0x7b, 0x1a, 0x38, 0x2f, 0x00, 0x00, 0x00,
  0x30, 0x34, 0x5f, 0x4f, 0x72, 0x61, 0x6e, 0x67, 0x65, 0x4d, 0x69, 0x63,
  0x72, 0x6f, 0x44, 0x61, 0x72, 0x6b, 0x5f, 0x57, 0x4e, 0x31, 0x32, 0x5f,
  0x76, 0x31, 0x2f, 0x63, 0x6f, 0x6e, 0x76, 0x31, 0x64, 0x5f, 0x34, 0x2f,
  0x63, 0x6f, 0x6e, 0x76, 0x31, 0x64, 0x5f, 0x62, 0x69, 0x61, 0x73, 0x00,
  0x01, 0x00, 0x00, 0x00, 0x04, 0x00, 0x00, 0x00, 0x1a, 0xee, 0xff, 0xff,
  0x00, 0x00, 0x00, 0x09, 0x84, 0x00, 0x00, 0x00, 0x31, 0x00, 0x00, 0x00,
  0x44, 0x00, 0x00, 0x00, 0x04, 0x00, 0x00, 0x00, 0xc4, 0xee, 0xff, 0xff,
  0x30, 0x00, 0x00, 0x00, 0x24, 0x00, 0x00, 0x00, 0x18, 0x00, 0x00, 0x00,
  0x04, 0x00, 0x00, 0x00, 0x01, 0x00, 0x00, 0x00, 0x02, 0x00, 0x00, 0x00,
  0x00, 0x00, 0x00, 0x00, 0x00, 0x00, 0x00, 0x00, 0x01, 0x00, 0x00, 0x00,
  0x84, 0x6f, 0x05, 0x3d, 0x01, 0x00, 0x00, 0x00, 0x9d, 0x94, 0x82, 0x40,
  0x01, 0x00, 0x00, 0x00, 0x8b, 0x3f, 0x87, 0xc0, 0x32, 0x00, 0x00, 0x00,
  0x30, 0x34, 0x5f, 0x4f, 0x72, 0x61, 0x6e, 0x67, 0x65, 0x4d, 0x69, 0x63,
  0x72, 0x6f, 0x44, 0x61, 0x72, 0x6b, 0x5f, 0x57, 0x4e, 0x31, 0x32, 0x5f,
  0x76, 0x31, 0x2f, 0x63, 0x6f, 0x6e, 0x76, 0x31, 0x64, 0x5f, 0x34, 0x2f,
  0x63, 0x6f, 0x6e, 0x76, 0x31, 0x64, 0x2f, 0x53, 0x71, 0x75, 0x65, 0x65,
  0x7a, 0x65, 0x00, 0x00, 0x04, 0x00, 0x00, 0x00, 0x01, 0x00, 0x00, 0x00,
  0x01, 0x00, 0x00, 0x00, 0xfb, 0x00, 0x00, 0x00, 0x04, 0x00, 0x00, 0x00,
  0xba, 0xee, 0xff, 0xff, 0x00, 0x00, 0x00, 0x09, 0xc4, 0x00, 0x00, 0x00,
  0x18, 0x00, 0x00, 0x00, 0x80, 0x00, 0x00, 0x00, 0x04, 0x00, 0x00, 0x00,
  0x64, 0xef, 0xff, 0xff, 0x60, 0x00, 0x00, 0x00, 0x48, 0x00, 0x00, 0x00,
  0x30, 0x00, 0x00, 0x00, 0x04, 0x00, 0x00, 0x00, 0x04, 0x00, 0x00, 0x00,
  0x00, 0x00, 0x00, 0x00, 0x00, 0x00, 0x00, 0x00, 0x00, 0x00, 0x00, 0x00,
  0x00, 0x00, 0x00, 0x00, 0x00, 0x00, 0x00, 0x00, 0x00, 0x00, 0x00, 0x00,
  0x00, 0x00, 0x00, 0x00, 0x00, 0x00, 0x00, 0x00, 0x00, 0x00, 0x00, 0x00,
  0x04, 0x00, 0x00, 0x00, 0x3c, 0x02, 0x1d, 0x3c, 0xab, 0x1f, 0xc1, 0x3b,
  0x11, 0xed, 0x1a, 0x3c, 0x00, 0x7b, 0x9a, 0x3b, 0x04, 0x00, 0x00, 0x00,
  0x38, 0xc8, 0x9b, 0x3f, 0x6c, 0x9d, 0x3f, 0x3f, 0x6a, 0xbc, 0xf9, 0x3e,
  0x0a, 0x46, 0x19, 0x3f, 0x04, 0x00, 0x00, 0x00, 0x57, 0x94, 0x02, 0xbf,
  0xf2, 0x12, 0xf0, 0xbe, 0x37, 0xb7, 0x99, 0xbf, 0xa3, 0xc4, 0xc8, 0xbe,
  0x37, 0x00, 0x00, 0x00, 0x30, 0x34, 0x5f, 0x4f, 0x72, 0x61, 0x6e, 0x67,
  0x65, 0x4d, 0x69, 0x63, 0x72, 0x6f, 0x44, 0x61, 0x72, 0x6b, 0x5f, 0x57,
  0x4e, 0x31, 0x32, 0x5f, 0x76, 0x31, 0x2f, 0x63, 0x6f, 0x6e, 0x76, 0x31,
  0x64, 0x5f, 0x34, 0x2f, 0x63, 0x6f, 0x6e, 0x76, 0x31, 0x64, 0x2f, 0x45,
  0x78, 0x70, 0x61, 0x6e, 0x64, 0x44, 0x69, 0x6d, 0x73, 0x5f, 0x31, 0x00,
  0x04, 0x00, 0x00, 0x00, 0x04, 0x00, 0x00, 0x00, 0x01, 0x00, 0x00, 0x00,
  0x03, 0x00, 0x00, 0x00, 0x04, 0x00, 0x00, 0x00, 0x9a, 0xef, 0xff, 0xff,
  0x00, 0x00, 0x00, 0x09, 0x64, 0x00, 0x00, 0x00, 0x0a, 0x00, 0x00, 0x00,
  0x2c, 0x00, 0x00, 0x00, 0x04, 0x00, 0x00, 0x00, 0x8c, 0xef, 0xff, 0xff,
  0x18, 0x00, 0x00, 0x00, 0x04, 0x00, 0x00, 0x00, 0x01, 0x00, 0x00, 0x00,
  0x00, 0x00, 0x00, 0x00, 0x00, 0x00, 0x00, 0x00, 0x00, 0x00, 0x00, 0x00,
  0x01, 0x00, 0x00, 0x00, 0x00, 0x00, 0x00, 0x3c, 0x28, 0x00, 0x00, 0x00,
  0x30, 0x34, 0x5f, 0x4f, 0x72, 0x61, 0x6e, 0x67, 0x65, 0x4d, 0x69, 0x63,
  0x72, 0x6f, 0x44, 0x61, 0x72, 0x6b, 0x5f, 0x57, 0x4e, 0x31, 0x32, 0x5f,
  0x76, 0x31, 0x2f, 0x63, 0x6f, 0x6e, 0x76, 0x31, 0x64, 0x5f, 0x34, 0x2f,
  0x54, 0x61, 0x6e, 0x68, 0x00, 0x00, 0x00, 0x00, 0x04, 0x00, 0x00, 0x00,
  0x01, 0x00, 0x00, 0x00, 0x01, 0x00, 0x00, 0x00, 0xfb, 0x00, 0x00, 0x00,
  0x04, 0x00, 0x00, 0x00, 0x1a, 0xf0, 0xff, 0xff, 0x00, 0x00, 0x00, 0x02,
  0x88, 0x00, 0x00, 0x00, 0x2f, 0x00, 0x00, 0x00, 0x4c, 0x00, 0x00, 0x00,
  0x04, 0x00, 0x00, 0x00, 0x0c, 0xf0, 0xff, 0xff, 0x2c, 0x00, 0x00, 0x00,
  0x04, 0x00, 0x00, 0x00, 0x04, 0x00, 0x00, 0x00, 0x00, 0x00, 0x00, 0x00,
  0x00, 0x00, 0x00, 0x00, 0x00, 0x00, 0x00, 0x00, 0x00, 0x00, 0x00, 0x00,
  0x00, 0x00, 0x00, 0x00, 0x00, 0x00, 0x00, 0x00, 0x00, 0x00, 0x00, 0x00,
  0x00, 0x00, 0x00, 0x00, 0x04, 0x00, 0x00, 0x00, 0x2a, 0xcc, 0x8f, 0x38,
  0x4b, 0x09, 0x54, 0x38, 0x04, 0x22, 0x95, 0x38, 0xc2, 0xd2, 0x44, 0x38,
  0x2f, 0x00, 0x00, 0x00, 0x30, 0x34, 0x5f, 0x4f, 0x72, 0x61, 0x6e, 0x67,
  0x65, 0x4d, 0x69, 0x63, 0x72, 0x6f, 0x44, 0x61, 0x72, 0x6b, 0x5f, 0x57,
  0x4e, 0x31, 0x32, 0x5f, 0x76, 0x31, 0x2f, 0x63, 0x6f, 0x6e, 0x76, 0x31,
  0x64, 0x5f, 0x33, 0x2f, 0x63, 0x6f, 0x6e, 0x76, 0x31, 0x64, 0x5f, 0x62,
  0x69, 0x61, 0x73, 0x00, 0x01, 0x00, 0x00, 0x00, 0x04, 0x00, 0x00, 0x00,
  0xb2, 0xf0, 0xff, 0xff, 0x00, 0x00, 0x00, 0x09, 0x84, 0x00, 0x00, 0x00,
  0x24, 0x00, 0x00, 0x00, 0x44, 0x00, 0x00, 0x00, 0x04, 0x00, 0x00, 0x00,
  0x5c, 0xf1, 0xff, 0xff, 0x30, 0x00, 0x00, 0x00, 0x24, 0x00, 0x00, 0x00,
  0x18, 0x00, 0x00, 0x00, 0x04, 0x00, 0x00, 0x00, 0x01, 0x00, 0x00, 0x00,
  0xfe, 0xff, 0xff, 0xff, 0xff, 0xff, 0xff, 0xff, 0x00, 0x00, 0x00, 0x00,
  0x01, 0x00, 0x00, 0x00, 0x43, 0x4f, 0x1a, 0x3d, 0x01, 0x00, 0x00, 0x00,
  0x45, 0xc5, 0x9b, 0x40, 0x01, 0x00, 0x00, 0x00, 0xa2, 0xa4, 0x97, 0xc0,
  0x32, 0x00, 0x00, 0x00, 0x30, 0x34, 0x5f, 0x4f, 0x72, 0x61, 0x6e, 0x67,
  0x65, 0x4d, 0x69, 0x63, 0x72, 0x6f, 0x44, 0x61, 0x72, 0x6b, 0x5f, 0x57,
  0x4e, 0x31, 0x32, 0x5f, 0x76, 0x31, 0x2f, 0x63, 0x6f, 0x6e, 0x76, 0x31,
  0x64, 0x5f, 0x33, 0x2f, 0x63, 0x6f, 0x6e, 0x76, 0x31, 0x64, 0x2f, 0x53,
  0x71, 0x75, 0x65, 0x65, 0x7a, 0x65, 0x00, 0x00, 0x04, 0x00, 0x00, 0x00,
  0x01, 0x00, 0x00, 0x00, 0x01, 0x00, 0x00, 0x00, 0xfb, 0x00, 0x00, 0x00,
  0x04, 0x00, 0x00, 0x00, 0x52, 0xf1, 0xff, 0xff, 0x00, 0x00, 0x00, 0x09,
  0xc4, 0x00, 0x00, 0x00, 0x19, 0x00, 0x00, 0x00, 0x80, 0x00, 0x00, 0x00,
  0x04, 0x00, 0x00, 0x00, 0xfc, 0xf1, 0xff, 0xff, 0x60, 0x00, 0x00, 0x00,
  0x48, 0x00, 0x00, 0x00, 0x30, 0x00, 0x00, 0x00, 0x04, 0x00, 0x00, 0x00,
  0x04, 0x00, 0x00, 0x00, 0x00, 0x00, 0x00, 0x00, 0x00, 0x00, 0x00, 0x00,
  0x00, 0x00, 0x00, 0x00, 0x00, 0x00, 0x00, 0x00, 0x00, 0x00, 0x00, 0x00,
  0x00, 0x00, 0x00, 0x00, 0x00, 0x00, 0x00, 0x00, 0x00, 0x00, 0x00, 0x00,
  0x00, 0x00, 0x00, 0x00, 0x04, 0x00, 0x00, 0x00, 0x2a, 0xcc, 0x0f, 0x3c,
  0x4b, 0x09, 0xd4, 0x3b, 0x04, 0x22, 0x15, 0x3c, 0xc2, 0xd2, 0xc4, 0x3b,
  0x04, 0x00, 0x00, 0x00, 0x30, 0x9e, 0x17, 0x3f, 0x38, 0x61, 0x52, 0x3f,
  0x88, 0x72, 0x80, 0x3f, 0x5b, 0x95, 0x42, 0x3f, 0x04, 0x00, 0x00, 0x00,
  0x92, 0xac, 0x8e, 0xbf, 0x4b, 0x99, 0xe8, 0xbe, 0xc0, 0xf7, 0x93, 0xbf,
  0x1c, 0x49, 0x43, 0xbf, 0x37, 0x00, 0x00, 0x00, 0x30, 0x34, 0x5f, 0x4f,
  0x72, 0x61, 0x6e, 0x67, 0x65, 0x4d, 0x69, 0x63, 0x72, 0x6f, 0x44, 0x61,
  0x72, 0x6b, 0x5f, 0x57, 0x4e, 0x31, 0x32, 0x5f, 0x76, 0x31, 0x2f, 0x63,
  0x6f, 0x6e, 0x76, 0x31, 0x64, 0x5f, 0x33, 0x2f, 0x63, 0x6f, 0x6e, 0x76,
  0x31, 0x64, 0x2f, 0x45, 0x78, 0x70, 0x61, 0x6e, 0x64, 0x44, 0x69, 0x6d,
  0x73, 0x5f, 0x31, 0x00, 0x04, 0x00, 0x00, 0x00, 0x04, 0x00, 0x00, 0x00,
  0x01, 0x00, 0x00, 0x00, 0x03, 0x00, 0x00, 0x00, 0x04, 0x00, 0x00, 0x00,
  0x32, 0xf2, 0xff, 0xff, 0x00, 0x00, 0x00, 0x09, 0x64, 0x00, 0x00, 0x00,
  0x0b, 0x00, 0x00, 0x00, 0x2c, 0x00, 0x00, 0x00, 0x04, 0x00, 0x00, 0x00,
  0x24, 0xf2, 0xff, 0xff, 0x18, 0x00, 0x00, 0x00, 0x04, 0x00, 0x00, 0x00,
  0x01, 0x00, 0x00, 0x00, 0x00, 0x00, 0x00, 0x00, 0x00, 0x00, 0x00, 0x00,
  0x00, 0x00, 0x00, 0x00, 0x01, 0x00, 0x00, 0x00, 0x00, 0x00, 0x00, 0x3c,
  0x28, 0x00, 0x00, 0x00, 0x30, 0x34, 0x5f, 0x4f, 0x72, 0x61, 0x6e, 0x67,
  0x65, 0x4d, 0x69, 0x63, 0x72, 0x6f, 0x44, 0x61, 0x72, 0x6b, 0x5f, 0x57,
  0x4e, 0x31, 0x32, 0x5f, 0x76, 0x31, 0x2f, 0x63, 0x6f, 0x6e, 0x76, 0x31,
  0x64, 0x5f, 0x33, 0x2f, 0x54, 0x61, 0x6e, 0x68, 0x00, 0x00, 0x00, 0x00,
  0x04, 0x00, 0x00, 0x00, 0x01, 0x00, 0x00, 0x00, 0x01, 0x00, 0x00, 0x00,
  0xfb, 0x00, 0x00, 0x00, 0x04, 0x00, 0x00, 0x00, 0xb2, 0xf2, 0xff, 0xff,
  0x00, 0x00, 0x00, 0x02, 0x88, 0x00, 0x00, 0x00, 0x1a, 0x00, 0x00, 0x00,
  0x4c, 0x00, 0x00, 0x00, 0x04, 0x00, 0x00, 0x00, 0xa4, 0xf2, 0xff, 0xff,
  0x2c, 0x00, 0x00, 0x00, 0x04, 0x00, 0x00, 0x00, 0x04, 0x00, 0x00, 0x00,
  0x00, 0x00, 0x00, 0x00, 0x00, 0x00, 0x00, 0x00, 0x00, 0x00, 0x00, 0x00,
  0x00, 0x00, 0x00, 0x00, 0x00, 0x00, 0x00, 0x00, 0x00, 0x00, 0x00, 0x00,
  0x00, 0x00, 0x00, 0x00, 0x00, 0x00, 0x00, 0x00, 0x04, 0x00, 0x00, 0x00,
  0x71, 0x1e, 0x59, 0x38, 0xb4, 0xf7, 0xd5, 0x37, 0xa8, 0xf3, 0x6b, 0x38,
  0xf1, 0x15, 0x22, 0x38, 0x2f, 0x00, 0x00, 0x00, 0x30, 0x34, 0x5f, 0x4f,
  0x72, 0x61, 0x6e, 0x67, 0x65, 0x4d, 0x69, 0x63, 0x72, 0x6f, 0x44, 0x61,
  0x72, 0x6b, 0x5f, 0x57, 0x4e, 0x31, 0x32, 0x5f, 0x76, 0x31, 0x2f, 0x63,
  0x6f, 0x6e, 0x76, 0x31, 0x64, 0x5f, 0x32, 0x2f, 0x63, 0x6f, 0x6e, 0x76,
  0x31, 0x64, 0x5f, 0x62, 0x69, 0x61, 0x73, 0x00, 0x01, 0x00, 0x00, 0x00,
  0x04, 0x00, 0x00, 0x00, 0x4a, 0xf3, 0xff, 0xff, 0x00, 0x00, 0x00, 0x09,
  0x84, 0x00, 0x00, 0x00, 0x2d, 0x00, 0x00, 0x00, 0x44, 0x00, 0x00, 0x00,
  0x04, 0x00, 0x00, 0x00, 0xf4, 0xf3, 0xff, 0xff, 0x30, 0x00, 0x00, 0x00,
  0x24, 0x00, 0x00, 0x00, 0x18, 0x00, 0x00, 0x00, 0x04, 0x00, 0x00, 0x00,
  0x01, 0x00, 0x00, 0x00, 0x02, 0x00, 0x00, 0x00, 0x00, 0x00, 0x00, 0x00,
  0x00, 0x00, 0x00, 0x00, 0x01, 0x00, 0x00, 0x00, 0x83, 0x98, 0xf9, 0x3c,
  0x01, 0x00, 0x00, 0x00, 0xc7, 0x3e, 0x73, 0x40, 0x01, 0x00, 0x00, 0x00,
  0x0c, 0xff, 0x7d, 0xc0, 0x32, 0x00, 0x00, 0x00, 0x30, 0x34, 0x5f, 0x4f,
  0x72, 0x61, 0x6e, 0x67, 0x65, 0x4d, 0x69, 0x63, 0x72, 0x6f, 0x44, 0x61,
  0x72, 0x6b, 0x5f, 0x57, 0x4e, 0x31, 0x32, 0x5f, 0x76, 0x31, 0x2f, 0x63,
  0x6f, 0x6e, 0x76, 0x31, 0x64, 0x5f, 0x32, 0x2f, 0x63, 0x6f, 0x6e, 0x76,
  0x31, 0x64, 0x2f, 0x53, 0x71, 0x75, 0x65, 0x65, 0x7a, 0x65, 0x00, 0x00,
  0x04, 0x00, 0x00, 0x00, 0x01, 0x00, 0x00, 0x00, 0x01, 0x00, 0x00, 0x00,
  0xfb, 0x00, 0x00, 0x00, 0x04, 0x00, 0x00, 0x00, 0xea, 0xf3, 0xff, 0xff,
  0x00, 0x00, 0x00, 0x09, 0xc4, 0x00, 0x00, 0x00, 0x1b, 0x00, 0x00, 0x00,
  0x80, 0x00, 0x00, 0x00, 0x04, 0x00, 0x00, 0x00, 0x94, 0xf4, 0xff, 0xff,
  0x60, 0x00, 0x00, 0x00, 0x48, 0x00, 0x00, 0x00, 0x30, 0x00, 0x00, 0x00,
  0x04, 0x00, 0x00, 0x00, 0x04, 0x00, 0x00, 0x00, 0x00, 0x00, 0x00, 0x00,
  0x00, 0x00, 0x00, 0x00, 0x00, 0x00, 0x00, 0x00, 0x00, 0x00, 0x00, 0x00,
  0x00, 0x00, 0x00, 0x00, 0x00, 0x00, 0x00, 0x00, 0x00, 0x00, 0x00, 0x00,
  0x00, 0x00, 0x00, 0x00, 0x00, 0x00, 0x00, 0x00, 0x04, 0x00, 0x00, 0x00,
  0x71, 0x1e, 0xd9, 0x3b, 0xb4, 0xf7, 0x55, 0x3b, 0xa8, 0xf3, 0xeb, 0x3b,
  0xf1, 0x15, 0xa2, 0x3b, 0x04, 0x00, 0x00, 0x00, 0xa8, 0x35, 0x4a, 0x3f,
  0xc5, 0x4b, 0xd4, 0x3e, 0x51, 0x3b, 0xf7, 0x3e, 0xc5, 0xd1, 0x20, 0x3f,
  0x04, 0x00, 0x00, 0x00, 0x34, 0x6c, 0x57, 0xbf, 0x75, 0xba, 0xc7, 0xbe,
  0xc1, 0x1b, 0x6a, 0xbf, 0x18, 0xb9, 0x4d, 0xbe, 0x37, 0x00, 0x00, 0x00,
  0x30, 0x34, 0x5f, 0x4f, 0x72, 0x61, 0x6e, 0x67, 0x65, 0x4d, 0x69, 0x63,
  0x72, 0x6f, 0x44, 0x61, 0x72, 0x6b, 0x5f, 0x57, 0x4e, 0x31, 0x32, 0x5f,
  0x76, 0x31, 0x2f, 0x63, 0x6f, 0x6e, 0x76, 0x31, 0x64, 0x5f, 0x32, 0x2f,
  0x63, 0x6f, 0x6e, 0x76, 0x31, 0x64, 0x2f, 0x45, 0x78, 0x70, 0x61, 0x6e,
  0x64, 0x44, 0x69, 0x6d, 0x73, 0x5f, 0x31, 0x00, 0x04, 0x00, 0x00, 0x00,
  0x04, 0x00, 0x00, 0x00, 0x01, 0x00, 0x00, 0x00, 0x03, 0x00, 0x00, 0x00,
  0x04, 0x00, 0x00, 0x00, 0xca, 0xf4, 0xff, 0xff, 0x00, 0x00, 0x00, 0x09,
  0x64, 0x00, 0x00, 0x00, 0x2e, 0x00, 0x00, 0x00, 0x2c, 0x00, 0x00, 0x00,
  0x04, 0x00, 0x00, 0x00, 0xbc, 0xf4, 0xff, 0xff, 0x18, 0x00, 0x00, 0x00,
  0x04, 0x00, 0x00, 0x00, 0x01, 0x00, 0x00, 0x00, 0x00, 0x00, 0x00, 0x00,
  0x00, 0x00, 0x00, 0x00, 0x00, 0x00, 0x00, 0x00, 0x01, 0x00, 0x00, 0x00,
  0x00, 0x00, 0x00, 0x3c, 0x28, 0x00, 0x00, 0x00, 0x30, 0x34, 0x5f, 0x4f,
  0x72, 0x61, 0x6e, 0x67, 0x65, 0x4d, 0x69, 0x63, 0x72, 0x6f, 0x44, 0x61,
  0x72, 0x6b, 0x5f, 0x57, 0x4e, 0x31, 0x32, 0x5f, 0x76, 0x31, 0x2f, 0x63,
  0x6f, 0x6e, 0x76, 0x31, 0x64, 0x5f, 0x32, 0x2f, 0x54, 0x61, 0x6e, 0x68,
  0x00, 0x00, 0x00, 0x00, 0x04, 0x00, 0x00, 0x00, 0x01, 0x00, 0x00, 0x00,
  0x01, 0x00, 0x00, 0x00, 0xfb, 0x00, 0x00, 0x00, 0x04, 0x00, 0x00, 0x00,
  0x4a, 0xf5, 0xff, 0xff, 0x00, 0x00, 0x00, 0x02, 0x6c, 0x00, 0x00, 0x00,
  0x0c, 0x00, 0x00, 0x00, 0x2c, 0x00, 0x00, 0x00, 0x04, 0x00, 0x00, 0x00,
  0x3c, 0xf5, 0xff, 0xff, 0x18, 0x00, 0x00, 0x00, 0x04, 0x00, 0x00, 0x00,
  0x01, 0x00, 0x00, 0x00, 0x00, 0x00, 0x00, 0x00, 0x00, 0x00, 0x00, 0x00,
  0x00, 0x00, 0x00, 0x00, 0x01, 0x00, 0x00, 0x00, 0xea, 0x82, 0xf4, 0x37,
  0x30, 0x00, 0x00, 0x00, 0x30, 0x34, 0x5f, 0x4f, 0x72, 0x61, 0x6e, 0x67,
  0x65, 0x4d, 0x69, 0x63, 0x72, 0x6f, 0x44, 0x61, 0x72, 0x6b, 0x5f, 0x57,
  0x4e, 0x31, 0x32, 0x5f, 0x76, 0x31, 0x2f, 0x63, 0x6f, 0x6e, 0x76, 0x31,
  0x64, 0x5f, 0x31, 0x31, 0x2f, 0x63, 0x6f, 0x6e, 0x76, 0x31, 0x64, 0x5f,
  0x62, 0x69, 0x61, 0x73, 0x00, 0x00, 0x00, 0x00, 0x01, 0x00, 0x00, 0x00,
  0x01, 0x00, 0x00, 0x00, 0xc6, 0xf5, 0xff, 0xff, 0x00, 0x00, 0x00, 0x02,
  0x54, 0x00, 0x00, 0x00, 0x03, 0x00, 0x00, 0x00, 0x0c, 0x00, 0x00, 0x00,
  0x04, 0x00, 0x00, 0x00, 0xdc, 0xf6, 0xff, 0xff, 0x39, 0x00, 0x00, 0x00,
  0x30, 0x34, 0x5f, 0x4f, 0x72, 0x61, 0x6e, 0x67, 0x65, 0x4d, 0x69, 0x63,
  0x72, 0x6f, 0x44, 0x61, 0x72, 0x6b, 0x5f, 0x57, 0x4e, 0x31, 0x32, 0x5f,
  0x76, 0x31, 0x2f, 0x63, 0x6f, 0x6e, 0x76, 0x31, 0x64, 0x5f, 0x31, 0x31,
  0x2f, 0x63, 0x6f, 0x6e, 0x76, 0x31, 0x64, 0x2f, 0x53, 0x71, 0x75, 0x65,
  0x65, 0x7a, 0x65, 0x5f, 0x73, 0x68, 0x61, 0x70, 0x65, 0x00, 0x00, 0x00,
  0x01, 0x00, 0x00, 0x00, 0x03, 0x00, 0x00, 0x00, 0x2a, 0xf6, 0xff, 0xff,
  0x00, 0x00, 0x00, 0x09, 0x84, 0x00, 0x00, 0x00, 0x35, 0x00, 0x00, 0x00,
  0x44, 0x00, 0x00, 0x00, 0x04, 0x00, 0x00, 0x00, 0xd4, 0xf6, 0xff, 0xff,
  0x30, 0x00, 0x00, 0x00, 0x24, 0x00, 0x00, 0x00, 0x18, 0x00, 0x00, 0x00,
  0x04, 0x00, 0x00, 0x00, 0x01, 0x00, 0x00, 0x00, 0xfb, 0xff, 0xff, 0xff,
  0xff, 0xff, 0xff, 0xff, 0x00, 0x00, 0x00, 0x00, 0x01, 0x00, 0x00, 0x00,
  0x29, 0x51, 0x89, 0x3b, 0x01, 0x00, 0x00, 0x00, 0x65, 0x72, 0x0d, 0x3f,
  0x01, 0x00, 0x00, 0x00, 0x4b, 0x1d, 0x04, 0xbf, 0x33, 0x00, 0x00, 0x00,
  0x30, 0x34, 0x5f, 0x4f, 0x72, 0x61, 0x6e, 0x67, 0x65, 0x4d, 0x69, 0x63,
  0x72, 0x6f, 0x44, 0x61, 0x72, 0x6b, 0x5f, 0x57, 0x4e, 0x31, 0x32, 0x5f,
  0x76, 0x31, 0x2f, 0x63, 0x6f, 0x6e, 0x76, 0x31, 0x64, 0x5f, 0x31, 0x31,
  0x2f, 0x63, 0x6f, 0x6e, 0x76, 0x31, 0x64, 0x2f, 0x53, 0x71, 0x75, 0x65,
  0x65, 0x7a, 0x65, 0x00, 0x04, 0x00, 0x00, 0x00, 0x01, 0x00, 0x00, 0x00,
  0x01, 0x00, 0x00, 0x00, 0xf9, 0x00, 0x00, 0x00, 0x01, 0x00, 0x00, 0x00,
  0xca, 0xf6, 0xff, 0xff, 0x00, 0x00, 0x00, 0x09, 0x8c, 0x00, 0x00, 0x00,
  0x28, 0x00, 0x00, 0x00, 0x44, 0x00, 0x00, 0x00, 0x04, 0x00, 0x00, 0x00,
  0x74, 0xf7, 0xff, 0xff, 0x30, 0x00, 0x00, 0x00, 0x24, 0x00, 0x00, 0x00,
  0x18, 0x00, 0x00, 0x00, 0x04, 0x00, 0x00, 0x00, 0x01, 0x00, 0x00, 0x00,
  0x00, 0x00, 0x00, 0x00, 0x00, 0x00, 0x00, 0x00, 0x00, 0x00, 0x00, 0x00,
  0x01, 0x00, 0x00, 0x00, 0xea, 0x82, 0x74, 0x3b, 0x01, 0x00, 0x00, 0x00,
  0xe4, 0x99, 0xf2, 0x3e, 0x01, 0x00, 0x00, 0x00, 0x55, 0x7f, 0xe7, 0xbe,
  0x38, 0x00, 0x00, 0x00, 0x30, 0x34, 0x5f, 0x4f, 0x72, 0x61, 0x6e, 0x67,
  0x65, 0x4d, 0x69, 0x63, 0x72, 0x6f, 0x44, 0x61, 0x72, 0x6b, 0x5f, 0x57,
  0x4e, 0x31, 0x32, 0x5f, 0x76, 0x31, 0x2f, 0x63, 0x6f, 0x6e, 0x76, 0x31,
  0x64, 0x5f, 0x31, 0x31, 0x2f, 0x63, 0x6f, 0x6e, 0x76, 0x31, 0x64, 0x2f,
  0x45, 0x78, 0x70, 0x61, 0x6e, 0x64, 0x44, 0x69, 0x6d, 0x73, 0x5f, 0x31,
  0x00, 0x00, 0x00, 0x00, 0x04, 0x00, 0x00, 0x00, 0x01, 0x00, 0x00, 0x00,
  0x01, 0x00, 0x00, 0x00, 0x03, 0x00, 0x00, 0x00, 0x04, 0x00, 0x00, 0x00,
  0x72, 0xf7, 0xff, 0xff, 0x00, 0x00, 0x00, 0x02, 0x90, 0x00, 0x00, 0x00,
  0x29, 0x00, 0x00, 0x00, 0x50, 0x00, 0x00, 0x00, 0x04, 0x00, 0x00, 0x00,
  0x64, 0xf7, 0xff, 0xff, 0x30, 0x00, 0x00, 0x00, 0x04, 0x00, 0x00, 0x00,
  0x04, 0x00, 0x00, 0x00, 0x00, 0x00, 0x00, 0x00, 0x00, 0x00, 0x00, 0x00,
  0x00, 0x00, 0x00, 0x00, 0x00, 0x00, 0x00, 0x00, 0x00, 0x00, 0x00, 0x00,
  0x00, 0x00, 0x00, 0x00, 0x00, 0x00, 0x00, 0x00, 0x00, 0x00, 0x00, 0x00,
  0x00, 0x00, 0x00, 0x00, 0x04, 0x00, 0x00, 0x00, 0x20, 0x00, 0xb4, 0x37,
  0x11, 0x32, 0xea, 0x37, 0xfd, 0xe3, 0x01, 0x38, 0x05, 0x6a, 0x15, 0x38,
  0x30, 0x00, 0x00, 0x00, 0x30, 0x34, 0x5f, 0x4f, 0x72, 0x61, 0x6e, 0x67,
  0x65, 0x4d, 0x69, 0x63, 0x72, 0x6f, 0x44, 0x61, 0x72, 0x6b, 0x5f, 0x57,
  0x4e, 0x31, 0x32, 0x5f, 0x76, 0x31, 0x2f, 0x63, 0x6f, 0x6e, 0x76, 0x31,
  0x64, 0x5f, 0x31, 0x30, 0x2f, 0x63, 0x6f, 0x6e, 0x76, 0x31, 0x64, 0x5f,
  0x62, 0x69, 0x61, 0x73, 0x00, 0x00, 0x00, 0x00, 0x01, 0x00, 0x00, 0x00,
  0x04, 0x00, 0x00, 0x00, 0x12, 0xf8, 0xff, 0xff, 0x00, 0x00, 0x00, 0x09,
  0x84, 0x00, 0x00, 0x00, 0x30, 0x00, 0x00, 0x00, 0x44, 0x00, 0x00, 0x00,
  0x04, 0x00, 0x00, 0x00, 0xbc, 0xf8, 0xff, 0xff, 0x30, 0x00, 0x00, 0x00,
  0x24, 0x00, 0x00, 0x00, 0x18, 0x00, 0x00, 0x00, 0x04, 0x00, 0x00, 0x00,
  0x01, 0x00, 0x00, 0x00, 0x05, 0x00, 0x00, 0x00, 0x00, 0x00, 0x00, 0x00,
  0x00, 0x00, 0x00, 0x00, 0x01, 0x00, 0x00, 0x00, 0x27, 0xa2, 0x11, 0x3c,
  0x01, 0x00, 0x00, 0x00, 0xfa, 0x74, 0x8a, 0x3f, 0x01, 0x00, 0x00, 0x00,
  0x10, 0xac, 0x97, 0xbf, 0x33, 0x00, 0x00, 0x00, 0x30, 0x34, 0x5f, 0x4f,
  0x72, 0x61, 0x6e, 0x67, 0x65, 0x4d, 0x69, 0x63, 0x72, 0x6f, 0x44, 0x61,
  0x72, 0x6b, 0x5f, 0x57, 0x4e, 0x31, 0x32, 0x5f, 0x76, 0x31, 0x2f, 0x63,
  0x6f, 0x6e, 0x76, 0x31, 0x64, 0x5f, 0x31, 0x30, 0x2f, 0x63, 0x6f, 0x6e,
  0x76, 0x31, 0x64, 0x2f, 0x53, 0x71, 0x75, 0x65, 0x65, 0x7a, 0x65, 0x00,
  0x04, 0x00, 0x00, 0x00, 0x01, 0x00, 0x00, 0x00, 0x01, 0x00, 0x00, 0x00,
  0xf9, 0x00, 0x00, 0x00, 0x04, 0x00, 0x00, 0x00, 0xb2, 0xf8, 0xff, 0xff,
  0x00, 0x00, 0x00, 0x09, 0xc4, 0x00, 0x00, 0x00, 0x0d, 0x00, 0x00, 0x00,
  0x7c, 0x00, 0x00, 0x00, 0x04, 0x00, 0x00, 0x00, 0x5c, 0xf9, 0xff, 0xff,
  0x5c, 0x00, 0x00, 0x00, 0x44, 0x00, 0x00, 0x00, 0x2c, 0x00, 0x00, 0x00,
  0x04, 0x00, 0x00, 0x00, 0x04, 0x00, 0x00, 0x00, 0x00, 0x00, 0x00, 0x00,
  0x00, 0x00, 0x00, 0x00, 0x00, 0x00, 0x00, 0x00, 0x00, 0x00, 0x00, 0x00,
  0x00, 0x00, 0x00, 0x00, 0x00, 0x00, 0x00, 0x00, 0x00, 0x00, 0x00, 0x00,
  0x00, 0x00, 0x00, 0x00, 0x04, 0x00, 0x00, 0x00, 0x20, 0x00, 0x34, 0x3b,
  0x11, 0x32, 0x6a, 0x3b, 0xfd, 0xe3, 0x81, 0x3b, 0x05, 0x6a, 0x95, 0x3b,
  0x04, 0x00, 0x00, 0x00, 0x41, 0x8d, 0xa9, 0x3e, 0xad, 0x5d, 0xe8, 0x3e,
  0x7f, 0x76, 0xe8, 0x3e, 0x31, 0x3f, 0x14, 0x3f, 0x04, 0x00, 0x00, 0x00,
  0x20, 0x98, 0xb2, 0xbe, 0xc4, 0x22, 0xd8, 0xbe, 0x35, 0xe0, 0x00, 0xbf,
  0x85, 0xe0, 0x12, 0xbf, 0x38, 0x00, 0x00, 0x00, 0x30, 0x34, 0x5f, 0x4f,
  0x72, 0x61, 0x6e, 0x67, 0x65, 0x4d, 0x69, 0x63, 0x72, 0x6f, 0x44, 0x61,
  0x72, 0x6b, 0x5f, 0x57, 0x4e, 0x31, 0x32, 0x5f, 0x76, 0x31, 0x2f, 0x63,
  0x6f, 0x6e, 0x76, 0x31, 0x64, 0x5f, 0x31, 0x30, 0x2f, 0x63, 0x6f, 0x6e,
  0x76, 0x31, 0x64, 0x2f, 0x45, 0x78, 0x70, 0x61, 0x6e, 0x64, 0x44, 0x69,
  0x6d, 0x73, 0x5f, 0x31, 0x00, 0x00, 0x00, 0x00, 0x04, 0x00, 0x00, 0x00,
  0x04, 0x00, 0x00, 0x00, 0x01, 0x00, 0x00, 0x00, 0x03, 0x00, 0x00, 0x00,
  0x04, 0x00, 0x00, 0x00, 0x92, 0xf9, 0xff, 0xff, 0x00, 0x00, 0x00, 0x09,
  0x64, 0x00, 0x00, 0x00, 0x04, 0x00, 0x00, 0x00, 0x2c, 0x00, 0x00, 0x00,
  0x04, 0x00, 0x00, 0x00, 0x84, 0xf9, 0xff, 0xff, 0x18, 0x00, 0x00, 0x00,
  0x04, 0x00, 0x00, 0x00, 0x01, 0x00, 0x00, 0x00, 0x00, 0x00, 0x00, 0x00,
  0x00, 0x00, 0x00, 0x00, 0x00, 0x00, 0x00, 0x00, 0x01, 0x00, 0x00, 0x00,
  0x00, 0x00, 0x00, 0x3c, 0x29, 0x00, 0x00, 0x00, 0x30, 0x34, 0x5f, 0x4f,
  0x72, 0x61, 0x6e, 0x67, 0x65, 0x4d, 0x69, 0x63, 0x72, 0x6f, 0x44, 0x61,
  0x72, 0x6b, 0x5f, 0x57, 0x4e, 0x31, 0x32, 0x5f, 0x76, 0x31, 0x2f, 0x63,
  0x6f, 0x6e, 0x76, 0x31, 0x64, 0x5f, 0x31, 0x30, 0x2f, 0x54, 0x61, 0x6e,
  0x68, 0x00, 0x00, 0x00, 0x04, 0x00, 0x00, 0x00, 0x01, 0x00, 0x00, 0x00,
  0x01, 0x00, 0x00, 0x00, 0xf9, 0x00, 0x00, 0x00, 0x04, 0x00, 0x00, 0x00,
  0x12, 0xfa, 0xff, 0xff, 0x00, 0x00, 0x00, 0x02, 0x88, 0x00, 0x00, 0x00,
  0x1c, 0x00, 0x00, 0x00, 0x4c, 0x00, 0x00, 0x00, 0x04, 0x00, 0x00, 0x00,
  0x04, 0xfa, 0xff, 0xff, 0x2c, 0x00, 0x00, 0x00, 0x04, 0x00, 0x00, 0x00,
  0x04, 0x00, 0x00, 0x00, 0x00, 0x00, 0x00, 0x00, 0x00, 0x00, 0x00, 0x00,
  0x00, 0x00, 0x00, 0x00, 0x00, 0x00, 0x00, 0x00, 0x00, 0x00, 0x00, 0x00,
  0x00, 0x00, 0x00, 0x00, 0x00, 0x00, 0x00, 0x00, 0x00, 0x00, 0x00, 0x00,
  0x04, 0x00, 0x00, 0x00, 0x06, 0x2f, 0x1d, 0x38, 0xaa, 0x7b, 0x26, 0x38,
  0x4d, 0xec, 0xf8, 0x37, 0x7e, 0xe9, 0x30, 0x38, 0x2f, 0x00, 0x00, 0x00,
  0x30, 0x34, 0x5f, 0x4f, 0x72, 0x61, 0x6e, 0x67, 0x65, 0x4d, 0x69, 0x63,
  0x72, 0x6f, 0x44, 0x61, 0x72, 0x6b, 0x5f, 0x57, 0x4e, 0x31, 0x32, 0x5f,
  0x76, 0x31, 0x2f, 0x63, 0x6f, 0x6e, 0x76, 0x31, 0x64, 0x5f, 0x31, 0x2f,
  0x63, 0x6f, 0x6e, 0x76, 0x31, 0x64, 0x5f, 0x62, 0x69, 0x61, 0x73, 0x00,
  0x01, 0x00, 0x00, 0x00, 0x04, 0x00, 0x00, 0x00, 0xaa, 0xfa, 0xff, 0xff,
  0x00, 0x00, 0x00, 0x09, 0x84, 0x00, 0x00, 0x00, 0x2b, 0x00, 0x00, 0x00,
  0x44, 0x00, 0x00, 0x00, 0x04, 0x00, 0x00, 0x00, 0x54, 0xfb, 0xff, 0xff,
  0x30, 0x00, 0x00, 0x00, 0x24, 0x00, 0x00, 0x00, 0x18, 0x00, 0x00, 0x00,
  0x04, 0x00, 0x00, 0x00, 0x01, 0x00, 0x00, 0x00, 0xff, 0xff, 0xff, 0xff,
  0xff, 0xff, 0xff, 0xff, 0x00, 0x00, 0x00, 0x00, 0x01, 0x00, 0x00, 0x00,
  0x94, 0x7b, 0x7c, 0x3c, 0x01, 0x00, 0x00, 0x00, 0x12, 0x9f, 0xfc, 0x3f,
  0x01, 0x00, 0x00, 0x00, 0x1d, 0x5f, 0xfa, 0xbf, 0x32, 0x00, 0x00, 0x00,
  0x30, 0x34, 0x5f, 0x4f, 0x72, 0x61, 0x6e, 0x67, 0x65, 0x4d, 0x69, 0x63,
  0x72, 0x6f, 0x44, 0x61, 0x72, 0x6b, 0x5f, 0x57, 0x4e, 0x31, 0x32, 0x5f,
  0x76, 0x31, 0x2f, 0x63, 0x6f, 0x6e, 0x76, 0x31, 0x64, 0x5f, 0x31, 0x2f,
  0x63, 0x6f, 0x6e, 0x76, 0x31, 0x64, 0x2f, 0x53, 0x71, 0x75, 0x65, 0x65,
  0x7a, 0x65, 0x00, 0x00, 0x04, 0x00, 0x00, 0x00, 0x01, 0x00, 0x00, 0x00,
  0x01, 0x00, 0x00, 0x00, 0xfb, 0x00, 0x00, 0x00, 0x04, 0x00, 0x00, 0x00,
  0x4a, 0xfb, 0xff, 0xff, 0x00, 0x00, 0x00, 0x09, 0xc4, 0x00, 0x00, 0x00,
  0x1d, 0x00, 0x00, 0x00, 0x80, 0x00, 0x00, 0x00, 0x04, 0x00, 0x00, 0x00,
  0xf4, 0xfb, 0xff, 0xff, 0x60, 0x00, 0x00, 0x00, 0x48, 0x00, 0x00, 0x00,
  0x30, 0x00, 0x00, 0x00, 0x04, 0x00, 0x00, 0x00, 0x04, 0x00, 0x00, 0x00,
  0x00, 0x00, 0x00, 0x00, 0x00, 0x00, 0x00, 0x00, 0x00, 0x00, 0x00, 0x00,
  0x00, 0x00, 0x00, 0x00, 0x00, 0x00, 0x00, 0x00, 0x00, 0x00, 0x00, 0x00,
  0x00, 0x00, 0x00, 0x00, 0x00, 0x00, 0x00, 0x00, 0x00, 0x00, 0x00, 0x00,
  0x04, 0x00, 0x00, 0x00, 0x06, 0x2f, 0x9d, 0x3b, 0xaa, 0x7b, 0xa6, 0x3b,
  0x4d, 0xec, 0x78, 0x3b, 0x7e, 0xe9, 0xb0, 0x3b, 0x04, 0x00, 0x00, 0x00,
  0xa8, 0xf4, 0x1b, 0x3f, 0xb3, 0x2e, 0x25, 0x3f, 0xbb, 0x1a, 0xf3, 0x3e,
  0xc5, 0x12, 0x03, 0x3f, 0x04, 0x00, 0x00, 0x00, 0xd5, 0x43, 0x93, 0xbe,
  0xb9, 0xde, 0x8d, 0xbe, 0x74, 0xfa, 0xf6, 0xbe, 0xab, 0x87, 0x2f, 0xbf,
  0x37, 0x00, 0x00, 0x00, 0x30, 0x34, 0x5f, 0x4f, 0x72, 0x61, 0x6e, 0x67,
  0x65, 0x4d, 0x69, 0x63, 0x72, 0x6f, 0x44, 0x61, 0x72, 0x6b, 0x5f, 0x57,
  0x4e, 0x31, 0x32, 0x5f, 0x76, 0x31, 0x2f, 0x63, 0x6f, 0x6e, 0x76, 0x31,
  0x64, 0x5f, 0x31, 0x2f, 0x63, 0x6f, 0x6e, 0x76, 0x31, 0x64, 0x2f, 0x45,
  0x78, 0x70, 0x61, 0x6e, 0x64, 0x44, 0x69, 0x6d, 0x73, 0x5f, 0x31, 0x00,
  0x04, 0x00, 0x00, 0x00, 0x04, 0x00, 0x00, 0x00, 0x01, 0x00, 0x00, 0x00,
  0x03, 0x00, 0x00, 0x00, 0x04, 0x00, 0x00, 0x00, 0x2a, 0xfc, 0xff, 0xff,
  0x00, 0x00, 0x00, 0x09, 0x64, 0x00, 0x00, 0x00, 0x27, 0x00, 0x00, 0x00,
  0x2c, 0x00, 0x00, 0x00, 0x04, 0x00, 0x00, 0x00, 0x1c, 0xfc, 0xff, 0xff,
  0x18, 0x00, 0x00, 0x00, 0x04, 0x00, 0x00, 0x00, 0x01, 0x00, 0x00, 0x00,
  0x00, 0x00, 0x00, 0x00, 0x00, 0x00, 0x00, 0x00, 0x00, 0x00, 0x00, 0x00,
  0x01, 0x00, 0x00, 0x00, 0x00, 0x00, 0x00, 0x3c, 0x28, 0x00, 0x00, 0x00,
  0x30, 0x34, 0x5f, 0x4f, 0x72, 0x61, 0x6e, 0x67, 0x65, 0x4d, 0x69, 0x63,
  0x72, 0x6f, 0x44, 0x61, 0x72, 0x6b, 0x5f, 0x57, 0x4e, 0x31, 0x32, 0x5f,
  0x76, 0x31, 0x2f, 0x63, 0x6f, 0x6e, 0x76, 0x31, 0x64, 0x5f, 0x31, 0x2f,
  0x54, 0x61, 0x6e, 0x68, 0x00, 0x00, 0x00, 0x00, 0x04, 0x00, 0x00, 0x00,
  0x01, 0x00, 0x00, 0x00, 0x01, 0x00, 0x00, 0x00, 0xfb, 0x00, 0x00, 0x00,
  0x04, 0x00, 0x00, 0x00, 0xaa, 0xfc, 0xff, 0xff, 0x00, 0x00, 0x00, 0x02,
  0x88, 0x00, 0x00, 0x00, 0x1f, 0x00, 0x00, 0x00, 0x4c, 0x00, 0x00, 0x00,
  0x04, 0x00, 0x00, 0x00, 0x9c, 0xfc, 0xff, 0xff, 0x2c, 0x00, 0x00, 0x00,
  0x04, 0x00, 0x00, 0x00, 0x04, 0x00, 0x00, 0x00, 0x00, 0x00, 0x00, 0x00,
  0x00, 0x00, 0x00, 0x00, 0x00, 0x00, 0x00, 0x00, 0x00, 0x00, 0x00, 0x00,
  0x00, 0x00, 0x00, 0x00, 0x00, 0x00, 0x00, 0x00, 0x00, 0x00, 0x00, 0x00,
  0x00, 0x00, 0x00, 0x00, 0x04, 0x00, 0x00, 0x00, 0x38, 0x16, 0x2d, 0x38,
  0xdd, 0x58, 0x09, 0x38, 0x4c, 0x63, 0x52, 0x38, 0x18, 0x6a, 0x3f, 0x38,
  0x2d, 0x00, 0x00, 0x00, 0x30, 0x34, 0x5f, 0x4f, 0x72, 0x61, 0x6e, 0x67,
  0x65, 0x4d, 0x69, 0x63, 0x72, 0x6f, 0x44, 0x61, 0x72, 0x6b, 0x5f, 0x57,
  0x4e, 0x31, 0x32, 0x5f, 0x76, 0x31, 0x2f, 0x63, 0x6f, 0x6e, 0x76, 0x31,
  0x64, 0x2f, 0x63, 0x6f, 0x6e, 0x76, 0x31, 0x64, 0x5f, 0x62, 0x69, 0x61,
  0x73, 0x00, 0x00, 0x00, 0x01, 0x00, 0x00, 0x00, 0x04, 0x00, 0x00, 0x00,
  0x42, 0xfd, 0xff, 0xff, 0x00, 0x00, 0x00, 0x09, 0x84, 0x00, 0x00, 0x00,
  0x2a, 0x00, 0x00, 0x00, 0x44, 0x00, 0x00, 0x00, 0x04, 0x00, 0x00, 0x00,
  0xec, 0xfd, 0xff, 0xff, 0x30, 0x00, 0x00, 0x00, 0x24, 0x00, 0x00, 0x00,
  0x18, 0x00, 0x00, 0x00, 0x04, 0x00, 0x00, 0x00, 0x01, 0x00, 0x00, 0x00,
  0xf5, 0xff, 0xff, 0xff, 0xff, 0xff, 0xff, 0xff, 0x00, 0x00, 0x00, 0x00,
  0x01, 0x00, 0x00, 0x00, 0xb4, 0xd8, 0x8b, 0x3c, 0x01, 0x00, 0x00, 0x00,
  0x71, 0x48, 0x16, 0x40, 0x01, 0x00, 0x00, 0x00, 0x45, 0x51, 0x00, 0xc0,
  0x30, 0x00, 0x00, 0x00, 0x30, 0x34, 0x5f, 0x4f, 0x72, 0x61, 0x6e, 0x67,
  0x65, 0x4d, 0x69, 0x63, 0x72, 0x6f, 0x44, 0x61, 0x72, 0x6b, 0x5f, 0x57,
  0x4e, 0x31, 0x32, 0x5f, 0x76, 0x31, 0x2f, 0x63, 0x6f, 0x6e, 0x76, 0x31,
  0x64, 0x2f, 0x63, 0x6f, 0x6e, 0x76, 0x31, 0x64, 0x2f, 0x53, 0x71, 0x75,
  0x65, 0x65, 0x7a, 0x65, 0x00, 0x00, 0x00, 0x00, 0x04, 0x00, 0x00, 0x00,
  0x01, 0x00, 0x00, 0x00, 0x01, 0x00, 0x00, 0x00, 0xfb, 0x00, 0x00, 0x00,
  0x04, 0x00, 0x00, 0x00, 0x00, 0x00, 0x0e, 0x00, 0x1a, 0x00, 0x08, 0x00,
  0x07, 0x00, 0x0c, 0x00, 0x10, 0x00, 0x14, 0x00, 0x0e, 0x00, 0x00, 0x00,
  0x00, 0x00, 0x00, 0x09, 0xdc, 0x00, 0x00, 0x00, 0x20, 0x00, 0x00, 0x00,
  0x98, 0x00, 0x00, 0x00, 0x18, 0x00, 0x00, 0x00, 0x00, 0x00, 0x12, 0x00,
  0x18, 0x00, 0x04, 0x00, 0x08, 0x00, 0x0c, 0x00, 0x10, 0x00, 0x00, 0x00,
  0x00, 0x00, 0x14, 0x00, 0x12, 0x00, 0x00, 0x00, 0x64, 0x00, 0x00, 0x00,
  0x4c, 0x00, 0x00, 0x00, 0x34, 0x00, 0x00, 0x00, 0x08, 0x00, 0x00, 0x00,
  0x03, 0x00, 0x00, 0x00, 0x04, 0x00, 0x00, 0x00, 0x00, 0x00, 0x00, 0x00,
  0x00, 0x00, 0x00, 0x00, 0x00, 0x00, 0x00, 0x00, 0x00, 0x00, 0x00, 0x00,
  0x00, 0x00, 0x00, 0x00, 0x00, 0x00, 0x00, 0x00, 0x00, 0x00, 0x00, 0x00,
  0x00, 0x00, 0x00, 0x00, 0x00, 0x00, 0x00, 0x00, 0x04, 0x00, 0x00, 0x00,
  0x23, 0xe7, 0x4f, 0x3c, 0x68, 0xf9, 0x24, 0x3c, 0xff, 0xb4, 0x7c, 0x3c,
  0xc7, 0xea, 0x65, 0x3c, 0x04, 0x00, 0x00, 0x00, 0x43, 0xed, 0x81, 0xbf,
  0x75, 0xaf, 0xa3, 0x3f, 0x2c, 0x02, 0xb5, 0xbf, 0xd9, 0x89, 0xb9, 0xbf,
  0x04, 0x00, 0x00, 0x00, 0x55, 0x47, 0xce, 0xbf, 0xd8, 0x12, 0x60, 0x3f,
  0x95, 0xbb, 0xfa, 0xbf, 0xf1, 0x1e, 0xe4, 0xbf, 0x35, 0x00, 0x00, 0x00,
  0x30, 0x34, 0x5f, 0x4f, 0x72, 0x61, 0x6e, 0x67, 0x65, 0x4d, 0x69, 0x63,
  0x72, 0x6f, 0x44, 0x61, 0x72, 0x6b, 0x5f, 0x57, 0x4e, 0x31, 0x32, 0x5f,
  0x76, 0x31, 0x2f, 0x63, 0x6f, 0x6e, 0x76, 0x31, 0x64, 0x2f, 0x63, 0x6f,
  0x6e, 0x76, 0x31, 0x64, 0x2f, 0x45, 0x78, 0x70, 0x61, 0x6e, 0x64, 0x44,
  0x69, 0x6d, 0x73, 0x5f, 0x31, 0x00, 0x00, 0x00, 0x04, 0x00, 0x00, 0x00,
  0x01, 0x00, 0x00, 0x00, 0x01, 0x00, 0x00, 0x00, 0x03, 0x00, 0x00, 0x00,
  0x04, 0x00, 0x00, 0x00, 0xea, 0xfe, 0xff, 0xff, 0x00, 0x00, 0x00, 0x02,
  0x58, 0x00, 0x00, 0x00, 0x21, 0x00, 0x00, 0x00, 0x10, 0x00, 0x00, 0x00,
  0x08, 0x00, 0x00, 0x00, 0x04, 0x00, 0x04, 0x00, 0x04, 0x00, 0x00, 0x00,
  0x39, 0x00, 0x00, 0x00, 0x30, 0x34, 0x5f, 0x4f, 0x72, 0x61, 0x6e, 0x67,
  0x65, 0x4d, 0x69, 0x63, 0x72, 0x6f, 0x44, 0x61, 0x72, 0x6b, 0x5f, 0x57,
  0x4e, 0x31, 0x32, 0x5f, 0x76, 0x31, 0x2f, 0x63, 0x6f, 0x6e, 0x76, 0x31,
  0x64, 0x2f, 0x63, 0x6f, 0x6e, 0x76, 0x31, 0x64, 0x2f, 0x45, 0x78, 0x70,
  0x61, 0x6e, 0x64, 0x44, 0x69, 0x6d, 0x73, 0x2f, 0x64, 0x69, 0x6d, 0x5f,
  0x30, 0x00, 0x00, 0x00, 0x02, 0x00, 0x00, 0x00, 0x01, 0x00, 0x00, 0x00,
  0x04, 0x00, 0x00, 0x00, 0x56, 0xff, 0xff, 0xff, 0x00, 0x00, 0x00, 0x09,
  0x8c, 0x00, 0x00, 0x00, 0x22, 0x00, 0x00, 0x00, 0x4c, 0x00, 0x00, 0x00,
  0x10, 0x00, 0x00, 0x00, 0x0c, 0x00, 0x14, 0x00, 0x04, 0x00, 0x08, 0x00,
  0x0c, 0x00, 0x10, 0x00, 0x0c, 0x00, 0x00, 0x00, 0x2c, 0x00, 0x00, 0x00,
  0x20, 0x00, 0x00, 0x00, 0x14, 0x00, 0x00, 0x00, 0x04, 0x00, 0x00, 0x00,
  0x01, 0x00, 0x00, 0x00, 0x0a, 0x00, 0x00, 0x00, 0x00, 0x00, 0x00, 0x00,
  0x01, 0x00, 0x00, 0x00, 0x21, 0x21, 0x55, 0x3b, 0x01, 0x00, 0x00, 0x00,
  0x00, 0xcc, 0xc2, 0x3e, 0x01, 0x00, 0x00, 0x00, 0x00, 0xcc, 0xe5, 0xbe,
  0x33, 0x00, 0x00, 0x00, 0x30, 0x34, 0x5f, 0x4f, 0x72, 0x61, 0x6e, 0x67,
  0x65, 0x4d, 0x69, 0x63, 0x72, 0x6f, 0x44, 0x61, 0x72, 0x6b, 0x5f, 0x57,
  0x4e, 0x31, 0x32, 0x5f, 0x76, 0x31, 0x2f, 0x63, 0x6f, 0x6e, 0x76, 0x31,
  0x64, 0x2f, 0x63, 0x6f, 0x6e, 0x76, 0x31, 0x64, 0x2f, 0x45, 0x78, 0x70,
  0x61, 0x6e, 0x64, 0x44, 0x69, 0x6d, 0x73, 0x00, 0x04, 0x00, 0x00, 0x00,
  0x01, 0x00, 0x00, 0x00, 0x01, 0x00, 0x00, 0x00, 0xfd, 0x00, 0x00, 0x00,
  0x01, 0x00, 0x00, 0x00, 0x00, 0x00, 0x0e, 0x00, 0x18, 0x00, 0x08, 0x00,
  0x07, 0x00, 0x0c, 0x00, 0x10, 0x00, 0x14, 0x00, 0x0e, 0x00, 0x00, 0x00,
  0x00, 0x00, 0x00, 0x09, 0x6c, 0x00, 0x00, 0x00, 0x1e, 0x00, 0x00, 0x00,
  0x38, 0x00, 0x00, 0x00, 0x10, 0x00, 0x00, 0x00, 0x0c, 0x00, 0x0c, 0x00,
  0x00, 0x00, 0x00, 0x00, 0x04, 0x00, 0x08, 0x00, 0x0c, 0x00, 0x00, 0x00,
  0x18, 0x00, 0x00, 0x00, 0x04, 0x00, 0x00, 0x00, 0x01, 0x00, 0x00, 0x00,
  0x00, 0x00, 0x00, 0x00, 0x00, 0x00, 0x00, 0x00, 0x00, 0x00, 0x00, 0x00,
  0x01, 0x00, 0x00, 0x00, 0x00, 0x00, 0x00, 0x3c, 0x26, 0x00, 0x00, 0x00,
  0x30, 0x34, 0x5f, 0x4f, 0x72, 0x61, 0x6e, 0x67, 0x65, 0x4d, 0x69, 0x63,
  0x72, 0x6f, 0x44, 0x61, 0x72, 0x6b, 0x5f, 0x57, 0x4e, 0x31, 0x32, 0x5f,
  0x76, 0x31, 0x2f, 0x63, 0x6f, 0x6e, 0x76, 0x31, 0x64, 0x2f, 0x54, 0x61,
  0x6e, 0x68, 0x00, 0x00, 0x04, 0x00, 0x00, 0x00, 0x01, 0x00, 0x00, 0x00,
  0x01, 0x00, 0x00, 0x00, 0xfb, 0x00, 0x00, 0x00, 0x04, 0x00, 0x00, 0x00,
  0x04, 0x00, 0x00, 0x00, 0x4c, 0x00, 0x00, 0x00, 0x30, 0x00, 0x00, 0x00,
  0x1c, 0x00, 0x00, 0x00, 0x04, 0x00, 0x00, 0x00, 0xe6, 0xff, 0xff, 0xff,
  0x00, 0x00, 0x00, 0x1c, 0x02, 0x00, 0x00, 0x00, 0x00, 0x00, 0x06, 0x00,
  0x06, 0x00, 0x05, 0x00, 0x06, 0x00, 0x00, 0x00, 0x00, 0x16, 0x0a, 0x00,
  0x0e, 0x00, 0x07, 0x00, 0x00, 0x00, 0x08, 0x00, 0x0a, 0x00, 0x00, 0x00,
  0x00, 0x00, 0x00, 0x04, 0x03, 0x00, 0x00, 0x00, 0x00, 0x00, 0x0a, 0x00,
  0x0c, 0x00, 0x07, 0x00, 0x00, 0x00, 0x08, 0x00, 0x0a, 0x00, 0x00, 0x00,
  0x00, 0x00, 0x00, 0x03, 0x03, 0x00, 0x00, 0x00
};

#endif //ORANGEMICRODARK_WN12_V1_H