#ifndef ORANGEMICRODARK_WN12_V1_H
#define ORANGEMICRODARK_WN12_V1_H


unsigned int OrangeMicroDark_WN12_v1_len = 12352;
unsigned char OrangeMicroDark_WN12_v1[] = {
 0x24, 0x00, 0x00, 0x00, 0x54, 0x46, 0x4c, 0x33, 0x00, 0x00, 0x00, 0x00,
  0x00, 0x00, 0x00, 0x00, 0x00, 0x00, 0x12, 0x00, 0x1c, 0x00, 0x04, 0x00,
  0x08, 0x00, 0x0c, 0x00, 0x10, 0x00, 0x14, 0x00, 0x00, 0x00, 0x18, 0x00,
  0x12, 0x00, 0x00, 0x00, 0x03, 0x00, 0x00, 0x00, 0xb8, 0x2f, 0x00, 0x00,
  0x58, 0x07, 0x00, 0x00, 0x40, 0x07, 0x00, 0x00, 0x3c, 0x00, 0x00, 0x00,
  0x04, 0x00, 0x00, 0x00, 0x01, 0x00, 0x00, 0x00, 0x0c, 0x00, 0x00, 0x00,
  0x08, 0x00, 0x0c, 0x00, 0x04, 0x00, 0x08, 0x00, 0x08, 0x00, 0x00, 0x00,
  0x08, 0x00, 0x00, 0x00, 0x36, 0x00, 0x00, 0x00, 0x13, 0x00, 0x00, 0x00,
  0x6d, 0x69, 0x6e, 0x5f, 0x72, 0x75, 0x6e, 0x74, 0x69, 0x6d, 0x65, 0x5f,
  0x76, 0x65, 0x72, 0x73, 0x69, 0x6f, 0x6e, 0x00, 0x37, 0x00, 0x00, 0x00,
  0xf4, 0x06, 0x00, 0x00, 0xe0, 0x06, 0x00, 0x00, 0xc4, 0x06, 0x00, 0x00,
  0xb8, 0x06, 0x00, 0x00, 0xa4, 0x06, 0x00, 0x00, 0x90, 0x06, 0x00, 0x00,
  0x7c, 0x06, 0x00, 0x00, 0x68, 0x06, 0x00, 0x00, 0x54, 0x06, 0x00, 0x00,
  0x38, 0x06, 0x00, 0x00, 0x14, 0x06, 0x00, 0x00, 0xd0, 0x05, 0x00, 0x00,
  0xac, 0x05, 0x00, 0x00, 0x88, 0x05, 0x00, 0x00, 0x44, 0x05, 0x00, 0x00,
  0x20, 0x05, 0x00, 0x00, 0xdc, 0x04, 0x00, 0x00, 0xb8, 0x04, 0x00, 0x00,
  0x94, 0x04, 0x00, 0x00, 0x50, 0x04, 0x00, 0x00, 0x2c, 0x04, 0x00, 0x00,
  0xe8, 0x03, 0x00, 0x00, 0xa4, 0x03, 0x00, 0x00, 0x80, 0x03, 0x00, 0x00,
  0x3c, 0x03, 0x00, 0x00, 0x30, 0x03, 0x00, 0x00, 0x04, 0x03, 0x00, 0x00,
  0xf8, 0x02, 0x00, 0x00, 0xcc, 0x02, 0x00, 0x00, 0xa8, 0x02, 0x00, 0x00,
  0x9c, 0x02, 0x00, 0x00, 0x70, 0x02, 0x00, 0x00, 0x64, 0x02, 0x00, 0x00,
  0x38, 0x02, 0x00, 0x00, 0x2c, 0x02, 0x00, 0x00, 0x18, 0x02, 0x00, 0x00,
  0x04, 0x02, 0x00, 0x00, 0xf0, 0x01, 0x00, 0x00, 0xdc, 0x01, 0x00, 0x00,
  0xc0, 0x01, 0x00, 0x00, 0xb4, 0x01, 0x00, 0x00, 0x68, 0x01, 0x00, 0x00,
  0x24, 0x01, 0x00, 0x00, 0x18, 0x01, 0x00, 0x00, 0x04, 0x01, 0x00, 0x00,
  0xf0, 0x00, 0x00, 0x00, 0xdc, 0x00, 0x00, 0x00, 0xc8, 0x00, 0x00, 0x00,
  0xb4, 0x00, 0x00, 0x00, 0xa0, 0x00, 0x00, 0x00, 0x8c, 0x00, 0x00, 0x00,
  0x78, 0x00, 0x00, 0x00, 0x2c, 0x00, 0x00, 0x00, 0x20, 0x00, 0x00, 0x00,
  0x04, 0x00, 0x00, 0x00, 0x2a, 0xf4, 0xff, 0xff, 0x04, 0x00, 0x00, 0x00,
  0x06, 0x00, 0x00, 0x00, 0x31, 0x2e, 0x31, 0x34, 0x2e, 0x30, 0x00, 0x00,
  0x00, 0x00, 0x00, 0x00, 0x28, 0xd3, 0xff, 0xff, 0x00, 0x00, 0x00, 0x00,
  0x4a, 0xf4, 0xff, 0xff, 0x04, 0x00, 0x00, 0x00, 0x30, 0x00, 0x00, 0x00,
  0x06, 0x1e, 0x08, 0x9c, 0x19, 0x81, 0x21, 0xba, 0xc0, 0x22, 0xb1, 0x60,
  0x9b, 0xf1, 0xa3, 0x4c, 0x29, 0xd6, 0x0b, 0x42, 0x18, 0xc5, 0x7f, 0xf4,
  0x8c, 0xe3, 0x1e, 0xfe, 0x03, 0x1b, 0x94, 0x35, 0x30, 0xed, 0x7f, 0xc7,
  0xc2, 0x7b, 0x60, 0x37, 0x0d, 0x1e, 0xce, 0xe2, 0x0e, 0x98, 0xcb, 0x81,
  0x00, 0x00, 0x00, 0x00, 0x00, 0x00, 0x00, 0x00, 0x00, 0x00, 0x00, 0x00,
  0x78, 0xd3, 0xff, 0xff, 0x00, 0x00, 0x00, 0x00, 0x00, 0x00, 0x00, 0x00,
  0x00, 0x00, 0x00, 0x00, 0x88, 0xd3, 0xff, 0xff, 0x00, 0x00, 0x00, 0x00,
  0x00, 0x00, 0x00, 0x00, 0x00, 0x00, 0x00, 0x00, 0x98, 0xd3, 0xff, 0xff,
  0x00, 0x00, 0x00, 0x00, 0x00, 0x00, 0x00, 0x00, 0x00, 0x00, 0x00, 0x00,
  0xa8, 0xd3, 0xff, 0xff, 0x00, 0x00, 0x00, 0x00, 0x00, 0x00, 0x00, 0x00,
  0x00, 0x00, 0x00, 0x00, 0xb8, 0xd3, 0xff, 0xff, 0x00, 0x00, 0x00, 0x00,
  0x00, 0x00, 0x00, 0x00, 0x00, 0x00, 0x00, 0x00, 0xc8, 0xd3, 0xff, 0xff,
  0x00, 0x00, 0x00, 0x00, 0x00, 0x00, 0x00, 0x00, 0x00, 0x00, 0x00, 0x00,
  0xd8, 0xd3, 0xff, 0xff, 0x00, 0x00, 0x00, 0x00, 0x00, 0x00, 0x00, 0x00,
  0x00, 0x00, 0x00, 0x00, 0xe8, 0xd3, 0xff, 0xff, 0x00, 0x00, 0x00, 0x00,
  0x00, 0x00, 0x00, 0x00, 0x00, 0x00, 0x00, 0x00, 0xf8, 0xd3, 0xff, 0xff,
  0x00, 0x00, 0x00, 0x00, 0x1a, 0xf5, 0xff, 0xff, 0x04, 0x00, 0x00, 0x00,
  0x30, 0x00, 0x00, 0x00, 0xe1, 0x53, 0x02, 0x14, 0xd6, 0xfa, 0xeb, 0xb1,
  0x1f, 0x81, 0xdb, 0x1f, 0xaf, 0x00, 0x66, 0xd4, 0xd1, 0x05, 0xae, 0x7f,
  0x12, 0xb5, 0x14, 0xb0, 0x09, 0xd1, 0xab, 0x1b, 0xb2, 0xed, 0xf0, 0x81,
  0x5b, 0x0a, 0x70, 0x3f, 0x5a, 0x26, 0x1c, 0xc3, 0x47, 0x16, 0x20, 0x22,
  0xb0, 0xe5, 0xc6, 0x7f, 0x00, 0x00, 0x00, 0x00, 0x5a, 0xf5, 0xff, 0xff,
  0x04, 0x00, 0x00, 0x00, 0x30, 0x00, 0x00, 0x00, 0x0b, 0xc9, 0x0d, 0xa1,
  0x07, 0x81, 0x26, 0x3a, 0xf4, 0x27, 0xff, 0x86, 0x32, 0xc2, 0x7d, 0xa4,
  0xfc, 0xf0, 0x4a, 0x81, 0xce, 0x22, 0xf2, 0x2e, 0x16, 0x93, 0xbd, 0xf7,
  0x81, 0xc7, 0xbe, 0xf3, 0x30, 0x2a, 0x34, 0x21, 0x96, 0x0c, 0x81, 0x05,
  0x10, 0x49, 0x4a, 0x3d, 0x6d, 0xd5, 0x92, 0x0f, 0x00, 0x00, 0x00, 0x00,
  0x00, 0x00, 0x00, 0x00, 0x00, 0x00, 0x00, 0x00, 0x88, 0xd4, 0xff, 0xff,
  0x00, 0x00, 0x00, 0x00, 0xaa, 0xf5, 0xff, 0xff, 0x04, 0x00, 0x00, 0x00,
  0x0c, 0x00, 0x00, 0x00, 0xc0, 0x81, 0x7f, 0x81, 0x2f, 0x99, 0x69, 0xaa,
  0x7f, 0x96, 0x6e, 0x91, 0xa8, 0xd4, 0xff, 0xff, 0x00, 0x00, 0x00, 0x00,
  0x00, 0x00, 0x00, 0x00, 0x00, 0x00, 0x00, 0x00, 0xb8, 0xd4, 0xff, 0xff,
  0x00, 0x00, 0x00, 0x00, 0x00, 0x00, 0x00, 0x00, 0x00, 0x00, 0x00, 0x00,
  0xc8, 0xd4, 0xff, 0xff, 0x00, 0x00, 0x00, 0x00, 0x00, 0x00, 0x00, 0x00,
  0x00, 0x00, 0x00, 0x00, 0xd8, 0xd4, 0xff, 0xff, 0x00, 0x00, 0x00, 0x00,
  0x00, 0x00, 0x00, 0x00, 0x00, 0x00, 0x00, 0x00, 0xe8, 0xd4, 0xff, 0xff,
  0x00, 0x00, 0x00, 0x00, 0x0a, 0xf6, 0xff, 0xff, 0x04, 0x00, 0x00, 0x00,
  0x10, 0x00, 0x00, 0x00, 0xed, 0x01, 0x00, 0x00, 0x25, 0xfb, 0xff, 0xff,
  0x4e, 0x01, 0x00, 0x00, 0xe0, 0xfc, 0xff, 0xff, 0x00, 0x00, 0x00, 0x00,
  0x00, 0x00, 0x00, 0x00, 0x00, 0x00, 0x00, 0x00, 0x18, 0xd5, 0xff, 0xff,
  0x00, 0x00, 0x00, 0x00, 0x3a, 0xf6, 0xff, 0xff, 0x04, 0x00, 0x00, 0x00,
  0x10, 0x00, 0x00, 0x00, 0xe8, 0x01, 0x00, 0x00, 0xbd, 0x00, 0x00, 0x00,
  0x28, 0xfb, 0xff, 0xff, 0xb2, 0x02, 0x00, 0x00, 0x00, 0x00, 0x00, 0x00,
  0x00, 0x00, 0x00, 0x00, 0x00, 0x00, 0x00, 0x00, 0x48, 0xd5, 0xff, 0xff,
  0x00, 0x00, 0x00, 0x00, 0x6a, 0xf6, 0xff, 0xff, 0x04, 0x00, 0x00, 0x00,
  0x10, 0x00, 0x00, 0x00, 0x84, 0xff, 0xff, 0xff, 0x2f, 0x03, 0x00, 0x00,
  0xaa, 0xfc, 0xff, 0xff, 0x9a, 0xfc, 0xff, 0xff, 0x00, 0x00, 0x00, 0x00,
  0x8a, 0xf6, 0xff, 0xff, 0x04, 0x00, 0x00, 0x00, 0x10, 0x00, 0x00, 0x00,
  0x01, 0x00, 0x00, 0x00, 0x01, 0x00, 0x00, 0x00, 0xfd, 0x00, 0x00, 0x00,
  0x01, 0x00, 0x00, 0x00, 0x00, 0x00, 0x00, 0x00, 0x00, 0x00, 0x00, 0x00,
  0x00, 0x00, 0x00, 0x00, 0x98, 0xd5, 0xff, 0xff, 0x00, 0x00, 0x00, 0x00,
  0xba, 0xf6, 0xff, 0xff, 0x04, 0x00, 0x00, 0x00, 0x10, 0x00, 0x00, 0x00,
  0xba, 0x01, 0x00, 0x00, 0x0b, 0x00, 0x00, 0x00, 0xef, 0xff, 0xff, 0xff,
  0xee, 0xff, 0xff, 0xff, 0x00, 0x00, 0x00, 0x00, 0x00, 0x00, 0x00, 0x00,
  0x00, 0x00, 0x00, 0x00, 0xc8, 0xd5, 0xff, 0xff, 0x00, 0x00, 0x00, 0x00,
  0xea, 0xf6, 0xff, 0xff, 0x04, 0x00, 0x00, 0x00, 0x30, 0x00, 0x00, 0x00,
  0xe0, 0x49, 0x7f, 0x10, 0xb8, 0xcd, 0x22, 0xa3, 0x11, 0xea, 0x54, 0xf4,
  0x0b, 0x4f, 0xb3, 0x57, 0x1c, 0xc4, 0x7f, 0xef, 0xe9, 0x1e, 0xfa, 0xe6,
  0x31, 0x5e, 0xe4, 0x7f, 0xfe, 0x41, 0x08, 0x1b, 0xbf, 0xd9, 0xf6, 0x9b,
  0xec, 0x51, 0x7f, 0xda, 0x08, 0xe1, 0x0a, 0x9d, 0x2b, 0xa1, 0xed, 0xb6,
  0x00, 0x00, 0x00, 0x00, 0x2a, 0xf7, 0xff, 0xff, 0x04, 0x00, 0x00, 0x00,
  0x10, 0x00, 0x00, 0x00, 0xcf, 0xff, 0xff, 0xff, 0x95, 0x00, 0x00, 0x00,
  0xe1, 0x00, 0x00, 0x00, 0xe9, 0xfb, 0xff, 0xff, 0x00, 0x00, 0x00, 0x00,
  0x4a, 0xf7, 0xff, 0xff, 0x04, 0x00, 0x00, 0x00, 0x30, 0x00, 0x00, 0x00,
  0x6d, 0x62, 0x26, 0x1c, 0x3f, 0xf0, 0x33, 0x17, 0x81, 0x9e, 0x32, 0x65,
  0x53, 0x52, 0xc5, 0x7f, 0xcb, 0x8e, 0xea, 0x0f, 0xef, 0x47, 0x31, 0xad,
  0xc1, 0xc7, 0x81, 0x30, 0xf3, 0xdf, 0xc2, 0x3a, 0x7f, 0x46, 0x10, 0xd2,
  0x22, 0x12, 0xc0, 0x8a, 0xfe, 0x97, 0xed, 0xa0, 0x28, 0x0f, 0x6b, 0x81,
  0x00, 0x00, 0x00, 0x00, 0x8a, 0xf7, 0xff, 0xff, 0x04, 0x00, 0x00, 0x00,
  0x30, 0x00, 0x00, 0x00, 0xb3, 0x7f, 0x22, 0xa0, 0x54, 0x86, 0xc0, 0x30,
  0xc7, 0x3b, 0x2c, 0xcd, 0xa2, 0xc8, 0x74, 0xbc, 0x1f, 0x7f, 0x90, 0x3d,
  0x5e, 0x4c, 0x39, 0x51, 0x67, 0x12, 0x7f, 0x0e, 0x2a, 0x1f, 0x2b, 0x9b,
  0xa9, 0x0e, 0xf4, 0xf8, 0x0f, 0xc4, 0x81, 0xf2, 0x33, 0xf9, 0x13, 0x08,
  0xe3, 0x3c, 0x50, 0xfa, 0x00, 0x00, 0x00, 0x00, 0xca, 0xf7, 0xff, 0xff,
  0x04, 0x00, 0x00, 0x00, 0x10, 0x00, 0x00, 0x00, 0xf4, 0xfe, 0xff, 0xff,
  0xea, 0x07, 0x00, 0x00, 0x33, 0x00, 0x00, 0x00, 0x24, 0x02, 0x00, 0x00,
  0x00, 0x00, 0x00, 0x00, 0xea, 0xf7, 0xff, 0xff, 0x04, 0x00, 0x00, 0x00,
  0x30, 0x00, 0x00, 0x00, 0x11, 0x2c, 0xdf, 0x7f, 0x3c, 0xec, 0x66, 0x93,
  0x9c, 0xe6, 0xd9, 0x4b, 0xa7, 0xd9, 0x7f, 0xb6, 0x56, 0x04, 0xcb, 0x09,
  0x2d, 0x0c, 0xc7, 0x3f, 0x5f, 0xe8, 0xe7, 0xf9, 0xac, 0x81, 0x3f, 0x2a,
  0xfd, 0x0a, 0x0f, 0x03, 0xe9, 0xec, 0x5f, 0x6c, 0x28, 0x15, 0xf7, 0xe9,
  0x41, 0x81, 0x9a, 0xb1, 0x00, 0x00, 0x00, 0x00, 0x2a, 0xf8, 0xff, 0xff,
  0x04, 0x00, 0x00, 0x00, 0x10, 0x00, 0x00, 0x00, 0xbb, 0xfb, 0xff, 0xff,
  0x8c, 0xfb, 0xff, 0xff, 0x7e, 0x01, 0x00, 0x00, 0xba, 0xfd, 0xff, 0xff,
  0x00, 0x00, 0x00, 0x00, 0x4a, 0xf8, 0xff, 0xff, 0x04, 0x00, 0x00, 0x00,
  0x10, 0x00, 0x00, 0x00, 0xf1, 0x00, 0x00, 0x00, 0xc0, 0x02, 0x00, 0x00,
  0x7e, 0x07, 0x00, 0x00, 0x1a, 0x00, 0x00, 0x00, 0x00, 0x00, 0x00, 0x00,
  0x6a, 0xf8, 0xff, 0xff, 0x04, 0x00, 0x00, 0x00, 0x30, 0x00, 0x00, 0x00,
  0x1e, 0xad, 0x0e, 0x2e, 0x14, 0x63, 0xee, 0xb0, 0x81, 0x53, 0x23, 0x4e,
  0xd1, 0xd0, 0xbf, 0xa1, 0x1f, 0x0d, 0xb5, 0xdf, 0x9c, 0x06, 0x7f, 0x48,
  0xc2, 0x6c, 0x6d, 0x82, 0xef, 0x1f, 0xd2, 0xa0, 0x7f, 0x0a, 0x1e, 0x0d,
  0x62, 0xf3, 0x2e, 0x0f, 0x98, 0x19, 0x7f, 0x30, 0x24, 0xef, 0xf5, 0xbb,
  0x00, 0x00, 0x00, 0x00, 0xaa, 0xf8, 0xff, 0xff, 0x04, 0x00, 0x00, 0x00,
  0x10, 0x00, 0x00, 0x00, 0x35, 0x05, 0x00, 0x00, 0x10, 0xff, 0xff, 0xff,
  0x51, 0x04, 0x00, 0x00, 0xab, 0x02, 0x00, 0x00, 0x00, 0x00, 0x00, 0x00,
  0xca, 0xf8, 0xff, 0xff, 0x04, 0x00, 0x00, 0x00, 0x30, 0x00, 0x00, 0x00,
  0x06, 0xf1, 0x29, 0x81, 0x00, 0x57, 0xe4, 0x34, 0x02, 0xc8, 0xc8, 0x39,
  0x42, 0x08, 0xf6, 0x26, 0xfa, 0x81, 0xea, 0x3e, 0xc2, 0x38, 0x03, 0xa2,
  0x0e, 0x00, 0x82, 0x48, 0xe4, 0xe7, 0x7f, 0x0d, 0x18, 0xde, 0xd4, 0xd4,
  0x00, 0x35, 0xd6, 0x26, 0x05, 0x81, 0x15, 0x10, 0xc7, 0x36, 0x34, 0xe9,
  0x00, 0x00, 0x00, 0x00, 0x0a, 0xf9, 0xff, 0xff, 0x04, 0x00, 0x00, 0x00,
  0x10, 0x00, 0x00, 0x00, 0x3f, 0x01, 0x00, 0x00, 0x36, 0x03, 0x00, 0x00,
  0xe3, 0x00, 0x00, 0x00, 0xb2, 0xfc, 0xff, 0xff, 0x00, 0x00, 0x00, 0x00,
  0x2a, 0xf9, 0xff, 0xff, 0x04, 0x00, 0x00, 0x00, 0x10, 0x00, 0x00, 0x00,
  0x8a, 0x02, 0x00, 0x00, 0xa3, 0xfd, 0xff, 0xff, 0xcf, 0x04, 0x00, 0x00,
  0x1f, 0xfe, 0xff, 0xff, 0x00, 0x00, 0x00, 0x00, 0x4a, 0xf9, 0xff, 0xff,
  0x04, 0x00, 0x00, 0x00, 0x30, 0x00, 0x00, 0x00, 0x46, 0x81, 0x30, 0xc1,
  0x06, 0x42, 0x0e, 0x48, 0x8c, 0x46, 0xca, 0xe3, 0x4f, 0x1b, 0x1b, 0x23,
  0x81, 0x07, 0x3f, 0xcf, 0x2a, 0xf5, 0x9b, 0x2e, 0x2b, 0x1b, 0xc4, 0x69,
  0xd0, 0x56, 0xde, 0xbf, 0x21, 0x81, 0x68, 0xb1, 0x9f, 0xc3, 0xe2, 0x32,
  0x61, 0x7f, 0x95, 0x47, 0xb1, 0xc6, 0x64, 0x86, 0x00, 0x00, 0x00, 0x00,
  0x8a, 0xf9, 0xff, 0xff, 0x04, 0x00, 0x00, 0x00, 0x0c, 0x00, 0x00, 0x00,
  0xb5, 0x34, 0xd2, 0x4d, 0x7f, 0x26, 0xc7, 0x21, 0xd2, 0x97, 0x69, 0x8a,
  0x00, 0x00, 0x00, 0x00, 0x00, 0x00, 0x00, 0x00, 0xaa, 0xf9, 0xff, 0xff,
  0x04, 0x00, 0x00, 0x00, 0x04, 0x00, 0x00, 0x00, 0x39, 0x00, 0x00, 0x00,
  0x00, 0x00, 0x00, 0x00, 0x00, 0x00, 0x00, 0x00, 0xa8, 0xd8, 0xff, 0xff,
  0x00, 0x00, 0x00, 0x00, 0x00, 0x00, 0x00, 0x00, 0x00, 0x00, 0x00, 0x00,
  0xb8, 0xd8, 0xff, 0xff, 0x00, 0x00, 0x00, 0x00, 0x00, 0x00, 0x00, 0x00,
  0x00, 0x00, 0x00, 0x00, 0xc8, 0xd8, 0xff, 0xff, 0x00, 0x00, 0x00, 0x00,
  0x00, 0x00, 0x00, 0x00, 0x00, 0x00, 0x00, 0x00, 0xd8, 0xd8, 0xff, 0xff,
  0x00, 0x00, 0x00, 0x00, 0x00, 0x00, 0x00, 0x00, 0x00, 0x00, 0x00, 0x00,
  0xe8, 0xd8, 0xff, 0xff, 0x00, 0x00, 0x00, 0x00, 0x00, 0x00, 0x00, 0x00,
  0x00, 0x00, 0x00, 0x00, 0xf8, 0xd8, 0xff, 0xff, 0x00, 0x00, 0x00, 0x00,
  0x1a, 0xfa, 0xff, 0xff, 0x04, 0x00, 0x00, 0x00, 0x0c, 0x00, 0x00, 0x00,
  0x01, 0x00, 0x00, 0x00, 0xe5, 0x00, 0x00, 0x00, 0x01, 0x00, 0x00, 0x00,
  0x18, 0xd9, 0xff, 0xff, 0x00, 0x00, 0x00, 0x00, 0x00, 0x00, 0x00, 0x00,
  0x00, 0x00, 0x00, 0x00, 0x28, 0xd9, 0xff, 0xff, 0x00, 0x00, 0x00, 0x00,
  0x0f, 0x00, 0x00, 0x00, 0x54, 0x4f, 0x43, 0x4f, 0x20, 0x43, 0x6f, 0x6e,
  0x76, 0x65, 0x72, 0x74, 0x65, 0x64, 0x2e, 0x00, 0x01, 0x00, 0x00, 0x00,
  0x04, 0x00, 0x00, 0x00, 0xdc, 0xd8, 0xff, 0xff, 0xdc, 0x05, 0x00, 0x00,
  0xd0, 0x05, 0x00, 0x00, 0xc4, 0x05, 0x00, 0x00, 0x04, 0x00, 0x00, 0x00,
  0x1a, 0x00, 0x00, 0x00, 0x68, 0x05, 0x00, 0x00, 0x04, 0x05, 0x00, 0x00,
  0xd0, 0x04, 0x00, 0x00, 0x78, 0x04, 0x00, 0x00, 0x44, 0x04, 0x00, 0x00,
  0x04, 0x04, 0x00, 0x00, 0xd0, 0x03, 0x00, 0x00, 0x90, 0x03, 0x00, 0x00,
  0x6c, 0x03, 0x00, 0x00, 0x2c, 0x03, 0x00, 0x00, 0x08, 0x03, 0x00, 0x00,
  0xc8, 0x02, 0x00, 0x00, 0xa4, 0x02, 0x00, 0x00, 0x64, 0x02, 0x00, 0x00,
  0x40, 0x02, 0x00, 0x00, 0x00, 0x02, 0x00, 0x00, 0xdc, 0x01, 0x00, 0x00,
  0x9c, 0x01, 0x00, 0x00, 0x78, 0x01, 0x00, 0x00, 0x38, 0x01, 0x00, 0x00,
  0x14, 0x01, 0x00, 0x00, 0xd4, 0x00, 0x00, 0x00, 0xb0, 0x00, 0x00, 0x00,
  0x70, 0x00, 0x00, 0x00, 0x4c, 0x00, 0x00, 0x00, 0x04, 0x00, 0x00, 0x00,
  0x6e, 0xfb, 0xff, 0xff, 0x00, 0x00, 0x00, 0x11, 0x02, 0x00, 0x00, 0x00,
  0x2c, 0x00, 0x00, 0x00, 0x20, 0x00, 0x00, 0x00, 0x04, 0x00, 0x00, 0x00,
  0xfe, 0xfa, 0xff, 0xff, 0x04, 0x00, 0x00, 0x00, 0x03, 0x00, 0x00, 0x00,
  0x01, 0x00, 0x00, 0x00, 0xe5, 0x00, 0x00, 0x00, 0x01, 0x00, 0x00, 0x00,
  0x01, 0x00, 0x00, 0x00, 0x32, 0x00, 0x00, 0x00, 0x02, 0x00, 0x00, 0x00,
  0x33, 0x00, 0x00, 0x00, 0x30, 0x00, 0x00, 0x00, 0xde, 0xfb, 0xff, 0xff,
  0x03, 0x00, 0x00, 0x00, 0x10, 0x00, 0x00, 0x00, 0x04, 0x00, 0x00, 0x00,
  0x01, 0x00, 0x00, 0x00, 0x33, 0x00, 0x00, 0x00, 0x01, 0x00, 0x00, 0x00,
  0x2f, 0x00, 0x00, 0x00, 0xc2, 0xfc, 0xff, 0xff, 0x00, 0x00, 0x00, 0x01,
  0x24, 0x00, 0x00, 0x00, 0x18, 0x00, 0x00, 0x00, 0x04, 0x00, 0x00, 0x00,
  0x46, 0xfc, 0xff, 0xff, 0x00, 0x00, 0x00, 0x01, 0x01, 0x00, 0x00, 0x00,
  0x01, 0x00, 0x00, 0x00, 0x01, 0x00, 0x00, 0x00, 0x2f, 0x00, 0x00, 0x00,
  0x03, 0x00, 0x00, 0x00, 0x2a, 0x00, 0x00, 0x00, 0x2e, 0x00, 0x00, 0x00,
  0x31, 0x00, 0x00, 0x00, 0x3a, 0xfc, 0xff, 0xff, 0x03, 0x00, 0x00, 0x00,
  0x10, 0x00, 0x00, 0x00, 0x04, 0x00, 0x00, 0x00, 0x01, 0x00, 0x00, 0x00,
  0x2a, 0x00, 0x00, 0x00, 0x01, 0x00, 0x00, 0x00, 0x2c, 0x00, 0x00, 0x00,
  0x1e, 0xfd, 0xff, 0xff, 0x00, 0x00, 0x00, 0x01, 0x24, 0x00, 0x00, 0x00,
  0x18, 0x00, 0x00, 0x00, 0x04, 0x00, 0x00, 0x00, 0xa2, 0xfc, 0xff, 0xff,
  0x00, 0x00, 0x00, 0x01, 0x01, 0x00, 0x00, 0x00, 0x01, 0x00, 0x00, 0x00,
  0x01, 0x00, 0x00, 0x00, 0x2c, 0x00, 0x00, 0x00, 0x03, 0x00, 0x00, 0x00,
  0x26, 0x00, 0x00, 0x00, 0x2b, 0x00, 0x00, 0x00, 0x2d, 0x00, 0x00, 0x00,
  0x96, 0xfc, 0xff, 0xff, 0x03, 0x00, 0x00, 0x00, 0x10, 0x00, 0x00, 0x00,
  0x04, 0x00, 0x00, 0x00, 0x01, 0x00, 0x00, 0x00, 0x26, 0x00, 0x00, 0x00,
  0x01, 0x00, 0x00, 0x00, 0x28, 0x00, 0x00, 0x00, 0x7a, 0xfd, 0xff, 0xff,
  0x00, 0x00, 0x00, 0x01, 0x24, 0x00, 0x00, 0x00, 0x18, 0x00, 0x00, 0x00,
  0x04, 0x00, 0x00, 0x00, 0xfe, 0xfc, 0xff, 0xff, 0x00, 0x00, 0x00, 0x01,
  0x01, 0x00, 0x00, 0x00, 0x01, 0x00, 0x00, 0x00, 0x01, 0x00, 0x00, 0x00,
  0x28, 0x00, 0x00, 0x00, 0x03, 0x00, 0x00, 0x00, 0x22, 0x00, 0x00, 0x00,
  0x27, 0x00, 0x00, 0x00, 0x29, 0x00, 0x00, 0x00, 0xf2, 0xfc, 0xff, 0xff,
  0x03, 0x00, 0x00, 0x00, 0x10, 0x00, 0x00, 0x00, 0x04, 0x00, 0x00, 0x00,
  0x01, 0x00, 0x00, 0x00, 0x22, 0x00, 0x00, 0x00, 0x01, 0x00, 0x00, 0x00,
  0x24, 0x00, 0x00, 0x00, 0xd6, 0xfd, 0xff, 0xff, 0x00, 0x00, 0x00, 0x01,
  0x24, 0x00, 0x00, 0x00, 0x18, 0x00, 0x00, 0x00, 0x04, 0x00, 0x00, 0x00,
  0x5a, 0xfd, 0xff, 0xff, 0x00, 0x00, 0x00, 0x01, 0x01, 0x00, 0x00, 0x00,
  0x01, 0x00, 0x00, 0x00, 0x01, 0x00, 0x00, 0x00, 0x24, 0x00, 0x00, 0x00,
  0x03, 0x00, 0x00, 0x00, 0x1e, 0x00, 0x00, 0x00, 0x23, 0x00, 0x00, 0x00,
  0x25, 0x00, 0x00, 0x00, 0x4e, 0xfd, 0xff, 0xff, 0x03, 0x00, 0x00, 0x00,
  0x10, 0x00, 0x00, 0x00, 0x04, 0x00, 0x00, 0x00, 0x01, 0x00, 0x00, 0x00,
  0x1e, 0x00, 0x00, 0x00, 0x01, 0x00, 0x00, 0x00, 0x20, 0x00, 0x00, 0x00,
  0x32, 0xfe, 0xff, 0xff, 0x00, 0x00, 0x00, 0x01, 0x24, 0x00, 0x00, 0x00,
  0x18, 0x00, 0x00, 0x00, 0x04, 0x00, 0x00, 0x00, 0xb6, 0xfd, 0xff, 0xff,
  0x00, 0x00, 0x00, 0x01, 0x01, 0x00, 0x00, 0x00, 0x01, 0x00, 0x00, 0x00,
  0x01, 0x00, 0x00, 0x00, 0x20, 0x00, 0x00, 0x00, 0x03, 0x00, 0x00, 0x00,
  0x1a, 0x00, 0x00, 0x00, 0x1f, 0x00, 0x00, 0x00, 0x21, 0x00, 0x00, 0x00,
  0xaa, 0xfd, 0xff, 0xff, 0x03, 0x00, 0x00, 0x00, 0x10, 0x00, 0x00, 0x00,
  0x04, 0x00, 0x00, 0x00, 0x01, 0x00, 0x00, 0x00, 0x1a, 0x00, 0x00, 0x00,
  0x01, 0x00, 0x00, 0x00, 0x1c, 0x00, 0x00, 0x00, 0x8e, 0xfe, 0xff, 0xff,
  0x00, 0x00, 0x00, 0x01, 0x24, 0x00, 0x00, 0x00, 0x18, 0x00, 0x00, 0x00,
  0x04, 0x00, 0x00, 0x00, 0x12, 0xfe, 0xff, 0xff, 0x00, 0x00, 0x00, 0x01,
  0x01, 0x00, 0x00, 0x00, 0x01, 0x00, 0x00, 0x00, 0x01, 0x00, 0x00, 0x00,
  0x1c, 0x00, 0x00, 0x00, 0x03, 0x00, 0x00, 0x00, 0x16, 0x00, 0x00, 0x00,
  0x1b, 0x00, 0x00, 0x00, 0x1d, 0x00, 0x00, 0x00, 0x06, 0xfe, 0xff, 0xff,
  0x03, 0x00, 0x00, 0x00, 0x10, 0x00, 0x00, 0x00, 0x04, 0x00, 0x00, 0x00,
  0x01, 0x00, 0x00, 0x00, 0x16, 0x00, 0x00, 0x00, 0x01, 0x00, 0x00, 0x00,
  0x18, 0x00, 0x00, 0x00, 0xea, 0xfe, 0xff, 0xff, 0x00, 0x00, 0x00, 0x01,
  0x24, 0x00, 0x00, 0x00, 0x18, 0x00, 0x00, 0x00, 0x04, 0x00, 0x00, 0x00,
  0x6e, 0xfe, 0xff, 0xff, 0x00, 0x00, 0x00, 0x01, 0x01, 0x00, 0x00, 0x00,
  0x01, 0x00, 0x00, 0x00, 0x01, 0x00, 0x00, 0x00, 0x18, 0x00, 0x00, 0x00,
  0x03, 0x00, 0x00, 0x00, 0x12, 0x00, 0x00, 0x00, 0x17, 0x00, 0x00, 0x00,
  0x19, 0x00, 0x00, 0x00, 0x62, 0xfe, 0xff, 0xff, 0x03, 0x00, 0x00, 0x00,
  0x10, 0x00, 0x00, 0x00, 0x04, 0x00, 0x00, 0x00, 0x01, 0x00, 0x00, 0x00,
  0x12, 0x00, 0x00, 0x00, 0x01, 0x00, 0x00, 0x00, 0x14, 0x00, 0x00, 0x00,
  0x46, 0xff, 0xff, 0xff, 0x00, 0x00, 0x00, 0x01, 0x24, 0x00, 0x00, 0x00,
  0x18, 0x00, 0x00, 0x00, 0x04, 0x00, 0x00, 0x00, 0xca, 0xfe, 0xff, 0xff,
  0x00, 0x00, 0x00, 0x01, 0x01, 0x00, 0x00, 0x00, 0x01, 0x00, 0x00, 0x00,
  0x01, 0x00, 0x00, 0x00, 0x14, 0x00, 0x00, 0x00, 0x03, 0x00, 0x00, 0x00,
  0x0e, 0x00, 0x00, 0x00, 0x13, 0x00, 0x00, 0x00, 0x15, 0x00, 0x00, 0x00,
  0xbe, 0xfe, 0xff, 0xff, 0x03, 0x00, 0x00, 0x00, 0x10, 0x00, 0x00, 0x00,
  0x04, 0x00, 0x00, 0x00, 0x01, 0x00, 0x00, 0x00, 0x0e, 0x00, 0x00, 0x00,
  0x01, 0x00, 0x00, 0x00, 0x10, 0x00, 0x00, 0x00, 0xa2, 0xff, 0xff, 0xff,
  0x00, 0x00, 0x00, 0x01, 0x24, 0x00, 0x00, 0x00, 0x18, 0x00, 0x00, 0x00,
  0x04, 0x00, 0x00, 0x00, 0x26, 0xff, 0xff, 0xff, 0x00, 0x00, 0x00, 0x01,
  0x01, 0x00, 0x00, 0x00, 0x01, 0x00, 0x00, 0x00, 0x01, 0x00, 0x00, 0x00,
  0x10, 0x00, 0x00, 0x00, 0x03, 0x00, 0x00, 0x00, 0x0a, 0x00, 0x00, 0x00,
  0x0f, 0x00, 0x00, 0x00, 0x11, 0x00, 0x00, 0x00, 0x1a, 0xff, 0xff, 0xff,
  0x03, 0x00, 0x00, 0x00, 0x10, 0x00, 0x00, 0x00, 0x04, 0x00, 0x00, 0x00,
  0x01, 0x00, 0x00, 0x00, 0x0a, 0x00, 0x00, 0x00, 0x01, 0x00, 0x00, 0x00,
  0x0c, 0x00, 0x00, 0x00, 0x00, 0x00, 0x0e, 0x00, 0x14, 0x00, 0x00, 0x00,
  0x08, 0x00, 0x0c, 0x00, 0x07, 0x00, 0x10, 0x00, 0x0e, 0x00, 0x00, 0x00,
  0x00, 0x00, 0x00, 0x01, 0x24, 0x00, 0x00, 0x00, 0x18, 0x00, 0x00, 0x00,
  0x04, 0x00, 0x00, 0x00, 0x92, 0xff, 0xff, 0xff, 0x00, 0x00, 0x00, 0x01,
  0x01, 0x00, 0x00, 0x00, 0x01, 0x00, 0x00, 0x00, 0x01, 0x00, 0x00, 0x00,
  0x0c, 0x00, 0x00, 0x00, 0x03, 0x00, 0x00, 0x00, 0x06, 0x00, 0x00, 0x00,
  0x0b, 0x00, 0x00, 0x00, 0x0d, 0x00, 0x00, 0x00, 0x86, 0xff, 0xff, 0xff,
  0x03, 0x00, 0x00, 0x00, 0x10, 0x00, 0x00, 0x00, 0x04, 0x00, 0x00, 0x00,
  0x01, 0x00, 0x00, 0x00, 0x06, 0x00, 0x00, 0x00, 0x01, 0x00, 0x00, 0x00,
  0x08, 0x00, 0x00, 0x00, 0x00, 0x00, 0x0e, 0x00, 0x16, 0x00, 0x00, 0x00,
  0x08, 0x00, 0x0c, 0x00, 0x07, 0x00, 0x10, 0x00, 0x0e, 0x00, 0x00, 0x00,
  0x00, 0x00, 0x00, 0x01, 0x30, 0x00, 0x00, 0x00, 0x24, 0x00, 0x00, 0x00,
  0x10, 0x00, 0x00, 0x00, 0x00, 0x00, 0x0a, 0x00, 0x10, 0x00, 0x07, 0x00,
  0x08, 0x00, 0x0c, 0x00, 0x0a, 0x00, 0x00, 0x00, 0x00, 0x00, 0x00, 0x01,
  0x01, 0x00, 0x00, 0x00, 0x01, 0x00, 0x00, 0x00, 0x01, 0x00, 0x00, 0x00,
  0x08, 0x00, 0x00, 0x00, 0x03, 0x00, 0x00, 0x00, 0x00, 0x00, 0x00, 0x00,
  0x07, 0x00, 0x00, 0x00, 0x09, 0x00, 0x00, 0x00, 0x00, 0x00, 0x0a, 0x00,
  0x10, 0x00, 0x04, 0x00, 0x08, 0x00, 0x0c, 0x00, 0x0a, 0x00, 0x00, 0x00,
  0x03, 0x00, 0x00, 0x00, 0x10, 0x00, 0x00, 0x00, 0x04, 0x00, 0x00, 0x00,
  0x01, 0x00, 0x00, 0x00, 0x00, 0x00, 0x00, 0x00, 0x01, 0x00, 0x00, 0x00,
  0x04, 0x00, 0x00, 0x00, 0x00, 0x00, 0x0e, 0x00, 0x18, 0x00, 0x08, 0x00,
  0x0c, 0x00, 0x10, 0x00, 0x07, 0x00, 0x14, 0x00, 0x0e, 0x00, 0x00, 0x00,
  0x00, 0x00, 0x00, 0x02, 0x01, 0x00, 0x00, 0x00, 0x34, 0x00, 0x00, 0x00,
  0x28, 0x00, 0x00, 0x00, 0x10, 0x00, 0x00, 0x00, 0x0c, 0x00, 0x14, 0x00,
  0x07, 0x00, 0x08, 0x00, 0x0c, 0x00, 0x10, 0x00, 0x0c, 0x00, 0x00, 0x00,
  0x00, 0x00, 0x00, 0x01, 0x01, 0x00, 0x00, 0x00, 0x01, 0x00, 0x00, 0x00,
  0x04, 0x00, 0x00, 0x00, 0x01, 0x00, 0x00, 0x00, 0x04, 0x00, 0x00, 0x00,
  0x03, 0x00, 0x00, 0x00, 0x01, 0x00, 0x00, 0x00, 0x03, 0x00, 0x00, 0x00,
  0x05, 0x00, 0x00, 0x00, 0x00, 0x00, 0x0e, 0x00, 0x1a, 0x00, 0x08, 0x00,
  0x0c, 0x00, 0x10, 0x00, 0x07, 0x00, 0x14, 0x00, 0x0e, 0x00, 0x00, 0x00,
  0x00, 0x00, 0x00, 0x11, 0x02, 0x00, 0x00, 0x00, 0x38, 0x00, 0x00, 0x00,
  0x2c, 0x00, 0x00, 0x00, 0x0c, 0x00, 0x00, 0x00, 0x00, 0x00, 0x06, 0x00,
  0x08, 0x00, 0x04, 0x00, 0x06, 0x00, 0x00, 0x00, 0x04, 0x00, 0x00, 0x00,
  0x04, 0x00, 0x00, 0x00, 0x01, 0x00, 0x00, 0x00, 0x01, 0x00, 0x00, 0x00,
  0xfd, 0x00, 0x00, 0x00, 0x01, 0x00, 0x00, 0x00, 0x01, 0x00, 0x00, 0x00,
  0x01, 0x00, 0x00, 0x00, 0x02, 0x00, 0x00, 0x00, 0x34, 0x00, 0x00, 0x00,
  0x02, 0x00, 0x00, 0x00, 0x01, 0x00, 0x00, 0x00, 0x32, 0x00, 0x00, 0x00,
  0x01, 0x00, 0x00, 0x00, 0x34, 0x00, 0x00, 0x00, 0x35, 0x00, 0x00, 0x00,
  0xe8, 0x21, 0x00, 0x00, 0x24, 0x21, 0x00, 0x00, 0xb0, 0x20, 0x00, 0x00,
  0xb0, 0x1f, 0x00, 0x00, 0xfc, 0x1e, 0x00, 0x00, 0x58, 0x1e, 0x00, 0x00,
  0xd4, 0x1d, 0x00, 0x00, 0xf0, 0x1c, 0x00, 0x00, 0x4c, 0x1c, 0x00, 0x00,
  0xa8, 0x1b, 0x00, 0x00, 0x24, 0x1b, 0x00, 0x00, 0x40, 0x1a, 0x00, 0x00,
  0x9c, 0x19, 0x00, 0x00, 0xf8, 0x18, 0x00, 0x00, 0x74, 0x18, 0x00, 0x00,
  0x90, 0x17, 0x00, 0x00, 0xec, 0x16, 0x00, 0x00, 0x48, 0x16, 0x00, 0x00,
  0xc4, 0x15, 0x00, 0x00, 0xe0, 0x14, 0x00, 0x00, 0x3c, 0x14, 0x00, 0x00,
  0x98, 0x13, 0x00, 0x00, 0x14, 0x13, 0x00, 0x00, 0x30, 0x12, 0x00, 0x00,
  0x8c, 0x11, 0x00, 0x00, 0xe8, 0x10, 0x00, 0x00, 0x64, 0x10, 0x00, 0x00,
  0x80, 0x0f, 0x00, 0x00, 0xdc, 0x0e, 0x00, 0x00, 0x38, 0x0e, 0x00, 0x00,
  0xb4, 0x0d, 0x00, 0x00, 0xd0, 0x0c, 0x00, 0x00, 0x2c, 0x0c, 0x00, 0x00,
  0x88, 0x0b, 0x00, 0x00, 0x04, 0x0b, 0x00, 0x00, 0x20, 0x0a, 0x00, 0x00,
  0x7c, 0x09, 0x00, 0x00, 0xd8, 0x08, 0x00, 0x00, 0x54, 0x08, 0x00, 0x00,
  0x70, 0x07, 0x00, 0x00, 0xcc, 0x06, 0x00, 0x00, 0x28, 0x06, 0x00, 0x00,
  0xa4, 0x05, 0x00, 0x00, 0xc0, 0x04, 0x00, 0x00, 0x1c, 0x04, 0x00, 0x00,
  0x78, 0x03, 0x00, 0x00, 0xcc, 0x02, 0x00, 0x00, 0x28, 0x02, 0x00, 0x00,
  0xc0, 0x01, 0x00, 0x00, 0x40, 0x01, 0x00, 0x00, 0xe4, 0x00, 0x00, 0x00,
  0x78, 0x00, 0x00, 0x00, 0x04, 0x00, 0x00, 0x00, 0xfa, 0xde, 0xff, 0xff,
  0x00, 0x00, 0x00, 0x09, 0x58, 0x00, 0x00, 0x00, 0x28, 0x00, 0x00, 0x00,
  0x44, 0x00, 0x00, 0x00, 0x04, 0x00, 0x00, 0x00, 0xac, 0xdf, 0xff, 0xff,
  0x30, 0x00, 0x00, 0x00, 0x24, 0x00, 0x00, 0x00, 0x18, 0x00, 0x00, 0x00,
  0x04, 0x00, 0x00, 0x00, 0x01, 0x00, 0x00, 0x00, 0x0a, 0x00, 0x00, 0x00,
  0x00, 0x00, 0x00, 0x00, 0x00, 0x00, 0x00, 0x00, 0x01, 0x00, 0x00, 0x00,
  0x21, 0x21, 0x55, 0x3b, 0x01, 0x00, 0x00, 0x00, 0x00, 0xcc, 0xc2, 0x3e,
  0x01, 0x00, 0x00, 0x00, 0x00, 0xcc, 0xe5, 0xbe, 0x07, 0x00, 0x00, 0x00,
  0x69, 0x6e, 0x70, 0x75, 0x74, 0x5f, 0x33, 0x00, 0x03, 0x00, 0x00, 0x00,
  0x01, 0x00, 0x00, 0x00, 0xfd, 0x00, 0x00, 0x00, 0x01, 0x00, 0x00, 0x00,
  0x6a, 0xdf, 0xff, 0xff, 0x00, 0x00, 0x00, 0x09, 0x4c, 0x00, 0x00, 0x00,
  0x01, 0x00, 0x00, 0x00, 0x2c, 0x00, 0x00, 0x00, 0x04, 0x00, 0x00, 0x00,
  0x5c, 0xdf, 0xff, 0xff, 0x18, 0x00, 0x00, 0x00, 0x04, 0x00, 0x00, 0x00,
  0x01, 0x00, 0x00, 0x00, 0x00, 0x00, 0x00, 0x00, 0x00, 0x00, 0x00, 0x00,
  0x00, 0x00, 0x00, 0x00, 0x01, 0x00, 0x00, 0x00, 0x00, 0x00, 0x00, 0x3c,
  0x10, 0x00, 0x00, 0x00, 0x49, 0x64, 0x65, 0x6e, 0x74, 0x69, 0x74, 0x79,
  0x5f, 0x72, 0x65, 0x6f, 0x72, 0x64, 0x65, 0x72, 0x00, 0x00, 0x00, 0x00,
  0x04, 0x00, 0x00, 0x00, 0x01, 0x00, 0x00, 0x00, 0x01, 0x00, 0x00, 0x00,
  0xe5, 0x00, 0x00, 0x00, 0x01, 0x00, 0x00, 0x00, 0xd2, 0xdf, 0xff, 0xff,
  0x00, 0x00, 0x00, 0x09, 0x40, 0x00, 0x00, 0x00, 0x1b, 0x00, 0x00, 0x00,
  0x28, 0x00, 0x00, 0x00, 0x04, 0x00, 0x00, 0x00, 0xc4, 0xdf, 0xff, 0xff,
  0x14, 0x00, 0x00, 0x00, 0x04, 0x00, 0x00, 0x00, 0x01, 0x00, 0x00, 0x00,
  0x00, 0x00, 0x00, 0x00, 0x00, 0x00, 0x00, 0x00, 0x01, 0x00, 0x00, 0x00,
  0x00, 0x00, 0x00, 0x3c, 0x08, 0x00, 0x00, 0x00, 0x49, 0x64, 0x65, 0x6e,
  0x74, 0x69, 0x74, 0x79, 0x00, 0x00, 0x00, 0x00, 0x03, 0x00, 0x00, 0x00,
  0x01, 0x00, 0x00, 0x00, 0xe5, 0x00, 0x00, 0x00, 0x01, 0x00, 0x00, 0x00,
  0x2a, 0xe0, 0xff, 0xff, 0x00, 0x00, 0x00, 0x02, 0x6c, 0x00, 0x00, 0x00,
  0x09, 0x00, 0x00, 0x00, 0x2c, 0x00, 0x00, 0x00, 0x04, 0x00, 0x00, 0x00,
  0x1c, 0xe0, 0xff, 0xff, 0x18, 0x00, 0x00, 0x00, 0x04, 0x00, 0x00, 0x00,
  0x01, 0x00, 0x00, 0x00, 0x00, 0x00, 0x00, 0x00, 0x00, 0x00, 0x00, 0x00,
  0x00, 0x00, 0x00, 0x00, 0x01, 0x00, 0x00, 0x00, 0x38, 0x30, 0x04, 0x38,
  0x30, 0x00, 0x00, 0x00, 0x30, 0x36, 0x5f, 0x4f, 0x72, 0x61, 0x6e, 0x67,
  0x65, 0x4d, 0x69, 0x63, 0x72, 0x6f, 0x44, 0x61, 0x72, 0x6b, 0x5f, 0x57,
  0x4e, 0x31, 0x32, 0x5f, 0x76, 0x31, 0x2f, 0x63, 0x6f, 0x6e, 0x76, 0x31,
  0x64, 0x5f, 0x33, 0x35, 0x2f, 0x63, 0x6f, 0x6e, 0x76, 0x31, 0x64, 0x5f,
  0x62, 0x69, 0x61, 0x73, 0x00, 0x00, 0x00, 0x00, 0x01, 0x00, 0x00, 0x00,
  0x01, 0x00, 0x00, 0x00, 0xa6, 0xe0, 0xff, 0xff, 0x00, 0x00, 0x00, 0x02,
  0x54, 0x00, 0x00, 0x00, 0x02, 0x00, 0x00, 0x00, 0x0c, 0x00, 0x00, 0x00,
  0x04, 0x00, 0x00, 0x00, 0xc8, 0xe1, 0xff, 0xff, 0x39, 0x00, 0x00, 0x00,
  0x30, 0x36, 0x5f, 0x4f, 0x72, 0x61, 0x6e, 0x67, 0x65, 0x4d, 0x69, 0x63,
  0x72, 0x6f, 0x44, 0x61, 0x72, 0x6b, 0x5f, 0x57, 0x4e, 0x31, 0x32, 0x5f,
  0x76, 0x31, 0x2f, 0x63, 0x6f, 0x6e, 0x76, 0x31, 0x64, 0x5f, 0x33, 0x35,
  0x2f, 0x63, 0x6f, 0x6e, 0x76, 0x31, 0x64, 0x2f, 0x53, 0x71, 0x75, 0x65,
  0x65, 0x7a, 0x65, 0x5f, 0x73, 0x68, 0x61, 0x70, 0x65, 0x00, 0x00, 0x00,
  0x01, 0x00, 0x00, 0x00, 0x03, 0x00, 0x00, 0x00, 0x0a, 0xe1, 0xff, 0xff,
  0x00, 0x00, 0x00, 0x09, 0x84, 0x00, 0x00, 0x00, 0x1e, 0x00, 0x00, 0x00,
  0x44, 0x00, 0x00, 0x00, 0x04, 0x00, 0x00, 0x00, 0xbc, 0xe1, 0xff, 0xff,
  0x30, 0x00, 0x00, 0x00, 0x24, 0x00, 0x00, 0x00, 0x18, 0x00, 0x00, 0x00,
  0x04, 0x00, 0x00, 0x00, 0x01, 0x00, 0x00, 0x00, 0xa0, 0xff, 0xff, 0xff,
  0xff, 0xff, 0xff, 0xff, 0x00, 0x00, 0x00, 0x00, 0x01, 0x00, 0x00, 0x00,
  0xc9, 0x40, 0x97, 0x38, 0x01, 0x00, 0x00, 0x00, 0x96, 0xe0, 0x83, 0x3c,
  0x01, 0x00, 0x00, 0x00, 0x91, 0x47, 0x16, 0xbb, 0x33, 0x00, 0x00, 0x00,
  0x30, 0x36, 0x5f, 0x4f, 0x72, 0x61, 0x6e, 0x67, 0x65, 0x4d, 0x69, 0x63,
  0x72, 0x6f, 0x44, 0x61, 0x72, 0x6b, 0x5f, 0x57, 0x4e, 0x31, 0x32, 0x5f,
  0x76, 0x31, 0x2f, 0x63, 0x6f, 0x6e, 0x76, 0x31, 0x64, 0x5f, 0x33, 0x35,
  0x2f, 0x63, 0x6f, 0x6e, 0x76, 0x31, 0x64, 0x2f, 0x53, 0x71, 0x75, 0x65,
  0x65, 0x7a, 0x65, 0x00, 0x04, 0x00, 0x00, 0x00, 0x01, 0x00, 0x00, 0x00,
  0x01, 0x00, 0x00, 0x00, 0xe5, 0x00, 0x00, 0x00, 0x01, 0x00, 0x00, 0x00,
  0xaa, 0xe1, 0xff, 0xff, 0x00, 0x00, 0x00, 0x09, 0x8c, 0x00, 0x00, 0x00,
  0x0a, 0x00, 0x00, 0x00, 0x44, 0x00, 0x00, 0x00, 0x04, 0x00, 0x00, 0x00,
  0x5c, 0xe2, 0xff, 0xff, 0x30, 0x00, 0x00, 0x00, 0x24, 0x00, 0x00, 0x00,
  0x18, 0x00, 0x00, 0x00, 0x04, 0x00, 0x00, 0x00, 0x01, 0x00, 0x00, 0x00,
  0x00, 0x00, 0x00, 0x00, 0x00, 0x00, 0x00, 0x00, 0x00, 0x00, 0x00, 0x00,
  0x01, 0x00, 0x00, 0x00, 0x38, 0x30, 0x84, 0x3b, 0x01, 0x00, 0x00, 0x00,
  0xd8, 0x27, 0x03, 0x3f, 0x01, 0x00, 0x00, 0x00, 0x31, 0x53, 0xf4, 0xbe,
  0x38, 0x00, 0x00, 0x00, 0x30, 0x36, 0x5f, 0x4f, 0x72, 0x61, 0x6e, 0x67,
  0x65, 0x4d, 0x69, 0x63, 0x72, 0x6f, 0x44, 0x61, 0x72, 0x6b, 0x5f, 0x57,
  0x4e, 0x31, 0x32, 0x5f, 0x76, 0x31, 0x2f, 0x63, 0x6f, 0x6e, 0x76, 0x31,
  0x64, 0x5f, 0x33, 0x35, 0x2f, 0x63, 0x6f, 0x6e, 0x76, 0x31, 0x64, 0x2f,
  0x45, 0x78, 0x70, 0x61, 0x6e, 0x64, 0x44, 0x69, 0x6d, 0x73, 0x5f, 0x31,
  0x00, 0x00, 0x00, 0x00, 0x04, 0x00, 0x00, 0x00, 0x01, 0x00, 0x00, 0x00,
  0x01, 0x00, 0x00, 0x00, 0x03, 0x00, 0x00, 0x00, 0x04, 0x00, 0x00, 0x00,
  0x52, 0xe2, 0xff, 0xff, 0x00, 0x00, 0x00, 0x02, 0x90, 0x00, 0x00, 0x00,
  0x21, 0x00, 0x00, 0x00, 0x50, 0x00, 0x00, 0x00, 0x04, 0x00, 0x00, 0x00,
  0x44, 0xe2, 0xff, 0xff, 0x30, 0x00, 0x00, 0x00, 0x04, 0x00, 0x00, 0x00,
  0x04, 0x00, 0x00, 0x00, 0x00, 0x00, 0x00, 0x00, 0x00, 0x00, 0x00, 0x00,
  0x00, 0x00, 0x00, 0x00, 0x00, 0x00, 0x00, 0x00, 0x00, 0x00, 0x00, 0x00,
  0x00, 0x00, 0x00, 0x00, 0x00, 0x00, 0x00, 0x00, 0x00, 0x00, 0x00, 0x00,
  0x00, 0x00, 0x00, 0x00, 0x04, 0x00, 0x00, 0x00, 0x79, 0xd0, 0xd7, 0x37,
  0xcf, 0x81, 0x01, 0x38, 0xad, 0xde, 0xe7, 0x37, 0xe3, 0x63, 0xa3, 0x37,
  0x30, 0x00, 0x00, 0x00, 0x30, 0x36, 0x5f, 0x4f, 0x72, 0x61, 0x6e, 0x67,
  0x65, 0x4d, 0x69, 0x63, 0x72, 0x6f, 0x44, 0x61, 0x72, 0x6b, 0x5f, 0x57,
  0x4e, 0x31, 0x32, 0x5f, 0x76, 0x31, 0x2f, 0x63, 0x6f, 0x6e, 0x76, 0x31,
  0x64, 0x5f, 0x33, 0x34, 0x2f, 0x63, 0x6f, 0x6e, 0x76, 0x31, 0x64, 0x5f,
  0x62, 0x69, 0x61, 0x73, 0x00, 0x00, 0x00, 0x00, 0x01, 0x00, 0x00, 0x00,
  0x04, 0x00, 0x00, 0x00, 0xf2, 0xe2, 0xff, 0xff, 0x00, 0x00, 0x00, 0x09,
  0x84, 0x00, 0x00, 0x00, 0x35, 0x00, 0x00, 0x00, 0x44, 0x00, 0x00, 0x00,
  0x04, 0x00, 0x00, 0x00, 0xa4, 0xe3, 0xff, 0xff, 0x30, 0x00, 0x00, 0x00,
  0x24, 0x00, 0x00, 0x00, 0x18, 0x00, 0x00, 0x00, 0x04, 0x00, 0x00, 0x00,
  0x01, 0x00, 0x00, 0x00, 0x24, 0x00, 0x00, 0x00, 0x00, 0x00, 0x00, 0x00,
  0x00, 0x00, 0x00, 0x00, 0x01, 0x00, 0x00, 0x00, 0x23, 0x07, 0xb6, 0x39,
  0x01, 0x00, 0x00, 0x00, 0xfd, 0x6c, 0x01, 0x3d, 0x01, 0x00, 0x00, 0x00,
  0x3c, 0x35, 0x69, 0xbd, 0x33, 0x00, 0x00, 0x00, 0x30, 0x36, 0x5f, 0x4f,
  0x72, 0x61, 0x6e, 0x67, 0x65, 0x4d, 0x69, 0x63, 0x72, 0x6f, 0x44, 0x61,
  0x72, 0x6b, 0x5f, 0x57, 0x4e, 0x31, 0x32, 0x5f, 0x76, 0x31, 0x2f, 0x63,
  0x6f, 0x6e, 0x76, 0x31, 0x64, 0x5f, 0x33, 0x34, 0x2f, 0x63, 0x6f, 0x6e,
  0x76, 0x31, 0x64, 0x2f, 0x53, 0x71, 0x75, 0x65, 0x65, 0x7a, 0x65, 0x00,
  0x04, 0x00, 0x00, 0x00, 0x01, 0x00, 0x00, 0x00, 0x01, 0x00, 0x00, 0x00,
  0xe7, 0x00, 0x00, 0x00, 0x04, 0x00, 0x00, 0x00, 0x92, 0xe3, 0xff, 0xff,
  0x00, 0x00, 0x00, 0x09, 0xc4, 0x00, 0x00, 0x00, 0x0b, 0x00, 0x00, 0x00,
  0x7c, 0x00, 0x00, 0x00, 0x04, 0x00, 0x00, 0x00, 0x44, 0xe4, 0xff, 0xff,
  0x5c, 0x00, 0x00, 0x00, 0x44, 0x00, 0x00, 0x00, 0x2c, 0x00, 0x00, 0x00,
  0x04, 0x00, 0x00, 0x00, 0x04, 0x00, 0x00, 0x00, 0x00, 0x00, 0x00, 0x00,
  0x00, 0x00, 0x00, 0x00, 0x00, 0x00, 0x00, 0x00, 0x00, 0x00, 0x00, 0x00,
  0x00, 0x00, 0x00, 0x00, 0x00, 0x00, 0x00, 0x00, 0x00, 0x00, 0x00, 0x00,
  0x00, 0x00, 0x00, 0x00, 0x04, 0x00, 0x00, 0x00, 0x79, 0xd0, 0x57, 0x3b,
  0xcf, 0x81, 0x81, 0x3b, 0xad, 0xde, 0x67, 0x3b, 0xe3, 0x63, 0x23, 0x3b,
  0x04, 0x00, 0x00, 0x00, 0xa6, 0xb8, 0x72, 0x3e, 0x04, 0x5e, 0xa0, 0x3e,
  0x7a, 0xf6, 0xbe, 0x3e, 0x1b, 0x1d, 0xa2, 0x3e, 0x04, 0x00, 0x00, 0x00,
  0xd8, 0x20, 0xd6, 0xbe, 0xcb, 0x7e, 0x00, 0xbf, 0xf0, 0x0e, 0xe6, 0xbe,
  0xaf, 0xcb, 0x9b, 0xbe, 0x38, 0x00, 0x00, 0x00, 0x30, 0x36, 0x5f, 0x4f,
  0x72, 0x61, 0x6e, 0x67, 0x65, 0x4d, 0x69, 0x63, 0x72, 0x6f, 0x44, 0x61,
  0x72, 0x6b, 0x5f, 0x57, 0x4e, 0x31, 0x32, 0x5f, 0x76, 0x31, 0x2f, 0x63,
  0x6f, 0x6e, 0x76, 0x31, 0x64, 0x5f, 0x33, 0x34, 0x2f, 0x63, 0x6f, 0x6e,
  0x76, 0x31, 0x64, 0x2f, 0x45, 0x78, 0x70, 0x61, 0x6e, 0x64, 0x44, 0x69,
  0x6d, 0x73, 0x5f, 0x31, 0x00, 0x00, 0x00, 0x00, 0x04, 0x00, 0x00, 0x00,
  0x04, 0x00, 0x00, 0x00, 0x01, 0x00, 0x00, 0x00, 0x03, 0x00, 0x00, 0x00,
  0x04, 0x00, 0x00, 0x00, 0x72, 0xe4, 0xff, 0xff, 0x00, 0x00, 0x00, 0x09,
  0x64, 0x00, 0x00, 0x00, 0x20, 0x00, 0x00, 0x00, 0x2c, 0x00, 0x00, 0x00,
  0x04, 0x00, 0x00, 0x00, 0x64, 0xe4, 0xff, 0xff, 0x18, 0x00, 0x00, 0x00,
  0x04, 0x00, 0x00, 0x00, 0x01, 0x00, 0x00, 0x00, 0x00, 0x00, 0x00, 0x00,
  0x00, 0x00, 0x00, 0x00, 0x00, 0x00, 0x00, 0x00, 0x01, 0x00, 0x00, 0x00,
  0x00, 0x00, 0x00, 0x3c, 0x29, 0x00, 0x00, 0x00, 0x30, 0x36, 0x5f, 0x4f,
  0x72, 0x61, 0x6e, 0x67, 0x65, 0x4d, 0x69, 0x63, 0x72, 0x6f, 0x44, 0x61,
  0x72, 0x6b, 0x5f, 0x57, 0x4e, 0x31, 0x32, 0x5f, 0x76, 0x31, 0x2f, 0x63,
  0x6f, 0x6e, 0x76, 0x31, 0x64, 0x5f, 0x33, 0x34, 0x2f, 0x54, 0x61, 0x6e,
  0x68, 0x00, 0x00, 0x00, 0x04, 0x00, 0x00, 0x00, 0x01, 0x00, 0x00, 0x00,
  0x01, 0x00, 0x00, 0x00, 0xe7, 0x00, 0x00, 0x00, 0x04, 0x00, 0x00, 0x00,
  0xf2, 0xe4, 0xff, 0xff, 0x00, 0x00, 0x00, 0x02, 0x90, 0x00, 0x00, 0x00,
  0x0c, 0x00, 0x00, 0x00, 0x50, 0x00, 0x00, 0x00, 0x04, 0x00, 0x00, 0x00,
  0xe4, 0xe4, 0xff, 0xff, 0x30, 0x00, 0x00, 0x00, 0x04, 0x00, 0x00, 0x00,
  0x04, 0x00, 0x00, 0x00, 0x00, 0x00, 0x00, 0x00, 0x00, 0x00, 0x00, 0x00,
  0x00, 0x00, 0x00, 0x00, 0x00, 0x00, 0x00, 0x00, 0x00, 0x00, 0x00, 0x00,
  0x00, 0x00, 0x00, 0x00, 0x00, 0x00, 0x00, 0x00, 0x00, 0x00, 0x00, 0x00,
  0x00, 0x00, 0x00, 0x00, 0x04, 0x00, 0x00, 0x00, 0x7b, 0xd5, 0xcb, 0x37,
  0x66, 0x52, 0xa1, 0x37, 0xe9, 0x2c, 0xb2, 0x37, 0xf6, 0x07, 0xaa, 0x37,
  0x30, 0x00, 0x00, 0x00, 0x30, 0x36, 0x5f, 0x4f, 0x72, 0x61, 0x6e, 0x67,
  0x65, 0x4d, 0x69, 0x63, 0x72, 0x6f, 0x44, 0x61, 0x72, 0x6b, 0x5f, 0x57,
  0x4e, 0x31, 0x32, 0x5f, 0x76, 0x31, 0x2f, 0x63, 0x6f, 0x6e, 0x76, 0x31,
  0x64, 0x5f, 0x33, 0x33, 0x2f, 0x63, 0x6f, 0x6e, 0x76, 0x31, 0x64, 0x5f,
  0x62, 0x69, 0x61, 0x73, 0x00, 0x00, 0x00, 0x00, 0x01, 0x00, 0x00, 0x00,
  0x04, 0x00, 0x00, 0x00, 0x92, 0xe5, 0xff, 0xff, 0x00, 0x00, 0x00, 0x09,
  0x84, 0x00, 0x00, 0x00, 0x23, 0x00, 0x00, 0x00, 0x44, 0x00, 0x00, 0x00,
  0x04, 0x00, 0x00, 0x00, 0x44, 0xe6, 0xff, 0xff, 0x30, 0x00, 0x00, 0x00,
  0x24, 0x00, 0x00, 0x00, 0x18, 0x00, 0x00, 0x00, 0x04, 0x00, 0x00, 0x00,
  0x01, 0x00, 0x00, 0x00, 0xe4, 0xff, 0xff, 0xff, 0xff, 0xff, 0xff, 0xff,
  0x00, 0x00, 0x00, 0x00, 0x01, 0x00, 0x00, 0x00, 0x64, 0x53, 0xcb, 0x39,
  0x01, 0x00, 0x00, 0x00, 0x90, 0x6f, 0x76, 0x3d, 0x01, 0x00, 0x00, 0x00,
  0x92, 0xa0, 0x1e, 0xbd, 0x33, 0x00, 0x00, 0x00, 0x30, 0x36, 0x5f, 0x4f,
  0x72, 0x61, 0x6e, 0x67, 0x65, 0x4d, 0x69, 0x63, 0x72, 0x6f, 0x44, 0x61,
  0x72, 0x6b, 0x5f, 0x57, 0x4e, 0x31, 0x32, 0x5f, 0x76, 0x31, 0x2f, 0x63,
  0x6f, 0x6e, 0x76, 0x31, 0x64, 0x5f, 0x33, 0x33, 0x2f, 0x63, 0x6f, 0x6e,
  0x76, 0x31, 0x64, 0x2f, 0x53, 0x71, 0x75, 0x65, 0x65, 0x7a, 0x65, 0x00,
  0x04, 0x00, 0x00, 0x00, 0x01, 0x00, 0x00, 0x00, 0x01, 0x00, 0x00, 0x00,
  0xe9, 0x00, 0x00, 0x00, 0x04, 0x00, 0x00, 0x00, 0x32, 0xe6, 0xff, 0xff,
  0x00, 0x00, 0x00, 0x09, 0xc4, 0x00, 0x00, 0x00, 0x2a, 0x00, 0x00, 0x00,
  0x7c, 0x00, 0x00, 0x00, 0x04, 0x00, 0x00, 0x00, 0xe4, 0xe6, 0xff, 0xff,
  0x5c, 0x00, 0x00, 0x00, 0x44, 0x00, 0x00, 0x00, 0x2c, 0x00, 0x00, 0x00,
  0x04, 0x00, 0x00, 0x00, 0x04, 0x00, 0x00, 0x00, 0x00, 0x00, 0x00, 0x00,
  0x00, 0x00, 0x00, 0x00, 0x00, 0x00, 0x00, 0x00, 0x00, 0x00, 0x00, 0x00,
  0x00, 0x00, 0x00, 0x00, 0x00, 0x00, 0x00, 0x00, 0x00, 0x00, 0x00, 0x00,
  0x00, 0x00, 0x00, 0x00, 0x04, 0x00, 0x00, 0x00, 0x7b, 0xd5, 0x4b, 0x3b,
  0x66, 0x52, 0x21, 0x3b, 0xe9, 0x2c, 0x32, 0x3b, 0xf6, 0x07, 0x2a, 0x3b,
  0x04, 0x00, 0x00, 0x00, 0xea, 0xa7, 0x84, 0x3e, 0xc1, 0x0f, 0xa0, 0x3e,
  0x4e, 0x61, 0x9c, 0x3e, 0xe6, 0xb3, 0xa8, 0x3e, 0x04, 0x00, 0x00, 0x00,
  0xd0, 0x3d, 0xca, 0xbe, 0x91, 0x9e, 0x4f, 0xbe, 0x8f, 0xc8, 0xb0, 0xbe,
  0x4e, 0x02, 0x55, 0xbe, 0x38, 0x00, 0x00, 0x00, 0x30, 0x36, 0x5f, 0x4f,
  0x72, 0x61, 0x6e, 0x67, 0x65, 0x4d, 0x69, 0x63, 0x72, 0x6f, 0x44, 0x61,
  0x72, 0x6b, 0x5f, 0x57, 0x4e, 0x31, 0x32, 0x5f, 0x76, 0x31, 0x2f, 0x63,
  0x6f, 0x6e, 0x76, 0x31, 0x64, 0x5f, 0x33, 0x33, 0x2f, 0x63, 0x6f, 0x6e,
  0x76, 0x31, 0x64, 0x2f, 0x45, 0x78, 0x70, 0x61, 0x6e, 0x64, 0x44, 0x69,
  0x6d, 0x73, 0x5f, 0x31, 0x00, 0x00, 0x00, 0x00, 0x04, 0x00, 0x00, 0x00,
  0x04, 0x00, 0x00, 0x00, 0x01, 0x00, 0x00, 0x00, 0x03, 0x00, 0x00, 0x00,
  0x04, 0x00, 0x00, 0x00, 0x12, 0xe7, 0xff, 0xff, 0x00, 0x00, 0x00, 0x09,
  0x64, 0x00, 0x00, 0x00, 0x03, 0x00, 0x00, 0x00, 0x2c, 0x00, 0x00, 0x00,
  0x04, 0x00, 0x00, 0x00, 0x04, 0xe7, 0xff, 0xff, 0x18, 0x00, 0x00, 0x00,
  0x04, 0x00, 0x00, 0x00, 0x01, 0x00, 0x00, 0x00, 0x00, 0x00, 0x00, 0x00,
  0x00, 0x00, 0x00, 0x00, 0x00, 0x00, 0x00, 0x00, 0x01, 0x00, 0x00, 0x00,
  0x00, 0x00, 0x00, 0x3c, 0x29, 0x00, 0x00, 0x00, 0x30, 0x36, 0x5f, 0x4f,
  0x72, 0x61, 0x6e, 0x67, 0x65, 0x4d, 0x69, 0x63, 0x72, 0x6f, 0x44, 0x61,
  0x72, 0x6b, 0x5f, 0x57, 0x4e, 0x31, 0x32, 0x5f, 0x76, 0x31, 0x2f, 0x63,
  0x6f, 0x6e, 0x76, 0x31, 0x64, 0x5f, 0x33, 0x33, 0x2f, 0x54, 0x61, 0x6e,
  0x68, 0x00, 0x00, 0x00, 0x04, 0x00, 0x00, 0x00, 0x01, 0x00, 0x00, 0x00,
  0x01, 0x00, 0x00, 0x00, 0xe9, 0x00, 0x00, 0x00, 0x04, 0x00, 0x00, 0x00,
  0x92, 0xe7, 0xff, 0xff, 0x00, 0x00, 0x00, 0x02, 0x90, 0x00, 0x00, 0x00,
  0x0d, 0x00, 0x00, 0x00, 0x50, 0x00, 0x00, 0x00, 0x04, 0x00, 0x00, 0x00,
  0x84, 0xe7, 0xff, 0xff, 0x30, 0x00, 0x00, 0x00, 0x04, 0x00, 0x00, 0x00,
  0x04, 0x00, 0x00, 0x00, 0x00, 0x00, 0x00, 0x00, 0x00, 0x00, 0x00, 0x00,
  0x00, 0x00, 0x00, 0x00, 0x00, 0x00, 0x00, 0x00, 0x00, 0x00, 0x00, 0x00,
  0x00, 0x00, 0x00, 0x00, 0x00, 0x00, 0x00, 0x00, 0x00, 0x00, 0x00, 0x00,
  0x00, 0x00, 0x00, 0x00, 0x04, 0x00, 0x00, 0x00, 0xfa, 0x38, 0x06, 0x38,
  0xc9, 0x1a, 0x0d, 0x38, 0x55, 0x6f, 0xf2, 0x37, 0x92, 0x3d, 0x05, 0x38,
  0x30, 0x00, 0x00, 0x00, 0x30, 0x36, 0x5f, 0x4f, 0x72, 0x61, 0x6e, 0x67,
  0x65, 0x4d, 0x69, 0x63, 0x72, 0x6f, 0x44, 0x61, 0x72, 0x6b, 0x5f, 0x57,
  0x4e, 0x31, 0x32, 0x5f, 0x76, 0x31, 0x2f, 0x63, 0x6f, 0x6e, 0x76, 0x31,
  0x64, 0x5f, 0x33, 0x32, 0x2f, 0x63, 0x6f, 0x6e, 0x76, 0x31, 0x64, 0x5f,
  0x62, 0x69, 0x61, 0x73, 0x00, 0x00, 0x00, 0x00, 0x01, 0x00, 0x00, 0x00,
  0x04, 0x00, 0x00, 0x00, 0x32, 0xe8, 0xff, 0xff, 0x00, 0x00, 0x00, 0x09,
  0x84, 0x00, 0x00, 0x00, 0x24, 0x00, 0x00, 0x00, 0x44, 0x00, 0x00, 0x00,
  0x04, 0x00, 0x00, 0x00, 0xe4, 0xe8, 0xff, 0xff, 0x30, 0x00, 0x00, 0x00,
  0x24, 0x00, 0x00, 0x00, 0x18, 0x00, 0x00, 0x00, 0x04, 0x00, 0x00, 0x00,
  0x01, 0x00, 0x00, 0x00, 0xef, 0xff, 0xff, 0xff, 0xff, 0xff, 0xff, 0xff,
  0x00, 0x00, 0x00, 0x00, 0x01, 0x00, 0x00, 0x00, 0x32, 0xaa, 0x5a, 0x3a,
  0x01, 0x00, 0x00, 0x00, 0xff, 0x44, 0xf5, 0x3d, 0x01, 0x00, 0x00, 0x00,
  0x11, 0x5a, 0xbe, 0xbd, 0x33, 0x00, 0x00, 0x00, 0x30, 0x36, 0x5f, 0x4f,
  0x72, 0x61, 0x6e, 0x67, 0x65, 0x4d, 0x69, 0x63, 0x72, 0x6f, 0x44, 0x61,
  0x72, 0x6b, 0x5f, 0x57, 0x4e, 0x31, 0x32, 0x5f, 0x76, 0x31, 0x2f, 0x63,
  0x6f, 0x6e, 0x76, 0x31, 0x64, 0x5f, 0x33, 0x32, 0x2f, 0x63, 0x6f, 0x6e,
  0x76, 0x31, 0x64, 0x2f, 0x53, 0x71, 0x75, 0x65, 0x65, 0x7a, 0x65, 0x00,
  0x04, 0x00, 0x00, 0x00, 0x01, 0x00, 0x00, 0x00, 0x01, 0x00, 0x00, 0x00,
  0xeb, 0x00, 0x00, 0x00, 0x04, 0x00, 0x00, 0x00, 0xd2, 0xe8, 0xff, 0xff,
  0x00, 0x00, 0x00, 0x09, 0xc4, 0x00, 0x00, 0x00, 0x0e, 0x00, 0x00, 0x00,
  0x7c, 0x00, 0x00, 0x00, 0x04, 0x00, 0x00, 0x00, 0x84, 0xe9, 0xff, 0xff,
  0x5c, 0x00, 0x00, 0x00, 0x44, 0x00, 0x00, 0x00, 0x2c, 0x00, 0x00, 0x00,
  0x04, 0x00, 0x00, 0x00, 0x04, 0x00, 0x00, 0x00, 0x00, 0x00, 0x00, 0x00,
  0x00, 0x00, 0x00, 0x00, 0x00, 0x00, 0x00, 0x00, 0x00, 0x00, 0x00, 0x00,
  0x00, 0x00, 0x00, 0x00, 0x00, 0x00, 0x00, 0x00, 0x00, 0x00, 0x00, 0x00,
  0x00, 0x00, 0x00, 0x00, 0x04, 0x00, 0x00, 0x00, 0xfa, 0x38, 0x86, 0x3b,
  0xc9, 0x1a, 0x8d, 0x3b, 0x55, 0x6f, 0x72, 0x3b, 0x92, 0x3d, 0x85, 0x3b,
  0x04, 0x00, 0x00, 0x00, 0x7d, 0x76, 0xb6, 0x3e, 0xc0, 0x33, 0x92, 0x3e,
  0x76, 0x8a, 0xf0, 0x3e, 0xf3, 0x19, 0x60, 0x3e, 0x04, 0x00, 0x00, 0x00,
  0x88, 0x2c, 0x05, 0xbf, 0x93, 0x00, 0x0c, 0xbf, 0x4b, 0x00, 0xee, 0xbe,
  0x17, 0x33, 0x04, 0xbf, 0x38, 0x00, 0x00, 0x00, 0x30, 0x36, 0x5f, 0x4f,
  0x72, 0x61, 0x6e, 0x67, 0x65, 0x4d, 0x69, 0x63, 0x72, 0x6f, 0x44, 0x61,
  0x72, 0x6b, 0x5f, 0x57, 0x4e, 0x31, 0x32, 0x5f, 0x76, 0x31, 0x2f, 0x63,
  0x6f, 0x6e, 0x76, 0x31, 0x64, 0x5f, 0x33, 0x32, 0x2f, 0x63, 0x6f, 0x6e,
  0x76, 0x31, 0x64, 0x2f, 0x45, 0x78, 0x70, 0x61, 0x6e, 0x64, 0x44, 0x69,
  0x6d, 0x73, 0x5f, 0x31, 0x00, 0x00, 0x00, 0x00, 0x04, 0x00, 0x00, 0x00,
  0x04, 0x00, 0x00, 0x00, 0x01, 0x00, 0x00, 0x00, 0x03, 0x00, 0x00, 0x00,
  0x04, 0x00, 0x00, 0x00, 0xb2, 0xe9, 0xff, 0xff, 0x00, 0x00, 0x00, 0x09,
  0x64, 0x00, 0x00, 0x00, 0x22, 0x00, 0x00, 0x00, 0x2c, 0x00, 0x00, 0x00,
  0x04, 0x00, 0x00, 0x00, 0xa4, 0xe9, 0xff, 0xff, 0x18, 0x00, 0x00, 0x00,
  0x04, 0x00, 0x00, 0x00, 0x01, 0x00, 0x00, 0x00, 0x00, 0x00, 0x00, 0x00,
  0x00, 0x00, 0x00, 0x00, 0x00, 0x00, 0x00, 0x00, 0x01, 0x00, 0x00, 0x00,
  0x00, 0x00, 0x00, 0x3c, 0x29, 0x00, 0x00, 0x00, 0x30, 0x36, 0x5f, 0x4f,
  0x72, 0x61, 0x6e, 0x67, 0x65, 0x4d, 0x69, 0x63, 0x72, 0x6f, 0x44, 0x61,
  0x72, 0x6b, 0x5f, 0x57, 0x4e, 0x31, 0x32, 0x5f, 0x76, 0x31, 0x2f, 0x63,
  0x6f, 0x6e, 0x76, 0x31, 0x64, 0x5f, 0x33, 0x32, 0x2f, 0x54, 0x61, 0x6e,
  0x68, 0x00, 0x00, 0x00, 0x04, 0x00, 0x00, 0x00, 0x01, 0x00, 0x00, 0x00,
  0x01, 0x00, 0x00, 0x00, 0xeb, 0x00, 0x00, 0x00, 0x04, 0x00, 0x00, 0x00,
  0x32, 0xea, 0xff, 0xff, 0x00, 0x00, 0x00, 0x02, 0x90, 0x00, 0x00, 0x00,
  0x11, 0x00, 0x00, 0x00, 0x50, 0x00, 0x00, 0x00, 0x04, 0x00, 0x00, 0x00,
  0x24, 0xea, 0xff, 0xff, 0x30, 0x00, 0x00, 0x00, 0x04, 0x00, 0x00, 0x00,
  0x04, 0x00, 0x00, 0x00, 0x00, 0x00, 0x00, 0x00, 0x00, 0x00, 0x00, 0x00,
  0x00, 0x00, 0x00, 0x00, 0x00, 0x00, 0x00, 0x00, 0x00, 0x00, 0x00, 0x00,
  0x00, 0x00, 0x00, 0x00, 0x00, 0x00, 0x00, 0x00, 0x00, 0x00, 0x00, 0x00,
  0x00, 0x00, 0x00, 0x00, 0x04, 0x00, 0x00, 0x00, 0x98, 0xd5, 0x0b, 0x38,
  0xb9, 0x16, 0xdc, 0x37, 0xb6, 0xad, 0xd0, 0x37, 0xb6, 0x3c, 0x0f, 0x38,
  0x30, 0x00, 0x00, 0x00, 0x30, 0x36, 0x5f, 0x4f, 0x72, 0x61, 0x6e, 0x67,
  0x65, 0x4d, 0x69, 0x63, 0x72, 0x6f, 0x44, 0x61, 0x72, 0x6b, 0x5f, 0x57,
  0x4e, 0x31, 0x32, 0x5f, 0x76, 0x31, 0x2f, 0x63, 0x6f, 0x6e, 0x76, 0x31,
  0x64, 0x5f, 0x33, 0x31, 0x2f, 0x63, 0x6f, 0x6e, 0x76, 0x31, 0x64, 0x5f,
  0x62, 0x69, 0x61, 0x73, 0x00, 0x00, 0x00, 0x00, 0x01, 0x00, 0x00, 0x00,
  0x04, 0x00, 0x00, 0x00, 0xd2, 0xea, 0xff, 0xff, 0x00, 0x00, 0x00, 0x09,
  0x84, 0x00, 0x00, 0x00, 0x2c, 0x00, 0x00, 0x00, 0x44, 0x00, 0x00, 0x00,
  0x04, 0x00, 0x00, 0x00, 0x84, 0xeb, 0xff, 0xff, 0x30, 0x00, 0x00, 0x00,
  0x24, 0x00, 0x00, 0x00, 0x18, 0x00, 0x00, 0x00, 0x04, 0x00, 0x00, 0x00,
  0x01, 0x00, 0x00, 0x00, 0xf4, 0xff, 0xff, 0xff, 0xff, 0xff, 0xff, 0xff,
  0x00, 0x00, 0x00, 0x00, 0x01, 0x00, 0x00, 0x00, 0x52, 0x40, 0xe5, 0x3a,
  0x01, 0x00, 0x00, 0x00, 0x2e, 0x8f, 0x78, 0x3e, 0x01, 0x00, 0x00, 0x00,
  0xf6, 0x26, 0x50, 0xbe, 0x33, 0x00, 0x00, 0x00, 0x30, 0x36, 0x5f, 0x4f,
  0x72, 0x61, 0x6e, 0x67, 0x65, 0x4d, 0x69, 0x63, 0x72, 0x6f, 0x44, 0x61,
  0x72, 0x6b, 0x5f, 0x57, 0x4e, 0x31, 0x32, 0x5f, 0x76, 0x31, 0x2f, 0x63,
  0x6f, 0x6e, 0x76, 0x31, 0x64, 0x5f, 0x33, 0x31, 0x2f, 0x63, 0x6f, 0x6e,
  0x76, 0x31, 0x64, 0x2f, 0x53, 0x71, 0x75, 0x65, 0x65, 0x7a, 0x65, 0x00,
  0x04, 0x00, 0x00, 0x00, 0x01, 0x00, 0x00, 0x00, 0x01, 0x00, 0x00, 0x00,
  0xed, 0x00, 0x00, 0x00, 0x04, 0x00, 0x00, 0x00, 0x72, 0xeb, 0xff, 0xff,
  0x00, 0x00, 0x00, 0x09, 0xc4, 0x00, 0x00, 0x00, 0x34, 0x00, 0x00, 0x00,
  0x7c, 0x00, 0x00, 0x00, 0x04, 0x00, 0x00, 0x00, 0x24, 0xec, 0xff, 0xff,
  0x5c, 0x00, 0x00, 0x00, 0x44, 0x00, 0x00, 0x00, 0x2c, 0x00, 0x00, 0x00,
  0x04, 0x00, 0x00, 0x00, 0x04, 0x00, 0x00, 0x00, 0x00, 0x00, 0x00, 0x00,
  0x00, 0x00, 0x00, 0x00, 0x00, 0x00, 0x00, 0x00, 0x00, 0x00, 0x00, 0x00,
  0x00, 0x00, 0x00, 0x00, 0x00, 0x00, 0x00, 0x00, 0x00, 0x00, 0x00, 0x00,
  0x00, 0x00, 0x00, 0x00, 0x04, 0x00, 0x00, 0x00, 0x98, 0xd5, 0x8b, 0x3b,
  0xb9, 0x16, 0x5c, 0x3b, 0xb6, 0xad, 0x50, 0x3b, 0xb6, 0x3c, 0x8f, 0x3b,
  0x04, 0x00, 0x00, 0x00, 0x34, 0x02, 0xd2, 0x3e, 0x8c, 0x5e, 0xda, 0x3e,
  0x5b, 0x0c, 0xcf, 0x3e, 0xfd, 0x5d, 0x09, 0x3f, 0x04, 0x00, 0x00, 0x00,
  0xed, 0xbd, 0x0a, 0xbf, 0xda, 0x59, 0xae, 0xbe, 0x8c, 0xd2, 0xbd, 0xbe,
  0x3d, 0x1e, 0x0e, 0xbf, 0x38, 0x00, 0x00, 0x00, 0x30, 0x36, 0x5f, 0x4f,
  0x72, 0x61, 0x6e, 0x67, 0x65, 0x4d, 0x69, 0x63, 0x72, 0x6f, 0x44, 0x61,
  0x72, 0x6b, 0x5f, 0x57, 0x4e, 0x31, 0x32, 0x5f, 0x76, 0x31, 0x2f, 0x63,
  0x6f, 0x6e, 0x76, 0x31, 0x64, 0x5f, 0x33, 0x31, 0x2f, 0x63, 0x6f, 0x6e,
  0x76, 0x31, 0x64, 0x2f, 0x45, 0x78, 0x70, 0x61, 0x6e, 0x64, 0x44, 0x69,
  0x6d, 0x73, 0x5f, 0x31, 0x00, 0x00, 0x00, 0x00, 0x04, 0x00, 0x00, 0x00,
  0x04, 0x00, 0x00, 0x00, 0x01, 0x00, 0x00, 0x00, 0x03, 0x00, 0x00, 0x00,
  0x04, 0x00, 0x00, 0x00, 0x52, 0xec, 0xff, 0xff, 0x00, 0x00, 0x00, 0x09,
  0x64, 0x00, 0x00, 0x00, 0x04, 0x00, 0x00, 0x00, 0x2c, 0x00, 0x00, 0x00,
  0x04, 0x00, 0x00, 0x00, 0x44, 0xec, 0xff, 0xff, 0x18, 0x00, 0x00, 0x00,
  0x04, 0x00, 0x00, 0x00, 0x01, 0x00, 0x00, 0x00, 0x00, 0x00, 0x00, 0x00,
  0x00, 0x00, 0x00, 0x00, 0x00, 0x00, 0x00, 0x00, 0x01, 0x00, 0x00, 0x00,
  0x00, 0x00, 0x00, 0x3c, 0x29, 0x00, 0x00, 0x00, 0x30, 0x36, 0x5f, 0x4f,
  0x72, 0x61, 0x6e, 0x67, 0x65, 0x4d, 0x69, 0x63, 0x72, 0x6f, 0x44, 0x61,
  0x72, 0x6b, 0x5f, 0x57, 0x4e, 0x31, 0x32, 0x5f, 0x76, 0x31, 0x2f, 0x63,
  0x6f, 0x6e, 0x76, 0x31, 0x64, 0x5f, 0x33, 0x31, 0x2f, 0x54, 0x61, 0x6e,
  0x68, 0x00, 0x00, 0x00, 0x04, 0x00, 0x00, 0x00, 0x01, 0x00, 0x00, 0x00,
  0x01, 0x00, 0x00, 0x00, 0xed, 0x00, 0x00, 0x00, 0x04, 0x00, 0x00, 0x00,
  0xd2, 0xec, 0xff, 0xff, 0x00, 0x00, 0x00, 0x02, 0x90, 0x00, 0x00, 0x00,
  0x0f, 0x00, 0x00, 0x00, 0x50, 0x00, 0x00, 0x00, 0x04, 0x00, 0x00, 0x00,
  0xc4, 0xec, 0xff, 0xff, 0x30, 0x00, 0x00, 0x00, 0x04, 0x00, 0x00, 0x00,
  0x04, 0x00, 0x00, 0x00, 0x00, 0x00, 0x00, 0x00, 0x00, 0x00, 0x00, 0x00,
  0x00, 0x00, 0x00, 0x00, 0x00, 0x00, 0x00, 0x00, 0x00, 0x00, 0x00, 0x00,
  0x00, 0x00, 0x00, 0x00, 0x00, 0x00, 0x00, 0x00, 0x00, 0x00, 0x00, 0x00,
  0x00, 0x00, 0x00, 0x00, 0x04, 0x00, 0x00, 0x00, 0xf5, 0x55, 0xcd, 0x37,
  0xc5, 0xe3, 0xfc, 0x37, 0xd6, 0xd8, 0x79, 0x37, 0x69, 0x3d, 0xfe, 0x37,
  0x30, 0x00, 0x00, 0x00, 0x30, 0x36, 0x5f, 0x4f, 0x72, 0x61, 0x6e, 0x67,
  0x65, 0x4d, 0x69, 0x63, 0x72, 0x6f, 0x44, 0x61, 0x72, 0x6b, 0x5f, 0x57,
  0x4e, 0x31, 0x32, 0x5f, 0x76, 0x31, 0x2f, 0x63, 0x6f, 0x6e, 0x76, 0x31,
  0x64, 0x5f, 0x33, 0x30, 0x2f, 0x63, 0x6f, 0x6e, 0x76, 0x31, 0x64, 0x5f,
  0x62, 0x69, 0x61, 0x73, 0x00, 0x00, 0x00, 0x00, 0x01, 0x00, 0x00, 0x00,
  0x04, 0x00, 0x00, 0x00, 0x72, 0xed, 0xff, 0xff, 0x00, 0x00, 0x00, 0x09,
  0x84, 0x00, 0x00, 0x00, 0x2b, 0x00, 0x00, 0x00, 0x44, 0x00, 0x00, 0x00,
  0x04, 0x00, 0x00, 0x00, 0x24, 0xee, 0xff, 0xff, 0x30, 0x00, 0x00, 0x00,
  0x24, 0x00, 0x00, 0x00, 0x18, 0x00, 0x00, 0x00, 0x04, 0x00, 0x00, 0x00,
  0x01, 0x00, 0x00, 0x00, 0xfc, 0xff, 0xff, 0xff, 0xff, 0xff, 0xff, 0xff,
  0x00, 0x00, 0x00, 0x00, 0x01, 0x00, 0x00, 0x00, 0xed, 0x6b, 0x2d, 0x3b,
  0x01, 0x00, 0x00, 0x00, 0xf9, 0xe1, 0xb1, 0x3e, 0x01, 0x00, 0x00, 0x00,
  0x09, 0x9b, 0xa7, 0xbe, 0x33, 0x00, 0x00, 0x00, 0x30, 0x36, 0x5f, 0x4f,
  0x72, 0x61, 0x6e, 0x67, 0x65, 0x4d, 0x69, 0x63, 0x72, 0x6f, 0x44, 0x61,
  0x72, 0x6b, 0x5f, 0x57, 0x4e, 0x31, 0x32, 0x5f, 0x76, 0x31, 0x2f, 0x63,
  0x6f, 0x6e, 0x76, 0x31, 0x64, 0x5f, 0x33, 0x30, 0x2f, 0x63, 0x6f, 0x6e,
  0x76, 0x31, 0x64, 0x2f, 0x53, 0x71, 0x75, 0x65, 0x65, 0x7a, 0x65, 0x00,
  0x04, 0x00, 0x00, 0x00, 0x01, 0x00, 0x00, 0x00, 0x01, 0x00, 0x00, 0x00,
  0xef, 0x00, 0x00, 0x00, 0x04, 0x00, 0x00, 0x00, 0x12, 0xee, 0xff, 0xff,
  0x00, 0x00, 0x00, 0x09, 0xc4, 0x00, 0x00, 0x00, 0x10, 0x00, 0x00, 0x00,
  0x7c, 0x00, 0x00, 0x00, 0x04, 0x00, 0x00, 0x00, 0xc4, 0xee, 0xff, 0xff,
  0x5c, 0x00, 0x00, 0x00, 0x44, 0x00, 0x00, 0x00, 0x2c, 0x00, 0x00, 0x00,
  0x04, 0x00, 0x00, 0x00, 0x04, 0x00, 0x00, 0x00, 0x00, 0x00, 0x00, 0x00,
  0x00, 0x00, 0x00, 0x00, 0x00, 0x00, 0x00, 0x00, 0x00, 0x00, 0x00, 0x00,
  0x00, 0x00, 0x00, 0x00, 0x00, 0x00, 0x00, 0x00, 0x00, 0x00, 0x00, 0x00,
  0x00, 0x00, 0x00, 0x00, 0x04, 0x00, 0x00, 0x00, 0xf5, 0x55, 0x4d, 0x3b,
  0xc5, 0xe3, 0x7c, 0x3b, 0xd6, 0xd8, 0xf9, 0x3a, 0x69, 0x3d, 0x7e, 0x3b,
  0x04, 0x00, 0x00, 0x00, 0x9a, 0x85, 0x9e, 0x3e, 0xfd, 0xe9, 0xfa, 0x3e,
  0x24, 0xe5, 0x77, 0x3e, 0xee, 0x40, 0xfc, 0x3e, 0x04, 0x00, 0x00, 0x00,
  0x49, 0xbb, 0xcb, 0xbe, 0xb3, 0x49, 0xc5, 0xbe, 0x7b, 0x96, 0x76, 0xbe,
  0x95, 0x8d, 0xcf, 0xbe, 0x38, 0x00, 0x00, 0x00, 0x30, 0x36, 0x5f, 0x4f,
  0x72, 0x61, 0x6e, 0x67, 0x65, 0x4d, 0x69, 0x63, 0x72, 0x6f, 0x44, 0x61,
  0x72, 0x6b, 0x5f, 0x57, 0x4e, 0x31, 0x32, 0x5f, 0x76, 0x31, 0x2f, 0x63,
  0x6f, 0x6e, 0x76, 0x31, 0x64, 0x5f, 0x33, 0x30, 0x2f, 0x63, 0x6f, 0x6e,
  0x76, 0x31, 0x64, 0x2f, 0x45, 0x78, 0x70, 0x61, 0x6e, 0x64, 0x44, 0x69,
  0x6d, 0x73, 0x5f, 0x31, 0x00, 0x00, 0x00, 0x00, 0x04, 0x00, 0x00, 0x00,
  0x04, 0x00, 0x00, 0x00, 0x01, 0x00, 0x00, 0x00, 0x03, 0x00, 0x00, 0x00,
  0x04, 0x00, 0x00, 0x00, 0xf2, 0xee, 0xff, 0xff, 0x00, 0x00, 0x00, 0x09,
  0x64, 0x00, 0x00, 0x00, 0x05, 0x00, 0x00, 0x00, 0x2c, 0x00, 0x00, 0x00,
  0x04, 0x00, 0x00, 0x00, 0xe4, 0xee, 0xff, 0xff, 0x18, 0x00, 0x00, 0x00,
  0x04, 0x00, 0x00, 0x00, 0x01, 0x00, 0x00, 0x00, 0x00, 0x00, 0x00, 0x00,
  0x00, 0x00, 0x00, 0x00, 0x00, 0x00, 0x00, 0x00, 0x01, 0x00, 0x00, 0x00,
  0x00, 0x00, 0x00, 0x3c, 0x29, 0x00, 0x00, 0x00, 0x30, 0x36, 0x5f, 0x4f,
  0x72, 0x61, 0x6e, 0x67, 0x65, 0x4d, 0x69, 0x63, 0x72, 0x6f, 0x44, 0x61,
  0x72, 0x6b, 0x5f, 0x57, 0x4e, 0x31, 0x32, 0x5f, 0x76, 0x31, 0x2f, 0x63,
  0x6f, 0x6e, 0x76, 0x31, 0x64, 0x5f, 0x33, 0x30, 0x2f, 0x54, 0x61, 0x6e,
  0x68, 0x00, 0x00, 0x00, 0x04, 0x00, 0x00, 0x00, 0x01, 0x00, 0x00, 0x00,
  0x01, 0x00, 0x00, 0x00, 0xef, 0x00, 0x00, 0x00, 0x04, 0x00, 0x00, 0x00,
  0x72, 0xef, 0xff, 0xff, 0x00, 0x00, 0x00, 0x02, 0x90, 0x00, 0x00, 0x00,
  0x12, 0x00, 0x00, 0x00, 0x50, 0x00, 0x00, 0x00, 0x04, 0x00, 0x00, 0x00,
  0x64, 0xef, 0xff, 0xff, 0x30, 0x00, 0x00, 0x00, 0x04, 0x00, 0x00, 0x00,
  0x04, 0x00, 0x00, 0x00, 0x00, 0x00, 0x00, 0x00, 0x00, 0x00, 0x00, 0x00,
  0x00, 0x00, 0x00, 0x00, 0x00, 0x00, 0x00, 0x00, 0x00, 0x00, 0x00, 0x00,
  0x00, 0x00, 0x00, 0x00, 0x00, 0x00, 0x00, 0x00, 0x00, 0x00, 0x00, 0x00,
  0x00, 0x00, 0x00, 0x00, 0x04, 0x00, 0x00, 0x00, 0xd8, 0xe2, 0x15, 0x38,
  0xf9, 0xd0, 0xe4, 0x37, 0x0e, 0xbb, 0x1f, 0x38, 0x22, 0xaf, 0xcb, 0x37,
  0x30, 0x00, 0x00, 0x00, 0x30, 0x36, 0x5f, 0x4f, 0x72, 0x61, 0x6e, 0x67,
  0x65, 0x4d, 0x69, 0x63, 0x72, 0x6f, 0x44, 0x61, 0x72, 0x6b, 0x5f, 0x57,
  0x4e, 0x31, 0x32, 0x5f, 0x76, 0x31, 0x2f, 0x63, 0x6f, 0x6e, 0x76, 0x31,
  0x64, 0x5f, 0x32, 0x39, 0x2f, 0x63, 0x6f, 0x6e, 0x76, 0x31, 0x64, 0x5f,
  0x62, 0x69, 0x61, 0x73, 0x00, 0x00, 0x00, 0x00, 0x01, 0x00, 0x00, 0x00,
  0x04, 0x00, 0x00, 0x00, 0x12, 0xf0, 0xff, 0xff, 0x00, 0x00, 0x00, 0x09,
  0x84, 0x00, 0x00, 0x00, 0x31, 0x00, 0x00, 0x00, 0x44, 0x00, 0x00, 0x00,
  0x04, 0x00, 0x00, 0x00, 0xc4, 0xf0, 0xff, 0xff, 0x30, 0x00, 0x00, 0x00,
  0x24, 0x00, 0x00, 0x00, 0x18, 0x00, 0x00, 0x00, 0x04, 0x00, 0x00, 0x00,
  0x01, 0x00, 0x00, 0x00, 0x02, 0x00, 0x00, 0x00, 0x00, 0x00, 0x00, 0x00,
  0x00, 0x00, 0x00, 0x00, 0x01, 0x00, 0x00, 0x00, 0x17, 0x55, 0x81, 0x3b,
  0x01, 0x00, 0x00, 0x00, 0xec, 0x7c, 0xfc, 0x3e, 0x01, 0x00, 0x00, 0x00,
  0x0f, 0x69, 0x03, 0xbf, 0x33, 0x00, 0x00, 0x00, 0x30, 0x36, 0x5f, 0x4f,
  0x72, 0x61, 0x6e, 0x67, 0x65, 0x4d, 0x69, 0x63, 0x72, 0x6f, 0x44, 0x61,
  0x72, 0x6b, 0x5f, 0x57, 0x4e, 0x31, 0x32, 0x5f, 0x76, 0x31, 0x2f, 0x63,
  0x6f, 0x6e, 0x76, 0x31, 0x64, 0x5f, 0x32, 0x39, 0x2f, 0x63, 0x6f, 0x6e,
  0x76, 0x31, 0x64, 0x2f, 0x53, 0x71, 0x75, 0x65, 0x65, 0x7a, 0x65, 0x00,
  0x04, 0x00, 0x00, 0x00, 0x01, 0x00, 0x00, 0x00, 0x01, 0x00, 0x00, 0x00,
  0xf1, 0x00, 0x00, 0x00, 0x04, 0x00, 0x00, 0x00, 0xb2, 0xf0, 0xff, 0xff,
  0x00, 0x00, 0x00, 0x09, 0xc4, 0x00, 0x00, 0x00, 0x13, 0x00, 0x00, 0x00,
  0x7c, 0x00, 0x00, 0x00, 0x04, 0x00, 0x00, 0x00, 0x64, 0xf1, 0xff, 0xff,
  0x5c, 0x00, 0x00, 0x00, 0x44, 0x00, 0x00, 0x00, 0x2c, 0x00, 0x00, 0x00,
  0x04, 0x00, 0x00, 0x00, 0x04, 0x00, 0x00, 0x00, 0x00, 0x00, 0x00, 0x00,
  0x00, 0x00, 0x00, 0x00, 0x00, 0x00, 0x00, 0x00, 0x00, 0x00, 0x00, 0x00,
  0x00, 0x00, 0x00, 0x00, 0x00, 0x00, 0x00, 0x00, 0x00, 0x00, 0x00, 0x00,
  0x00, 0x00, 0x00, 0x00, 0x04, 0x00, 0x00, 0x00, 0xd8, 0xe2, 0x95, 0x3b,
  0xf9, 0xd0, 0x64, 0x3b, 0x0e, 0xbb, 0x9f, 0x3b, 0x22, 0xaf, 0x4b, 0x3b,
  0x04, 0x00, 0x00, 0x00, 0x12, 0xb7, 0x14, 0x3f, 0x57, 0x07, 0xe3, 0x3e,
  0x14, 0x79, 0xed, 0x3e, 0x56, 0x0f, 0xac, 0x3e, 0x04, 0x00, 0x00, 0x00,
  0x16, 0xff, 0xff, 0xbe, 0xdd, 0x9d, 0x9e, 0xbe, 0x98, 0x7b, 0x1e, 0xbf,
  0xc4, 0x17, 0xca, 0xbe, 0x38, 0x00, 0x00, 0x00, 0x30, 0x36, 0x5f, 0x4f,
  0x72, 0x61, 0x6e, 0x67, 0x65, 0x4d, 0x69, 0x63, 0x72, 0x6f, 0x44, 0x61,
  0x72, 0x6b, 0x5f, 0x57, 0x4e, 0x31, 0x32, 0x5f, 0x76, 0x31, 0x2f, 0x63,
  0x6f, 0x6e, 0x76, 0x31, 0x64, 0x5f, 0x32, 0x39, 0x2f, 0x63, 0x6f, 0x6e,
  0x76, 0x31, 0x64, 0x2f, 0x45, 0x78, 0x70, 0x61, 0x6e, 0x64, 0x44, 0x69,
  0x6d, 0x73, 0x5f, 0x31, 0x00, 0x00, 0x00, 0x00, 0x04, 0x00, 0x00, 0x00,
  0x04, 0x00, 0x00, 0x00, 0x01, 0x00, 0x00, 0x00, 0x03, 0x00, 0x00, 0x00,
  0x04, 0x00, 0x00, 0x00, 0x92, 0xf1, 0xff, 0xff, 0x00, 0x00, 0x00, 0x09,
  0x64, 0x00, 0x00, 0x00, 0x32, 0x00, 0x00, 0x00, 0x2c, 0x00, 0x00, 0x00,
  0x04, 0x00, 0x00, 0x00, 0x84, 0xf1, 0xff, 0xff, 0x18, 0x00, 0x00, 0x00,
  0x04, 0x00, 0x00, 0x00, 0x01, 0x00, 0x00, 0x00, 0x00, 0x00, 0x00, 0x00,
  0x00, 0x00, 0x00, 0x00, 0x00, 0x00, 0x00, 0x00, 0x01, 0x00, 0x00, 0x00,
  0x00, 0x00, 0x00, 0x3c, 0x29, 0x00, 0x00, 0x00, 0x30, 0x36, 0x5f, 0x4f,
  0x72, 0x61, 0x6e, 0x67, 0x65, 0x4d, 0x69, 0x63, 0x72, 0x6f, 0x44, 0x61,
  0x72, 0x6b, 0x5f, 0x57, 0x4e, 0x31, 0x32, 0x5f, 0x76, 0x31, 0x2f, 0x63,
  0x6f, 0x6e, 0x76, 0x31, 0x64, 0x5f, 0x32, 0x39, 0x2f, 0x54, 0x61, 0x6e,
  0x68, 0x00, 0x00, 0x00, 0x04, 0x00, 0x00, 0x00, 0x01, 0x00, 0x00, 0x00,
  0x01, 0x00, 0x00, 0x00, 0xf1, 0x00, 0x00, 0x00, 0x04, 0x00, 0x00, 0x00,
  0x12, 0xf2, 0xff, 0xff, 0x00, 0x00, 0x00, 0x02, 0x90, 0x00, 0x00, 0x00,
  0x14, 0x00, 0x00, 0x00, 0x50, 0x00, 0x00, 0x00, 0x04, 0x00, 0x00, 0x00,
  0x04, 0xf2, 0xff, 0xff, 0x30, 0x00, 0x00, 0x00, 0x04, 0x00, 0x00, 0x00,
  0x04, 0x00, 0x00, 0x00, 0x00, 0x00, 0x00, 0x00, 0x00, 0x00, 0x00, 0x00,
  0x00, 0x00, 0x00, 0x00, 0x00, 0x00, 0x00, 0x00, 0x00, 0x00, 0x00, 0x00,
  0x00, 0x00, 0x00, 0x00, 0x00, 0x00, 0x00, 0x00, 0x00, 0x00, 0x00, 0x00,
  0x00, 0x00, 0x00, 0x00, 0x04, 0x00, 0x00, 0x00, 0xb8, 0x12, 0xf9, 0x37,
  0x9e, 0x2f, 0xa6, 0x37, 0x8f, 0x1e, 0x18, 0x38, 0x75, 0x3b, 0xf6, 0x37,
  0x30, 0x00, 0x00, 0x00, 0x30, 0x36, 0x5f, 0x4f, 0x72, 0x61, 0x6e, 0x67,
  0x65, 0x4d, 0x69, 0x63, 0x72, 0x6f, 0x44, 0x61, 0x72, 0x6b, 0x5f, 0x57,
  0x4e, 0x31, 0x32, 0x5f, 0x76, 0x31, 0x2f, 0x63, 0x6f, 0x6e, 0x76, 0x31,
  0x64, 0x5f, 0x32, 0x38, 0x2f, 0x63, 0x6f, 0x6e, 0x76, 0x31, 0x64, 0x5f,
  0x62, 0x69, 0x61, 0x73, 0x00, 0x00, 0x00, 0x00, 0x01, 0x00, 0x00, 0x00,
  0x04, 0x00, 0x00, 0x00, 0xb2, 0xf2, 0xff, 0xff, 0x00, 0x00, 0x00, 0x09,
  0x84, 0x00, 0x00, 0x00, 0x33, 0x00, 0x00, 0x00, 0x44, 0x00, 0x00, 0x00,
  0x04, 0x00, 0x00, 0x00, 0x64, 0xf3, 0xff, 0xff, 0x30, 0x00, 0x00, 0x00,
  0x24, 0x00, 0x00, 0x00, 0x18, 0x00, 0x00, 0x00, 0x04, 0x00, 0x00, 0x00,
  0x01, 0x00, 0x00, 0x00, 0x07, 0x00, 0x00, 0x00, 0x00, 0x00, 0x00, 0x00,
  0x00, 0x00, 0x00, 0x00, 0x01, 0x00, 0x00, 0x00, 0x51, 0x19, 0xf1, 0x3b,
  0x01, 0x00, 0x00, 0x00, 0x4d, 0xc4, 0x62, 0x3f, 0x01, 0x00, 0x00, 0x00,
  0x22, 0x8c, 0x7d, 0xbf, 0x33, 0x00, 0x00, 0x00, 0x30, 0x36, 0x5f, 0x4f,
  0x72, 0x61, 0x6e, 0x67, 0x65, 0x4d, 0x69, 0x63, 0x72, 0x6f, 0x44, 0x61,
  0x72, 0x6b, 0x5f, 0x57, 0x4e, 0x31, 0x32, 0x5f, 0x76, 0x31, 0x2f, 0x63,
  0x6f, 0x6e, 0x76, 0x31, 0x64, 0x5f, 0x32, 0x38, 0x2f, 0x63, 0x6f, 0x6e,
  0x76, 0x31, 0x64, 0x2f, 0x53, 0x71, 0x75, 0x65, 0x65, 0x7a, 0x65, 0x00,
  0x04, 0x00, 0x00, 0x00, 0x01, 0x00, 0x00, 0x00, 0x01, 0x00, 0x00, 0x00,
  0xf3, 0x00, 0x00, 0x00, 0x04, 0x00, 0x00, 0x00, 0x52, 0xf3, 0xff, 0xff,
  0x00, 0x00, 0x00, 0x09, 0xc4, 0x00, 0x00, 0x00, 0x29, 0x00, 0x00, 0x00,
  0x7c, 0x00, 0x00, 0x00, 0x04, 0x00, 0x00, 0x00, 0x04, 0xf4, 0xff, 0xff,
  0x5c, 0x00, 0x00, 0x00, 0x44, 0x00, 0x00, 0x00, 0x2c, 0x00, 0x00, 0x00,
  0x04, 0x00, 0x00, 0x00, 0x04, 0x00, 0x00, 0x00, 0x00, 0x00, 0x00, 0x00,
  0x00, 0x00, 0x00, 0x00, 0x00, 0x00, 0x00, 0x00, 0x00, 0x00, 0x00, 0x00,
  0x00, 0x00, 0x00, 0x00, 0x00, 0x00, 0x00, 0x00, 0x00, 0x00, 0x00, 0x00,
  0x00, 0x00, 0x00, 0x00, 0x04, 0x00, 0x00, 0x00, 0xb8, 0x12, 0x79, 0x3b,
  0x9e, 0x2f, 0x26, 0x3b, 0x8f, 0x1e, 0x98, 0x3b, 0x75, 0x3b, 0x76, 0x3b,
  0x04, 0x00, 0x00, 0x00, 0x27, 0x0d, 0x62, 0x3e, 0x3f, 0xf5, 0xa1, 0x3e,
  0xd3, 0xd4, 0x78, 0x3e, 0xfe, 0xe3, 0xd0, 0x3e, 0x04, 0x00, 0x00, 0x00,
  0x93, 0x20, 0xf7, 0xbe, 0x3f, 0xe3, 0xa4, 0xbe, 0x52, 0xee, 0x16, 0xbf,
  0xfe, 0x4e, 0xf4, 0xbe, 0x38, 0x00, 0x00, 0x00, 0x30, 0x36, 0x5f, 0x4f,
  0x72, 0x61, 0x6e, 0x67, 0x65, 0x4d, 0x69, 0x63, 0x72, 0x6f, 0x44, 0x61,
  0x72, 0x6b, 0x5f, 0x57, 0x4e, 0x31, 0x32, 0x5f, 0x76, 0x31, 0x2f, 0x63,
  0x6f, 0x6e, 0x76, 0x31, 0x64, 0x5f, 0x32, 0x38, 0x2f, 0x63, 0x6f, 0x6e,
  0x76, 0x31, 0x64, 0x2f, 0x45, 0x78, 0x70, 0x61, 0x6e, 0x64, 0x44, 0x69,
  0x6d, 0x73, 0x5f, 0x31, 0x00, 0x00, 0x00, 0x00, 0x04, 0x00, 0x00, 0x00,
  0x04, 0x00, 0x00, 0x00, 0x01, 0x00, 0x00, 0x00, 0x03, 0x00, 0x00, 0x00,
  0x04, 0x00, 0x00, 0x00, 0x32, 0xf4, 0xff, 0xff, 0x00, 0x00, 0x00, 0x09,
  0x64, 0x00, 0x00, 0x00, 0x06, 0x00, 0x00, 0x00, 0x2c, 0x00, 0x00, 0x00,
  0x04, 0x00, 0x00, 0x00, 0x24, 0xf4, 0xff, 0xff, 0x18, 0x00, 0x00, 0x00,
  0x04, 0x00, 0x00, 0x00, 0x01, 0x00, 0x00, 0x00, 0x00, 0x00, 0x00, 0x00,
  0x00, 0x00, 0x00, 0x00, 0x00, 0x00, 0x00, 0x00, 0x01, 0x00, 0x00, 0x00,
  0x00, 0x00, 0x00, 0x3c, 0x29, 0x00, 0x00, 0x00, 0x30, 0x36, 0x5f, 0x4f,
  0x72, 0x61, 0x6e, 0x67, 0x65, 0x4d, 0x69, 0x63, 0x72, 0x6f, 0x44, 0x61,
  0x72, 0x6b, 0x5f, 0x57, 0x4e, 0x31, 0x32, 0x5f, 0x76, 0x31, 0x2f, 0x63,
  0x6f, 0x6e, 0x76, 0x31, 0x64, 0x5f, 0x32, 0x38, 0x2f, 0x54, 0x61, 0x6e,
  0x68, 0x00, 0x00, 0x00, 0x04, 0x00, 0x00, 0x00, 0x01, 0x00, 0x00, 0x00,
  0x01, 0x00, 0x00, 0x00, 0xf3, 0x00, 0x00, 0x00, 0x04, 0x00, 0x00, 0x00,
  0xb2, 0xf4, 0xff, 0xff, 0x00, 0x00, 0x00, 0x02, 0x90, 0x00, 0x00, 0x00,
  0x1d, 0x00, 0x00, 0x00, 0x50, 0x00, 0x00, 0x00, 0x04, 0x00, 0x00, 0x00,
  0xa4, 0xf4, 0xff, 0xff, 0x30, 0x00, 0x00, 0x00, 0x04, 0x00, 0x00, 0x00,
  0x04, 0x00, 0x00, 0x00, 0x00, 0x00, 0x00, 0x00, 0x00, 0x00, 0x00, 0x00,
  0x00, 0x00, 0x00, 0x00, 0x00, 0x00, 0x00, 0x00, 0x00, 0x00, 0x00, 0x00,
  0x00, 0x00, 0x00, 0x00, 0x00, 0x00, 0x00, 0x00, 0x00, 0x00, 0x00, 0x00,
  0x00, 0x00, 0x00, 0x00, 0x04, 0x00, 0x00, 0x00, 0x7e, 0x4e, 0x00, 0x38,
  0x9d, 0xf8, 0xea, 0x37, 0x5f, 0x8c, 0x28, 0x38, 0x5e, 0xac, 0x2e, 0x38,
  0x30, 0x00, 0x00, 0x00, 0x30, 0x36, 0x5f, 0x4f, 0x72, 0x61, 0x6e, 0x67,
  0x65, 0x4d, 0x69, 0x63, 0x72, 0x6f, 0x44, 0x61, 0x72, 0x6b, 0x5f, 0x57,
  0x4e, 0x31, 0x32, 0x5f, 0x76, 0x31, 0x2f, 0x63, 0x6f, 0x6e, 0x76, 0x31,
  0x64, 0x5f, 0x32, 0x37, 0x2f, 0x63, 0x6f, 0x6e, 0x76, 0x31, 0x64, 0x5f,
  0x62, 0x69, 0x61, 0x73, 0x00, 0x00, 0x00, 0x00, 0x01, 0x00, 0x00, 0x00,
  0x04, 0x00, 0x00, 0x00, 0x52, 0xf5, 0xff, 0xff, 0x00, 0x00, 0x00, 0x09,
  0x84, 0x00, 0x00, 0x00, 0x2d, 0x00, 0x00, 0x00, 0x44, 0x00, 0x00, 0x00,
  0x04, 0x00, 0x00, 0x00, 0x04, 0xf6, 0xff, 0xff, 0x30, 0x00, 0x00, 0x00,
  0x24, 0x00, 0x00, 0x00, 0x18, 0x00, 0x00, 0x00, 0x04, 0x00, 0x00, 0x00,
  0x01, 0x00, 0x00, 0x00, 0x05, 0x00, 0x00, 0x00, 0x00, 0x00, 0x00, 0x00,
  0x00, 0x00, 0x00, 0x00, 0x01, 0x00, 0x00, 0x00, 0x38, 0x1a, 0x20, 0x3c,
  0x01, 0x00, 0x00, 0x00, 0x75, 0x28, 0x99, 0x3f, 0x01, 0x00, 0x00, 0x00,
  0xc7, 0xcb, 0xa5, 0xbf, 0x33, 0x00, 0x00, 0x00, 0x30, 0x36, 0x5f, 0x4f,
  0x72, 0x61, 0x6e, 0x67, 0x65, 0x4d, 0x69, 0x63, 0x72, 0x6f, 0x44, 0x61,
  0x72, 0x6b, 0x5f, 0x57, 0x4e, 0x31, 0x32, 0x5f, 0x76, 0x31, 0x2f, 0x63,
  0x6f, 0x6e, 0x76, 0x31, 0x64, 0x5f, 0x32, 0x37, 0x2f, 0x63, 0x6f, 0x6e,
  0x76, 0x31, 0x64, 0x2f, 0x53, 0x71, 0x75, 0x65, 0x65, 0x7a, 0x65, 0x00,
  0x04, 0x00, 0x00, 0x00, 0x01, 0x00, 0x00, 0x00, 0x01, 0x00, 0x00, 0x00,
  0xf5, 0x00, 0x00, 0x00, 0x04, 0x00, 0x00, 0x00, 0xf2, 0xf5, 0xff, 0xff,
  0x00, 0x00, 0x00, 0x09, 0xc4, 0x00, 0x00, 0x00, 0x15, 0x00, 0x00, 0x00,
  0x7c, 0x00, 0x00, 0x00, 0x04, 0x00, 0x00, 0x00, 0xa4, 0xf6, 0xff, 0xff,
  0x5c, 0x00, 0x00, 0x00, 0x44, 0x00, 0x00, 0x00, 0x2c, 0x00, 0x00, 0x00,
  0x04, 0x00, 0x00, 0x00, 0x04, 0x00, 0x00, 0x00, 0x00, 0x00, 0x00, 0x00,
  0x00, 0x00, 0x00, 0x00, 0x00, 0x00, 0x00, 0x00, 0x00, 0x00, 0x00, 0x00,
  0x00, 0x00, 0x00, 0x00, 0x00, 0x00, 0x00, 0x00, 0x00, 0x00, 0x00, 0x00,
  0x00, 0x00, 0x00, 0x00, 0x04, 0x00, 0x00, 0x00, 0x7e, 0x4e, 0x80, 0x3b,
  0x9d, 0xf8, 0x6a, 0x3b, 0x5f, 0x8c, 0xa8, 0x3b, 0x5e, 0xac, 0xae, 0x3b,
  0x04, 0x00, 0x00, 0x00, 0xc2, 0x9b, 0xfe, 0x3e, 0xac, 0x22, 0xe9, 0x3e,
  0x46, 0x3b, 0x27, 0x3f, 0x1d, 0xc8, 0xda, 0x3e, 0x04, 0x00, 0x00, 0x00,
  0x28, 0xd5, 0xf3, 0xbe, 0x63, 0x83, 0xcd, 0xbe, 0x95, 0x7c, 0x05, 0xbf,
  0x05, 0x4f, 0x2d, 0xbf, 0x38, 0x00, 0x00, 0x00, 0x30, 0x36, 0x5f, 0x4f,
  0x72, 0x61, 0x6e, 0x67, 0x65, 0x4d, 0x69, 0x63, 0x72, 0x6f, 0x44, 0x61,
  0x72, 0x6b, 0x5f, 0x57, 0x4e, 0x31, 0x32, 0x5f, 0x76, 0x31, 0x2f, 0x63,
  0x6f, 0x6e, 0x76, 0x31, 0x64, 0x5f, 0x32, 0x37, 0x2f, 0x63, 0x6f, 0x6e,
  0x76, 0x31, 0x64, 0x2f, 0x45, 0x78, 0x70, 0x61, 0x6e, 0x64, 0x44, 0x69,
  0x6d, 0x73, 0x5f, 0x31, 0x00, 0x00, 0x00, 0x00, 0x04, 0x00, 0x00, 0x00,
  0x04, 0x00, 0x00, 0x00, 0x01, 0x00, 0x00, 0x00, 0x03, 0x00, 0x00, 0x00,
  0x04, 0x00, 0x00, 0x00, 0xd2, 0xf6, 0xff, 0xff, 0x00, 0x00, 0x00, 0x09,
  0x64, 0x00, 0x00, 0x00, 0x07, 0x00, 0x00, 0x00, 0x2c, 0x00, 0x00, 0x00,
  0x04, 0x00, 0x00, 0x00, 0xc4, 0xf6, 0xff, 0xff, 0x18, 0x00, 0x00, 0x00,
  0x04, 0x00, 0x00, 0x00, 0x01, 0x00, 0x00, 0x00, 0x00, 0x00, 0x00, 0x00,
  0x00, 0x00, 0x00, 0x00, 0x00, 0x00, 0x00, 0x00, 0x01, 0x00, 0x00, 0x00,
  0x00, 0x00, 0x00, 0x3c, 0x29, 0x00, 0x00, 0x00, 0x30, 0x36, 0x5f, 0x4f,
  0x72, 0x61, 0x6e, 0x67, 0x65, 0x4d, 0x69, 0x63, 0x72, 0x6f, 0x44, 0x61,
  0x72, 0x6b, 0x5f, 0x57, 0x4e, 0x31, 0x32, 0x5f, 0x76, 0x31, 0x2f, 0x63,
  0x6f, 0x6e, 0x76, 0x31, 0x64, 0x5f, 0x32, 0x37, 0x2f, 0x54, 0x61, 0x6e,
  0x68, 0x00, 0x00, 0x00, 0x04, 0x00, 0x00, 0x00, 0x01, 0x00, 0x00, 0x00,
  0x01, 0x00, 0x00, 0x00, 0xf5, 0x00, 0x00, 0x00, 0x04, 0x00, 0x00, 0x00,
  0x52, 0xf7, 0xff, 0xff, 0x00, 0x00, 0x00, 0x02, 0x90, 0x00, 0x00, 0x00,
  0x1f, 0x00, 0x00, 0x00, 0x50, 0x00, 0x00, 0x00, 0x04, 0x00, 0x00, 0x00,
  0x44, 0xf7, 0xff, 0xff, 0x30, 0x00, 0x00, 0x00, 0x04, 0x00, 0x00, 0x00,
  0x04, 0x00, 0x00, 0x00, 0x00, 0x00, 0x00, 0x00, 0x00, 0x00, 0x00, 0x00,
  0x00, 0x00, 0x00, 0x00, 0x00, 0x00, 0x00, 0x00, 0x00, 0x00, 0x00, 0x00,
  0x00, 0x00, 0x00, 0x00, 0x00, 0x00, 0x00, 0x00, 0x00, 0x00, 0x00, 0x00,
  0x00, 0x00, 0x00, 0x00, 0x04, 0x00, 0x00, 0x00, 0x29, 0xb8, 0x0c, 0x38,
  0x69, 0x34, 0x10, 0x38, 0x2b, 0xc3, 0x1c, 0x38, 0xe0, 0xa3, 0x97, 0x37,
  0x30, 0x00, 0x00, 0x00, 0x30, 0x36, 0x5f, 0x4f, 0x72, 0x61, 0x6e, 0x67,
  0x65, 0x4d, 0x69, 0x63, 0x72, 0x6f, 0x44, 0x61, 0x72, 0x6b, 0x5f, 0x57,
  0x4e, 0x31, 0x32, 0x5f, 0x76, 0x31, 0x2f, 0x63, 0x6f, 0x6e, 0x76, 0x31,
  0x64, 0x5f, 0x32, 0x36, 0x2f, 0x63, 0x6f, 0x6e, 0x76, 0x31, 0x64, 0x5f,
  0x62, 0x69, 0x61, 0x73, 0x00, 0x00, 0x00, 0x00, 0x01, 0x00, 0x00, 0x00,
  0x04, 0x00, 0x00, 0x00, 0xf2, 0xf7, 0xff, 0xff, 0x00, 0x00, 0x00, 0x09,
  0x84, 0x00, 0x00, 0x00, 0x30, 0x00, 0x00, 0x00, 0x44, 0x00, 0x00, 0x00,
  0x04, 0x00, 0x00, 0x00, 0xa4, 0xf8, 0xff, 0xff, 0x30, 0x00, 0x00, 0x00,
  0x24, 0x00, 0x00, 0x00, 0x18, 0x00, 0x00, 0x00, 0x04, 0x00, 0x00, 0x00,
  0x01, 0x00, 0x00, 0x00, 0x03, 0x00, 0x00, 0x00, 0x00, 0x00, 0x00, 0x00,
  0x00, 0x00, 0x00, 0x00, 0x01, 0x00, 0x00, 0x00, 0x5a, 0x89, 0x1e, 0x3c,
  0x01, 0x00, 0x00, 0x00, 0xb0, 0x2c, 0x99, 0x3f, 0x01, 0x00, 0x00, 0x00,
  0xf2, 0xa8, 0xa2, 0xbf, 0x33, 0x00, 0x00, 0x00, 0x30, 0x36, 0x5f, 0x4f,
  0x72, 0x61, 0x6e, 0x67, 0x65, 0x4d, 0x69, 0x63, 0x72, 0x6f, 0x44, 0x61,
  0x72, 0x6b, 0x5f, 0x57, 0x4e, 0x31, 0x32, 0x5f, 0x76, 0x31, 0x2f, 0x63,
  0x6f, 0x6e, 0x76, 0x31, 0x64, 0x5f, 0x32, 0x36, 0x2f, 0x63, 0x6f, 0x6e,
  0x76, 0x31, 0x64, 0x2f, 0x53, 0x71, 0x75, 0x65, 0x65, 0x7a, 0x65, 0x00,
  0x04, 0x00, 0x00, 0x00, 0x01, 0x00, 0x00, 0x00, 0x01, 0x00, 0x00, 0x00,
  0xf7, 0x00, 0x00, 0x00, 0x04, 0x00, 0x00, 0x00, 0x92, 0xf8, 0xff, 0xff,
  0x00, 0x00, 0x00, 0x09, 0xc4, 0x00, 0x00, 0x00, 0x16, 0x00, 0x00, 0x00,
  0x7c, 0x00, 0x00, 0x00, 0x04, 0x00, 0x00, 0x00, 0x44, 0xf9, 0xff, 0xff,
  0x5c, 0x00, 0x00, 0x00, 0x44, 0x00, 0x00, 0x00, 0x2c, 0x00, 0x00, 0x00,
  0x04, 0x00, 0x00, 0x00, 0x04, 0x00, 0x00, 0x00, 0x00, 0x00, 0x00, 0x00,
  0x00, 0x00, 0x00, 0x00, 0x00, 0x00, 0x00, 0x00, 0x00, 0x00, 0x00, 0x00,
  0x00, 0x00, 0x00, 0x00, 0x00, 0x00, 0x00, 0x00, 0x00, 0x00, 0x00, 0x00,
  0x00, 0x00, 0x00, 0x00, 0x04, 0x00, 0x00, 0x00, 0x29, 0xb8, 0x8c, 0x3b,
  0x69, 0x34, 0x90, 0x3b, 0x2b, 0xc3, 0x9c, 0x3b, 0xe0, 0xa3, 0x17, 0x3b,
  0x04, 0x00, 0x00, 0x00, 0xa0, 0x7e, 0xf0, 0x3e, 0x00, 0x14, 0x0f, 0x3f,
  0xcd, 0x05, 0x1b, 0x3f, 0x09, 0x91, 0x7d, 0x3e, 0x04, 0x00, 0x00, 0x00,
  0xb9, 0x9e, 0x0b, 0xbf, 0xc7, 0x57, 0x00, 0xbf, 0xa5, 0x89, 0x1b, 0xbf,
  0x98, 0x74, 0x96, 0xbe, 0x38, 0x00, 0x00, 0x00, 0x30, 0x36, 0x5f, 0x4f,
  0x72, 0x61, 0x6e, 0x67, 0x65, 0x4d, 0x69, 0x63, 0x72, 0x6f, 0x44, 0x61,
  0x72, 0x6b, 0x5f, 0x57, 0x4e, 0x31, 0x32, 0x5f, 0x76, 0x31, 0x2f, 0x63,
  0x6f, 0x6e, 0x76, 0x31, 0x64, 0x5f, 0x32, 0x36, 0x2f, 0x63, 0x6f, 0x6e,
  0x76, 0x31, 0x64, 0x2f, 0x45, 0x78, 0x70, 0x61, 0x6e, 0x64, 0x44, 0x69,
  0x6d, 0x73, 0x5f, 0x31, 0x00, 0x00, 0x00, 0x00, 0x04, 0x00, 0x00, 0x00,
  0x04, 0x00, 0x00, 0x00, 0x01, 0x00, 0x00, 0x00, 0x03, 0x00, 0x00, 0x00,
  0x04, 0x00, 0x00, 0x00, 0x72, 0xf9, 0xff, 0xff, 0x00, 0x00, 0x00, 0x09,
  0x64, 0x00, 0x00, 0x00, 0x26, 0x00, 0x00, 0x00, 0x2c, 0x00, 0x00, 0x00,
  0x04, 0x00, 0x00, 0x00, 0x64, 0xf9, 0xff, 0xff, 0x18, 0x00, 0x00, 0x00,
  0x04, 0x00, 0x00, 0x00, 0x01, 0x00, 0x00, 0x00, 0x00, 0x00, 0x00, 0x00,
  0x00, 0x00, 0x00, 0x00, 0x00, 0x00, 0x00, 0x00, 0x01, 0x00, 0x00, 0x00,
  0x00, 0x00, 0x00, 0x3c, 0x29, 0x00, 0x00, 0x00, 0x30, 0x36, 0x5f, 0x4f,
  0x72, 0x61, 0x6e, 0x67, 0x65, 0x4d, 0x69, 0x63, 0x72, 0x6f, 0x44, 0x61,
  0x72, 0x6b, 0x5f, 0x57, 0x4e, 0x31, 0x32, 0x5f, 0x76, 0x31, 0x2f, 0x63,
  0x6f, 0x6e, 0x76, 0x31, 0x64, 0x5f, 0x32, 0x36, 0x2f, 0x54, 0x61, 0x6e,
  0x68, 0x00, 0x00, 0x00, 0x04, 0x00, 0x00, 0x00, 0x01, 0x00, 0x00, 0x00,
  0x01, 0x00, 0x00, 0x00, 0xf7, 0x00, 0x00, 0x00, 0x04, 0x00, 0x00, 0x00,
  0xf2, 0xf9, 0xff, 0xff, 0x00, 0x00, 0x00, 0x02, 0x90, 0x00, 0x00, 0x00,
  0x17, 0x00, 0x00, 0x00, 0x50, 0x00, 0x00, 0x00, 0x04, 0x00, 0x00, 0x00,
  0xe4, 0xf9, 0xff, 0xff, 0x30, 0x00, 0x00, 0x00, 0x04, 0x00, 0x00, 0x00,
  0x04, 0x00, 0x00, 0x00, 0x00, 0x00, 0x00, 0x00, 0x00, 0x00, 0x00, 0x00,
  0x00, 0x00, 0x00, 0x00, 0x00, 0x00, 0x00, 0x00, 0x00, 0x00, 0x00, 0x00,
  0x00, 0x00, 0x00, 0x00, 0x00, 0x00, 0x00, 0x00, 0x00, 0x00, 0x00, 0x00,
  0x00, 0x00, 0x00, 0x00, 0x04, 0x00, 0x00, 0x00, 0x96, 0x0e, 0xc0, 0x37,
  0x07, 0x1e, 0x29, 0x38, 0x23, 0xd7, 0x67, 0x38, 0x75, 0xa1, 0x2b, 0x38,
  0x30, 0x00, 0x00, 0x00, 0x30, 0x36, 0x5f, 0x4f, 0x72, 0x61, 0x6e, 0x67,
  0x65, 0x4d, 0x69, 0x63, 0x72, 0x6f, 0x44, 0x61, 0x72, 0x6b, 0x5f, 0x57,
  0x4e, 0x31, 0x32, 0x5f, 0x76, 0x31, 0x2f, 0x63, 0x6f, 0x6e, 0x76, 0x31,
  0x64, 0x5f, 0x32, 0x35, 0x2f, 0x63, 0x6f, 0x6e, 0x76, 0x31, 0x64, 0x5f,
  0x62, 0x69, 0x61, 0x73, 0x00, 0x00, 0x00, 0x00, 0x01, 0x00, 0x00, 0x00,
  0x04, 0x00, 0x00, 0x00, 0x92, 0xfa, 0xff, 0xff, 0x00, 0x00, 0x00, 0x09,
  0x84, 0x00, 0x00, 0x00, 0x2f, 0x00, 0x00, 0x00, 0x44, 0x00, 0x00, 0x00,
  0x04, 0x00, 0x00, 0x00, 0x44, 0xfb, 0xff, 0xff, 0x30, 0x00, 0x00, 0x00,
  0x24, 0x00, 0x00, 0x00, 0x18, 0x00, 0x00, 0x00, 0x04, 0x00, 0x00, 0x00,
  0x01, 0x00, 0x00, 0x00, 0x02, 0x00, 0x00, 0x00, 0x00, 0x00, 0x00, 0x00,
  0x00, 0x00, 0x00, 0x00, 0x01, 0x00, 0x00, 0x00, 0x04, 0x83, 0x83, 0x3c,
  0x01, 0x00, 0x00, 0x00, 0x1b, 0x0c, 0x00, 0x40, 0x01, 0x00, 0x00, 0x00,
  0xe7, 0xf2, 0x05, 0xc0, 0x33, 0x00, 0x00, 0x00, 0x30, 0x36, 0x5f, 0x4f,
  0x72, 0x61, 0x6e, 0x67, 0x65, 0x4d, 0x69, 0x63, 0x72, 0x6f, 0x44, 0x61,
  0x72, 0x6b, 0x5f, 0x57, 0x4e, 0x31, 0x32, 0x5f, 0x76, 0x31, 0x2f, 0x63,
  0x6f, 0x6e, 0x76, 0x31, 0x64, 0x5f, 0x32, 0x35, 0x2f, 0x63, 0x6f, 0x6e,
  0x76, 0x31, 0x64, 0x2f, 0x53, 0x71, 0x75, 0x65, 0x65, 0x7a, 0x65, 0x00,
  0x04, 0x00, 0x00, 0x00, 0x01, 0x00, 0x00, 0x00, 0x01, 0x00, 0x00, 0x00,
  0xf9, 0x00, 0x00, 0x00, 0x04, 0x00, 0x00, 0x00, 0x32, 0xfb, 0xff, 0xff,
  0x00, 0x00, 0x00, 0x09, 0xc4, 0x00, 0x00, 0x00, 0x18, 0x00, 0x00, 0x00,
  0x7c, 0x00, 0x00, 0x00, 0x04, 0x00, 0x00, 0x00, 0xe4, 0xfb, 0xff, 0xff,
  0x5c, 0x00, 0x00, 0x00, 0x44, 0x00, 0x00, 0x00, 0x2c, 0x00, 0x00, 0x00,
  0x04, 0x00, 0x00, 0x00, 0x04, 0x00, 0x00, 0x00, 0x00, 0x00, 0x00, 0x00,
  0x00, 0x00, 0x00, 0x00, 0x00, 0x00, 0x00, 0x00, 0x00, 0x00, 0x00, 0x00,
  0x00, 0x00, 0x00, 0x00, 0x00, 0x00, 0x00, 0x00, 0x00, 0x00, 0x00, 0x00,
  0x00, 0x00, 0x00, 0x00, 0x04, 0x00, 0x00, 0x00, 0x96, 0x0e, 0x40, 0x3b,
  0x07, 0x1e, 0xa9, 0x3b, 0x23, 0xd7, 0xe7, 0x3b, 0x75, 0xa1, 0xab, 0x3b,
  0x04, 0x00, 0x00, 0x00, 0x79, 0x8e, 0xbe, 0x3e, 0xcb, 0xcb, 0x27, 0x3f,
  0x75, 0x07, 0x66, 0x3f, 0x32, 0x4a, 0x2a, 0x3f, 0x04, 0x00, 0x00, 0x00,
  0xe3, 0x5b, 0x8b, 0xbe, 0xe2, 0x49, 0xcc, 0xbe, 0xca, 0x0c, 0x36, 0xbf,
  0x5c, 0xd7, 0x04, 0xbf, 0x38, 0x00, 0x00, 0x00, 0x30, 0x36, 0x5f, 0x4f,
  0x72, 0x61, 0x6e, 0x67, 0x65, 0x4d, 0x69, 0x63, 0x72, 0x6f, 0x44, 0x61,
  0x72, 0x6b, 0x5f, 0x57, 0x4e, 0x31, 0x32, 0x5f, 0x76, 0x31, 0x2f, 0x63,
  0x6f, 0x6e, 0x76, 0x31, 0x64, 0x5f, 0x32, 0x35, 0x2f, 0x63, 0x6f, 0x6e,
  0x76, 0x31, 0x64, 0x2f, 0x45, 0x78, 0x70, 0x61, 0x6e, 0x64, 0x44, 0x69,
  0x6d, 0x73, 0x5f, 0x31, 0x00, 0x00, 0x00, 0x00, 0x04, 0x00, 0x00, 0x00,
  0x04, 0x00, 0x00, 0x00, 0x01, 0x00, 0x00, 0x00, 0x03, 0x00, 0x00, 0x00,
  0x04, 0x00, 0x00, 0x00, 0x12, 0xfc, 0xff, 0xff, 0x00, 0x00, 0x00, 0x09,
  0x64, 0x00, 0x00, 0x00, 0x08, 0x00, 0x00, 0x00, 0x2c, 0x00, 0x00, 0x00,
  0x04, 0x00, 0x00, 0x00, 0x04, 0xfc, 0xff, 0xff, 0x18, 0x00, 0x00, 0x00,
  0x04, 0x00, 0x00, 0x00, 0x01, 0x00, 0x00, 0x00, 0x00, 0x00, 0x00, 0x00,
  0x00, 0x00, 0x00, 0x00, 0x00, 0x00, 0x00, 0x00, 0x01, 0x00, 0x00, 0x00,
  0x00, 0x00, 0x00, 0x3c, 0x29, 0x00, 0x00, 0x00, 0x30, 0x36, 0x5f, 0x4f,
  0x72, 0x61, 0x6e, 0x67, 0x65, 0x4d, 0x69, 0x63, 0x72, 0x6f, 0x44, 0x61,
  0x72, 0x6b, 0x5f, 0x57, 0x4e, 0x31, 0x32, 0x5f, 0x76, 0x31, 0x2f, 0x63,
  0x6f, 0x6e, 0x76, 0x31, 0x64, 0x5f, 0x32, 0x35, 0x2f, 0x54, 0x61, 0x6e,
  0x68, 0x00, 0x00, 0x00, 0x04, 0x00, 0x00, 0x00, 0x01, 0x00, 0x00, 0x00,
  0x01, 0x00, 0x00, 0x00, 0xf9, 0x00, 0x00, 0x00, 0x04, 0x00, 0x00, 0x00,
  0x92, 0xfc, 0xff, 0xff, 0x00, 0x00, 0x00, 0x02, 0x90, 0x00, 0x00, 0x00,
  0x1a, 0x00, 0x00, 0x00, 0x50, 0x00, 0x00, 0x00, 0x04, 0x00, 0x00, 0x00,
  0x84, 0xfc, 0xff, 0xff, 0x30, 0x00, 0x00, 0x00, 0x04, 0x00, 0x00, 0x00,
  0x04, 0x00, 0x00, 0x00, 0x00, 0x00, 0x00, 0x00, 0x00, 0x00, 0x00, 0x00,
  0x00, 0x00, 0x00, 0x00, 0x00, 0x00, 0x00, 0x00, 0x00, 0x00, 0x00, 0x00,
  0x00, 0x00, 0x00, 0x00, 0x00, 0x00, 0x00, 0x00, 0x00, 0x00, 0x00, 0x00,
  0x00, 0x00, 0x00, 0x00, 0x04, 0x00, 0x00, 0x00, 0xad, 0x45, 0x28, 0x38,
  0xc2, 0x84, 0x0a, 0x39, 0x13, 0x99, 0x07, 0x39, 0xf1, 0xa4, 0x0c, 0x39,
  0x30, 0x00, 0x00, 0x00, 0x30, 0x36, 0x5f, 0x4f, 0x72, 0x61, 0x6e, 0x67,
  0x65, 0x4d, 0x69, 0x63, 0x72, 0x6f, 0x44, 0x61, 0x72, 0x6b, 0x5f, 0x57,
  0x4e, 0x31, 0x32, 0x5f, 0x76, 0x31, 0x2f, 0x63, 0x6f, 0x6e, 0x76, 0x31,
  0x64, 0x5f, 0x32, 0x34, 0x2f, 0x63, 0x6f, 0x6e, 0x76, 0x31, 0x64, 0x5f,
  0x62, 0x69, 0x61, 0x73, 0x00, 0x00, 0x00, 0x00, 0x01, 0x00, 0x00, 0x00,
  0x04, 0x00, 0x00, 0x00, 0x32, 0xfd, 0xff, 0xff, 0x00, 0x00, 0x00, 0x09,
  0x84, 0x00, 0x00, 0x00, 0x2e, 0x00, 0x00, 0x00, 0x44, 0x00, 0x00, 0x00,
  0x04, 0x00, 0x00, 0x00, 0xe4, 0xfd, 0xff, 0xff, 0x30, 0x00, 0x00, 0x00,
  0x24, 0x00, 0x00, 0x00, 0x18, 0x00, 0x00, 0x00, 0x04, 0x00, 0x00, 0x00,
  0x01, 0x00, 0x00, 0x00, 0xff, 0xff, 0xff, 0xff, 0xff, 0xff, 0xff, 0xff,
  0x00, 0x00, 0x00, 0x00, 0x01, 0x00, 0x00, 0x00, 0x63, 0x18, 0x44, 0x3d,
  0x01, 0x00, 0x00, 0x00, 0xf5, 0xc0, 0xc3, 0x40, 0x01, 0x00, 0x00, 0x00,
  0xa1, 0xe7, 0xc2, 0xc0, 0x33, 0x00, 0x00, 0x00, 0x30, 0x36, 0x5f, 0x4f,
  0x72, 0x61, 0x6e, 0x67, 0x65, 0x4d, 0x69, 0x63, 0x72, 0x6f, 0x44, 0x61,
  0x72, 0x6b, 0x5f, 0x57, 0x4e, 0x31, 0x32, 0x5f, 0x76, 0x31, 0x2f, 0x63,
  0x6f, 0x6e, 0x76, 0x31, 0x64, 0x5f, 0x32, 0x34, 0x2f, 0x63, 0x6f, 0x6e,
  0x76, 0x31, 0x64, 0x2f, 0x53, 0x71, 0x75, 0x65, 0x65, 0x7a, 0x65, 0x00,
  0x04, 0x00, 0x00, 0x00, 0x01, 0x00, 0x00, 0x00, 0x01, 0x00, 0x00, 0x00,
  0xfb, 0x00, 0x00, 0x00, 0x04, 0x00, 0x00, 0x00, 0x00, 0x00, 0x0e, 0x00,
  0x1a, 0x00, 0x08, 0x00, 0x07, 0x00, 0x0c, 0x00, 0x10, 0x00, 0x14, 0x00,
  0x0e, 0x00, 0x00, 0x00, 0x00, 0x00, 0x00, 0x09, 0xe0, 0x00, 0x00, 0x00,
  0x27, 0x00, 0x00, 0x00, 0x98, 0x00, 0x00, 0x00, 0x18, 0x00, 0x00, 0x00,
  0x00, 0x00, 0x12, 0x00, 0x18, 0x00, 0x04, 0x00, 0x08, 0x00, 0x0c, 0x00,
  0x10, 0x00, 0x00, 0x00, 0x00, 0x00, 0x14, 0x00, 0x12, 0x00, 0x00, 0x00,
  0x64, 0x00, 0x00, 0x00, 0x4c, 0x00, 0x00, 0x00, 0x34, 0x00, 0x00, 0x00,
  0x08, 0x00, 0x00, 0x00, 0x03, 0x00, 0x00, 0x00, 0x04, 0x00, 0x00, 0x00,
  0x00, 0x00, 0x00, 0x00, 0x00, 0x00, 0x00, 0x00, 0x00, 0x00, 0x00, 0x00,
  0x00, 0x00, 0x00, 0x00, 0x00, 0x00, 0x00, 0x00, 0x00, 0x00, 0x00, 0x00,
  0x00, 0x00, 0x00, 0x00, 0x00, 0x00, 0x00, 0x00, 0x00, 0x00, 0x00, 0x00,
  0x04, 0x00, 0x00, 0x00, 0xac, 0x1e, 0x4a, 0x3c, 0xa0, 0x61, 0x26, 0x3d,
  0x8c, 0xdf, 0x22, 0x3d, 0x45, 0xef, 0x28, 0x3d, 0x04, 0x00, 0x00, 0x00,
  0x6f, 0x8a, 0xc8, 0x3f, 0xb8, 0x09, 0x86, 0xc0, 0xcd, 0x99, 0xa1, 0x40,
  0x2f, 0x54, 0x63, 0xc0, 0x04, 0x00, 0x00, 0x00, 0xb9, 0xf4, 0x49, 0xbf,
  0xdd, 0x14, 0xa5, 0xc0, 0xa4, 0x03, 0x85, 0x40, 0x66, 0x9d, 0xa7, 0xc0,
  0x38, 0x00, 0x00, 0x00, 0x30, 0x36, 0x5f, 0x4f, 0x72, 0x61, 0x6e, 0x67,
  0x65, 0x4d, 0x69, 0x63, 0x72, 0x6f, 0x44, 0x61, 0x72, 0x6b, 0x5f, 0x57,
  0x4e, 0x31, 0x32, 0x5f, 0x76, 0x31, 0x2f, 0x63, 0x6f, 0x6e, 0x76, 0x31,
  0x64, 0x5f, 0x32, 0x34, 0x2f, 0x63, 0x6f, 0x6e, 0x76, 0x31, 0x64, 0x2f,
  0x45, 0x78, 0x70, 0x61, 0x6e, 0x64, 0x44, 0x69, 0x6d, 0x73, 0x5f, 0x31,
  0x00, 0x00, 0x00, 0x00, 0x04, 0x00, 0x00, 0x00, 0x01, 0x00, 0x00, 0x00,
  0x01, 0x00, 0x00, 0x00, 0x03, 0x00, 0x00, 0x00, 0x04, 0x00, 0x00, 0x00,
  0xde, 0xfe, 0xff, 0xff, 0x00, 0x00, 0x00, 0x02, 0x5c, 0x00, 0x00, 0x00,
  0x1c, 0x00, 0x00, 0x00, 0x10, 0x00, 0x00, 0x00, 0x08, 0x00, 0x00, 0x00,
  0x04, 0x00, 0x04, 0x00, 0x04, 0x00, 0x00, 0x00, 0x3c, 0x00, 0x00, 0x00,
  0x30, 0x36, 0x5f, 0x4f, 0x72, 0x61, 0x6e, 0x67, 0x65, 0x4d, 0x69, 0x63,
  0x72, 0x6f, 0x44, 0x61, 0x72, 0x6b, 0x5f, 0x57, 0x4e, 0x31, 0x32, 0x5f,
  0x76, 0x31, 0x2f, 0x63, 0x6f, 0x6e, 0x76, 0x31, 0x64, 0x5f, 0x32, 0x34,
  0x2f, 0x63, 0x6f, 0x6e, 0x76, 0x31, 0x64, 0x2f, 0x45, 0x78, 0x70, 0x61,
  0x6e, 0x64, 0x44, 0x69, 0x6d, 0x73, 0x2f, 0x64, 0x69, 0x6d, 0x5f, 0x30,
  0x00, 0x00, 0x00, 0x00, 0x02, 0x00, 0x00, 0x00, 0x01, 0x00, 0x00, 0x00,
  0x04, 0x00, 0x00, 0x00, 0x4e, 0xff, 0xff, 0xff, 0x00, 0x00, 0x00, 0x09,
  0x94, 0x00, 0x00, 0x00, 0x25, 0x00, 0x00, 0x00, 0x50, 0x00, 0x00, 0x00,
  0x10, 0x00, 0x00, 0x00, 0x0c, 0x00, 0x14, 0x00, 0x04, 0x00, 0x08, 0x00,
  0x0c, 0x00, 0x10, 0x00, 0x0c, 0x00, 0x00, 0x00, 0x30, 0x00, 0x00, 0x00,
  0x24, 0x00, 0x00, 0x00, 0x18, 0x00, 0x00, 0x00, 0x04, 0x00, 0x00, 0x00,
  0x01, 0x00, 0x00, 0x00, 0x0a, 0x00, 0x00, 0x00, 0x00, 0x00, 0x00, 0x00,
  0x00, 0x00, 0x00, 0x00, 0x01, 0x00, 0x00, 0x00, 0x21, 0x21, 0x55, 0x3b,
  0x01, 0x00, 0x00, 0x00, 0x00, 0xcc, 0xc2, 0x3e, 0x01, 0x00, 0x00, 0x00,
  0x00, 0xcc, 0xe5, 0xbe, 0x36, 0x00, 0x00, 0x00, 0x30, 0x36, 0x5f, 0x4f,
  0x72, 0x61, 0x6e, 0x67, 0x65, 0x4d, 0x69, 0x63, 0x72, 0x6f, 0x44, 0x61,
  0x72, 0x6b, 0x5f, 0x57, 0x4e, 0x31, 0x32, 0x5f, 0x76, 0x31, 0x2f, 0x63,
  0x6f, 0x6e, 0x76, 0x31, 0x64, 0x5f, 0x32, 0x34, 0x2f, 0x63, 0x6f, 0x6e,
  0x76, 0x31, 0x64, 0x2f, 0x45, 0x78, 0x70, 0x61, 0x6e, 0x64, 0x44, 0x69,
  0x6d, 0x73, 0x00, 0x00, 0x04, 0x00, 0x00, 0x00, 0x01, 0x00, 0x00, 0x00,
  0x01, 0x00, 0x00, 0x00, 0xfd, 0x00, 0x00, 0x00, 0x01, 0x00, 0x00, 0x00,
  0x00, 0x00, 0x0e, 0x00, 0x18, 0x00, 0x08, 0x00, 0x07, 0x00, 0x0c, 0x00,
  0x10, 0x00, 0x14, 0x00, 0x0e, 0x00, 0x00, 0x00, 0x00, 0x00, 0x00, 0x09,
  0x6c, 0x00, 0x00, 0x00, 0x19, 0x00, 0x00, 0x00, 0x34, 0x00, 0x00, 0x00,
  0x10, 0x00, 0x00, 0x00, 0x0c, 0x00, 0x0c, 0x00, 0x00, 0x00, 0x00, 0x00,
  0x04, 0x00, 0x08, 0x00, 0x0c, 0x00, 0x00, 0x00, 0x14, 0x00, 0x00, 0x00,
  0x04, 0x00, 0x00, 0x00, 0x01, 0x00, 0x00, 0x00, 0x00, 0x00, 0x00, 0x00,
  0x00, 0x00, 0x00, 0x00, 0x01, 0x00, 0x00, 0x00, 0x00, 0x00, 0x00, 0x3c,
  0x29, 0x00, 0x00, 0x00, 0x30, 0x36, 0x5f, 0x4f, 0x72, 0x61, 0x6e, 0x67,
  0x65, 0x4d, 0x69, 0x63, 0x72, 0x6f, 0x44, 0x61, 0x72, 0x6b, 0x5f, 0x57,
  0x4e, 0x31, 0x32, 0x5f, 0x76, 0x31, 0x2f, 0x63, 0x6f, 0x6e, 0x76, 0x31,
  0x64, 0x5f, 0x32, 0x34, 0x2f, 0x54, 0x61, 0x6e, 0x68, 0x00, 0x00, 0x00,
  0x04, 0x00, 0x00, 0x00, 0x01, 0x00, 0x00, 0x00, 0x01, 0x00, 0x00, 0x00,
  0xfb, 0x00, 0x00, 0x00, 0x04, 0x00, 0x00, 0x00, 0x04, 0x00, 0x00, 0x00,
  0x4c, 0x00, 0x00, 0x00, 0x30, 0x00, 0x00, 0x00, 0x1c, 0x00, 0x00, 0x00,
  0x04, 0x00, 0x00, 0x00, 0xe6, 0xff, 0xff, 0xff, 0x00, 0x00, 0x00, 0x1c,
  0x02, 0x00, 0x00, 0x00, 0x00, 0x00, 0x06, 0x00, 0x06, 0x00, 0x05, 0x00,
  0x06, 0x00, 0x00, 0x00, 0x00, 0x16, 0x0a, 0x00, 0x0e, 0x00, 0x07, 0x00,
  0x00, 0x00, 0x08, 0x00, 0x0a, 0x00, 0x00, 0x00, 0x00, 0x00, 0x00, 0x04,
  0x03, 0x00, 0x00, 0x00, 0x00, 0x00, 0x0a, 0x00, 0x0c, 0x00, 0x07, 0x00,
  0x00, 0x00, 0x08, 0x00, 0x0a, 0x00, 0x00, 0x00, 0x00, 0x00, 0x00, 0x03,
  0x03, 0x00, 0x00, 0x00
};

#endif //ORANGEMICRODARK_WN12_V1_H