#ifndef ORANGEMICRODARK_WN12_V2_H
#define ORANGEMICRODARK_WN12_V2_H


unsigned int OrangeMicroDark_WN12_v2_len = 14576;
unsigned char OrangeMicroDark_WN12_v2[] = {
 0x24, 0x00, 0x00, 0x00, 0x54, 0x46, 0x4c, 0x33, 0x00, 0x00, 0x00, 0x00,
  0x00, 0x00, 0x00, 0x00, 0x00, 0x00, 0x12, 0x00, 0x1c, 0x00, 0x04, 0x00,
  0x08, 0x00, 0x0c, 0x00, 0x10, 0x00, 0x14, 0x00, 0x00, 0x00, 0x18, 0x00,
  0x12, 0x00, 0x00, 0x00, 0x03, 0x00, 0x00, 0x00, 0x78, 0x38, 0x00, 0x00,
  0x08, 0x12, 0x00, 0x00, 0xf0, 0x11, 0x00, 0x00, 0x3c, 0x00, 0x00, 0x00,
  0x04, 0x00, 0x00, 0x00, 0x01, 0x00, 0x00, 0x00, 0x0c, 0x00, 0x00, 0x00,
  0x08, 0x00, 0x0c, 0x00, 0x04, 0x00, 0x08, 0x00, 0x08, 0x00, 0x00, 0x00,
  0x08, 0x00, 0x00, 0x00, 0x2a, 0x00, 0x00, 0x00, 0x13, 0x00, 0x00, 0x00,
  0x6d, 0x69, 0x6e, 0x5f, 0x72, 0x75, 0x6e, 0x74, 0x69, 0x6d, 0x65, 0x5f,
  0x76, 0x65, 0x72, 0x73, 0x69, 0x6f, 0x6e, 0x00, 0x2b, 0x00, 0x00, 0x00,
  0xa4, 0x11, 0x00, 0x00, 0x88, 0x11, 0x00, 0x00, 0x54, 0x11, 0x00, 0x00,
  0x20, 0x11, 0x00, 0x00, 0xcc, 0x0f, 0x00, 0x00, 0x98, 0x0f, 0x00, 0x00,
  0x44, 0x0e, 0x00, 0x00, 0x10, 0x0e, 0x00, 0x00, 0xbc, 0x0c, 0x00, 0x00,
  0x88, 0x0c, 0x00, 0x00, 0x34, 0x0b, 0x00, 0x00, 0xe0, 0x09, 0x00, 0x00,
  0xac, 0x09, 0x00, 0x00, 0x58, 0x08, 0x00, 0x00, 0x24, 0x08, 0x00, 0x00,
  0xd0, 0x06, 0x00, 0x00, 0x9c, 0x06, 0x00, 0x00, 0x68, 0x06, 0x00, 0x00,
  0x34, 0x06, 0x00, 0x00, 0xf0, 0x05, 0x00, 0x00, 0xe4, 0x05, 0x00, 0x00,
  0x88, 0x04, 0x00, 0x00, 0x7c, 0x04, 0x00, 0x00, 0x68, 0x04, 0x00, 0x00,
  0x54, 0x04, 0x00, 0x00, 0x40, 0x04, 0x00, 0x00, 0x04, 0x04, 0x00, 0x00,
  0xf8, 0x03, 0x00, 0x00, 0xcc, 0x03, 0x00, 0x00, 0xc0, 0x03, 0x00, 0x00,
  0x84, 0x03, 0x00, 0x00, 0x30, 0x02, 0x00, 0x00, 0x24, 0x02, 0x00, 0x00,
  0x10, 0x02, 0x00, 0x00, 0xfc, 0x01, 0x00, 0x00, 0xe8, 0x01, 0x00, 0x00,
  0xd4, 0x01, 0x00, 0x00, 0xc0, 0x01, 0x00, 0x00, 0xac, 0x01, 0x00, 0x00,
  0x50, 0x00, 0x00, 0x00, 0x44, 0x00, 0x00, 0x00, 0x28, 0x00, 0x00, 0x00,
  0x04, 0x00, 0x00, 0x00, 0xb2, 0xea, 0xff, 0xff, 0x04, 0x00, 0x00, 0x00,
  0x05, 0x00, 0x00, 0x00, 0x31, 0x2e, 0x35, 0x2e, 0x30, 0x00, 0x00, 0x00,
  0x00, 0x00, 0x00, 0x00, 0x00, 0x00, 0x00, 0x00, 0x00, 0x00, 0x00, 0x00,
  0xd2, 0xea, 0xff, 0xff, 0x04, 0x00, 0x00, 0x00, 0x04, 0x00, 0x00, 0x00,
  0x2b, 0xa4, 0xff, 0xff, 0x00, 0x00, 0x00, 0x00, 0x00, 0x00, 0x00, 0x00,
  0x64, 0xca, 0xff, 0xff, 0x00, 0x00, 0x00, 0x00, 0xf2, 0xea, 0xff, 0xff,
  0x04, 0x00, 0x00, 0x00, 0x40, 0x01, 0x00, 0x00, 0xcc, 0xae, 0xfb, 0x4a,
  0x9a, 0xc6, 0x91, 0x6d, 0x55, 0xf7, 0xcc, 0xdf, 0xca, 0x81, 0x0d, 0x98,
  0x21, 0x85, 0xc9, 0x1e, 0xfd, 0x95, 0x4c, 0xc0, 0xcd, 0x47, 0x3e, 0x68,
  0xd7, 0x3e, 0xee, 0xcb, 0x37, 0xe6, 0x18, 0xd3, 0xb3, 0x26, 0xf4, 0x83,
  0xfc, 0x5a, 0x12, 0x3f, 0x51, 0xc1, 0x76, 0x34, 0x2c, 0xd0, 0xc0, 0x70,
  0x17, 0x2c, 0x90, 0x40, 0xf1, 0xed, 0x00, 0xc3, 0xdd, 0x38, 0x7f, 0xa3,
  0xa0, 0xe4, 0x99, 0x25, 0x65, 0x4b, 0xae, 0x7b, 0x14, 0x6c, 0x3d, 0x2d,
  0xb0, 0x3d, 0x02, 0x89, 0x19, 0x7f, 0xc8, 0x35, 0xd1, 0xf6, 0x8d, 0x09,
  0xc4, 0x2c, 0x15, 0xb1, 0x0e, 0x5a, 0x60, 0x59, 0xeb, 0xac, 0x84, 0x74,
  0xa7, 0x61, 0x64, 0xae, 0x31, 0x10, 0xfc, 0x8d, 0x5b, 0x25, 0x32, 0xfb,
  0x47, 0x6b, 0x94, 0x1e, 0x14, 0x1e, 0xc5, 0x66, 0x31, 0xa9, 0x39, 0xb2,
  0xdf, 0xd2, 0x81, 0x71, 0xc7, 0x48, 0xfb, 0x69, 0x67, 0x29, 0xc5, 0x49,
  0x7e, 0x89, 0xb4, 0x08, 0x4b, 0x70, 0xe4, 0x9e, 0xb4, 0x01, 0x2b, 0xd3,
  0x05, 0x49, 0x1c, 0xc4, 0xc4, 0x04, 0x8e, 0xa4, 0x7d, 0x13, 0x8c, 0x0f,
  0xf9, 0xe9, 0x75, 0x9b, 0x98, 0xf2, 0x84, 0xc7, 0xb9, 0x72, 0x34, 0x75,
  0x7f, 0xb8, 0x0a, 0x88, 0x88, 0x64, 0xd7, 0xba, 0xb7, 0x1e, 0x59, 0x7e,
  0xa3, 0x36, 0x52, 0x9e, 0xf1, 0xa9, 0x92, 0x8e, 0xf2, 0xa0, 0xf8, 0x60,
  0x51, 0x51, 0xc8, 0xbc, 0x60, 0xad, 0xb6, 0xc6, 0x42, 0x95, 0x7c, 0xc8,
  0x04, 0x62, 0x90, 0x9d, 0x91, 0x7a, 0xeb, 0xc8, 0x7a, 0xad, 0xc7, 0x81,
  0x42, 0xb0, 0x61, 0x0b, 0x7c, 0xa0, 0x77, 0xd7, 0xbc, 0x73, 0x19, 0x42,
  0x98, 0xf3, 0x93, 0x61, 0x5b, 0x17, 0x18, 0x86, 0x81, 0xa4, 0xb8, 0x4e,
  0x37, 0xdd, 0xb1, 0x13, 0xc0, 0xb8, 0xa6, 0x3a, 0x39, 0x9b, 0xe8, 0xec,
  0x36, 0xc9, 0x00, 0xae, 0xf5, 0x60, 0xcc, 0xbe, 0xbd, 0x9d, 0x63, 0x49,
  0x7c, 0x05, 0xdf, 0xff, 0x4b, 0x21, 0xda, 0x87, 0x23, 0x1d, 0xfd, 0xa4,
  0x47, 0xdf, 0x07, 0xe4, 0xd9, 0xda, 0xfa, 0x69, 0xec, 0x58, 0xc6, 0xda,
  0x7b, 0x4a, 0x38, 0x52, 0x26, 0xba, 0xd7, 0xa5, 0xce, 0x4f, 0x87, 0xef,
  0x2f, 0xfb, 0x29, 0x3e, 0xbf, 0x00, 0x24, 0xe5, 0x86, 0x58, 0x89, 0x81,
  0xfb, 0xeb, 0x7a, 0xe4, 0x00, 0x00, 0x00, 0x00, 0x00, 0x00, 0x00, 0x00,
  0x00, 0x00, 0x00, 0x00, 0xc4, 0xcb, 0xff, 0xff, 0x00, 0x00, 0x00, 0x00,
  0x00, 0x00, 0x00, 0x00, 0x00, 0x00, 0x00, 0x00, 0xd4, 0xcb, 0xff, 0xff,
  0x00, 0x00, 0x00, 0x00, 0x00, 0x00, 0x00, 0x00, 0x00, 0x00, 0x00, 0x00,
  0xe4, 0xcb, 0xff, 0xff, 0x00, 0x00, 0x00, 0x00, 0x00, 0x00, 0x00, 0x00,
  0x00, 0x00, 0x00, 0x00, 0xf4, 0xcb, 0xff, 0xff, 0x00, 0x00, 0x00, 0x00,
  0x00, 0x00, 0x00, 0x00, 0x00, 0x00, 0x00, 0x00, 0x04, 0xcc, 0xff, 0xff,
  0x00, 0x00, 0x00, 0x00, 0x00, 0x00, 0x00, 0x00, 0x00, 0x00, 0x00, 0x00,
  0x14, 0xcc, 0xff, 0xff, 0x00, 0x00, 0x00, 0x00, 0x00, 0x00, 0x00, 0x00,
  0x00, 0x00, 0x00, 0x00, 0x24, 0xcc, 0xff, 0xff, 0x00, 0x00, 0x00, 0x00,
  0xb2, 0xec, 0xff, 0xff, 0x04, 0x00, 0x00, 0x00, 0x40, 0x01, 0x00, 0x00,
  0x88, 0x89, 0xd0, 0xb0, 0x4e, 0xa0, 0x26, 0xa1, 0x5c, 0xd8, 0x8a, 0x63,
  0xae, 0xec, 0x76, 0x4c, 0xc8, 0x7a, 0x8e, 0xf3, 0x84, 0x57, 0x23, 0x0b,
  0xd0, 0x4d, 0xad, 0xe0, 0xcb, 0x99, 0x73, 0x93, 0x81, 0xa8, 0x00, 0xd0,
  0x19, 0xeb, 0x95, 0xea, 0xfd, 0x8a, 0x4b, 0x96, 0x75, 0x3c, 0x74, 0x5f,
  0xcf, 0x19, 0xae, 0xab, 0xe0, 0x6e, 0xab, 0x0f, 0xef, 0x74, 0x02, 0xbf,
  0x23, 0xfb, 0x55, 0x7d, 0x7f, 0xd2, 0x5b, 0x7e, 0x9d, 0x1e, 0x9c, 0xe8,
  0x5a, 0x23, 0xd7, 0x4a, 0x49, 0xc1, 0x58, 0x75, 0x49, 0xbc, 0x9f, 0x8c,
  0x15, 0x2e, 0x3f, 0x28, 0xcd, 0xb0, 0x0f, 0x4b, 0x39, 0x76, 0xa1, 0xc2,
  0xcf, 0x97, 0xc6, 0x8a, 0xd1, 0xfd, 0x2b, 0x65, 0xc1, 0x7f, 0xb5, 0xaf,
  0x1b, 0xd7, 0x3c, 0x9d, 0xe3, 0xdd, 0xf9, 0xf6, 0x15, 0xaa, 0x51, 0xc1,
  0x15, 0x16, 0x62, 0xeb, 0x5e, 0xdc, 0xb7, 0x02, 0x0e, 0x39, 0xe6, 0x9b,
  0x18, 0x23, 0x69, 0x07, 0xf5, 0x77, 0x26, 0xd2, 0x4b, 0x36, 0x76, 0xbb,
  0xa6, 0x2d, 0xf0, 0xe3, 0xb8, 0xee, 0xca, 0xeb, 0xd9, 0x81, 0xbc, 0x61,
  0x3d, 0xcd, 0x86, 0xe0, 0x51, 0x48, 0x9f, 0xce, 0xd7, 0xc4, 0x71, 0x4e,
  0xc7, 0x01, 0x92, 0x64, 0x53, 0x36, 0x0f, 0x26, 0x7f, 0x93, 0x5a, 0x7c,
  0xfa, 0xf9, 0xf8, 0x48, 0xac, 0x3b, 0x68, 0x1d, 0xb1, 0x74, 0xf2, 0x6e,
  0x9c, 0x1f, 0xe6, 0x60, 0x40, 0xd3, 0x93, 0xed, 0x9f, 0x84, 0xcc, 0x33,
  0xbf, 0x97, 0x31, 0xe1, 0xa4, 0xd8, 0x64, 0x6b, 0x44, 0xc6, 0x55, 0x23,
  0x73, 0x91, 0x60, 0x1d, 0x29, 0x3c, 0x3f, 0x3a, 0x97, 0x7f, 0x7d, 0x68,
  0xe6, 0xf6, 0x94, 0x6c, 0x2f, 0xbb, 0x18, 0x36, 0x65, 0x56, 0xff, 0x7e,
  0x38, 0x11, 0x6c, 0x7e, 0x2f, 0x81, 0xa4, 0x12, 0xc1, 0x82, 0x62, 0xa8,
  0x24, 0x8e, 0xc2, 0xd5, 0x1f, 0x27, 0xb7, 0x0d, 0x7b, 0x4a, 0xbe, 0xd0,
  0xbb, 0x50, 0x45, 0xdf, 0x09, 0x0b, 0x41, 0x29, 0x43, 0xe5, 0xa8, 0x47,
  0x52, 0x32, 0x18, 0xdb, 0x0f, 0xbe, 0x92, 0x31, 0xf3, 0x02, 0xe7, 0x1b,
  0x00, 0xc5, 0x66, 0x61, 0x46, 0x6a, 0x1f, 0x72, 0x23, 0x74, 0x35, 0x2b,
  0x63, 0x7f, 0xfc, 0x20, 0x51, 0x72, 0x14, 0x97, 0x47, 0xc0, 0x55, 0x1b,
  0xfd, 0x41, 0x59, 0x4f, 0x39, 0x3b, 0x98, 0x3b, 0x00, 0x00, 0x00, 0x00,
  0x02, 0xee, 0xff, 0xff, 0x04, 0x00, 0x00, 0x00, 0x28, 0x00, 0x00, 0x00,
  0xb5, 0x86, 0xfc, 0xa0, 0xe9, 0x81, 0xd9, 0xe2, 0x86, 0xe5, 0x1b, 0xf2,
  0x4b, 0x86, 0xae, 0xe4, 0xaa, 0x22, 0x87, 0x24, 0x69, 0x68, 0x9c, 0xf8,
  0xa9, 0xeb, 0xac, 0x1f, 0xcb, 0xb3, 0xe3, 0x0e, 0xcb, 0xa2, 0xdf, 0x4a,
  0xc2, 0x52, 0x76, 0xa0, 0x00, 0x00, 0x00, 0x00, 0xb4, 0xcd, 0xff, 0xff,
  0x00, 0x00, 0x00, 0x00, 0x42, 0xee, 0xff, 0xff, 0x04, 0x00, 0x00, 0x00,
  0x10, 0x00, 0x00, 0x00, 0x01, 0x00, 0x00, 0x00, 0x01, 0x00, 0x00, 0x00,
  0xf9, 0x01, 0x00, 0x00, 0x01, 0x00, 0x00, 0x00, 0x00, 0x00, 0x00, 0x00,
  0x00, 0x00, 0x00, 0x00, 0x00, 0x00, 0x00, 0x00, 0xe4, 0xcd, 0xff, 0xff,
  0x00, 0x00, 0x00, 0x00, 0x72, 0xee, 0xff, 0xff, 0x04, 0x00, 0x00, 0x00,
  0x20, 0x00, 0x00, 0x00, 0x85, 0xaa, 0xff, 0xff, 0xf7, 0xa9, 0xff, 0xff,
  0x7e, 0xac, 0xff, 0xff, 0x6b, 0xac, 0xff, 0xff, 0xc3, 0x54, 0x00, 0x00,
  0x14, 0xc9, 0xff, 0xff, 0x55, 0x55, 0x00, 0x00, 0x54, 0x5a, 0x00, 0x00,
  0x00, 0x00, 0x00, 0x00, 0x00, 0x00, 0x00, 0x00, 0x00, 0x00, 0x00, 0x00,
  0x24, 0xce, 0xff, 0xff, 0x00, 0x00, 0x00, 0x00, 0x00, 0x00, 0x00, 0x00,
  0x00, 0x00, 0x00, 0x00, 0x34, 0xce, 0xff, 0xff, 0x00, 0x00, 0x00, 0x00,
  0x00, 0x00, 0x00, 0x00, 0x00, 0x00, 0x00, 0x00, 0x44, 0xce, 0xff, 0xff,
  0x00, 0x00, 0x00, 0x00, 0x00, 0x00, 0x00, 0x00, 0x00, 0x00, 0x00, 0x00,
  0x54, 0xce, 0xff, 0xff, 0x00, 0x00, 0x00, 0x00, 0xe2, 0xee, 0xff, 0xff,
  0x04, 0x00, 0x00, 0x00, 0x40, 0x01, 0x00, 0x00, 0x60, 0xe7, 0x74, 0x25,
  0xa6, 0x59, 0xf5, 0xbf, 0xe4, 0x28, 0x1d, 0x4e, 0xab, 0xe1, 0xd2, 0x13,
  0x91, 0x05, 0x76, 0x69, 0x34, 0x7f, 0xc2, 0xd9, 0x06, 0x9d, 0x09, 0x0f,
  0xac, 0x21, 0x92, 0xac, 0xf8, 0x4f, 0xca, 0xeb, 0xbb, 0x91, 0x29, 0xb7,
  0x87, 0x90, 0x2a, 0xb2, 0x8d, 0x07, 0x8f, 0x92, 0x8b, 0x23, 0x0a, 0x81,
  0x4b, 0x09, 0xce, 0x6d, 0xe7, 0xc3, 0xdb, 0xfe, 0x29, 0xb6, 0xa6, 0x59,
  0x7f, 0x5d, 0x3c, 0xe7, 0x3e, 0xca, 0xdd, 0x37, 0x78, 0xbb, 0x6e, 0x73,
  0x02, 0xf6, 0x21, 0x2e, 0x01, 0x96, 0x6b, 0x3f, 0x79, 0xc4, 0x25, 0x8c,
  0xf7, 0xd3, 0x6e, 0xf1, 0x25, 0xad, 0xe7, 0x66, 0x84, 0x5c, 0xb1, 0xc5,
  0x76, 0x07, 0xa3, 0xfb, 0xae, 0xf4, 0x7c, 0xe3, 0x7f, 0x9f, 0x72, 0x17,
  0x1e, 0x71, 0xef, 0xff, 0x47, 0x2d, 0x73, 0x47, 0xa3, 0xc6, 0x39, 0x17,
  0x93, 0xe6, 0xd7, 0x90, 0x76, 0xe3, 0x3f, 0x73, 0x3a, 0x48, 0xf4, 0x6f,
  0xce, 0xf1, 0xb1, 0x87, 0x81, 0x23, 0x79, 0x45, 0x14, 0x7c, 0x9f, 0x75,
  0x90, 0xb7, 0xde, 0xd1, 0x2c, 0xd8, 0x18, 0x5a, 0xd6, 0x60, 0x99, 0x26,
  0x2d, 0xcb, 0x05, 0x42, 0xb9, 0xa2, 0x7f, 0x4b, 0x68, 0x60, 0x62, 0xa5,
  0x15, 0xd5, 0x76, 0xb9, 0x16, 0xde, 0xb1, 0x81, 0xaf, 0x57, 0x24, 0x02,
  0x73, 0xf3, 0x13, 0xea, 0x0c, 0x4a, 0xc8, 0xb6, 0x5e, 0xee, 0x10, 0x40,
  0x1b, 0x45, 0xba, 0xef, 0xb8, 0x00, 0xd3, 0xa8, 0xce, 0xc2, 0x6a, 0x81,
  0x47, 0x9e, 0x9b, 0xed, 0xcc, 0x83, 0x5a, 0x4b, 0x93, 0x27, 0x58, 0xbd,
  0xc2, 0xc1, 0x13, 0xd4, 0x41, 0x9f, 0x8b, 0x6a, 0xac, 0xdf, 0x1b, 0x46,
  0x49, 0x39, 0xcf, 0x17, 0xeb, 0xc3, 0x0b, 0xfe, 0xe8, 0x3f, 0x87, 0x8b,
  0x5b, 0xbd, 0x84, 0xdc, 0x9c, 0xe3, 0x57, 0x15, 0xb0, 0x54, 0xe5, 0xdf,
  0x30, 0x5e, 0x98, 0xb4, 0x48, 0x75, 0x54, 0xce, 0x7f, 0x2c, 0x0f, 0x51,
  0x16, 0x5f, 0xe6, 0x8b, 0x48, 0x7b, 0x06, 0xfc, 0x3f, 0x39, 0x29, 0xf0,
  0x87, 0x29, 0x99, 0xce, 0xec, 0x50, 0x2e, 0x50, 0x6e, 0x60, 0x24, 0x36,
  0x2a, 0x8e, 0x07, 0x7e, 0xf2, 0xe9, 0xfb, 0x7f, 0xae, 0x90, 0xb1, 0xc5,
  0xbb, 0xcf, 0x71, 0x3d, 0x11, 0x5c, 0xb6, 0xb1, 0x26, 0xe1, 0xf6, 0xce,
  0x63, 0x54, 0x3a, 0x0d, 0x00, 0x00, 0x00, 0x00, 0x00, 0x00, 0x00, 0x00,
  0x00, 0x00, 0x00, 0x00, 0xb4, 0xcf, 0xff, 0xff, 0x00, 0x00, 0x00, 0x00,
  0x42, 0xf0, 0xff, 0xff, 0x04, 0x00, 0x00, 0x00, 0x28, 0x00, 0x00, 0x00,
  0x81, 0x7f, 0xd4, 0xc7, 0xbd, 0xf9, 0x48, 0xfc, 0x77, 0x58, 0x3f, 0x4c,
  0x2a, 0xe3, 0x26, 0x35, 0x3b, 0x87, 0x22, 0x7f, 0xa2, 0xec, 0x4a, 0xf4,
  0xc2, 0x1b, 0x11, 0xeb, 0x7f, 0x54, 0x4b, 0xee, 0x4c, 0x3f, 0x7f, 0x2c,
  0xb1, 0x81, 0x7f, 0x81, 0x00, 0x00, 0x00, 0x00, 0x00, 0x00, 0x00, 0x00,
  0x00, 0x00, 0x00, 0x00, 0x82, 0xf0, 0xff, 0xff, 0x04, 0x00, 0x00, 0x00,
  0x20, 0x00, 0x00, 0x00, 0x59, 0x02, 0x00, 0x00, 0x58, 0x01, 0x00, 0x00,
  0x2f, 0xfb, 0xff, 0xff, 0x91, 0x02, 0x00, 0x00, 0x5b, 0xf9, 0xff, 0xff,
  0xc3, 0xfa, 0xff, 0xff, 0xc1, 0x02, 0x00, 0x00, 0xef, 0xfc, 0xff, 0xff,
  0x00, 0x00, 0x00, 0x00, 0xb2, 0xf0, 0xff, 0xff, 0x04, 0x00, 0x00, 0x00,
  0x20, 0x00, 0x00, 0x00, 0x20, 0x07, 0x00, 0x00, 0xfb, 0xf8, 0xff, 0xff,
  0x49, 0x06, 0x00, 0x00, 0x78, 0xf8, 0xff, 0xff, 0x79, 0xfd, 0xff, 0xff,
  0x5a, 0x07, 0x00, 0x00, 0xdd, 0xf9, 0xff, 0xff, 0x86, 0xf8, 0xff, 0xff,
  0x00, 0x00, 0x00, 0x00, 0xe2, 0xf0, 0xff, 0xff, 0x04, 0x00, 0x00, 0x00,
  0x20, 0x00, 0x00, 0x00, 0x00, 0x00, 0x00, 0x00, 0xe8, 0x13, 0x00, 0x00,
  0xfa, 0x09, 0x00, 0x00, 0x9d, 0x13, 0x00, 0x00, 0x2b, 0xec, 0xff, 0xff,
  0x6e, 0xf0, 0xff, 0xff, 0x2f, 0x13, 0x00, 0x00, 0xb6, 0xeb, 0xff, 0xff,
  0x00, 0x00, 0x00, 0x00, 0x12, 0xf1, 0xff, 0xff, 0x04, 0x00, 0x00, 0x00,
  0x40, 0x01, 0x00, 0x00, 0x10, 0x28, 0xdf, 0x48, 0xf5, 0xb9, 0x5e, 0xee,
  0x69, 0x61, 0x89, 0x28, 0x6d, 0x75, 0xb8, 0xdc, 0x65, 0xee, 0x6e, 0x9a,
  0xd3, 0x41, 0x93, 0x45, 0x2e, 0xd4, 0x8c, 0x40, 0xc6, 0x5a, 0xfe, 0x13,
  0xf1, 0x3b, 0x5d, 0x0d, 0xbc, 0x81, 0x4e, 0x63, 0x4a, 0x70, 0xad, 0x07,
  0xde, 0xa6, 0x90, 0x27, 0x8f, 0xea, 0xe6, 0x01, 0x95, 0xe8, 0xe4, 0xbb,
  0x81, 0x93, 0xeb, 0xc4, 0x36, 0xd8, 0x8e, 0x9e, 0x9e, 0x34, 0xc7, 0x39,
  0x93, 0xf3, 0xd6, 0x4d, 0x31, 0x16, 0x73, 0x9d, 0x55, 0xf2, 0xeb, 0xb2,
  0xa0, 0xd5, 0xb8, 0xb4, 0x45, 0xfe, 0xcc, 0x72, 0x24, 0x0e, 0xce, 0x0c,
  0xc8, 0x0a, 0xee, 0x04, 0x23, 0xc2, 0x82, 0x4b, 0x39, 0x81, 0x1c, 0xb7,
  0x77, 0x33, 0x23, 0x20, 0x6b, 0xcb, 0xe6, 0xf2, 0x43, 0x4c, 0x88, 0x14,
  0x6f, 0x22, 0xfc, 0x09, 0xa3, 0x06, 0x86, 0x65, 0x55, 0x99, 0x7f, 0x62,
  0x84, 0xc7, 0x70, 0xeb, 0x17, 0xe5, 0xc0, 0xf4, 0x9e, 0x69, 0x89, 0x9c,
  0x7d, 0xa6, 0x86, 0xbe, 0x5f, 0x13, 0x17, 0xa5, 0xdc, 0x64, 0xdc, 0x9a,
  0x26, 0x6a, 0x11, 0x43, 0x48, 0xd3, 0x93, 0x05, 0x25, 0xb3, 0xa5, 0xc8,
  0x6c, 0x2e, 0x6a, 0xb5, 0x4c, 0x1d, 0xc2, 0x63, 0x0c, 0xf8, 0xf7, 0xf0,
  0x74, 0x0d, 0x6d, 0xda, 0xf0, 0x5d, 0x4e, 0x1b, 0x1e, 0x57, 0x7f, 0x7f,
  0xe6, 0x1e, 0xa7, 0x8c, 0x24, 0xde, 0x43, 0x22, 0x2c, 0xd8, 0x4c, 0x50,
  0x20, 0x3a, 0x33, 0x12, 0x8f, 0x96, 0x74, 0x8b, 0x89, 0xed, 0xa2, 0x3b,
  0xc9, 0x23, 0x6b, 0x16, 0x81, 0xb3, 0x5f, 0x50, 0x33, 0x0c, 0xd8, 0x43,
  0x2b, 0x97, 0x4d, 0xdb, 0x17, 0xd1, 0xb6, 0x97, 0xbf, 0xe8, 0x7d, 0x44,
  0xce, 0x07, 0xba, 0x19, 0xe0, 0xb5, 0x66, 0xd2, 0x7c, 0x99, 0x17, 0x6d,
  0x9c, 0x66, 0xba, 0x4d, 0xe7, 0xdd, 0x97, 0x69, 0x99, 0x6d, 0xe5, 0x0d,
  0x0f, 0x50, 0x8b, 0x3f, 0x6d, 0xf4, 0xe7, 0x53, 0x16, 0x81, 0x38, 0xc1,
  0x5a, 0x10, 0x6e, 0xea, 0xcc, 0xa3, 0xa1, 0x43, 0x02, 0xc0, 0x44, 0x42,
  0xd5, 0x24, 0x2f, 0x75, 0x46, 0x74, 0xb0, 0x79, 0x3b, 0x70, 0x61, 0xb6,
  0x81, 0xc7, 0x23, 0x4b, 0x45, 0x60, 0xba, 0x8d, 0x67, 0xb0, 0x57, 0x59,
  0x7b, 0xc4, 0xeb, 0x6d, 0x4d, 0x9b, 0xd7, 0xc8, 0x0a, 0x16, 0xcc, 0x95,
  0x00, 0x00, 0x00, 0x00, 0x62, 0xf2, 0xff, 0xff, 0x04, 0x00, 0x00, 0x00,
  0x20, 0x00, 0x00, 0x00, 0xba, 0x16, 0x00, 0x00, 0x8c, 0x15, 0x00, 0x00,
  0x21, 0x15, 0x00, 0x00, 0x36, 0xea, 0xff, 0xff, 0x10, 0x16, 0x00, 0x00,
  0xcf, 0x13, 0x00, 0x00, 0x81, 0xe9, 0xff, 0xff, 0x16, 0xea, 0xff, 0xff,
  0x00, 0x00, 0x00, 0x00, 0x92, 0xf2, 0xff, 0xff, 0x04, 0x00, 0x00, 0x00,
  0x40, 0x01, 0x00, 0x00, 0x97, 0xa6, 0x8f, 0xf7, 0x2e, 0xf5, 0x57, 0x6e,
  0xb7, 0xa9, 0x12, 0xf9, 0x8a, 0xe5, 0xdf, 0x84, 0x42, 0x36, 0x89, 0xa6,
  0x82, 0x1f, 0x01, 0x53, 0x01, 0xc3, 0x44, 0x7f, 0xdc, 0x32, 0x98, 0xe0,
  0xad, 0x85, 0xd0, 0x75, 0x7c, 0xc2, 0x2a, 0x7c, 0x87, 0x18, 0xd8, 0x43,
  0xb3, 0x55, 0xc8, 0xce, 0x65, 0xc5, 0xc1, 0xe0, 0xbb, 0x5c, 0xdf, 0x34,
  0xfd, 0xe6, 0x31, 0x06, 0xff, 0xe2, 0xe9, 0x00, 0xb7, 0x5a, 0xbd, 0x44,
  0x2e, 0x7f, 0xc9, 0xdf, 0x00, 0xd9, 0xa3, 0x35, 0xe0, 0x6c, 0x59, 0x1d,
  0x9f, 0x0b, 0x9a, 0xb2, 0x5d, 0xc1, 0x0d, 0xe3, 0x5c, 0x03, 0x6a, 0x34,
  0xae, 0x81, 0x5b, 0xa3, 0x8e, 0xc1, 0x82, 0x97, 0x8b, 0xd0, 0x7e, 0x28,
  0xee, 0xbc, 0x69, 0xad, 0xdf, 0x54, 0x4d, 0x55, 0x6a, 0xcc, 0xbb, 0x1b,
  0xb0, 0x92, 0x6b, 0x0c, 0xe6, 0xb3, 0x1b, 0x2b, 0x2f, 0x2a, 0x9e, 0x78,
  0x2f, 0x12, 0x12, 0x72, 0xbc, 0xd8, 0x72, 0xe0, 0x89, 0x59, 0xd9, 0x10,
  0xe5, 0xd9, 0xfc, 0x7f, 0x07, 0xc2, 0xdc, 0x91, 0xac, 0x69, 0xbe, 0x0a,
  0xff, 0xb3, 0xf1, 0x37, 0xca, 0x28, 0x53, 0x7f, 0x0f, 0x54, 0x57, 0x47,
  0xd6, 0xfc, 0x64, 0x0a, 0x26, 0x1b, 0xe3, 0xc3, 0xfe, 0x26, 0x8a, 0xcf,
  0xe2, 0xac, 0x75, 0x8e, 0xa2, 0x81, 0xff, 0xec, 0x76, 0xd1, 0x37, 0xa1,
  0x1c, 0xf8, 0xa7, 0x96, 0xcd, 0x4a, 0x71, 0xa8, 0x84, 0x3c, 0x7d, 0xe0,
  0x18, 0x31, 0xb6, 0x71, 0xcd, 0xc3, 0x46, 0x1b, 0x4b, 0xbe, 0xa7, 0x66,
  0x01, 0xd7, 0x67, 0x3e, 0x83, 0xcb, 0xac, 0x70, 0xf3, 0x36, 0xb1, 0xc6,
  0xf2, 0x13, 0x74, 0x3a, 0xcf, 0x1c, 0x51, 0xe8, 0xd6, 0x15, 0x73, 0x02,
  0x61, 0x5c, 0x7f, 0x17, 0xba, 0x2b, 0x54, 0x0b, 0x69, 0xf7, 0xe0, 0x34,
  0xbd, 0x83, 0xd3, 0x8f, 0x4c, 0xb6, 0xbe, 0xf5, 0x15, 0xdd, 0x95, 0xcd,
  0x05, 0x34, 0x7c, 0x62, 0x86, 0x9b, 0x29, 0x0e, 0x97, 0x3c, 0x84, 0x47,
  0xbf, 0xa1, 0x78, 0xcc, 0x6f, 0x4c, 0x81, 0x94, 0xf0, 0xb2, 0x72, 0xb9,
  0xb0, 0x16, 0x84, 0x3f, 0x88, 0xf1, 0x2e, 0x12, 0x98, 0x2b, 0xd1, 0xf8,
  0xb9, 0x60, 0x39, 0x11, 0x41, 0x86, 0xf2, 0x18, 0xa1, 0x70, 0x85, 0xda,
  0xf8, 0x04, 0xcb, 0xa1, 0x08, 0xd8, 0x7d, 0x45, 0x22, 0xf3, 0x9c, 0x7f,
  0x00, 0x00, 0x00, 0x00, 0xe2, 0xf3, 0xff, 0xff, 0x04, 0x00, 0x00, 0x00,
  0x20, 0x00, 0x00, 0x00, 0xc3, 0x2f, 0x00, 0x00, 0x3c, 0xce, 0xff, 0xff,
  0x80, 0xd0, 0xff, 0xff, 0x12, 0xcd, 0xff, 0xff, 0xc1, 0x2f, 0x00, 0x00,
  0x2a, 0x27, 0x00, 0x00, 0xb0, 0x2f, 0x00, 0x00, 0xb8, 0xce, 0xff, 0xff,
  0x00, 0x00, 0x00, 0x00, 0x12, 0xf4, 0xff, 0xff, 0x04, 0x00, 0x00, 0x00,
  0x40, 0x01, 0x00, 0x00, 0x75, 0xeb, 0x6e, 0xa2, 0x98, 0x0c, 0x8e, 0xf0,
  0x85, 0x2a, 0xde, 0xca, 0x7f, 0x8b, 0x45, 0x68, 0x2b, 0x76, 0x08, 0x39,
  0x67, 0xa5, 0xc8, 0xc0, 0x04, 0xf0, 0x2f, 0x4f, 0x96, 0xca, 0x24, 0x18,
  0xda, 0x86, 0x7e, 0xb1, 0xcc, 0x59, 0x9d, 0x3b, 0x8a, 0x95, 0xd2, 0x4f,
  0x9d, 0x2a, 0x86, 0x74, 0x93, 0x12, 0x67, 0x54, 0x0a, 0xae, 0xf9, 0xc6,
  0x9f, 0x83, 0x11, 0xc2, 0xe2, 0x9d, 0x13, 0x41, 0xc7, 0x5b, 0x7f, 0x76,
  0xaa, 0x30, 0xbf, 0xcc, 0xb0, 0x64, 0xee, 0x2c, 0xfc, 0xc3, 0xc5, 0xf0,
  0x64, 0xb2, 0x84, 0x3b, 0x7b, 0xab, 0xa0, 0xc5, 0xd5, 0x07, 0xad, 0x71,
  0x6d, 0xcb, 0xae, 0x14, 0xce, 0x4e, 0xcf, 0xd6, 0x89, 0x17, 0xc1, 0xbc,
  0x7d, 0x1c, 0x92, 0x0f, 0xce, 0x25, 0xf4, 0x6d, 0x50, 0x97, 0x9c, 0xf6,
  0x71, 0x9c, 0x7f, 0x88, 0xe4, 0x3c, 0xf8, 0xb9, 0x2f, 0x6f, 0x1f, 0x33,
  0x84, 0x7d, 0x7f, 0xb7, 0x23, 0x09, 0x4a, 0x91, 0xb7, 0xaa, 0xdb, 0x8e,
  0x9e, 0x6f, 0x05, 0x3a, 0x8c, 0x5f, 0x37, 0xc6, 0x88, 0xed, 0x85, 0xae,
  0xbc, 0x8c, 0x3a, 0x24, 0x84, 0x6c, 0x31, 0xe6, 0x7f, 0xcc, 0x5e, 0x1f,
  0xe7, 0x63, 0x00, 0xda, 0x63, 0x8e, 0xd2, 0x73, 0x1f, 0x45, 0xcc, 0xa1,
  0xb0, 0x0f, 0xb1, 0x38, 0x51, 0xee, 0x5e, 0xed, 0xae, 0xbf, 0xa5, 0x1d,
  0x94, 0x88, 0x58, 0xef, 0x3b, 0x51, 0x62, 0x97, 0x4c, 0xe8, 0x7c, 0x65,
  0x93, 0xf5, 0xce, 0x83, 0xd4, 0x2c, 0x70, 0x45, 0xfc, 0x10, 0x2e, 0x81,
  0xa9, 0xa4, 0x50, 0x7f, 0x40, 0x67, 0xdc, 0x1e, 0xcc, 0xb6, 0xe1, 0x49,
  0x66, 0xcf, 0x78, 0x3b, 0xa8, 0x91, 0x04, 0x1e, 0x47, 0xf3, 0x6e, 0x5f,
  0xfe, 0x9d, 0x8c, 0xaa, 0x68, 0xdc, 0xc8, 0xa5, 0xf9, 0x0c, 0x0b, 0x2d,
  0x75, 0x43, 0x7f, 0xf6, 0x66, 0xb4, 0xcc, 0x81, 0x03, 0x9d, 0x66, 0x4a,
  0xb3, 0x49, 0x89, 0xe0, 0x5f, 0x67, 0x31, 0xb5, 0x11, 0x93, 0x9c, 0x22,
  0x83, 0xd5, 0x9f, 0x08, 0xe3, 0xf1, 0x0a, 0x50, 0x0b, 0xcf, 0x1e, 0xd4,
  0x68, 0x1f, 0xe7, 0x16, 0x28, 0x04, 0x38, 0xe1, 0xe4, 0xff, 0x36, 0xdc,
  0x93, 0x9f, 0xb4, 0x4b, 0xc0, 0x40, 0xc8, 0x5a, 0xcf, 0x1d, 0x05, 0xab,
  0x0e, 0xb4, 0x2c, 0xb3, 0x01, 0xe1, 0x3c, 0x9a, 0xaa, 0x81, 0xf2, 0x9b,
  0x00, 0x00, 0x00, 0x00, 0x62, 0xf5, 0xff, 0xff, 0x04, 0x00, 0x00, 0x00,
  0x40, 0x01, 0x00, 0x00, 0xf0, 0x08, 0xf9, 0xab, 0x77, 0x5d, 0x7d, 0x5a,
  0xf0, 0x33, 0x61, 0x05, 0x81, 0xef, 0xf0, 0x69, 0xe6, 0x03, 0x99, 0x14,
  0x78, 0x94, 0xae, 0x60, 0xf1, 0x8f, 0xf5, 0xc4, 0x30, 0x5f, 0x98, 0x19,
  0x44, 0x41, 0xf7, 0xf5, 0x96, 0xac, 0xca, 0xa2, 0x70, 0x26, 0xda, 0x4b,
  0xc8, 0xa7, 0x78, 0xe2, 0x86, 0x37, 0xd8, 0xdb, 0xed, 0xdc, 0x07, 0x9c,
  0x57, 0x21, 0xd8, 0xcb, 0x93, 0x37, 0x77, 0x9e, 0x34, 0xde, 0x6b, 0xf9,
  0x51, 0x11, 0x38, 0x7c, 0x81, 0x38, 0x3f, 0xdd, 0x8b, 0xfb, 0xc4, 0x24,
  0xd1, 0xcb, 0x0b, 0xe4, 0x4c, 0xa1, 0xd0, 0x2c, 0x31, 0xe6, 0xbb, 0x8a,
  0x6a, 0xf4, 0x6a, 0x4a, 0x5f, 0xcc, 0x6b, 0xeb, 0x66, 0x84, 0xb3, 0xc0,
  0xc1, 0x64, 0xb1, 0x71, 0x11, 0x39, 0xf5, 0xf0, 0xb5, 0x69, 0xc7, 0x75,
  0xef, 0xf4, 0x3f, 0x81, 0x9b, 0xfc, 0x48, 0x65, 0xad, 0x67, 0x5f, 0x9d,
  0x74, 0x75, 0x84, 0x64, 0x63, 0xc1, 0x0c, 0xde, 0x2f, 0x1b, 0x16, 0x03,
  0x44, 0x59, 0x66, 0xc0, 0xa8, 0xa0, 0x99, 0x7a, 0x81, 0x3c, 0x0b, 0xb0,
  0x3a, 0x6d, 0xb2, 0x64, 0x5d, 0xa9, 0x15, 0x7a, 0x7b, 0xe0, 0xa0, 0xd3,
  0xdc, 0x69, 0xbe, 0x6e, 0x10, 0xa5, 0xcc, 0x15, 0xe3, 0x56, 0x02, 0x18,
  0x34, 0x46, 0x7f, 0x37, 0xb7, 0xc1, 0x0f, 0xa4, 0xc0, 0x8c, 0x8f, 0x91,
  0xc5, 0xa7, 0x49, 0xf9, 0xee, 0x31, 0xa3, 0x2c, 0x56, 0x33, 0xaa, 0xd0,
  0x9d, 0xc1, 0x84, 0x60, 0xc8, 0x66, 0x02, 0x2d, 0xa4, 0xad, 0xdf, 0x46,
  0xce, 0xf4, 0x89, 0x70, 0xcb, 0x86, 0x94, 0x6d, 0xe1, 0x65, 0x81, 0xc2,
  0x36, 0xb8, 0x70, 0x4b, 0x5f, 0x2a, 0x26, 0xa1, 0xf2, 0xa0, 0x10, 0xfc,
  0x41, 0x48, 0x8c, 0xe4, 0xfd, 0x86, 0xd7, 0xff, 0xf9, 0x99, 0x37, 0xf7,
  0x81, 0x13, 0xaa, 0x78, 0x1c, 0x2a, 0x52, 0xf8, 0x30, 0xb7, 0xc9, 0x08,
  0xf3, 0x34, 0x0c, 0xd4, 0x27, 0x8a, 0x84, 0xf5, 0xa7, 0x0b, 0xb7, 0x74,
  0x08, 0xba, 0xf1, 0x29, 0x8f, 0xc1, 0x07, 0xdb, 0xc9, 0x73, 0x94, 0x48,
  0x06, 0x18, 0xf4, 0x6c, 0x44, 0x69, 0x26, 0x84, 0xc6, 0x4b, 0xc9, 0x6d,
  0xe1, 0x6c, 0x08, 0xa9, 0xa9, 0x02, 0xa0, 0x3c, 0x63, 0x3d, 0x8a, 0xdf,
  0xae, 0x81, 0x16, 0xf0, 0xb6, 0x76, 0xed, 0x50, 0x4c, 0xa7, 0x20, 0x4c,
  0x00, 0x00, 0x00, 0x00, 0xb2, 0xf6, 0xff, 0xff, 0x04, 0x00, 0x00, 0x00,
  0x20, 0x00, 0x00, 0x00, 0x37, 0x87, 0x00, 0x00, 0xea, 0x77, 0xff, 0xff,
  0xdb, 0x8b, 0x00, 0x00, 0x2f, 0x85, 0x00, 0x00, 0xf7, 0x79, 0xff, 0xff,
  0x9b, 0x77, 0xff, 0xff, 0x1b, 0x82, 0x00, 0x00, 0xa1, 0x74, 0xff, 0xff,
  0x00, 0x00, 0x00, 0x00, 0xe2, 0xf6, 0xff, 0xff, 0x04, 0x00, 0x00, 0x00,
  0x40, 0x01, 0x00, 0x00, 0x12, 0xa6, 0x16, 0x51, 0x9f, 0x7f, 0xcf, 0xaa,
  0xe6, 0xcf, 0x94, 0x57, 0x9a, 0xca, 0x0c, 0x5c, 0xdc, 0xc1, 0x8d, 0x5d,
  0xf0, 0x55, 0x4e, 0xbd, 0x6e, 0x01, 0xb7, 0xb3, 0x70, 0x84, 0xcb, 0x50,
  0x96, 0xf4, 0x1a, 0xcf, 0x65, 0x59, 0xe1, 0x4c, 0xb2, 0xdc, 0x64, 0x4c,
  0xb6, 0x19, 0x61, 0xed, 0x61, 0xad, 0xce, 0xcf, 0x2b, 0xc0, 0x87, 0x6b,
  0x6e, 0xba, 0x03, 0x93, 0x9b, 0x04, 0xbb, 0xa5, 0x81, 0x5d, 0xc9, 0x42,
  0x8b, 0x0a, 0x03, 0x78, 0xfd, 0x6b, 0xa0, 0xcf, 0xea, 0xa6, 0x16, 0x54,
  0x3e, 0xb8, 0x7f, 0xa6, 0x8f, 0x04, 0x44, 0x6f, 0x8b, 0xfb, 0x23, 0xb2,
  0x72, 0x0f, 0xfc, 0x11, 0x42, 0xe6, 0x00, 0x1a, 0x22, 0xf1, 0x9d, 0xb3,
  0x87, 0xef, 0x96, 0x6c, 0xde, 0xc7, 0x08, 0x01, 0x7a, 0xeb, 0xd1, 0x6f,
  0xd2, 0x2f, 0xd1, 0x92, 0x2e, 0x7b, 0xeb, 0xac, 0x19, 0xde, 0x6e, 0x87,
  0x67, 0xeb, 0x81, 0x49, 0x62, 0x3b, 0x42, 0x8f, 0x67, 0x8e, 0x5f, 0x46,
  0xde, 0xa5, 0x19, 0x77, 0xbf, 0x2d, 0xe9, 0xca, 0xa9, 0x11, 0xa4, 0xef,
  0xf3, 0x3c, 0x9d, 0x1d, 0xc4, 0xe9, 0x43, 0x6c, 0xf9, 0x27, 0x00, 0x81,
  0xa3, 0x52, 0x51, 0xf2, 0x07, 0x9b, 0x4b, 0x1d, 0x9a, 0x96, 0xf8, 0x6b,
  0x96, 0xcb, 0x07, 0x25, 0x7e, 0xc9, 0xde, 0x3e, 0x9d, 0x07, 0x27, 0xbe,
  0x6d, 0x1a, 0xfa, 0x79, 0x57, 0x85, 0x87, 0x45, 0xd4, 0x47, 0x21, 0x5c,
  0x45, 0x43, 0x2b, 0x5d, 0xa6, 0xb8, 0xf4, 0x3f, 0x16, 0x01, 0x9f, 0x4c,
  0x53, 0xb4, 0xa7, 0x86, 0xf0, 0x8a, 0x3c, 0x5d, 0xca, 0x5e, 0xb3, 0xe4,
  0x39, 0xd3, 0xfb, 0x3e, 0x98, 0xb5, 0xea, 0x7f, 0x9a, 0x0f, 0x25, 0x8d,
  0x8f, 0x1a, 0xf2, 0xfe, 0x14, 0xa1, 0x5b, 0x0c, 0x74, 0x5a, 0x87, 0x8f,
  0x98, 0x3a, 0x54, 0x30, 0xcf, 0xec, 0xee, 0xd5, 0xfc, 0xd9, 0xef, 0x73,
  0x9b, 0xa2, 0xd2, 0xa5, 0xc6, 0x0b, 0x2e, 0xd8, 0x5b, 0xb8, 0xb0, 0x11,
  0xcf, 0x66, 0xa1, 0x7f, 0x29, 0xd7, 0x05, 0x52, 0x45, 0x23, 0xce, 0x64,
  0xed, 0x02, 0xc9, 0x07, 0x88, 0x2c, 0xdf, 0x83, 0x24, 0x70, 0x31, 0x96,
  0x21, 0x30, 0x7f, 0x67, 0x70, 0x43, 0xaa, 0x69, 0xaa, 0x9a, 0x9c, 0xd5,
  0xd1, 0xc5, 0xb7, 0x96, 0x52, 0x5c, 0x81, 0xf8, 0x78, 0xdd, 0xfa, 0x43,
  0x00, 0x00, 0x00, 0x00, 0x32, 0xf8, 0xff, 0xff, 0x04, 0x00, 0x00, 0x00,
  0x20, 0x00, 0x00, 0x00, 0xf9, 0x9d, 0x00, 0x00, 0x8e, 0x60, 0xff, 0xff,
  0x86, 0x9f, 0x00, 0x00, 0x39, 0x5e, 0xff, 0xff, 0x77, 0x62, 0xff, 0xff,
  0x9c, 0x99, 0x00, 0x00, 0x38, 0xaa, 0x00, 0x00, 0xd1, 0x62, 0xff, 0xff,
  0x00, 0x00, 0x00, 0x00, 0x62, 0xf8, 0xff, 0xff, 0x04, 0x00, 0x00, 0x00,
  0x40, 0x01, 0x00, 0x00, 0x54, 0x35, 0x51, 0x7d, 0x41, 0xc4, 0x73, 0x34,
  0x1c, 0x9a, 0x81, 0x49, 0xe3, 0x3b, 0xf1, 0x97, 0x21, 0x1e, 0x61, 0x1c,
  0xfc, 0xe7, 0xb2, 0x3e, 0xd1, 0xea, 0x40, 0xa2, 0x57, 0x44, 0x56, 0x56,
  0xee, 0x53, 0xed, 0xed, 0x0a, 0xc9, 0xa1, 0x40, 0x51, 0x02, 0xc0, 0x8d,
  0x93, 0x19, 0xe1, 0xbb, 0xd9, 0x8d, 0x1a, 0x3c, 0x02, 0x75, 0x35, 0xdf,
  0x06, 0xe2, 0x08, 0x3b, 0x79, 0x7f, 0x82, 0x32, 0x25, 0xa3, 0xb1, 0xa6,
  0x99, 0x93, 0x07, 0x97, 0xb3, 0xc5, 0x11, 0x16, 0xca, 0x2f, 0xc1, 0x2a,
  0x85, 0x78, 0xed, 0x9d, 0x1f, 0x0f, 0xd4, 0x40, 0x5c, 0x33, 0x3a, 0x67,
  0xb8, 0xa9, 0xfd, 0xbc, 0x66, 0x0a, 0x3c, 0x63, 0x10, 0x07, 0x81, 0xfd,
  0xd7, 0x79, 0x86, 0xb5, 0x7f, 0x42, 0x22, 0x98, 0xe4, 0x6a, 0x9b, 0x47,
  0xed, 0xa4, 0xbf, 0x2e, 0x47, 0x9a, 0x41, 0x44, 0xbb, 0x30, 0x62, 0xea,
  0xf1, 0xe3, 0x2c, 0x32, 0x19, 0xd1, 0x52, 0x91, 0x42, 0xe5, 0x5b, 0xbf,
  0xc4, 0xe2, 0xe9, 0xc1, 0x68, 0x26, 0xd8, 0x15, 0xb2, 0x15, 0xf7, 0x7e,
  0xa1, 0x7f, 0xad, 0x2b, 0xf8, 0xf2, 0xfc, 0xd9, 0x7d, 0x2d, 0x5f, 0xd8,
  0xfb, 0xf2, 0x1b, 0x48, 0xb0, 0xdd, 0x26, 0xe8, 0x67, 0x7f, 0x4d, 0x7a,
  0x78, 0x9b, 0x8c, 0xc1, 0x9c, 0xd2, 0xf4, 0x7b, 0xc8, 0xec, 0x9a, 0x78,
  0x94, 0x10, 0x53, 0x1f, 0xe7, 0xac, 0xc0, 0x64, 0x22, 0x73, 0x54, 0x8c,
  0x56, 0x36, 0x67, 0x6f, 0x2e, 0xcd, 0xf4, 0xa2, 0xbf, 0xb9, 0xbe, 0xbc,
  0xa9, 0x03, 0xcd, 0x4c, 0xfc, 0x99, 0xa6, 0xcc, 0xde, 0x8d, 0x12, 0x8b,
  0xaa, 0x7a, 0x2c, 0xd0, 0x3d, 0x53, 0xe0, 0x81, 0xb4, 0x8e, 0xb2, 0xa2,
  0x7f, 0xda, 0x1a, 0x64, 0x83, 0x40, 0xb4, 0x06, 0x2d, 0xcb, 0x90, 0x05,
  0x5c, 0xfd, 0x79, 0x7f, 0x6a, 0x99, 0xb6, 0xb7, 0x37, 0x77, 0xb9, 0x57,
  0xd9, 0x9e, 0xeb, 0xaf, 0x6f, 0x6a, 0x28, 0xf5, 0x76, 0xc8, 0x6a, 0x31,
  0xcd, 0xfb, 0xa6, 0x53, 0x56, 0x6e, 0xbc, 0x95, 0x29, 0x7f, 0x09, 0xc7,
  0xfc, 0xc3, 0xe4, 0x89, 0x11, 0x67, 0xf1, 0xe7, 0xf1, 0x9a, 0xc9, 0xb2,
  0xcb, 0x45, 0xfc, 0x3b, 0x4e, 0x62, 0xc7, 0xbc, 0xc2, 0x6e, 0x9a, 0xf8,
  0x03, 0x84, 0x9d, 0x6b, 0x9d, 0xe2, 0x75, 0x52, 0x9b, 0x52, 0x7d, 0x6a,
  0x00, 0x00, 0x00, 0x00, 0xb2, 0xf9, 0xff, 0xff, 0x04, 0x00, 0x00, 0x00,
  0x20, 0x00, 0x00, 0x00, 0x51, 0x3f, 0xff, 0xff, 0x9d, 0xc1, 0x00, 0x00,
  0xb4, 0x3d, 0xff, 0xff, 0x7e, 0xbd, 0x00, 0x00, 0x99, 0x3e, 0xff, 0xff,
  0xbd, 0xb6, 0x00, 0x00, 0x40, 0x40, 0xff, 0xff, 0xf0, 0x40, 0xff, 0xff,
  0x00, 0x00, 0x00, 0x00, 0xe2, 0xf9, 0xff, 0xff, 0x04, 0x00, 0x00, 0x00,
  0x40, 0x01, 0x00, 0x00, 0xba, 0x64, 0x49, 0xc0, 0x69, 0x5d, 0xc1, 0x67,
  0x61, 0x34, 0xd8, 0x4d, 0xce, 0x4d, 0x53, 0xad, 0xc8, 0x18, 0x09, 0x82,
  0x76, 0x7f, 0xcb, 0x1e, 0xfc, 0xee, 0x6a, 0xb4, 0x0a, 0x91, 0x00, 0xab,
  0xde, 0xad, 0x28, 0xc8, 0xc1, 0x21, 0xca, 0xe2, 0x36, 0xa0, 0x7f, 0x71,
  0xb9, 0x41, 0x1f, 0x6b, 0xb6, 0x57, 0x35, 0xc9, 0x7d, 0x07, 0x48, 0x59,
  0x48, 0x48, 0x4c, 0x37, 0xc3, 0x0f, 0xf2, 0x0e, 0xd0, 0x44, 0xad, 0x55,
  0xb2, 0x07, 0x43, 0x7e, 0x5d, 0x7f, 0x4b, 0xd2, 0x2e, 0x7e, 0xfa, 0x9e,
  0x71, 0xd5, 0x3f, 0xb4, 0x4b, 0x87, 0x04, 0x90, 0x10, 0x04, 0x82, 0x73,
  0xd4, 0x15, 0x81, 0x1b, 0xce, 0x4d, 0x11, 0x7d, 0x8a, 0x59, 0x9a, 0x21,
  0xf3, 0xbf, 0xdb, 0x7b, 0xf8, 0x33, 0x4d, 0x38, 0x20, 0xc6, 0xe4, 0x1d,
  0x05, 0xfc, 0x25, 0x2b, 0xd9, 0x49, 0x6f, 0x3d, 0xc7, 0x09, 0x3a, 0xb8,
  0xcb, 0xb8, 0x15, 0xef, 0x0c, 0x29, 0x97, 0x5b, 0x8b, 0x63, 0xaa, 0xd4,
  0x81, 0xcf, 0x48, 0xcd, 0x66, 0x23, 0x20, 0x75, 0x03, 0x8f, 0xa9, 0xab,
  0x46, 0xb7, 0x09, 0xf5, 0x37, 0x35, 0xcb, 0xab, 0xf1, 0x37, 0xe9, 0xe8,
  0x60, 0xf7, 0x03, 0x92, 0x9b, 0xa4, 0x0c, 0xb3, 0x81, 0xdb, 0xaa, 0xa3,
  0xa8, 0x40, 0x4c, 0x76, 0xd6, 0x47, 0x4f, 0xc4, 0xa4, 0x10, 0x95, 0x6f,
  0x75, 0x77, 0xf5, 0x67, 0x63, 0x5c, 0xf9, 0xca, 0xca, 0xb2, 0xd7, 0x26,
  0x8f, 0xf1, 0x46, 0xe2, 0x69, 0x7d, 0xed, 0xf6, 0x7f, 0xfe, 0xfe, 0xf3,
  0x71, 0xe4, 0xc3, 0xba, 0x42, 0xe0, 0x8b, 0x1d, 0xfe, 0x37, 0xc6, 0xf6,
  0xb3, 0xde, 0x95, 0xf6, 0x87, 0x00, 0xeb, 0x2e, 0xeb, 0x34, 0xb2, 0xc8,
  0x82, 0x84, 0x3b, 0x5b, 0xbb, 0xbc, 0xde, 0xa6, 0x07, 0x70, 0xb0, 0x25,
  0x2c, 0x9e, 0xd9, 0x18, 0xdb, 0x2d, 0x95, 0x81, 0xb6, 0x3a, 0xf4, 0x92,
  0x3c, 0x64, 0x78, 0x06, 0x1e, 0x38, 0xfd, 0x9d, 0xcc, 0x3d, 0xbe, 0xca,
  0xcb, 0xda, 0xd0, 0x68, 0x03, 0x79, 0xec, 0x7f, 0xd7, 0xe2, 0x82, 0x00,
  0x9e, 0xd6, 0xfe, 0x02, 0x31, 0x05, 0x6a, 0xf6, 0xcb, 0xae, 0xf2, 0x7f,
  0xda, 0x9c, 0x95, 0x60, 0x3a, 0x3d, 0xcb, 0x0e, 0xd5, 0x23, 0xa3, 0x15,
  0x83, 0x8b, 0xc6, 0xd8, 0x84, 0xd9, 0x39, 0x86, 0x23, 0xe9, 0x07, 0xe2,
  0x00, 0x00, 0x00, 0x00, 0x32, 0xfb, 0xff, 0xff, 0x04, 0x00, 0x00, 0x00,
  0x20, 0x00, 0x00, 0x00, 0xc0, 0x3e, 0xff, 0xff, 0x17, 0xc7, 0x00, 0x00,
  0x18, 0xc6, 0x00, 0x00, 0xd8, 0xc7, 0x00, 0x00, 0x2c, 0xcc, 0x00, 0x00,
  0x1c, 0x40, 0xff, 0xff, 0x75, 0xc2, 0x00, 0x00, 0x00, 0x00, 0x00, 0x00,
  0x00, 0x00, 0x00, 0x00, 0x62, 0xfb, 0xff, 0xff, 0x04, 0x00, 0x00, 0x00,
  0x20, 0x00, 0x00, 0x00, 0x9f, 0xbe, 0x00, 0x00, 0x98, 0xc2, 0x00, 0x00,
  0xe1, 0xc4, 0x00, 0x00, 0x40, 0x3e, 0xff, 0xff, 0x78, 0x40, 0xff, 0xff,
  0x00, 0x00, 0x00, 0x00, 0xac, 0xcd, 0x00, 0x00, 0x76, 0xc2, 0x00, 0x00,
  0x00, 0x00, 0x00, 0x00, 0x92, 0xfb, 0xff, 0xff, 0x04, 0x00, 0x00, 0x00,
  0x0c, 0x00, 0x00, 0x00, 0x01, 0x00, 0x00, 0x00, 0xf1, 0x01, 0x00, 0x00,
  0x01, 0x00, 0x00, 0x00, 0x24, 0xdb, 0xff, 0xff, 0x00, 0x00, 0x00, 0x00,
  0x0f, 0x00, 0x00, 0x00, 0x54, 0x4f, 0x43, 0x4f, 0x20, 0x43, 0x6f, 0x6e,
  0x76, 0x65, 0x72, 0x74, 0x65, 0x64, 0x2e, 0x00, 0x01, 0x00, 0x00, 0x00,
  0x04, 0x00, 0x00, 0x00, 0x24, 0xda, 0xff, 0xff, 0x74, 0x04, 0x00, 0x00,
  0x68, 0x04, 0x00, 0x00, 0x5c, 0x04, 0x00, 0x00, 0x04, 0x00, 0x00, 0x00,
  0x0e, 0x00, 0x00, 0x00, 0x00, 0x04, 0x00, 0x00, 0x98, 0x03, 0x00, 0x00,
  0x40, 0x03, 0x00, 0x00, 0xe8, 0x02, 0x00, 0x00, 0xa0, 0x02, 0x00, 0x00,
  0x58, 0x02, 0x00, 0x00, 0x10, 0x02, 0x00, 0x00, 0xc4, 0x01, 0x00, 0x00,
  0x7c, 0x01, 0x00, 0x00, 0x34, 0x01, 0x00, 0x00, 0xec, 0x00, 0x00, 0x00,
  0xa4, 0x00, 0x00, 0x00, 0x5c, 0x00, 0x00, 0x00, 0x14, 0x00, 0x00, 0x00,
  0x00, 0x00, 0x0e, 0x00, 0x18, 0x00, 0x08, 0x00, 0x0c, 0x00, 0x10, 0x00,
  0x07, 0x00, 0x14, 0x00, 0x0e, 0x00, 0x00, 0x00, 0x00, 0x00, 0x00, 0x11,
  0x02, 0x00, 0x00, 0x00, 0x2c, 0x00, 0x00, 0x00, 0x20, 0x00, 0x00, 0x00,
  0x04, 0x00, 0x00, 0x00, 0x46, 0xfc, 0xff, 0xff, 0x04, 0x00, 0x00, 0x00,
  0x03, 0x00, 0x00, 0x00, 0x01, 0x00, 0x00, 0x00, 0xf1, 0x01, 0x00, 0x00,
  0x01, 0x00, 0x00, 0x00, 0x01, 0x00, 0x00, 0x00, 0x27, 0x00, 0x00, 0x00,
  0x02, 0x00, 0x00, 0x00, 0x24, 0x00, 0x00, 0x00, 0x25, 0x00, 0x00, 0x00,
  0x52, 0xfd, 0xff, 0xff, 0x00, 0x00, 0x00, 0x01, 0x2c, 0x00, 0x00, 0x00,
  0x20, 0x00, 0x00, 0x00, 0x04, 0x00, 0x00, 0x00, 0x44, 0xfd, 0xff, 0xff,
  0x00, 0x00, 0x00, 0x01, 0x01, 0x00, 0x00, 0x00, 0x01, 0x00, 0x00, 0x00,
  0x20, 0x00, 0x00, 0x00, 0x20, 0x00, 0x00, 0x00, 0x01, 0x00, 0x00, 0x00,
  0x24, 0x00, 0x00, 0x00, 0x03, 0x00, 0x00, 0x00, 0x21, 0x00, 0x00, 0x00,
  0x23, 0x00, 0x00, 0x00, 0x26, 0x00, 0x00, 0x00, 0x96, 0xfd, 0xff, 0xff,
  0x00, 0x00, 0x00, 0x01, 0x2c, 0x00, 0x00, 0x00, 0x20, 0x00, 0x00, 0x00,
  0x04, 0x00, 0x00, 0x00, 0x88, 0xfd, 0xff, 0xff, 0x00, 0x00, 0x00, 0x01,
  0x01, 0x00, 0x00, 0x00, 0x01, 0x00, 0x00, 0x00, 0x10, 0x00, 0x00, 0x00,
  0x10, 0x00, 0x00, 0x00, 0x01, 0x00, 0x00, 0x00, 0x21, 0x00, 0x00, 0x00,
  0x03, 0x00, 0x00, 0x00, 0x1e, 0x00, 0x00, 0x00, 0x20, 0x00, 0x00, 0x00,
  0x22, 0x00, 0x00, 0x00, 0xda, 0xfd, 0xff, 0xff, 0x00, 0x00, 0x00, 0x01,
  0x2c, 0x00, 0x00, 0x00, 0x20, 0x00, 0x00, 0x00, 0x04, 0x00, 0x00, 0x00,
  0xcc, 0xfd, 0xff, 0xff, 0x00, 0x00, 0x00, 0x01, 0x01, 0x00, 0x00, 0x00,
  0x01, 0x00, 0x00, 0x00, 0x08, 0x00, 0x00, 0x00, 0x08, 0x00, 0x00, 0x00,
  0x01, 0x00, 0x00, 0x00, 0x1e, 0x00, 0x00, 0x00, 0x03, 0x00, 0x00, 0x00,
  0x1b, 0x00, 0x00, 0x00, 0x1d, 0x00, 0x00, 0x00, 0x1f, 0x00, 0x00, 0x00,
  0x1e, 0xfe, 0xff, 0xff, 0x00, 0x00, 0x00, 0x01, 0x2c, 0x00, 0x00, 0x00,
  0x20, 0x00, 0x00, 0x00, 0x04, 0x00, 0x00, 0x00, 0x10, 0xfe, 0xff, 0xff,
  0x00, 0x00, 0x00, 0x01, 0x01, 0x00, 0x00, 0x00, 0x01, 0x00, 0x00, 0x00,
  0x04, 0x00, 0x00, 0x00, 0x04, 0x00, 0x00, 0x00, 0x01, 0x00, 0x00, 0x00,
  0x1b, 0x00, 0x00, 0x00, 0x03, 0x00, 0x00, 0x00, 0x18, 0x00, 0x00, 0x00,
  0x1a, 0x00, 0x00, 0x00, 0x1c, 0x00, 0x00, 0x00, 0x62, 0xfe, 0xff, 0xff,
  0x00, 0x00, 0x00, 0x01, 0x2c, 0x00, 0x00, 0x00, 0x20, 0x00, 0x00, 0x00,
  0x04, 0x00, 0x00, 0x00, 0x54, 0xfe, 0xff, 0xff, 0x00, 0x00, 0x00, 0x01,
  0x01, 0x00, 0x00, 0x00, 0x01, 0x00, 0x00, 0x00, 0x02, 0x00, 0x00, 0x00,
  0x02, 0x00, 0x00, 0x00, 0x01, 0x00, 0x00, 0x00, 0x18, 0x00, 0x00, 0x00,
  0x03, 0x00, 0x00, 0x00, 0x15, 0x00, 0x00, 0x00, 0x17, 0x00, 0x00, 0x00,
  0x19, 0x00, 0x00, 0x00, 0xa6, 0xfe, 0xff, 0xff, 0x00, 0x00, 0x00, 0x01,
  0x30, 0x00, 0x00, 0x00, 0x24, 0x00, 0x00, 0x00, 0x10, 0x00, 0x00, 0x00,
  0x0c, 0x00, 0x10, 0x00, 0x06, 0x00, 0x08, 0x00, 0x0c, 0x00, 0x07, 0x00,
  0x0c, 0x00, 0x00, 0x00, 0x00, 0x00, 0x01, 0x01, 0x01, 0x00, 0x00, 0x00,
  0x01, 0x00, 0x00, 0x00, 0x01, 0x00, 0x00, 0x00, 0x15, 0x00, 0x00, 0x00,
  0x03, 0x00, 0x00, 0x00, 0x12, 0x00, 0x00, 0x00, 0x14, 0x00, 0x00, 0x00,
  0x16, 0x00, 0x00, 0x00, 0xee, 0xfe, 0xff, 0xff, 0x00, 0x00, 0x00, 0x01,
  0x2c, 0x00, 0x00, 0x00, 0x20, 0x00, 0x00, 0x00, 0x04, 0x00, 0x00, 0x00,
  0xe0, 0xfe, 0xff, 0xff, 0x00, 0x00, 0x00, 0x01, 0x01, 0x00, 0x00, 0x00,
  0x01, 0x00, 0x00, 0x00, 0x20, 0x00, 0x00, 0x00, 0x20, 0x00, 0x00, 0x00,
  0x01, 0x00, 0x00, 0x00, 0x12, 0x00, 0x00, 0x00, 0x03, 0x00, 0x00, 0x00,
  0x0f, 0x00, 0x00, 0x00, 0x11, 0x00, 0x00, 0x00, 0x13, 0x00, 0x00, 0x00,
  0x32, 0xff, 0xff, 0xff, 0x00, 0x00, 0x00, 0x01, 0x2c, 0x00, 0x00, 0x00,
  0x20, 0x00, 0x00, 0x00, 0x04, 0x00, 0x00, 0x00, 0x24, 0xff, 0xff, 0xff,
  0x00, 0x00, 0x00, 0x01, 0x01, 0x00, 0x00, 0x00, 0x01, 0x00, 0x00, 0x00,
  0x10, 0x00, 0x00, 0x00, 0x10, 0x00, 0x00, 0x00, 0x01, 0x00, 0x00, 0x00,
  0x0f, 0x00, 0x00, 0x00, 0x03, 0x00, 0x00, 0x00, 0x0c, 0x00, 0x00, 0x00,
  0x0e, 0x00, 0x00, 0x00, 0x10, 0x00, 0x00, 0x00, 0x76, 0xff, 0xff, 0xff,
  0x00, 0x00, 0x00, 0x01, 0x2c, 0x00, 0x00, 0x00, 0x20, 0x00, 0x00, 0x00,
  0x04, 0x00, 0x00, 0x00, 0x68, 0xff, 0xff, 0xff, 0x00, 0x00, 0x00, 0x01,
  0x01, 0x00, 0x00, 0x00, 0x01, 0x00, 0x00, 0x00, 0x08, 0x00, 0x00, 0x00,
  0x08, 0x00, 0x00, 0x00, 0x01, 0x00, 0x00, 0x00, 0x0c, 0x00, 0x00, 0x00,
  0x03, 0x00, 0x00, 0x00, 0x09, 0x00, 0x00, 0x00, 0x0b, 0x00, 0x00, 0x00,
  0x0d, 0x00, 0x00, 0x00, 0xba, 0xff, 0xff, 0xff, 0x00, 0x00, 0x00, 0x01,
  0x2c, 0x00, 0x00, 0x00, 0x20, 0x00, 0x00, 0x00, 0x04, 0x00, 0x00, 0x00,
  0xac, 0xff, 0xff, 0xff, 0x00, 0x00, 0x00, 0x01, 0x01, 0x00, 0x00, 0x00,
  0x01, 0x00, 0x00, 0x00, 0x04, 0x00, 0x00, 0x00, 0x04, 0x00, 0x00, 0x00,
  0x01, 0x00, 0x00, 0x00, 0x09, 0x00, 0x00, 0x00, 0x03, 0x00, 0x00, 0x00,
  0x06, 0x00, 0x00, 0x00, 0x08, 0x00, 0x00, 0x00, 0x0a, 0x00, 0x00, 0x00,
  0x00, 0x00, 0x0e, 0x00, 0x14, 0x00, 0x00, 0x00, 0x08, 0x00, 0x0c, 0x00,
  0x07, 0x00, 0x10, 0x00, 0x0e, 0x00, 0x00, 0x00, 0x00, 0x00, 0x00, 0x01,
  0x3c, 0x00, 0x00, 0x00, 0x30, 0x00, 0x00, 0x00, 0x14, 0x00, 0x00, 0x00,
  0x10, 0x00, 0x18, 0x00, 0x00, 0x00, 0x08, 0x00, 0x0c, 0x00, 0x07, 0x00,
  0x10, 0x00, 0x14, 0x00, 0x10, 0x00, 0x00, 0x00, 0x00, 0x00, 0x00, 0x01,
  0x01, 0x00, 0x00, 0x00, 0x01, 0x00, 0x00, 0x00, 0x02, 0x00, 0x00, 0x00,
  0x02, 0x00, 0x00, 0x00, 0x01, 0x00, 0x00, 0x00, 0x06, 0x00, 0x00, 0x00,
  0x03, 0x00, 0x00, 0x00, 0x00, 0x00, 0x00, 0x00, 0x05, 0x00, 0x00, 0x00,
  0x07, 0x00, 0x00, 0x00, 0xaa, 0xff, 0xff, 0xff, 0x00, 0x00, 0x00, 0x02,
  0x01, 0x00, 0x00, 0x00, 0x38, 0x00, 0x00, 0x00, 0x2c, 0x00, 0x00, 0x00,
  0x14, 0x00, 0x00, 0x00, 0x00, 0x00, 0x0e, 0x00, 0x14, 0x00, 0x06, 0x00,
  0x08, 0x00, 0x0c, 0x00, 0x10, 0x00, 0x07, 0x00, 0x0e, 0x00, 0x00, 0x00,
  0x00, 0x00, 0x01, 0x01, 0x01, 0x00, 0x00, 0x00, 0x01, 0x00, 0x00, 0x00,
  0x08, 0x00, 0x00, 0x00, 0x01, 0x00, 0x00, 0x00, 0x00, 0x00, 0x00, 0x00,
  0x03, 0x00, 0x00, 0x00, 0x01, 0x00, 0x00, 0x00, 0x03, 0x00, 0x00, 0x00,
  0x04, 0x00, 0x00, 0x00, 0x00, 0x00, 0x0e, 0x00, 0x1a, 0x00, 0x08, 0x00,
  0x0c, 0x00, 0x10, 0x00, 0x07, 0x00, 0x14, 0x00, 0x0e, 0x00, 0x00, 0x00,
  0x00, 0x00, 0x00, 0x11, 0x02, 0x00, 0x00, 0x00, 0x38, 0x00, 0x00, 0x00,
  0x2c, 0x00, 0x00, 0x00, 0x0c, 0x00, 0x00, 0x00, 0x00, 0x00, 0x06, 0x00,
  0x08, 0x00, 0x04, 0x00, 0x06, 0x00, 0x00, 0x00, 0x04, 0x00, 0x00, 0x00,
  0x04, 0x00, 0x00, 0x00, 0x01, 0x00, 0x00, 0x00, 0x01, 0x00, 0x00, 0x00,
  0xf9, 0x01, 0x00, 0x00, 0x01, 0x00, 0x00, 0x00, 0x01, 0x00, 0x00, 0x00,
  0x01, 0x00, 0x00, 0x00, 0x02, 0x00, 0x00, 0x00, 0x28, 0x00, 0x00, 0x00,
  0x02, 0x00, 0x00, 0x00, 0x01, 0x00, 0x00, 0x00, 0x27, 0x00, 0x00, 0x00,
  0x01, 0x00, 0x00, 0x00, 0x28, 0x00, 0x00, 0x00, 0x29, 0x00, 0x00, 0x00,
  0x48, 0x21, 0x00, 0x00, 0x90, 0x20, 0x00, 0x00, 0x1c, 0x20, 0x00, 0x00,
  0xd0, 0x1e, 0x00, 0x00, 0xe0, 0x1d, 0x00, 0x00, 0xa8, 0x1c, 0x00, 0x00,
  0x04, 0x1c, 0x00, 0x00, 0x30, 0x1b, 0x00, 0x00, 0xfc, 0x19, 0x00, 0x00,
  0x58, 0x19, 0x00, 0x00, 0x84, 0x18, 0x00, 0x00, 0x50, 0x17, 0x00, 0x00,
  0xac, 0x16, 0x00, 0x00, 0xd8, 0x15, 0x00, 0x00, 0xa4, 0x14, 0x00, 0x00,
  0x00, 0x14, 0x00, 0x00, 0x2c, 0x13, 0x00, 0x00, 0xf8, 0x11, 0x00, 0x00,
  0x54, 0x11, 0x00, 0x00, 0x80, 0x10, 0x00, 0x00, 0x4c, 0x0f, 0x00, 0x00,
  0xa8, 0x0e, 0x00, 0x00, 0xd4, 0x0d, 0x00, 0x00, 0xa0, 0x0c, 0x00, 0x00,
  0xfc, 0x0b, 0x00, 0x00, 0x28, 0x0b, 0x00, 0x00, 0xf4, 0x09, 0x00, 0x00,
  0x50, 0x09, 0x00, 0x00, 0x7c, 0x08, 0x00, 0x00, 0x48, 0x07, 0x00, 0x00,
  0xa4, 0x06, 0x00, 0x00, 0xd0, 0x05, 0x00, 0x00, 0x9c, 0x04, 0x00, 0x00,
  0xf8, 0x03, 0x00, 0x00, 0x24, 0x03, 0x00, 0x00, 0x78, 0x02, 0x00, 0x00,
  0xd4, 0x01, 0x00, 0x00, 0x6c, 0x01, 0x00, 0x00, 0xec, 0x00, 0x00, 0x00,
  0x78, 0x00, 0x00, 0x00, 0x04, 0x00, 0x00, 0x00, 0x6a, 0xdf, 0xff, 0xff,
  0x00, 0x00, 0x00, 0x09, 0x58, 0x00, 0x00, 0x00, 0x18, 0x00, 0x00, 0x00,
  0x44, 0x00, 0x00, 0x00, 0x04, 0x00, 0x00, 0x00, 0x5c, 0xdf, 0xff, 0xff,
  0x30, 0x00, 0x00, 0x00, 0x24, 0x00, 0x00, 0x00, 0x18, 0x00, 0x00, 0x00,
  0x04, 0x00, 0x00, 0x00, 0x01, 0x00, 0x00, 0x00, 0x0a, 0x00, 0x00, 0x00,
  0x00, 0x00, 0x00, 0x00, 0x00, 0x00, 0x00, 0x00, 0x01, 0x00, 0x00, 0x00,
  0x21, 0x21, 0x55, 0x3b, 0x01, 0x00, 0x00, 0x00, 0x00, 0xcc, 0xc2, 0x3e,
  0x01, 0x00, 0x00, 0x00, 0x00, 0xcc, 0xe5, 0xbe, 0x07, 0x00, 0x00, 0x00,
  0x69, 0x6e, 0x70, 0x75, 0x74, 0x5f, 0x33, 0x00, 0x03, 0x00, 0x00, 0x00,
  0x01, 0x00, 0x00, 0x00, 0xf9, 0x01, 0x00, 0x00, 0x01, 0x00, 0x00, 0x00,
  0xda, 0xdf, 0xff, 0xff, 0x00, 0x00, 0x00, 0x09, 0x58, 0x00, 0x00, 0x00,
  0x21, 0x00, 0x00, 0x00, 0x40, 0x00, 0x00, 0x00, 0x04, 0x00, 0x00, 0x00,
  0xcc, 0xdf, 0xff, 0xff, 0x2c, 0x00, 0x00, 0x00, 0x20, 0x00, 0x00, 0x00,
  0x14, 0x00, 0x00, 0x00, 0x04, 0x00, 0x00, 0x00, 0x01, 0x00, 0x00, 0x00,
  0x80, 0xff, 0xff, 0xff, 0xff, 0xff, 0xff, 0xff, 0x01, 0x00, 0x00, 0x00,
  0x81, 0x80, 0x00, 0x00, 0x01, 0x00, 0x00, 0x00, 0x00, 0x00, 0x80, 0x00,
  0x01, 0x00, 0x00, 0x00, 0x00, 0x00, 0x00, 0x00, 0x08, 0x00, 0x00, 0x00,
  0x49, 0x64, 0x65, 0x6e, 0x74, 0x69, 0x74, 0x79, 0x00, 0x00, 0x00, 0x00,
  0x03, 0x00, 0x00, 0x00, 0x01, 0x00, 0x00, 0x00, 0xf1, 0x01, 0x00, 0x00,
  0x01, 0x00, 0x00, 0x00, 0x4a, 0xe0, 0xff, 0xff, 0x00, 0x00, 0x00, 0x02,
  0x6c, 0x00, 0x00, 0x00, 0x29, 0x00, 0x00, 0x00, 0x2c, 0x00, 0x00, 0x00,
  0x04, 0x00, 0x00, 0x00, 0x94, 0xe3, 0xff, 0xff, 0x18, 0x00, 0x00, 0x00,
  0x04, 0x00, 0x00, 0x00, 0x01, 0x00, 0x00, 0x00, 0x00, 0x00, 0x00, 0x00,
  0x00, 0x00, 0x00, 0x00, 0x00, 0x00, 0x00, 0x00, 0x01, 0x00, 0x00, 0x00,
  0x82, 0x21, 0x89, 0x34, 0x30, 0x00, 0x00, 0x00, 0x30, 0x36, 0x5f, 0x4f,
  0x72, 0x61, 0x6e, 0x67, 0x65, 0x4d, 0x69, 0x63, 0x72, 0x6f, 0x44, 0x61,
  0x72, 0x6b, 0x5f, 0x57, 0x4e, 0x31, 0x32, 0x5f, 0x76, 0x32, 0x2f, 0x63,
  0x6f, 0x6e, 0x76, 0x31, 0x64, 0x5f, 0x33, 0x35, 0x2f, 0x63, 0x6f, 0x6e,
  0x76, 0x31, 0x64, 0x5f, 0x62, 0x69, 0x61, 0x73, 0x00, 0x00, 0x00, 0x00,
  0x01, 0x00, 0x00, 0x00, 0x01, 0x00, 0x00, 0x00, 0xc6, 0xe0, 0xff, 0xff,
  0x00, 0x00, 0x00, 0x02, 0x54, 0x00, 0x00, 0x00, 0x01, 0x00, 0x00, 0x00,
  0x0c, 0x00, 0x00, 0x00, 0x04, 0x00, 0x00, 0x00, 0xdc, 0xe1, 0xff, 0xff,
  0x39, 0x00, 0x00, 0x00, 0x30, 0x36, 0x5f, 0x4f, 0x72, 0x61, 0x6e, 0x67,
  0x65, 0x4d, 0x69, 0x63, 0x72, 0x6f, 0x44, 0x61, 0x72, 0x6b, 0x5f, 0x57,
  0x4e, 0x31, 0x32, 0x5f, 0x76, 0x32, 0x2f, 0x63, 0x6f, 0x6e, 0x76, 0x31,
  0x64, 0x5f, 0x33, 0x35, 0x2f, 0x63, 0x6f, 0x6e, 0x76, 0x31, 0x64, 0x2f,
  0x53, 0x71, 0x75, 0x65, 0x65, 0x7a, 0x65, 0x5f, 0x73, 0x68, 0x61, 0x70,
  0x65, 0x00, 0x00, 0x00, 0x01, 0x00, 0x00, 0x00, 0x03, 0x00, 0x00, 0x00,
  0x2a, 0xe1, 0xff, 0xff, 0x00, 0x00, 0x00, 0x09, 0x84, 0x00, 0x00, 0x00,
  0x19, 0x00, 0x00, 0x00, 0x44, 0x00, 0x00, 0x00, 0x04, 0x00, 0x00, 0x00,
  0x1c, 0xe1, 0xff, 0xff, 0x30, 0x00, 0x00, 0x00, 0x24, 0x00, 0x00, 0x00,
  0x18, 0x00, 0x00, 0x00, 0x04, 0x00, 0x00, 0x00, 0x01, 0x00, 0x00, 0x00,
  0x80, 0xff, 0xff, 0xff, 0xff, 0xff, 0xff, 0xff, 0x00, 0x00, 0x00, 0x00,
  0x01, 0x00, 0x00, 0x00, 0x81, 0x80, 0x00, 0x00, 0x01, 0x00, 0x00, 0x00,
  0x00, 0x00, 0x80, 0x00, 0x01, 0x00, 0x00, 0x00, 0x00, 0x00, 0x00, 0x00,
  0x33, 0x00, 0x00, 0x00, 0x30, 0x36, 0x5f, 0x4f, 0x72, 0x61, 0x6e, 0x67,
  0x65, 0x4d, 0x69, 0x63, 0x72, 0x6f, 0x44, 0x61, 0x72, 0x6b, 0x5f, 0x57,
  0x4e, 0x31, 0x32, 0x5f, 0x76, 0x32, 0x2f, 0x63, 0x6f, 0x6e, 0x76, 0x31,
  0x64, 0x5f, 0x33, 0x35, 0x2f, 0x63, 0x6f, 0x6e, 0x76, 0x31, 0x64, 0x2f,
  0x53, 0x71, 0x75, 0x65, 0x65, 0x7a, 0x65, 0x00, 0x04, 0x00, 0x00, 0x00,
  0x01, 0x00, 0x00, 0x00, 0x01, 0x00, 0x00, 0x00, 0xf1, 0x01, 0x00, 0x00,
  0x01, 0x00, 0x00, 0x00, 0xca, 0xe1, 0xff, 0xff, 0x00, 0x00, 0x00, 0x09,
  0x8c, 0x00, 0x00, 0x00, 0x1e, 0x00, 0x00, 0x00, 0x44, 0x00, 0x00, 0x00,
  0x04, 0x00, 0x00, 0x00, 0xbc, 0xe1, 0xff, 0xff, 0x30, 0x00, 0x00, 0x00,
  0x24, 0x00, 0x00, 0x00, 0x18, 0x00, 0x00, 0x00, 0x04, 0x00, 0x00, 0x00,
  0x01, 0x00, 0x00, 0x00, 0x00, 0x00, 0x00, 0x00, 0x00, 0x00, 0x00, 0x00,
  0x00, 0x00, 0x00, 0x00, 0x01, 0x00, 0x00, 0x00, 0x16, 0x4d, 0x34, 0x3b,
  0x01, 0x00, 0x00, 0x00, 0x71, 0x55, 0xa6, 0x3e, 0x01, 0x00, 0x00, 0x00,
  0x7c, 0xe4, 0xb2, 0xbe, 0x38, 0x00, 0x00, 0x00, 0x30, 0x36, 0x5f, 0x4f,
  0x72, 0x61, 0x6e, 0x67, 0x65, 0x4d, 0x69, 0x63, 0x72, 0x6f, 0x44, 0x61,
  0x72, 0x6b, 0x5f, 0x57, 0x4e, 0x31, 0x32, 0x5f, 0x76, 0x32, 0x2f, 0x63,
  0x6f, 0x6e, 0x76, 0x31, 0x64, 0x5f, 0x33, 0x35, 0x2f, 0x63, 0x6f, 0x6e,
  0x76, 0x31, 0x64, 0x2f, 0x45, 0x78, 0x70, 0x61, 0x6e, 0x64, 0x44, 0x69,
  0x6d, 0x73, 0x5f, 0x31, 0x00, 0x00, 0x00, 0x00, 0x04, 0x00, 0x00, 0x00,
  0x01, 0x00, 0x00, 0x00, 0x01, 0x00, 0x00, 0x00, 0x05, 0x00, 0x00, 0x00,
  0x08, 0x00, 0x00, 0x00, 0x72, 0xe2, 0xff, 0xff, 0x00, 0x00, 0x00, 0x02,
  0xc0, 0x00, 0x00, 0x00, 0x02, 0x00, 0x00, 0x00, 0x80, 0x00, 0x00, 0x00,
  0x04, 0x00, 0x00, 0x00, 0xbc, 0xe5, 0xff, 0xff, 0x50, 0x00, 0x00, 0x00,
  0x04, 0x00, 0x00, 0x00, 0x08, 0x00, 0x00, 0x00, 0x00, 0x00, 0x00, 0x00,
  0x00, 0x00, 0x00, 0x00, 0x00, 0x00, 0x00, 0x00, 0x00, 0x00, 0x00, 0x00,
  0x00, 0x00, 0x00, 0x00, 0x00, 0x00, 0x00, 0x00, 0x00, 0x00, 0x00, 0x00,
  0x00, 0x00, 0x00, 0x00, 0x00, 0x00, 0x00, 0x00, 0x00, 0x00, 0x00, 0x00,
  0x00, 0x00, 0x00, 0x00, 0x00, 0x00, 0x00, 0x00, 0x00, 0x00, 0x00, 0x00,
  0x00, 0x00, 0x00, 0x00, 0x00, 0x00, 0x00, 0x00, 0x00, 0x00, 0x00, 0x00,
  0x00, 0x00, 0x00, 0x00, 0x08, 0x00, 0x00, 0x00, 0x87, 0x1c, 0x04, 0x34,
  0xdb, 0x54, 0x01, 0x34, 0x62, 0xcb, 0xff, 0x33, 0x96, 0xee, 0x01, 0x34,
  0x60, 0x67, 0x03, 0x34, 0x8a, 0x72, 0x04, 0x34, 0x55, 0xdd, 0xf4, 0x33,
  0x47, 0x6c, 0x01, 0x34, 0x30, 0x00, 0x00, 0x00, 0x30, 0x36, 0x5f, 0x4f,
  0x72, 0x61, 0x6e, 0x67, 0x65, 0x4d, 0x69, 0x63, 0x72, 0x6f, 0x44, 0x61,
  0x72, 0x6b, 0x5f, 0x57, 0x4e, 0x31, 0x32, 0x5f, 0x76, 0x32, 0x2f, 0x63,
  0x6f, 0x6e, 0x76, 0x31, 0x64, 0x5f, 0x33, 0x34, 0x2f, 0x63, 0x6f, 0x6e,
  0x76, 0x31, 0x64, 0x5f, 0x62, 0x69, 0x61, 0x73, 0x00, 0x00, 0x00, 0x00,
  0x01, 0x00, 0x00, 0x00, 0x08, 0x00, 0x00, 0x00, 0x42, 0xe3, 0xff, 0xff,
  0x00, 0x00, 0x00, 0x09, 0x84, 0x00, 0x00, 0x00, 0x1b, 0x00, 0x00, 0x00,
  0x44, 0x00, 0x00, 0x00, 0x04, 0x00, 0x00, 0x00, 0x34, 0xe3, 0xff, 0xff,
  0x30, 0x00, 0x00, 0x00, 0x24, 0x00, 0x00, 0x00, 0x18, 0x00, 0x00, 0x00,
  0x04, 0x00, 0x00, 0x00, 0x01, 0x00, 0x00, 0x00, 0x80, 0xff, 0xff, 0xff,
  0xff, 0xff, 0xff, 0xff, 0x00, 0x00, 0x00, 0x00, 0x01, 0x00, 0x00, 0x00,
  0x73, 0xb4, 0xc2, 0x38, 0x01, 0x00, 0x00, 0x00, 0xbf, 0xf1, 0xc1, 0x3c,
  0x01, 0x00, 0x00, 0x00, 0x00, 0x00, 0x00, 0x00, 0x33, 0x00, 0x00, 0x00,
  0x30, 0x36, 0x5f, 0x4f, 0x72, 0x61, 0x6e, 0x67, 0x65, 0x4d, 0x69, 0x63,
  0x72, 0x6f, 0x44, 0x61, 0x72, 0x6b, 0x5f, 0x57, 0x4e, 0x31, 0x32, 0x5f,
  0x76, 0x32, 0x2f, 0x63, 0x6f, 0x6e, 0x76, 0x31, 0x64, 0x5f, 0x33, 0x34,
  0x2f, 0x63, 0x6f, 0x6e, 0x76, 0x31, 0x64, 0x2f, 0x53, 0x71, 0x75, 0x65,
  0x65, 0x7a, 0x65, 0x00, 0x04, 0x00, 0x00, 0x00, 0x01, 0x00, 0x00, 0x00,
  0x01, 0x00, 0x00, 0x00, 0xf1, 0x01, 0x00, 0x00, 0x08, 0x00, 0x00, 0x00,
  0xe2, 0xe3, 0xff, 0xff, 0x00, 0x00, 0x00, 0x09, 0x14, 0x01, 0x00, 0x00,
  0x15, 0x00, 0x00, 0x00, 0xcc, 0x00, 0x00, 0x00, 0x04, 0x00, 0x00, 0x00,
  0xd4, 0xe3, 0xff, 0xff, 0x9c, 0x00, 0x00, 0x00, 0x74, 0x00, 0x00, 0x00,
  0x4c, 0x00, 0x00, 0x00, 0x04, 0x00, 0x00, 0x00, 0x08, 0x00, 0x00, 0x00,
  0x00, 0x00, 0x00, 0x00, 0x00, 0x00, 0x00, 0x00, 0x00, 0x00, 0x00, 0x00,
  0x00, 0x00, 0x00, 0x00, 0x00, 0x00, 0x00, 0x00, 0x00, 0x00, 0x00, 0x00,
  0x00, 0x00, 0x00, 0x00, 0x00, 0x00, 0x00, 0x00, 0x00, 0x00, 0x00, 0x00,
  0x00, 0x00, 0x00, 0x00, 0x00, 0x00, 0x00, 0x00, 0x00, 0x00, 0x00, 0x00,
  0x00, 0x00, 0x00, 0x00, 0x00, 0x00, 0x00, 0x00, 0x00, 0x00, 0x00, 0x00,
  0x00, 0x00, 0x00, 0x00, 0x08, 0x00, 0x00, 0x00, 0xc7, 0xf5, 0x0c, 0x3b,
  0x71, 0xfe, 0x09, 0x3b, 0xaf, 0x76, 0x08, 0x3b, 0x78, 0xa2, 0x0a, 0x3b,
  0x7e, 0x34, 0x0c, 0x3b, 0x8d, 0x51, 0x0d, 0x3b, 0xf4, 0xa1, 0x02, 0x3b,
  0x6e, 0x17, 0x0a, 0x3b, 0x08, 0x00, 0x00, 0x00, 0xdb, 0xdb, 0x8b, 0x3e,
  0x74, 0xea, 0x88, 0x3e, 0xc2, 0x65, 0x87, 0x3e, 0x76, 0xb6, 0x86, 0x3e,
  0x64, 0x91, 0x8a, 0x3e, 0xb4, 0x51, 0x6a, 0x3e, 0xb0, 0x9c, 0x81, 0x3e,
  0x3f, 0x03, 0x89, 0x3e, 0x08, 0x00, 0x00, 0x00, 0x3f, 0xd5, 0x74, 0xbe,
  0x80, 0x7d, 0x88, 0xbe, 0xb9, 0xd0, 0x83, 0xbe, 0x33, 0x8d, 0x89, 0xbe,
  0x15, 0x1c, 0x8b, 0xbe, 0xea, 0x36, 0x8c, 0xbe, 0x41, 0x63, 0x7c, 0xbe,
  0x72, 0xb8, 0x82, 0xbe, 0x38, 0x00, 0x00, 0x00, 0x30, 0x36, 0x5f, 0x4f,
  0x72, 0x61, 0x6e, 0x67, 0x65, 0x4d, 0x69, 0x63, 0x72, 0x6f, 0x44, 0x61,
  0x72, 0x6b, 0x5f, 0x57, 0x4e, 0x31, 0x32, 0x5f, 0x76, 0x32, 0x2f, 0x63,
  0x6f, 0x6e, 0x76, 0x31, 0x64, 0x5f, 0x33, 0x34, 0x2f, 0x63, 0x6f, 0x6e,
  0x76, 0x31, 0x64, 0x2f, 0x45, 0x78, 0x70, 0x61, 0x6e, 0x64, 0x44, 0x69,
  0x6d, 0x73, 0x5f, 0x31, 0x00, 0x00, 0x00, 0x00, 0x04, 0x00, 0x00, 0x00,
  0x08, 0x00, 0x00, 0x00, 0x01, 0x00, 0x00, 0x00, 0x05, 0x00, 0x00, 0x00,
  0x08, 0x00, 0x00, 0x00, 0x12, 0xe5, 0xff, 0xff, 0x00, 0x00, 0x00, 0x02,
  0xc0, 0x00, 0x00, 0x00, 0x03, 0x00, 0x00, 0x00, 0x80, 0x00, 0x00, 0x00,
  0x04, 0x00, 0x00, 0x00, 0x5c, 0xe8, 0xff, 0xff, 0x50, 0x00, 0x00, 0x00,
  0x04, 0x00, 0x00, 0x00, 0x08, 0x00, 0x00, 0x00, 0x00, 0x00, 0x00, 0x00,
  0x00, 0x00, 0x00, 0x00, 0x00, 0x00, 0x00, 0x00, 0x00, 0x00, 0x00, 0x00,
  0x00, 0x00, 0x00, 0x00, 0x00, 0x00, 0x00, 0x00, 0x00, 0x00, 0x00, 0x00,
  0x00, 0x00, 0x00, 0x00, 0x00, 0x00, 0x00, 0x00, 0x00, 0x00, 0x00, 0x00,
  0x00, 0x00, 0x00, 0x00, 0x00, 0x00, 0x00, 0x00, 0x00, 0x00, 0x00, 0x00,
  0x00, 0x00, 0x00, 0x00, 0x00, 0x00, 0x00, 0x00, 0x00, 0x00, 0x00, 0x00,
  0x00, 0x00, 0x00, 0x00, 0x08, 0x00, 0x00, 0x00, 0x31, 0x46, 0x02, 0x34,
  0x8d, 0xb9, 0xfc, 0x33, 0x96, 0x38, 0xfe, 0x33, 0x63, 0xb9, 0xfb, 0x33,
  0x19, 0xb2, 0xf6, 0x33, 0x3c, 0x0f, 0x03, 0x34, 0xa5, 0x2f, 0x01, 0x34,
  0xba, 0x9a, 0xd7, 0x33, 0x30, 0x00, 0x00, 0x00, 0x30, 0x36, 0x5f, 0x4f,
  0x72, 0x61, 0x6e, 0x67, 0x65, 0x4d, 0x69, 0x63, 0x72, 0x6f, 0x44, 0x61,
  0x72, 0x6b, 0x5f, 0x57, 0x4e, 0x31, 0x32, 0x5f, 0x76, 0x32, 0x2f, 0x63,
  0x6f, 0x6e, 0x76, 0x31, 0x64, 0x5f, 0x33, 0x33, 0x2f, 0x63, 0x6f, 0x6e,
  0x76, 0x31, 0x64, 0x5f, 0x62, 0x69, 0x61, 0x73, 0x00, 0x00, 0x00, 0x00,
  0x01, 0x00, 0x00, 0x00, 0x08, 0x00, 0x00, 0x00, 0xe2, 0xe5, 0xff, 0xff,
  0x00, 0x00, 0x00, 0x09, 0x84, 0x00, 0x00, 0x00, 0x28, 0x00, 0x00, 0x00,
  0x44, 0x00, 0x00, 0x00, 0x04, 0x00, 0x00, 0x00, 0xd4, 0xe5, 0xff, 0xff,
  0x30, 0x00, 0x00, 0x00, 0x24, 0x00, 0x00, 0x00, 0x18, 0x00, 0x00, 0x00,
  0x04, 0x00, 0x00, 0x00, 0x01, 0x00, 0x00, 0x00, 0x80, 0xff, 0xff, 0xff,
  0xff, 0xff, 0xff, 0xff, 0x00, 0x00, 0x00, 0x00, 0x01, 0x00, 0x00, 0x00,
  0x0a, 0xee, 0x6f, 0x38, 0x01, 0x00, 0x00, 0x00, 0x1c, 0xfe, 0x6e, 0x3c,
  0x01, 0x00, 0x00, 0x00, 0x00, 0x00, 0x00, 0x00, 0x33, 0x00, 0x00, 0x00,
  0x30, 0x36, 0x5f, 0x4f, 0x72, 0x61, 0x6e, 0x67, 0x65, 0x4d, 0x69, 0x63,
  0x72, 0x6f, 0x44, 0x61, 0x72, 0x6b, 0x5f, 0x57, 0x4e, 0x31, 0x32, 0x5f,
  0x76, 0x32, 0x2f, 0x63, 0x6f, 0x6e, 0x76, 0x31, 0x64, 0x5f, 0x33, 0x33,
  0x2f, 0x63, 0x6f, 0x6e, 0x76, 0x31, 0x64, 0x2f, 0x53, 0x71, 0x75, 0x65,
  0x65, 0x7a, 0x65, 0x00, 0x04, 0x00, 0x00, 0x00, 0x01, 0x00, 0x00, 0x00,
  0x01, 0x00, 0x00, 0x00, 0xf1, 0x01, 0x00, 0x00, 0x08, 0x00, 0x00, 0x00,
  0x82, 0xe6, 0xff, 0xff, 0x00, 0x00, 0x00, 0x09, 0x14, 0x01, 0x00, 0x00,
  0x04, 0x00, 0x00, 0x00, 0xcc, 0x00, 0x00, 0x00, 0x04, 0x00, 0x00, 0x00,
  0x74, 0xe6, 0xff, 0xff, 0x9c, 0x00, 0x00, 0x00, 0x74, 0x00, 0x00, 0x00,
  0x4c, 0x00, 0x00, 0x00, 0x04, 0x00, 0x00, 0x00, 0x08, 0x00, 0x00, 0x00,
  0x00, 0x00, 0x00, 0x00, 0x00, 0x00, 0x00, 0x00, 0x00, 0x00, 0x00, 0x00,
  0x00, 0x00, 0x00, 0x00, 0x00, 0x00, 0x00, 0x00, 0x00, 0x00, 0x00, 0x00,
  0x00, 0x00, 0x00, 0x00, 0x00, 0x00, 0x00, 0x00, 0x00, 0x00, 0x00, 0x00,
  0x00, 0x00, 0x00, 0x00, 0x00, 0x00, 0x00, 0x00, 0x00, 0x00, 0x00, 0x00,
  0x00, 0x00, 0x00, 0x00, 0x00, 0x00, 0x00, 0x00, 0x00, 0x00, 0x00, 0x00,
  0x00, 0x00, 0x00, 0x00, 0x08, 0x00, 0x00, 0x00, 0xc2, 0x03, 0x0d, 0x3b,
  0xc7, 0xc7, 0x08, 0x3b, 0x16, 0x97, 0x09, 0x3b, 0x23, 0x3d, 0x08, 0x3b,
  0x6d, 0x84, 0x05, 0x3b, 0x60, 0xdd, 0x0d, 0x3b, 0x3e, 0xd6, 0x0b, 0x3b,
  0x45, 0x61, 0xe9, 0x3a, 0x08, 0x00, 0x00, 0x00, 0xba, 0xe9, 0x8b, 0x3e,
  0x37, 0xb6, 0x87, 0x3e, 0xeb, 0x78, 0x86, 0x3e, 0xa9, 0x09, 0x79, 0x3e,
  0x34, 0x4a, 0x77, 0x3e, 0xa5, 0xc1, 0x8c, 0x3e, 0x92, 0xbe, 0x8a, 0x3e,
  0x82, 0x8e, 0x67, 0x3e, 0x08, 0x00, 0x00, 0x00, 0xc5, 0x8b, 0x8a, 0xbe,
  0x2a, 0x26, 0x52, 0xbe, 0xe8, 0x83, 0x88, 0xbe, 0xa9, 0x2c, 0x87, 0xbe,
  0x64, 0x79, 0x84, 0xbe, 0xbe, 0x21, 0x8b, 0xbe, 0xa5, 0xb0, 0x8a, 0xbe,
  0xdd, 0x99, 0x66, 0xbe, 0x38, 0x00, 0x00, 0x00, 0x30, 0x36, 0x5f, 0x4f,
  0x72, 0x61, 0x6e, 0x67, 0x65, 0x4d, 0x69, 0x63, 0x72, 0x6f, 0x44, 0x61,
  0x72, 0x6b, 0x5f, 0x57, 0x4e, 0x31, 0x32, 0x5f, 0x76, 0x32, 0x2f, 0x63,
  0x6f, 0x6e, 0x76, 0x31, 0x64, 0x5f, 0x33, 0x33, 0x2f, 0x63, 0x6f, 0x6e,
  0x76, 0x31, 0x64, 0x2f, 0x45, 0x78, 0x70, 0x61, 0x6e, 0x64, 0x44, 0x69,
  0x6d, 0x73, 0x5f, 0x31, 0x00, 0x00, 0x00, 0x00, 0x04, 0x00, 0x00, 0x00,
  0x08, 0x00, 0x00, 0x00, 0x01, 0x00, 0x00, 0x00, 0x05, 0x00, 0x00, 0x00,
  0x08, 0x00, 0x00, 0x00, 0xb2, 0xe7, 0xff, 0xff, 0x00, 0x00, 0x00, 0x02,
  0xc0, 0x00, 0x00, 0x00, 0x05, 0x00, 0x00, 0x00, 0x80, 0x00, 0x00, 0x00,
  0x04, 0x00, 0x00, 0x00, 0xfc, 0xea, 0xff, 0xff, 0x50, 0x00, 0x00, 0x00,
  0x04, 0x00, 0x00, 0x00, 0x08, 0x00, 0x00, 0x00, 0x00, 0x00, 0x00, 0x00,
  0x00, 0x00, 0x00, 0x00, 0x00, 0x00, 0x00, 0x00, 0x00, 0x00, 0x00, 0x00,
  0x00, 0x00, 0x00, 0x00, 0x00, 0x00, 0x00, 0x00, 0x00, 0x00, 0x00, 0x00,
  0x00, 0x00, 0x00, 0x00, 0x00, 0x00, 0x00, 0x00, 0x00, 0x00, 0x00, 0x00,
  0x00, 0x00, 0x00, 0x00, 0x00, 0x00, 0x00, 0x00, 0x00, 0x00, 0x00, 0x00,
  0x00, 0x00, 0x00, 0x00, 0x00, 0x00, 0x00, 0x00, 0x00, 0x00, 0x00, 0x00,
  0x00, 0x00, 0x00, 0x00, 0x08, 0x00, 0x00, 0x00, 0x51, 0xa9, 0x02, 0x34,
  0x63, 0xfd, 0x01, 0x34, 0xb8, 0x73, 0x01, 0x34, 0xeb, 0xe0, 0x04, 0x34,
  0xad, 0x27, 0x02, 0x34, 0xb6, 0x2b, 0x02, 0x34, 0x26, 0x5d, 0x02, 0x34,
  0x09, 0xb9, 0x03, 0x34, 0x30, 0x00, 0x00, 0x00, 0x30, 0x36, 0x5f, 0x4f,
  0x72, 0x61, 0x6e, 0x67, 0x65, 0x4d, 0x69, 0x63, 0x72, 0x6f, 0x44, 0x61,
  0x72, 0x6b, 0x5f, 0x57, 0x4e, 0x31, 0x32, 0x5f, 0x76, 0x32, 0x2f, 0x63,
  0x6f, 0x6e, 0x76, 0x31, 0x64, 0x5f, 0x33, 0x32, 0x2f, 0x63, 0x6f, 0x6e,
  0x76, 0x31, 0x64, 0x5f, 0x62, 0x69, 0x61, 0x73, 0x00, 0x00, 0x00, 0x00,
  0x01, 0x00, 0x00, 0x00, 0x08, 0x00, 0x00, 0x00, 0x82, 0xe8, 0xff, 0xff,
  0x00, 0x00, 0x00, 0x09, 0x84, 0x00, 0x00, 0x00, 0x16, 0x00, 0x00, 0x00,
  0x44, 0x00, 0x00, 0x00, 0x04, 0x00, 0x00, 0x00, 0x74, 0xe8, 0xff, 0xff,
  0x30, 0x00, 0x00, 0x00, 0x24, 0x00, 0x00, 0x00, 0x18, 0x00, 0x00, 0x00,
  0x04, 0x00, 0x00, 0x00, 0x01, 0x00, 0x00, 0x00, 0x80, 0xff, 0xff, 0xff,
  0xff, 0xff, 0xff, 0xff, 0x00, 0x00, 0x00, 0x00, 0x01, 0x00, 0x00, 0x00,
  0x67, 0x80, 0x6c, 0x38, 0x01, 0x00, 0x00, 0x00, 0xe7, 0x93, 0x6b, 0x3c,
  0x01, 0x00, 0x00, 0x00, 0x00, 0x00, 0x00, 0x00, 0x33, 0x00, 0x00, 0x00,
  0x30, 0x36, 0x5f, 0x4f, 0x72, 0x61, 0x6e, 0x67, 0x65, 0x4d, 0x69, 0x63,
  0x72, 0x6f, 0x44, 0x61, 0x72, 0x6b, 0x5f, 0x57, 0x4e, 0x31, 0x32, 0x5f,
  0x76, 0x32, 0x2f, 0x63, 0x6f, 0x6e, 0x76, 0x31, 0x64, 0x5f, 0x33, 0x32,
  0x2f, 0x63, 0x6f, 0x6e, 0x76, 0x31, 0x64, 0x2f, 0x53, 0x71, 0x75, 0x65,
  0x65, 0x7a, 0x65, 0x00, 0x04, 0x00, 0x00, 0x00, 0x01, 0x00, 0x00, 0x00,
  0x01, 0x00, 0x00, 0x00, 0xf1, 0x01, 0x00, 0x00, 0x08, 0x00, 0x00, 0x00,
  0x22, 0xe9, 0xff, 0xff, 0x00, 0x00, 0x00, 0x09, 0x14, 0x01, 0x00, 0x00,
  0x06, 0x00, 0x00, 0x00, 0xcc, 0x00, 0x00, 0x00, 0x04, 0x00, 0x00, 0x00,
  0x14, 0xe9, 0xff, 0xff, 0x9c, 0x00, 0x00, 0x00, 0x74, 0x00, 0x00, 0x00,
  0x4c, 0x00, 0x00, 0x00, 0x04, 0x00, 0x00, 0x00, 0x08, 0x00, 0x00, 0x00,
  0x00, 0x00, 0x00, 0x00, 0x00, 0x00, 0x00, 0x00, 0x00, 0x00, 0x00, 0x00,
  0x00, 0x00, 0x00, 0x00, 0x00, 0x00, 0x00, 0x00, 0x00, 0x00, 0x00, 0x00,
  0x00, 0x00, 0x00, 0x00, 0x00, 0x00, 0x00, 0x00, 0x00, 0x00, 0x00, 0x00,
  0x00, 0x00, 0x00, 0x00, 0x00, 0x00, 0x00, 0x00, 0x00, 0x00, 0x00, 0x00,
  0x00, 0x00, 0x00, 0x00, 0x00, 0x00, 0x00, 0x00, 0x00, 0x00, 0x00, 0x00,
  0x00, 0x00, 0x00, 0x00, 0x08, 0x00, 0x00, 0x00, 0x45, 0xed, 0x0a, 0x3b,
  0x77, 0x36, 0x0a, 0x3b, 0x17, 0xa4, 0x09, 0x3b, 0xc7, 0x48, 0x0d, 0x3b,
  0x6e, 0x63, 0x0a, 0x3b, 0xb8, 0x67, 0x0a, 0x3b, 0x49, 0x9c, 0x0a, 0x3b,
  0x2e, 0x0e, 0x0c, 0x3b, 0x08, 0x00, 0x00, 0x00, 0x7d, 0x50, 0x87, 0x3e,
  0x0a, 0x22, 0x89, 0x3e, 0xcf, 0x90, 0x88, 0x3e, 0x35, 0x2e, 0x8c, 0x3e,
  0xa7, 0x4e, 0x89, 0x3e, 0xe9, 0x52, 0x89, 0x3e, 0x10, 0x87, 0x89, 0x3e,
  0x12, 0xf6, 0x8a, 0x3e, 0x08, 0x00, 0x00, 0x00, 0x6a, 0xd7, 0x89, 0xbe,
  0x37, 0xe9, 0x87, 0xbe, 0xe2, 0x1c, 0x88, 0xbe, 0x1b, 0x8e, 0x75, 0xbe,
  0x75, 0x97, 0x7b, 0xbe, 0xaa, 0x2e, 0x89, 0xbe, 0xf8, 0x42, 0x87, 0xbe,
  0xf9, 0xff, 0x87, 0xbe, 0x38, 0x00, 0x00, 0x00, 0x30, 0x36, 0x5f, 0x4f,
  0x72, 0x61, 0x6e, 0x67, 0x65, 0x4d, 0x69, 0x63, 0x72, 0x6f, 0x44, 0x61,
  0x72, 0x6b, 0x5f, 0x57, 0x4e, 0x31, 0x32, 0x5f, 0x76, 0x32, 0x2f, 0x63,
  0x6f, 0x6e, 0x76, 0x31, 0x64, 0x5f, 0x33, 0x32, 0x2f, 0x63, 0x6f, 0x6e,
  0x76, 0x31, 0x64, 0x2f, 0x45, 0x78, 0x70, 0x61, 0x6e, 0x64, 0x44, 0x69,
  0x6d, 0x73, 0x5f, 0x31, 0x00, 0x00, 0x00, 0x00, 0x04, 0x00, 0x00, 0x00,
  0x08, 0x00, 0x00, 0x00, 0x01, 0x00, 0x00, 0x00, 0x05, 0x00, 0x00, 0x00,
  0x08, 0x00, 0x00, 0x00, 0x52, 0xea, 0xff, 0xff, 0x00, 0x00, 0x00, 0x02,
  0xc0, 0x00, 0x00, 0x00, 0x07, 0x00, 0x00, 0x00, 0x80, 0x00, 0x00, 0x00,
  0x04, 0x00, 0x00, 0x00, 0x9c, 0xed, 0xff, 0xff, 0x50, 0x00, 0x00, 0x00,
  0x04, 0x00, 0x00, 0x00, 0x08, 0x00, 0x00, 0x00, 0x00, 0x00, 0x00, 0x00,
  0x00, 0x00, 0x00, 0x00, 0x00, 0x00, 0x00, 0x00, 0x00, 0x00, 0x00, 0x00,
  0x00, 0x00, 0x00, 0x00, 0x00, 0x00, 0x00, 0x00, 0x00, 0x00, 0x00, 0x00,
  0x00, 0x00, 0x00, 0x00, 0x00, 0x00, 0x00, 0x00, 0x00, 0x00, 0x00, 0x00,
  0x00, 0x00, 0x00, 0x00, 0x00, 0x00, 0x00, 0x00, 0x00, 0x00, 0x00, 0x00,
  0x00, 0x00, 0x00, 0x00, 0x00, 0x00, 0x00, 0x00, 0x00, 0x00, 0x00, 0x00,
  0x00, 0x00, 0x00, 0x00, 0x08, 0x00, 0x00, 0x00, 0xf3, 0xcf, 0x1e, 0x34,
  0xd1, 0xc1, 0x1d, 0x34, 0xc5, 0xa4, 0x1d, 0x34, 0x66, 0xf6, 0x1a, 0x34,
  0xa7, 0xa6, 0x1f, 0x34, 0x69, 0xb3, 0x20, 0x34, 0x9b, 0xf5, 0x11, 0x34,
  0x92, 0xb7, 0x1f, 0x34, 0x30, 0x00, 0x00, 0x00, 0x30, 0x36, 0x5f, 0x4f,
  0x72, 0x61, 0x6e, 0x67, 0x65, 0x4d, 0x69, 0x63, 0x72, 0x6f, 0x44, 0x61,
  0x72, 0x6b, 0x5f, 0x57, 0x4e, 0x31, 0x32, 0x5f, 0x76, 0x32, 0x2f, 0x63,
  0x6f, 0x6e, 0x76, 0x31, 0x64, 0x5f, 0x33, 0x31, 0x2f, 0x63, 0x6f, 0x6e,
  0x76, 0x31, 0x64, 0x5f, 0x62, 0x69, 0x61, 0x73, 0x00, 0x00, 0x00, 0x00,
  0x01, 0x00, 0x00, 0x00, 0x08, 0x00, 0x00, 0x00, 0x22, 0xeb, 0xff, 0xff,
  0x00, 0x00, 0x00, 0x09, 0x84, 0x00, 0x00, 0x00, 0x25, 0x00, 0x00, 0x00,
  0x44, 0x00, 0x00, 0x00, 0x04, 0x00, 0x00, 0x00, 0x14, 0xeb, 0xff, 0xff,
  0x30, 0x00, 0x00, 0x00, 0x24, 0x00, 0x00, 0x00, 0x18, 0x00, 0x00, 0x00,
  0x04, 0x00, 0x00, 0x00, 0x01, 0x00, 0x00, 0x00, 0x80, 0xff, 0xff, 0xff,
  0xff, 0xff, 0xff, 0xff, 0x00, 0x00, 0x00, 0x00, 0x01, 0x00, 0x00, 0x00,
  0xf0, 0xc4, 0x70, 0x38, 0x01, 0x00, 0x00, 0x00, 0x2b, 0xd4, 0x6f, 0x3c,
  0x01, 0x00, 0x00, 0x00, 0x00, 0x00, 0x00, 0x00, 0x33, 0x00, 0x00, 0x00,
  0x30, 0x36, 0x5f, 0x4f, 0x72, 0x61, 0x6e, 0x67, 0x65, 0x4d, 0x69, 0x63,
  0x72, 0x6f, 0x44, 0x61, 0x72, 0x6b, 0x5f, 0x57, 0x4e, 0x31, 0x32, 0x5f,
  0x76, 0x32, 0x2f, 0x63, 0x6f, 0x6e, 0x76, 0x31, 0x64, 0x5f, 0x33, 0x31,
  0x2f, 0x63, 0x6f, 0x6e, 0x76, 0x31, 0x64, 0x2f, 0x53, 0x71, 0x75, 0x65,
  0x65, 0x7a, 0x65, 0x00, 0x04, 0x00, 0x00, 0x00, 0x01, 0x00, 0x00, 0x00,
  0x01, 0x00, 0x00, 0x00, 0xf1, 0x01, 0x00, 0x00, 0x08, 0x00, 0x00, 0x00,
  0xc2, 0xeb, 0xff, 0xff, 0x00, 0x00, 0x00, 0x09, 0x14, 0x01, 0x00, 0x00,
  0x08, 0x00, 0x00, 0x00, 0xcc, 0x00, 0x00, 0x00, 0x04, 0x00, 0x00, 0x00,
  0xb4, 0xeb, 0xff, 0xff, 0x9c, 0x00, 0x00, 0x00, 0x74, 0x00, 0x00, 0x00,
  0x4c, 0x00, 0x00, 0x00, 0x04, 0x00, 0x00, 0x00, 0x08, 0x00, 0x00, 0x00,
  0x00, 0x00, 0x00, 0x00, 0x00, 0x00, 0x00, 0x00, 0x00, 0x00, 0x00, 0x00,
  0x00, 0x00, 0x00, 0x00, 0x00, 0x00, 0x00, 0x00, 0x00, 0x00, 0x00, 0x00,
  0x00, 0x00, 0x00, 0x00, 0x00, 0x00, 0x00, 0x00, 0x00, 0x00, 0x00, 0x00,
  0x00, 0x00, 0x00, 0x00, 0x00, 0x00, 0x00, 0x00, 0x00, 0x00, 0x00, 0x00,
  0x00, 0x00, 0x00, 0x00, 0x00, 0x00, 0x00, 0x00, 0x00, 0x00, 0x00, 0x00,
  0x00, 0x00, 0x00, 0x00, 0x08, 0x00, 0x00, 0x00, 0xa2, 0xe1, 0x0a, 0x3b,
  0x66, 0xf5, 0x09, 0x3b, 0x00, 0xdc, 0x09, 0x3b, 0xc4, 0x83, 0x07, 0x3b,
  0x64, 0x9d, 0x0b, 0x3b, 0x6b, 0x88, 0x0c, 0x3b, 0x74, 0x48, 0xff, 0x3a,
  0x2f, 0xac, 0x0b, 0x3b, 0x08, 0x00, 0x00, 0x00, 0xdf, 0xcb, 0x89, 0x3e,
  0xd8, 0xc9, 0x81, 0x3e, 0x48, 0xc8, 0x88, 0x3e, 0xfd, 0xfa, 0x81, 0x3e,
  0x42, 0xd0, 0x89, 0x3e, 0x5a, 0x6f, 0x8b, 0x3e, 0xe3, 0x49, 0x7d, 0x3e,
  0x44, 0x72, 0x8a, 0x3e, 0x08, 0x00, 0x00, 0x00, 0x5f, 0x6f, 0x86, 0xbe,
  0x7b, 0xe1, 0x88, 0xbe, 0x59, 0xeb, 0x81, 0xbe, 0xbc, 0x74, 0x86, 0xbe,
  0x29, 0x86, 0x8a, 0xbe, 0x7f, 0x6d, 0x86, 0xbe, 0xad, 0x72, 0x70, 0xbe,
  0xd7, 0x94, 0x8a, 0xbe, 0x38, 0x00, 0x00, 0x00, 0x30, 0x36, 0x5f, 0x4f,
  0x72, 0x61, 0x6e, 0x67, 0x65, 0x4d, 0x69, 0x63, 0x72, 0x6f, 0x44, 0x61,
  0x72, 0x6b, 0x5f, 0x57, 0x4e, 0x31, 0x32, 0x5f, 0x76, 0x32, 0x2f, 0x63,
  0x6f, 0x6e, 0x76, 0x31, 0x64, 0x5f, 0x33, 0x31, 0x2f, 0x63, 0x6f, 0x6e,
  0x76, 0x31, 0x64, 0x2f, 0x45, 0x78, 0x70, 0x61, 0x6e, 0x64, 0x44, 0x69,
  0x6d, 0x73, 0x5f, 0x31, 0x00, 0x00, 0x00, 0x00, 0x04, 0x00, 0x00, 0x00,
  0x08, 0x00, 0x00, 0x00, 0x01, 0x00, 0x00, 0x00, 0x05, 0x00, 0x00, 0x00,
  0x08, 0x00, 0x00, 0x00, 0xf2, 0xec, 0xff, 0xff, 0x00, 0x00, 0x00, 0x02,
  0xc0, 0x00, 0x00, 0x00, 0x09, 0x00, 0x00, 0x00, 0x80, 0x00, 0x00, 0x00,
  0x04, 0x00, 0x00, 0x00, 0x3c, 0xf0, 0xff, 0xff, 0x50, 0x00, 0x00, 0x00,
  0x04, 0x00, 0x00, 0x00, 0x08, 0x00, 0x00, 0x00, 0x00, 0x00, 0x00, 0x00,
  0x00, 0x00, 0x00, 0x00, 0x00, 0x00, 0x00, 0x00, 0x00, 0x00, 0x00, 0x00,
  0x00, 0x00, 0x00, 0x00, 0x00, 0x00, 0x00, 0x00, 0x00, 0x00, 0x00, 0x00,
  0x00, 0x00, 0x00, 0x00, 0x00, 0x00, 0x00, 0x00, 0x00, 0x00, 0x00, 0x00,
  0x00, 0x00, 0x00, 0x00, 0x00, 0x00, 0x00, 0x00, 0x00, 0x00, 0x00, 0x00,
  0x00, 0x00, 0x00, 0x00, 0x00, 0x00, 0x00, 0x00, 0x00, 0x00, 0x00, 0x00,
  0x00, 0x00, 0x00, 0x00, 0x08, 0x00, 0x00, 0x00, 0xa7, 0x86, 0x39, 0x34,
  0x91, 0xa4, 0x38, 0x34, 0x82, 0xa0, 0x33, 0x34, 0x64, 0x70, 0x3c, 0x34,
  0x5f, 0x79, 0x3a, 0x34, 0x61, 0x81, 0x37, 0x34, 0xd2, 0x5c, 0x39, 0x34,
  0x2f, 0x8e, 0x34, 0x34, 0x30, 0x00, 0x00, 0x00, 0x30, 0x36, 0x5f, 0x4f,
  0x72, 0x61, 0x6e, 0x67, 0x65, 0x4d, 0x69, 0x63, 0x72, 0x6f, 0x44, 0x61,
  0x72, 0x6b, 0x5f, 0x57, 0x4e, 0x31, 0x32, 0x5f, 0x76, 0x32, 0x2f, 0x63,
  0x6f, 0x6e, 0x76, 0x31, 0x64, 0x5f, 0x33, 0x30, 0x2f, 0x63, 0x6f, 0x6e,
  0x76, 0x31, 0x64, 0x5f, 0x62, 0x69, 0x61, 0x73, 0x00, 0x00, 0x00, 0x00,
  0x01, 0x00, 0x00, 0x00, 0x08, 0x00, 0x00, 0x00, 0xc2, 0xed, 0xff, 0xff,
  0x00, 0x00, 0x00, 0x09, 0x84, 0x00, 0x00, 0x00, 0x24, 0x00, 0x00, 0x00,
  0x44, 0x00, 0x00, 0x00, 0x04, 0x00, 0x00, 0x00, 0xb4, 0xed, 0xff, 0xff,
  0x30, 0x00, 0x00, 0x00, 0x24, 0x00, 0x00, 0x00, 0x18, 0x00, 0x00, 0x00,
  0x04, 0x00, 0x00, 0x00, 0x01, 0x00, 0x00, 0x00, 0x80, 0xff, 0xff, 0xff,
  0xff, 0xff, 0xff, 0xff, 0x00, 0x00, 0x00, 0x00, 0x01, 0x00, 0x00, 0x00,
  0x8d, 0x5e, 0x92, 0x38, 0x01, 0x00, 0x00, 0x00, 0x2e, 0xcc, 0x91, 0x3c,
  0x01, 0x00, 0x00, 0x00, 0x00, 0x00, 0x00, 0x00, 0x33, 0x00, 0x00, 0x00,
  0x30, 0x36, 0x5f, 0x4f, 0x72, 0x61, 0x6e, 0x67, 0x65, 0x4d, 0x69, 0x63,
  0x72, 0x6f, 0x44, 0x61, 0x72, 0x6b, 0x5f, 0x57, 0x4e, 0x31, 0x32, 0x5f,
  0x76, 0x32, 0x2f, 0x63, 0x6f, 0x6e, 0x76, 0x31, 0x64, 0x5f, 0x33, 0x30,
  0x2f, 0x63, 0x6f, 0x6e, 0x76, 0x31, 0x64, 0x2f, 0x53, 0x71, 0x75, 0x65,
  0x65, 0x7a, 0x65, 0x00, 0x04, 0x00, 0x00, 0x00, 0x01, 0x00, 0x00, 0x00,
  0x01, 0x00, 0x00, 0x00, 0xf1, 0x01, 0x00, 0x00, 0x08, 0x00, 0x00, 0x00,
  0x62, 0xee, 0xff, 0xff, 0x00, 0x00, 0x00, 0x09, 0x14, 0x01, 0x00, 0x00,
  0x0a, 0x00, 0x00, 0x00, 0xcc, 0x00, 0x00, 0x00, 0x04, 0x00, 0x00, 0x00,
  0x54, 0xee, 0xff, 0xff, 0x9c, 0x00, 0x00, 0x00, 0x74, 0x00, 0x00, 0x00,
  0x4c, 0x00, 0x00, 0x00, 0x04, 0x00, 0x00, 0x00, 0x08, 0x00, 0x00, 0x00,
  0x00, 0x00, 0x00, 0x00, 0x00, 0x00, 0x00, 0x00, 0x00, 0x00, 0x00, 0x00,
  0x00, 0x00, 0x00, 0x00, 0x00, 0x00, 0x00, 0x00, 0x00, 0x00, 0x00, 0x00,
  0x00, 0x00, 0x00, 0x00, 0x00, 0x00, 0x00, 0x00, 0x00, 0x00, 0x00, 0x00,
  0x00, 0x00, 0x00, 0x00, 0x00, 0x00, 0x00, 0x00, 0x00, 0x00, 0x00, 0x00,
  0x00, 0x00, 0x00, 0x00, 0x00, 0x00, 0x00, 0x00, 0x00, 0x00, 0x00, 0x00,
  0x00, 0x00, 0x00, 0x00, 0x08, 0x00, 0x00, 0x00, 0x7b, 0xd6, 0x0b, 0x3b,
  0x12, 0x2c, 0x0b, 0x3b, 0x3a, 0x64, 0x07, 0x3b, 0x92, 0x08, 0x0e, 0x3b,
  0x6d, 0x8d, 0x0c, 0x3b, 0x97, 0x50, 0x0a, 0x3b, 0xf3, 0xb6, 0x0b, 0x3b,
  0x5f, 0x17, 0x08, 0x3b, 0x08, 0x00, 0x00, 0x00, 0x5e, 0x73, 0x88, 0x3e,
  0x37, 0x67, 0x86, 0x3e, 0x4a, 0x69, 0x78, 0x3e, 0xcc, 0x7a, 0x87, 0x3e,
  0x52, 0x74, 0x8b, 0x3e, 0x2b, 0x3a, 0x72, 0x3e, 0x1d, 0xce, 0x82, 0x3e,
  0x41, 0xe2, 0x79, 0x3e, 0x08, 0x00, 0x00, 0x00, 0xce, 0xbe, 0x8a, 0xbe,
  0xba, 0x15, 0x8a, 0xbe, 0x72, 0x55, 0x86, 0xbe, 0x81, 0xec, 0x8c, 0xbe,
  0x91, 0x8f, 0x7f, 0xbe, 0xf6, 0x3b, 0x89, 0xbe, 0x85, 0x9f, 0x8a, 0xbe,
  0x30, 0x07, 0x87, 0xbe, 0x38, 0x00, 0x00, 0x00, 0x30, 0x36, 0x5f, 0x4f,
  0x72, 0x61, 0x6e, 0x67, 0x65, 0x4d, 0x69, 0x63, 0x72, 0x6f, 0x44, 0x61,
  0x72, 0x6b, 0x5f, 0x57, 0x4e, 0x31, 0x32, 0x5f, 0x76, 0x32, 0x2f, 0x63,
  0x6f, 0x6e, 0x76, 0x31, 0x64, 0x5f, 0x33, 0x30, 0x2f, 0x63, 0x6f, 0x6e,
  0x76, 0x31, 0x64, 0x2f, 0x45, 0x78, 0x70, 0x61, 0x6e, 0x64, 0x44, 0x69,
  0x6d, 0x73, 0x5f, 0x31, 0x00, 0x00, 0x00, 0x00, 0x04, 0x00, 0x00, 0x00,
  0x08, 0x00, 0x00, 0x00, 0x01, 0x00, 0x00, 0x00, 0x05, 0x00, 0x00, 0x00,
  0x08, 0x00, 0x00, 0x00, 0x92, 0xef, 0xff, 0xff, 0x00, 0x00, 0x00, 0x02,
  0xc0, 0x00, 0x00, 0x00, 0x1a, 0x00, 0x00, 0x00, 0x80, 0x00, 0x00, 0x00,
  0x04, 0x00, 0x00, 0x00, 0xdc, 0xf2, 0xff, 0xff, 0x50, 0x00, 0x00, 0x00,
  0x04, 0x00, 0x00, 0x00, 0x08, 0x00, 0x00, 0x00, 0x00, 0x00, 0x00, 0x00,
  0x00, 0x00, 0x00, 0x00, 0x00, 0x00, 0x00, 0x00, 0x00, 0x00, 0x00, 0x00,
  0x00, 0x00, 0x00, 0x00, 0x00, 0x00, 0x00, 0x00, 0x00, 0x00, 0x00, 0x00,
  0x00, 0x00, 0x00, 0x00, 0x00, 0x00, 0x00, 0x00, 0x00, 0x00, 0x00, 0x00,
  0x00, 0x00, 0x00, 0x00, 0x00, 0x00, 0x00, 0x00, 0x00, 0x00, 0x00, 0x00,
  0x00, 0x00, 0x00, 0x00, 0x00, 0x00, 0x00, 0x00, 0x00, 0x00, 0x00, 0x00,
  0x00, 0x00, 0x00, 0x00, 0x08, 0x00, 0x00, 0x00, 0x52, 0x59, 0x92, 0x34,
  0x1f, 0x22, 0x92, 0x34, 0x1b, 0x61, 0x92, 0x34, 0x59, 0x61, 0x95, 0x34,
  0xa7, 0xcf, 0x91, 0x34, 0xbf, 0xe7, 0x93, 0x34, 0x96, 0x14, 0x93, 0x34,
  0x85, 0xf8, 0x8a, 0x34, 0x30, 0x00, 0x00, 0x00, 0x30, 0x36, 0x5f, 0x4f,
  0x72, 0x61, 0x6e, 0x67, 0x65, 0x4d, 0x69, 0x63, 0x72, 0x6f, 0x44, 0x61,
  0x72, 0x6b, 0x5f, 0x57, 0x4e, 0x31, 0x32, 0x5f, 0x76, 0x32, 0x2f, 0x63,
  0x6f, 0x6e, 0x76, 0x31, 0x64, 0x5f, 0x32, 0x39, 0x2f, 0x63, 0x6f, 0x6e,
  0x76, 0x31, 0x64, 0x5f, 0x62, 0x69, 0x61, 0x73, 0x00, 0x00, 0x00, 0x00,
  0x01, 0x00, 0x00, 0x00, 0x08, 0x00, 0x00, 0x00, 0x62, 0xf0, 0xff, 0xff,
  0x00, 0x00, 0x00, 0x09, 0x84, 0x00, 0x00, 0x00, 0x23, 0x00, 0x00, 0x00,
  0x44, 0x00, 0x00, 0x00, 0x04, 0x00, 0x00, 0x00, 0x54, 0xf0, 0xff, 0xff,
  0x30, 0x00, 0x00, 0x00, 0x24, 0x00, 0x00, 0x00, 0x18, 0x00, 0x00, 0x00,
  0x04, 0x00, 0x00, 0x00, 0x01, 0x00, 0x00, 0x00, 0x80, 0xff, 0xff, 0xff,
  0xff, 0xff, 0xff, 0xff, 0x00, 0x00, 0x00, 0x00, 0x01, 0x00, 0x00, 0x00,
  0x0c, 0xd2, 0xa9, 0x38, 0x01, 0x00, 0x00, 0x00, 0x3a, 0x28, 0xa9, 0x3c,
  0x01, 0x00, 0x00, 0x00, 0x00, 0x00, 0x00, 0x00, 0x33, 0x00, 0x00, 0x00,
  0x30, 0x36, 0x5f, 0x4f, 0x72, 0x61, 0x6e, 0x67, 0x65, 0x4d, 0x69, 0x63,
  0x72, 0x6f, 0x44, 0x61, 0x72, 0x6b, 0x5f, 0x57, 0x4e, 0x31, 0x32, 0x5f,
  0x76, 0x32, 0x2f, 0x63, 0x6f, 0x6e, 0x76, 0x31, 0x64, 0x5f, 0x32, 0x39,
  0x2f, 0x63, 0x6f, 0x6e, 0x76, 0x31, 0x64, 0x2f, 0x53, 0x71, 0x75, 0x65,
  0x65, 0x7a, 0x65, 0x00, 0x04, 0x00, 0x00, 0x00, 0x01, 0x00, 0x00, 0x00,
  0x01, 0x00, 0x00, 0x00, 0xf5, 0x01, 0x00, 0x00, 0x08, 0x00, 0x00, 0x00,
  0x02, 0xf1, 0xff, 0xff, 0x00, 0x00, 0x00, 0x09, 0x14, 0x01, 0x00, 0x00,
  0x0b, 0x00, 0x00, 0x00, 0xcc, 0x00, 0x00, 0x00, 0x04, 0x00, 0x00, 0x00,
  0xf4, 0xf0, 0xff, 0xff, 0x9c, 0x00, 0x00, 0x00, 0x74, 0x00, 0x00, 0x00,
  0x4c, 0x00, 0x00, 0x00, 0x04, 0x00, 0x00, 0x00, 0x08, 0x00, 0x00, 0x00,
  0x00, 0x00, 0x00, 0x00, 0x00, 0x00, 0x00, 0x00, 0x00, 0x00, 0x00, 0x00,
  0x00, 0x00, 0x00, 0x00, 0x00, 0x00, 0x00, 0x00, 0x00, 0x00, 0x00, 0x00,
  0x00, 0x00, 0x00, 0x00, 0x00, 0x00, 0x00, 0x00, 0x00, 0x00, 0x00, 0x00,
  0x00, 0x00, 0x00, 0x00, 0x00, 0x00, 0x00, 0x00, 0x00, 0x00, 0x00, 0x00,
  0x00, 0x00, 0x00, 0x00, 0x00, 0x00, 0x00, 0x00, 0x00, 0x00, 0x00, 0x00,
  0x00, 0x00, 0x00, 0x00, 0x08, 0x00, 0x00, 0x00, 0x96, 0x8d, 0x0b, 0x3b,
  0xf4, 0x58, 0x0b, 0x3b, 0x03, 0x95, 0x0b, 0x3b, 0x94, 0x71, 0x0e, 0x3b,
  0x50, 0x0a, 0x0b, 0x3b, 0x83, 0x09, 0x0d, 0x3b, 0x28, 0x40, 0x0c, 0x3b,
  0x7f, 0x84, 0x04, 0x3b, 0x08, 0x00, 0x00, 0x00, 0x7b, 0x76, 0x8a, 0x3e,
  0x42, 0x42, 0x8a, 0x3e, 0xd9, 0x7d, 0x8a, 0x3e, 0xb1, 0x54, 0x8d, 0x3e,
  0x3b, 0xf4, 0x89, 0x3e, 0x70, 0xef, 0x8b, 0x3e, 0xa8, 0x27, 0x8b, 0x3e,
  0x64, 0x87, 0x57, 0x3e, 0x08, 0x00, 0x00, 0x00, 0x0f, 0xf5, 0x85, 0xbe,
  0x46, 0x65, 0x88, 0xbe, 0x1e, 0xfd, 0x86, 0xbe, 0x4e, 0x84, 0x8a, 0xbe,
  0x57, 0x3f, 0x82, 0xbe, 0x4f, 0x83, 0x8b, 0xbe, 0xa7, 0xa7, 0x8a, 0xbe,
  0x76, 0x7b, 0x83, 0xbe, 0x38, 0x00, 0x00, 0x00, 0x30, 0x36, 0x5f, 0x4f,
  0x72, 0x61, 0x6e, 0x67, 0x65, 0x4d, 0x69, 0x63, 0x72, 0x6f, 0x44, 0x61,
  0x72, 0x6b, 0x5f, 0x57, 0x4e, 0x31, 0x32, 0x5f, 0x76, 0x32, 0x2f, 0x63,
  0x6f, 0x6e, 0x76, 0x31, 0x64, 0x5f, 0x32, 0x39, 0x2f, 0x63, 0x6f, 0x6e,
  0x76, 0x31, 0x64, 0x2f, 0x45, 0x78, 0x70, 0x61, 0x6e, 0x64, 0x44, 0x69,
  0x6d, 0x73, 0x5f, 0x31, 0x00, 0x00, 0x00, 0x00, 0x04, 0x00, 0x00, 0x00,
  0x08, 0x00, 0x00, 0x00, 0x01, 0x00, 0x00, 0x00, 0x05, 0x00, 0x00, 0x00,
  0x08, 0x00, 0x00, 0x00, 0x32, 0xf2, 0xff, 0xff, 0x00, 0x00, 0x00, 0x02,
  0xc0, 0x00, 0x00, 0x00, 0x0c, 0x00, 0x00, 0x00, 0x80, 0x00, 0x00, 0x00,
  0x04, 0x00, 0x00, 0x00, 0x7c, 0xf5, 0xff, 0xff, 0x50, 0x00, 0x00, 0x00,
  0x04, 0x00, 0x00, 0x00, 0x08, 0x00, 0x00, 0x00, 0x00, 0x00, 0x00, 0x00,
  0x00, 0x00, 0x00, 0x00, 0x00, 0x00, 0x00, 0x00, 0x00, 0x00, 0x00, 0x00,
  0x00, 0x00, 0x00, 0x00, 0x00, 0x00, 0x00, 0x00, 0x00, 0x00, 0x00, 0x00,
  0x00, 0x00, 0x00, 0x00, 0x00, 0x00, 0x00, 0x00, 0x00, 0x00, 0x00, 0x00,
  0x00, 0x00, 0x00, 0x00, 0x00, 0x00, 0x00, 0x00, 0x00, 0x00, 0x00, 0x00,
  0x00, 0x00, 0x00, 0x00, 0x00, 0x00, 0x00, 0x00, 0x00, 0x00, 0x00, 0x00,
  0x00, 0x00, 0x00, 0x00, 0x08, 0x00, 0x00, 0x00, 0x5b, 0x31, 0x02, 0x35,
  0x2b, 0x27, 0xfa, 0x34, 0x69, 0xb9, 0x02, 0x35, 0xe8, 0x85, 0xf6, 0x34,
  0x3a, 0x26, 0x03, 0x35, 0xa3, 0x6b, 0x01, 0x35, 0x75, 0xfd, 0x02, 0x35,
  0xa1, 0x23, 0xfd, 0x34, 0x30, 0x00, 0x00, 0x00, 0x30, 0x36, 0x5f, 0x4f,
  0x72, 0x61, 0x6e, 0x67, 0x65, 0x4d, 0x69, 0x63, 0x72, 0x6f, 0x44, 0x61,
  0x72, 0x6b, 0x5f, 0x57, 0x4e, 0x31, 0x32, 0x5f, 0x76, 0x32, 0x2f, 0x63,
  0x6f, 0x6e, 0x76, 0x31, 0x64, 0x5f, 0x32, 0x38, 0x2f, 0x63, 0x6f, 0x6e,
  0x76, 0x31, 0x64, 0x5f, 0x62, 0x69, 0x61, 0x73, 0x00, 0x00, 0x00, 0x00,
  0x01, 0x00, 0x00, 0x00, 0x08, 0x00, 0x00, 0x00, 0x02, 0xf3, 0xff, 0xff,
  0x00, 0x00, 0x00, 0x09, 0x84, 0x00, 0x00, 0x00, 0x1d, 0x00, 0x00, 0x00,
  0x44, 0x00, 0x00, 0x00, 0x04, 0x00, 0x00, 0x00, 0xf4, 0xf2, 0xff, 0xff,
  0x30, 0x00, 0x00, 0x00, 0x24, 0x00, 0x00, 0x00, 0x18, 0x00, 0x00, 0x00,
  0x04, 0x00, 0x00, 0x00, 0x01, 0x00, 0x00, 0x00, 0x80, 0xff, 0xff, 0xff,
  0xff, 0xff, 0xff, 0xff, 0x00, 0x00, 0x00, 0x00, 0x01, 0x00, 0x00, 0x00,
  0xb5, 0x3b, 0x06, 0x39, 0x01, 0x00, 0x00, 0x00, 0x79, 0xb5, 0x05, 0x3d,
  0x01, 0x00, 0x00, 0x00, 0x00, 0x00, 0x00, 0x00, 0x33, 0x00, 0x00, 0x00,
  0x30, 0x36, 0x5f, 0x4f, 0x72, 0x61, 0x6e, 0x67, 0x65, 0x4d, 0x69, 0x63,
  0x72, 0x6f, 0x44, 0x61, 0x72, 0x6b, 0x5f, 0x57, 0x4e, 0x31, 0x32, 0x5f,
  0x76, 0x32, 0x2f, 0x63, 0x6f, 0x6e, 0x76, 0x31, 0x64, 0x5f, 0x32, 0x38,
  0x2f, 0x63, 0x6f, 0x6e, 0x76, 0x31, 0x64, 0x2f, 0x53, 0x71, 0x75, 0x65,
  0x65, 0x7a, 0x65, 0x00, 0x04, 0x00, 0x00, 0x00, 0x01, 0x00, 0x00, 0x00,
  0x01, 0x00, 0x00, 0x00, 0xf5, 0x01, 0x00, 0x00, 0x08, 0x00, 0x00, 0x00,
  0xa2, 0xf3, 0xff, 0xff, 0x00, 0x00, 0x00, 0x09, 0x14, 0x01, 0x00, 0x00,
  0x0d, 0x00, 0x00, 0x00, 0xcc, 0x00, 0x00, 0x00, 0x04, 0x00, 0x00, 0x00,
  0x94, 0xf3, 0xff, 0xff, 0x9c, 0x00, 0x00, 0x00, 0x74, 0x00, 0x00, 0x00,
  0x4c, 0x00, 0x00, 0x00, 0x04, 0x00, 0x00, 0x00, 0x08, 0x00, 0x00, 0x00,
  0x00, 0x00, 0x00, 0x00, 0x00, 0x00, 0x00, 0x00, 0x00, 0x00, 0x00, 0x00,
  0x00, 0x00, 0x00, 0x00, 0x00, 0x00, 0x00, 0x00, 0x00, 0x00, 0x00, 0x00,
  0x00, 0x00, 0x00, 0x00, 0x00, 0x00, 0x00, 0x00, 0x00, 0x00, 0x00, 0x00,
  0x00, 0x00, 0x00, 0x00, 0x00, 0x00, 0x00, 0x00, 0x00, 0x00, 0x00, 0x00,
  0x00, 0x00, 0x00, 0x00, 0x00, 0x00, 0x00, 0x00, 0x00, 0x00, 0x00, 0x00,
  0x00, 0x00, 0x00, 0x00, 0x08, 0x00, 0x00, 0x00, 0x29, 0xd6, 0x0b, 0x3b,
  0x5f, 0x57, 0x06, 0x3b, 0x4b, 0x68, 0x0c, 0x3b, 0x53, 0x64, 0x04, 0x3b,
  0x2c, 0xdd, 0x0c, 0x3b, 0xcc, 0x01, 0x0b, 0x3b, 0x62, 0xb1, 0x0c, 0x3b,
  0xea, 0xf1, 0x07, 0x3b, 0x08, 0x00, 0x00, 0x00, 0x7d, 0xbe, 0x8a, 0x3e,
  0xb0, 0x4a, 0x85, 0x3e, 0xdf, 0x05, 0x8a, 0x3e, 0x8a, 0x5b, 0x83, 0x3e,
  0x5f, 0x04, 0x8a, 0x3e, 0xc8, 0xeb, 0x89, 0x3e, 0x8c, 0xd7, 0x88, 0x3e,
  0x06, 0xe2, 0x86, 0x3e, 0x08, 0x00, 0x00, 0x00, 0x16, 0x49, 0x89, 0xbe,
  0xa3, 0x9e, 0x7d, 0xbe, 0x7a, 0x4f, 0x8b, 0xbe, 0x98, 0xd5, 0x75, 0xbe,
  0x72, 0xc3, 0x8b, 0xbe, 0x59, 0x30, 0x88, 0xbe, 0xff, 0x97, 0x8b, 0xbe,
  0x03, 0xda, 0x83, 0xbe, 0x38, 0x00, 0x00, 0x00, 0x30, 0x36, 0x5f, 0x4f,
  0x72, 0x61, 0x6e, 0x67, 0x65, 0x4d, 0x69, 0x63, 0x72, 0x6f, 0x44, 0x61,
  0x72, 0x6b, 0x5f, 0x57, 0x4e, 0x31, 0x32, 0x5f, 0x76, 0x32, 0x2f, 0x63,
  0x6f, 0x6e, 0x76, 0x31, 0x64, 0x5f, 0x32, 0x38, 0x2f, 0x63, 0x6f, 0x6e,
  0x76, 0x31, 0x64, 0x2f, 0x45, 0x78, 0x70, 0x61, 0x6e, 0x64, 0x44, 0x69,
  0x6d, 0x73, 0x5f, 0x31, 0x00, 0x00, 0x00, 0x00, 0x04, 0x00, 0x00, 0x00,
  0x08, 0x00, 0x00, 0x00, 0x01, 0x00, 0x00, 0x00, 0x05, 0x00, 0x00, 0x00,
  0x08, 0x00, 0x00, 0x00, 0xd2, 0xf4, 0xff, 0xff, 0x00, 0x00, 0x00, 0x02,
  0xc0, 0x00, 0x00, 0x00, 0x0e, 0x00, 0x00, 0x00, 0x80, 0x00, 0x00, 0x00,
  0x04, 0x00, 0x00, 0x00, 0x1c, 0xf8, 0xff, 0xff, 0x50, 0x00, 0x00, 0x00,
  0x04, 0x00, 0x00, 0x00, 0x08, 0x00, 0x00, 0x00, 0x00, 0x00, 0x00, 0x00,
  0x00, 0x00, 0x00, 0x00, 0x00, 0x00, 0x00, 0x00, 0x00, 0x00, 0x00, 0x00,
  0x00, 0x00, 0x00, 0x00, 0x00, 0x00, 0x00, 0x00, 0x00, 0x00, 0x00, 0x00,
  0x00, 0x00, 0x00, 0x00, 0x00, 0x00, 0x00, 0x00, 0x00, 0x00, 0x00, 0x00,
  0x00, 0x00, 0x00, 0x00, 0x00, 0x00, 0x00, 0x00, 0x00, 0x00, 0x00, 0x00,
  0x00, 0x00, 0x00, 0x00, 0x00, 0x00, 0x00, 0x00, 0x00, 0x00, 0x00, 0x00,
  0x00, 0x00, 0x00, 0x00, 0x08, 0x00, 0x00, 0x00, 0x2e, 0x66, 0x89, 0x35,
  0xc2, 0x2c, 0x8c, 0x35, 0x32, 0x09, 0x8e, 0x35, 0x54, 0x61, 0x8e, 0x35,
  0x1e, 0x60, 0x8c, 0x35, 0x36, 0xe1, 0x8e, 0x35, 0x17, 0x01, 0x8b, 0x35,
  0x59, 0x3f, 0x8f, 0x35, 0x30, 0x00, 0x00, 0x00, 0x30, 0x36, 0x5f, 0x4f,
  0x72, 0x61, 0x6e, 0x67, 0x65, 0x4d, 0x69, 0x63, 0x72, 0x6f, 0x44, 0x61,
  0x72, 0x6b, 0x5f, 0x57, 0x4e, 0x31, 0x32, 0x5f, 0x76, 0x32, 0x2f, 0x63,
  0x6f, 0x6e, 0x76, 0x31, 0x64, 0x5f, 0x32, 0x37, 0x2f, 0x63, 0x6f, 0x6e,
  0x76, 0x31, 0x64, 0x5f, 0x62, 0x69, 0x61, 0x73, 0x00, 0x00, 0x00, 0x00,
  0x01, 0x00, 0x00, 0x00, 0x08, 0x00, 0x00, 0x00, 0xa2, 0xf5, 0xff, 0xff,
  0x00, 0x00, 0x00, 0x09, 0x84, 0x00, 0x00, 0x00, 0x17, 0x00, 0x00, 0x00,
  0x44, 0x00, 0x00, 0x00, 0x04, 0x00, 0x00, 0x00, 0x94, 0xf5, 0xff, 0xff,
  0x30, 0x00, 0x00, 0x00, 0x24, 0x00, 0x00, 0x00, 0x18, 0x00, 0x00, 0x00,
  0x04, 0x00, 0x00, 0x00, 0x01, 0x00, 0x00, 0x00, 0x80, 0xff, 0xff, 0xff,
  0xff, 0xff, 0xff, 0xff, 0x00, 0x00, 0x00, 0x00, 0x01, 0x00, 0x00, 0x00,
  0x56, 0x58, 0x6e, 0x39, 0x01, 0x00, 0x00, 0x00, 0xfe, 0x69, 0x6d, 0x3d,
  0x01, 0x00, 0x00, 0x00, 0x00, 0x00, 0x00, 0x00, 0x33, 0x00, 0x00, 0x00,
  0x30, 0x36, 0x5f, 0x4f, 0x72, 0x61, 0x6e, 0x67, 0x65, 0x4d, 0x69, 0x63,
  0x72, 0x6f, 0x44, 0x61, 0x72, 0x6b, 0x5f, 0x57, 0x4e, 0x31, 0x32, 0x5f,
  0x76, 0x32, 0x2f, 0x63, 0x6f, 0x6e, 0x76, 0x31, 0x64, 0x5f, 0x32, 0x37,
  0x2f, 0x63, 0x6f, 0x6e, 0x76, 0x31, 0x64, 0x2f, 0x53, 0x71, 0x75, 0x65,
  0x65, 0x7a, 0x65, 0x00, 0x04, 0x00, 0x00, 0x00, 0x01, 0x00, 0x00, 0x00,
  0x01, 0x00, 0x00, 0x00, 0xf5, 0x01, 0x00, 0x00, 0x08, 0x00, 0x00, 0x00,
  0x42, 0xf6, 0xff, 0xff, 0x00, 0x00, 0x00, 0x09, 0x14, 0x01, 0x00, 0x00,
  0x0f, 0x00, 0x00, 0x00, 0xcc, 0x00, 0x00, 0x00, 0x04, 0x00, 0x00, 0x00,
  0x34, 0xf6, 0xff, 0xff, 0x9c, 0x00, 0x00, 0x00, 0x74, 0x00, 0x00, 0x00,
  0x4c, 0x00, 0x00, 0x00, 0x04, 0x00, 0x00, 0x00, 0x08, 0x00, 0x00, 0x00,
  0x00, 0x00, 0x00, 0x00, 0x00, 0x00, 0x00, 0x00, 0x00, 0x00, 0x00, 0x00,
  0x00, 0x00, 0x00, 0x00, 0x00, 0x00, 0x00, 0x00, 0x00, 0x00, 0x00, 0x00,
  0x00, 0x00, 0x00, 0x00, 0x00, 0x00, 0x00, 0x00, 0x00, 0x00, 0x00, 0x00,
  0x00, 0x00, 0x00, 0x00, 0x00, 0x00, 0x00, 0x00, 0x00, 0x00, 0x00, 0x00,
  0x00, 0x00, 0x00, 0x00, 0x00, 0x00, 0x00, 0x00, 0x00, 0x00, 0x00, 0x00,
  0x00, 0x00, 0x00, 0x00, 0x08, 0x00, 0x00, 0x00, 0x5e, 0x4f, 0x07, 0x3b,
  0x25, 0x0b, 0x0a, 0x3b, 0x56, 0xe0, 0x0b, 0x3b, 0x21, 0x37, 0x0c, 0x3b,
  0xb9, 0x3d, 0x0a, 0x3b, 0x11, 0xb5, 0x0c, 0x3b, 0x08, 0xe4, 0x08, 0x3b,
  0xc6, 0x11, 0x0d, 0x3b, 0x08, 0x00, 0x00, 0x00, 0x17, 0x7d, 0x76, 0x3e,
  0x74, 0xde, 0x77, 0x3e, 0x2a, 0x58, 0x82, 0x3e, 0xb3, 0x1e, 0x8b, 0x3e,
  0x3e, 0x29, 0x89, 0x3e, 0xe4, 0x62, 0x89, 0x3e, 0x7e, 0x2f, 0x84, 0x3e,
  0xfa, 0x13, 0x88, 0x3e, 0x08, 0x00, 0x00, 0x00, 0xbf, 0x40, 0x86, 0xbe,
  0x0f, 0xf7, 0x88, 0xbe, 0x95, 0xc8, 0x8a, 0xbe, 0x58, 0x5a, 0x88, 0xbe,
  0x20, 0x40, 0x7b, 0xbe, 0xa7, 0x9b, 0x8b, 0xbe, 0x40, 0xd2, 0x87, 0xbe,
  0xa2, 0xf7, 0x8b, 0xbe, 0x38, 0x00, 0x00, 0x00, 0x30, 0x36, 0x5f, 0x4f,
  0x72, 0x61, 0x6e, 0x67, 0x65, 0x4d, 0x69, 0x63, 0x72, 0x6f, 0x44, 0x61,
  0x72, 0x6b, 0x5f, 0x57, 0x4e, 0x31, 0x32, 0x5f, 0x76, 0x32, 0x2f, 0x63,
  0x6f, 0x6e, 0x76, 0x31, 0x64, 0x5f, 0x32, 0x37, 0x2f, 0x63, 0x6f, 0x6e,
  0x76, 0x31, 0x64, 0x2f, 0x45, 0x78, 0x70, 0x61, 0x6e, 0x64, 0x44, 0x69,
  0x6d, 0x73, 0x5f, 0x31, 0x00, 0x00, 0x00, 0x00, 0x04, 0x00, 0x00, 0x00,
  0x08, 0x00, 0x00, 0x00, 0x01, 0x00, 0x00, 0x00, 0x05, 0x00, 0x00, 0x00,
  0x08, 0x00, 0x00, 0x00, 0x72, 0xf7, 0xff, 0xff, 0x00, 0x00, 0x00, 0x02,
  0xc0, 0x00, 0x00, 0x00, 0x10, 0x00, 0x00, 0x00, 0x80, 0x00, 0x00, 0x00,
  0x04, 0x00, 0x00, 0x00, 0xbc, 0xfa, 0xff, 0xff, 0x50, 0x00, 0x00, 0x00,
  0x04, 0x00, 0x00, 0x00, 0x08, 0x00, 0x00, 0x00, 0x00, 0x00, 0x00, 0x00,
  0x00, 0x00, 0x00, 0x00, 0x00, 0x00, 0x00, 0x00, 0x00, 0x00, 0x00, 0x00,
  0x00, 0x00, 0x00, 0x00, 0x00, 0x00, 0x00, 0x00, 0x00, 0x00, 0x00, 0x00,
  0x00, 0x00, 0x00, 0x00, 0x00, 0x00, 0x00, 0x00, 0x00, 0x00, 0x00, 0x00,
  0x00, 0x00, 0x00, 0x00, 0x00, 0x00, 0x00, 0x00, 0x00, 0x00, 0x00, 0x00,
  0x00, 0x00, 0x00, 0x00, 0x00, 0x00, 0x00, 0x00, 0x00, 0x00, 0x00, 0x00,
  0x00, 0x00, 0x00, 0x00, 0x08, 0x00, 0x00, 0x00, 0x89, 0x36, 0x9b, 0x35,
  0xb7, 0xe7, 0x9c, 0x35, 0x96, 0x09, 0x9e, 0x35, 0x91, 0x3a, 0x9a, 0x35,
  0x15, 0xbc, 0x9d, 0x35, 0x2c, 0x12, 0xa1, 0x35, 0xe2, 0xef, 0x9e, 0x35,
  0xd3, 0x97, 0x98, 0x35, 0x30, 0x00, 0x00, 0x00, 0x30, 0x36, 0x5f, 0x4f,
  0x72, 0x61, 0x6e, 0x67, 0x65, 0x4d, 0x69, 0x63, 0x72, 0x6f, 0x44, 0x61,
  0x72, 0x6b, 0x5f, 0x57, 0x4e, 0x31, 0x32, 0x5f, 0x76, 0x32, 0x2f, 0x63,
  0x6f, 0x6e, 0x76, 0x31, 0x64, 0x5f, 0x32, 0x36, 0x2f, 0x63, 0x6f, 0x6e,
  0x76, 0x31, 0x64, 0x5f, 0x62, 0x69, 0x61, 0x73, 0x00, 0x00, 0x00, 0x00,
  0x01, 0x00, 0x00, 0x00, 0x08, 0x00, 0x00, 0x00, 0x42, 0xf8, 0xff, 0xff,
  0x00, 0x00, 0x00, 0x09, 0x84, 0x00, 0x00, 0x00, 0x22, 0x00, 0x00, 0x00,
  0x44, 0x00, 0x00, 0x00, 0x04, 0x00, 0x00, 0x00, 0x34, 0xf8, 0xff, 0xff,
  0x30, 0x00, 0x00, 0x00, 0x24, 0x00, 0x00, 0x00, 0x18, 0x00, 0x00, 0x00,
  0x04, 0x00, 0x00, 0x00, 0x01, 0x00, 0x00, 0x00, 0x80, 0xff, 0xff, 0xff,
  0xff, 0xff, 0xff, 0xff, 0x00, 0x00, 0x00, 0x00, 0x01, 0x00, 0x00, 0x00,
  0xeb, 0xf9, 0x01, 0x3a, 0x01, 0x00, 0x00, 0x00, 0xf1, 0x77, 0x01, 0x3e,
  0x01, 0x00, 0x00, 0x00, 0x00, 0x00, 0x00, 0x00, 0x33, 0x00, 0x00, 0x00,
  0x30, 0x36, 0x5f, 0x4f, 0x72, 0x61, 0x6e, 0x67, 0x65, 0x4d, 0x69, 0x63,
  0x72, 0x6f, 0x44, 0x61, 0x72, 0x6b, 0x5f, 0x57, 0x4e, 0x31, 0x32, 0x5f,
  0x76, 0x32, 0x2f, 0x63, 0x6f, 0x6e, 0x76, 0x31, 0x64, 0x5f, 0x32, 0x36,
  0x2f, 0x63, 0x6f, 0x6e, 0x76, 0x31, 0x64, 0x2f, 0x53, 0x71, 0x75, 0x65,
  0x65, 0x7a, 0x65, 0x00, 0x04, 0x00, 0x00, 0x00, 0x01, 0x00, 0x00, 0x00,
  0x01, 0x00, 0x00, 0x00, 0xf5, 0x01, 0x00, 0x00, 0x08, 0x00, 0x00, 0x00,
  0xe2, 0xf8, 0xff, 0xff, 0x00, 0x00, 0x00, 0x09, 0x14, 0x01, 0x00, 0x00,
  0x1f, 0x00, 0x00, 0x00, 0xcc, 0x00, 0x00, 0x00, 0x04, 0x00, 0x00, 0x00,
  0xd4, 0xf8, 0xff, 0xff, 0x9c, 0x00, 0x00, 0x00, 0x74, 0x00, 0x00, 0x00,
  0x4c, 0x00, 0x00, 0x00, 0x04, 0x00, 0x00, 0x00, 0x08, 0x00, 0x00, 0x00,
  0x00, 0x00, 0x00, 0x00, 0x00, 0x00, 0x00, 0x00, 0x00, 0x00, 0x00, 0x00,
  0x00, 0x00, 0x00, 0x00, 0x00, 0x00, 0x00, 0x00, 0x00, 0x00, 0x00, 0x00,
  0x00, 0x00, 0x00, 0x00, 0x00, 0x00, 0x00, 0x00, 0x00, 0x00, 0x00, 0x00,
  0x00, 0x00, 0x00, 0x00, 0x00, 0x00, 0x00, 0x00, 0x00, 0x00, 0x00, 0x00,
  0x00, 0x00, 0x00, 0x00, 0x00, 0x00, 0x00, 0x00, 0x00, 0x00, 0x00, 0x00,
  0x00, 0x00, 0x00, 0x00, 0x08, 0x00, 0x00, 0x00, 0x0d, 0x2c, 0x08, 0x3b,
  0x17, 0xa8, 0x09, 0x3b, 0x66, 0xa6, 0x0a, 0x3b, 0xfe, 0x4e, 0x07, 0x3b,
  0x67, 0x62, 0x0a, 0x3b, 0xb8, 0x4f, 0x0d, 0x3b, 0x72, 0x70, 0x0b, 0x3b,
  0x9f, 0xdf, 0x05, 0x3b, 0x08, 0x00, 0x00, 0x00, 0xf4, 0x3c, 0x82, 0x3e,
  0xc7, 0x94, 0x88, 0x3e, 0x19, 0x91, 0x89, 0x3e, 0x9f, 0x16, 0x7c, 0x3e,
  0xa2, 0x4d, 0x89, 0x3e, 0x19, 0x35, 0x8c, 0x3e, 0x9f, 0xba, 0x88, 0x3e,
  0xe0, 0xd3, 0x84, 0x3e, 0x08, 0x00, 0x00, 0x00, 0xb5, 0x1b, 0x87, 0xbe,
  0x30, 0xfb, 0x7d, 0xbe, 0xf3, 0x68, 0x7f, 0xbe, 0x60, 0x40, 0x86, 0xbe,
  0xd2, 0x13, 0x6e, 0xbe, 0x54, 0x63, 0x89, 0xbe, 0x91, 0x59, 0x8a, 0xbe,
  0xe4, 0x10, 0x67, 0xbe, 0x38, 0x00, 0x00, 0x00, 0x30, 0x36, 0x5f, 0x4f,
  0x72, 0x61, 0x6e, 0x67, 0x65, 0x4d, 0x69, 0x63, 0x72, 0x6f, 0x44, 0x61,
  0x72, 0x6b, 0x5f, 0x57, 0x4e, 0x31, 0x32, 0x5f, 0x76, 0x32, 0x2f, 0x63,
  0x6f, 0x6e, 0x76, 0x31, 0x64, 0x5f, 0x32, 0x36, 0x2f, 0x63, 0x6f, 0x6e,
  0x76, 0x31, 0x64, 0x2f, 0x45, 0x78, 0x70, 0x61, 0x6e, 0x64, 0x44, 0x69,
  0x6d, 0x73, 0x5f, 0x31, 0x00, 0x00, 0x00, 0x00, 0x04, 0x00, 0x00, 0x00,
  0x08, 0x00, 0x00, 0x00, 0x01, 0x00, 0x00, 0x00, 0x05, 0x00, 0x00, 0x00,
  0x08, 0x00, 0x00, 0x00, 0x12, 0xfa, 0xff, 0xff, 0x00, 0x00, 0x00, 0x02,
  0xc0, 0x00, 0x00, 0x00, 0x11, 0x00, 0x00, 0x00, 0x80, 0x00, 0x00, 0x00,
  0x04, 0x00, 0x00, 0x00, 0x5c, 0xfd, 0xff, 0xff, 0x50, 0x00, 0x00, 0x00,
  0x04, 0x00, 0x00, 0x00, 0x08, 0x00, 0x00, 0x00, 0x00, 0x00, 0x00, 0x00,
  0x00, 0x00, 0x00, 0x00, 0x00, 0x00, 0x00, 0x00, 0x00, 0x00, 0x00, 0x00,
  0x00, 0x00, 0x00, 0x00, 0x00, 0x00, 0x00, 0x00, 0x00, 0x00, 0x00, 0x00,
  0x00, 0x00, 0x00, 0x00, 0x00, 0x00, 0x00, 0x00, 0x00, 0x00, 0x00, 0x00,
  0x00, 0x00, 0x00, 0x00, 0x00, 0x00, 0x00, 0x00, 0x00, 0x00, 0x00, 0x00,
  0x00, 0x00, 0x00, 0x00, 0x00, 0x00, 0x00, 0x00, 0x00, 0x00, 0x00, 0x00,
  0x00, 0x00, 0x00, 0x00, 0x08, 0x00, 0x00, 0x00, 0xad, 0xd8, 0x47, 0x36,
  0x19, 0x1b, 0x51, 0x36, 0xfa, 0xe0, 0x51, 0x36, 0x07, 0x71, 0x4d, 0x36,
  0x81, 0xec, 0x4e, 0x36, 0x1c, 0xce, 0x51, 0x36, 0x60, 0x24, 0x4b, 0x36,
  0xa4, 0x27, 0x51, 0x36, 0x30, 0x00, 0x00, 0x00, 0x30, 0x36, 0x5f, 0x4f,
  0x72, 0x61, 0x6e, 0x67, 0x65, 0x4d, 0x69, 0x63, 0x72, 0x6f, 0x44, 0x61,
  0x72, 0x6b, 0x5f, 0x57, 0x4e, 0x31, 0x32, 0x5f, 0x76, 0x32, 0x2f, 0x63,
  0x6f, 0x6e, 0x76, 0x31, 0x64, 0x5f, 0x32, 0x35, 0x2f, 0x63, 0x6f, 0x6e,
  0x76, 0x31, 0x64, 0x5f, 0x62, 0x69, 0x61, 0x73, 0x00, 0x00, 0x00, 0x00,
  0x01, 0x00, 0x00, 0x00, 0x08, 0x00, 0x00, 0x00, 0xe2, 0xfa, 0xff, 0xff,
  0x00, 0x00, 0x00, 0x09, 0x84, 0x00, 0x00, 0x00, 0x14, 0x00, 0x00, 0x00,
  0x44, 0x00, 0x00, 0x00, 0x04, 0x00, 0x00, 0x00, 0xd4, 0xfa, 0xff, 0xff,
  0x30, 0x00, 0x00, 0x00, 0x24, 0x00, 0x00, 0x00, 0x18, 0x00, 0x00, 0x00,
  0x04, 0x00, 0x00, 0x00, 0x01, 0x00, 0x00, 0x00, 0x80, 0xff, 0xff, 0xff,
  0xff, 0xff, 0xff, 0xff, 0x00, 0x00, 0x00, 0x00, 0x01, 0x00, 0x00, 0x00,
  0xf4, 0xe5, 0x11, 0x3a, 0x01, 0x00, 0x00, 0x00, 0x0e, 0x54, 0x11, 0x3e,
  0x01, 0x00, 0x00, 0x00, 0x00, 0x00, 0x00, 0x00, 0x33, 0x00, 0x00, 0x00,
  0x30, 0x36, 0x5f, 0x4f, 0x72, 0x61, 0x6e, 0x67, 0x65, 0x4d, 0x69, 0x63,
  0x72, 0x6f, 0x44, 0x61, 0x72, 0x6b, 0x5f, 0x57, 0x4e, 0x31, 0x32, 0x5f,
  0x76, 0x32, 0x2f, 0x63, 0x6f, 0x6e, 0x76, 0x31, 0x64, 0x5f, 0x32, 0x35,
  0x2f, 0x63, 0x6f, 0x6e, 0x76, 0x31, 0x64, 0x2f, 0x53, 0x71, 0x75, 0x65,
  0x65, 0x7a, 0x65, 0x00, 0x04, 0x00, 0x00, 0x00, 0x01, 0x00, 0x00, 0x00,
  0x01, 0x00, 0x00, 0x00, 0xf5, 0x01, 0x00, 0x00, 0x08, 0x00, 0x00, 0x00,
  0x82, 0xfb, 0xff, 0xff, 0x00, 0x00, 0x00, 0x09, 0x18, 0x01, 0x00, 0x00,
  0x27, 0x00, 0x00, 0x00, 0xd0, 0x00, 0x00, 0x00, 0x04, 0x00, 0x00, 0x00,
  0x74, 0xfb, 0xff, 0xff, 0xa0, 0x00, 0x00, 0x00, 0x78, 0x00, 0x00, 0x00,
  0x50, 0x00, 0x00, 0x00, 0x04, 0x00, 0x00, 0x00, 0x08, 0x00, 0x00, 0x00,
  0x00, 0x00, 0x00, 0x00, 0x00, 0x00, 0x00, 0x00, 0x00, 0x00, 0x00, 0x00,
  0x00, 0x00, 0x00, 0x00, 0x00, 0x00, 0x00, 0x00, 0x00, 0x00, 0x00, 0x00,
  0x00, 0x00, 0x00, 0x00, 0x00, 0x00, 0x00, 0x00, 0x00, 0x00, 0x00, 0x00,
  0x00, 0x00, 0x00, 0x00, 0x00, 0x00, 0x00, 0x00, 0x00, 0x00, 0x00, 0x00,
  0x00, 0x00, 0x00, 0x00, 0x00, 0x00, 0x00, 0x00, 0x00, 0x00, 0x00, 0x00,
  0x00, 0x00, 0x00, 0x00, 0x00, 0x00, 0x00, 0x00, 0x08, 0x00, 0x00, 0x00,
  0xbc, 0x8e, 0x07, 0x3b, 0x9d, 0xd6, 0x0d, 0x3b, 0xd6, 0x5c, 0x0e, 0x3b,
  0x50, 0x5a, 0x0b, 0x3b, 0xb7, 0x5b, 0x0c, 0x3b, 0x0a, 0x50, 0x0e, 0x3b,
  0x06, 0xcb, 0x09, 0x3b, 0x1f, 0xdf, 0x0d, 0x3b, 0x08, 0x00, 0x00, 0x00,
  0xae, 0x9f, 0x67, 0x3e, 0xf0, 0xba, 0x8c, 0x3e, 0x1c, 0x40, 0x8d, 0x3e,
  0x8d, 0xf3, 0x88, 0x3e, 0x00, 0x43, 0x8b, 0x3e, 0xc1, 0x8c, 0x89, 0x3e,
  0x60, 0xe7, 0x85, 0x3e, 0x50, 0xcb, 0x87, 0x3e, 0x08, 0x00, 0x00, 0x00,
  0x9f, 0x7f, 0x86, 0xbe, 0xc5, 0xd9, 0x83, 0xbe, 0xc8, 0x50, 0x8a, 0xbe,
  0x9b, 0x43, 0x8a, 0xbe, 0xcc, 0xe5, 0x87, 0xbe, 0x6a, 0x33, 0x8d, 0xbe,
  0x70, 0xb7, 0x88, 0xbe, 0x61, 0xc3, 0x8c, 0xbe, 0x38, 0x00, 0x00, 0x00,
  0x30, 0x36, 0x5f, 0x4f, 0x72, 0x61, 0x6e, 0x67, 0x65, 0x4d, 0x69, 0x63,
  0x72, 0x6f, 0x44, 0x61, 0x72, 0x6b, 0x5f, 0x57, 0x4e, 0x31, 0x32, 0x5f,
  0x76, 0x32, 0x2f, 0x63, 0x6f, 0x6e, 0x76, 0x31, 0x64, 0x5f, 0x32, 0x35,
  0x2f, 0x63, 0x6f, 0x6e, 0x76, 0x31, 0x64, 0x2f, 0x45, 0x78, 0x70, 0x61,
  0x6e, 0x64, 0x44, 0x69, 0x6d, 0x73, 0x5f, 0x31, 0x00, 0x00, 0x00, 0x00,
  0x04, 0x00, 0x00, 0x00, 0x08, 0x00, 0x00, 0x00, 0x01, 0x00, 0x00, 0x00,
  0x05, 0x00, 0x00, 0x00, 0x08, 0x00, 0x00, 0x00, 0xb6, 0xfc, 0xff, 0xff,
  0x00, 0x00, 0x00, 0x02, 0xcc, 0x00, 0x00, 0x00, 0x12, 0x00, 0x00, 0x00,
  0x8c, 0x00, 0x00, 0x00, 0x10, 0x00, 0x00, 0x00, 0x0c, 0x00, 0x0c, 0x00,
  0x00, 0x00, 0x00, 0x00, 0x04, 0x00, 0x08, 0x00, 0x0c, 0x00, 0x00, 0x00,
  0x50, 0x00, 0x00, 0x00, 0x04, 0x00, 0x00, 0x00, 0x08, 0x00, 0x00, 0x00,
  0x00, 0x00, 0x00, 0x00, 0x00, 0x00, 0x00, 0x00, 0x00, 0x00, 0x00, 0x00,
  0x00, 0x00, 0x00, 0x00, 0x00, 0x00, 0x00, 0x00, 0x00, 0x00, 0x00, 0x00,
  0x00, 0x00, 0x00, 0x00, 0x00, 0x00, 0x00, 0x00, 0x00, 0x00, 0x00, 0x00,
  0x00, 0x00, 0x00, 0x00, 0x00, 0x00, 0x00, 0x00, 0x00, 0x00, 0x00, 0x00,
  0x00, 0x00, 0x00, 0x00, 0x00, 0x00, 0x00, 0x00, 0x00, 0x00, 0x00, 0x00,
  0x00, 0x00, 0x00, 0x00, 0x00, 0x00, 0x00, 0x00, 0x08, 0x00, 0x00, 0x00,
  0x3b, 0xeb, 0x1c, 0x37, 0xe0, 0x1d, 0x17, 0x37, 0x56, 0x82, 0xa0, 0x36,
  0xba, 0x72, 0x0a, 0x37, 0xa2, 0x66, 0x68, 0x36, 0x35, 0xd0, 0x94, 0x36,
  0x8a, 0x4d, 0x09, 0x37, 0xb2, 0x73, 0xfd, 0x36, 0x30, 0x00, 0x00, 0x00,
  0x30, 0x36, 0x5f, 0x4f, 0x72, 0x61, 0x6e, 0x67, 0x65, 0x4d, 0x69, 0x63,
  0x72, 0x6f, 0x44, 0x61, 0x72, 0x6b, 0x5f, 0x57, 0x4e, 0x31, 0x32, 0x5f,
  0x76, 0x32, 0x2f, 0x63, 0x6f, 0x6e, 0x76, 0x31, 0x64, 0x5f, 0x32, 0x34,
  0x2f, 0x63, 0x6f, 0x6e, 0x76, 0x31, 0x64, 0x5f, 0x62, 0x69, 0x61, 0x73,
  0x00, 0x00, 0x00, 0x00, 0x01, 0x00, 0x00, 0x00, 0x08, 0x00, 0x00, 0x00,
  0x00, 0x00, 0x0e, 0x00, 0x1a, 0x00, 0x08, 0x00, 0x07, 0x00, 0x0c, 0x00,
  0x10, 0x00, 0x14, 0x00, 0x0e, 0x00, 0x00, 0x00, 0x00, 0x00, 0x00, 0x09,
  0x2c, 0x01, 0x00, 0x00, 0x13, 0x00, 0x00, 0x00, 0xe4, 0x00, 0x00, 0x00,
  0x18, 0x00, 0x00, 0x00, 0x00, 0x00, 0x12, 0x00, 0x18, 0x00, 0x04, 0x00,
  0x08, 0x00, 0x0c, 0x00, 0x10, 0x00, 0x00, 0x00, 0x00, 0x00, 0x14, 0x00,
  0x12, 0x00, 0x00, 0x00, 0xa0, 0x00, 0x00, 0x00, 0x78, 0x00, 0x00, 0x00,
  0x50, 0x00, 0x00, 0x00, 0x08, 0x00, 0x00, 0x00, 0x03, 0x00, 0x00, 0x00,
  0x08, 0x00, 0x00, 0x00, 0x00, 0x00, 0x00, 0x00, 0x00, 0x00, 0x00, 0x00,
  0x00, 0x00, 0x00, 0x00, 0x00, 0x00, 0x00, 0x00, 0x00, 0x00, 0x00, 0x00,
  0x00, 0x00, 0x00, 0x00, 0x00, 0x00, 0x00, 0x00, 0x00, 0x00, 0x00, 0x00,
  0x00, 0x00, 0x00, 0x00, 0x00, 0x00, 0x00, 0x00, 0x00, 0x00, 0x00, 0x00,
  0x00, 0x00, 0x00, 0x00, 0x00, 0x00, 0x00, 0x00, 0x00, 0x00, 0x00, 0x00,
  0x00, 0x00, 0x00, 0x00, 0x00, 0x00, 0x00, 0x00, 0x08, 0x00, 0x00, 0x00,
  0x99, 0x7b, 0x3c, 0x3b, 0x78, 0x83, 0x35, 0x3b, 0x95, 0xcb, 0xc0, 0x3a,
  0xf7, 0x4b, 0x26, 0x3b, 0xef, 0x92, 0x8b, 0x3a, 0x30, 0xbf, 0xb2, 0x3a,
  0xce, 0xeb, 0x24, 0x3b, 0x77, 0x37, 0x18, 0x3b, 0x08, 0x00, 0x00, 0x00,
  0xca, 0x3f, 0xaf, 0x3e, 0x71, 0x18, 0xb4, 0x3e, 0xfe, 0x49, 0x3f, 0x3e,
  0x5f, 0xff, 0xa4, 0x3e, 0xc9, 0x7b, 0x0a, 0x3e, 0x2a, 0xf4, 0xea, 0x3d,
  0xf6, 0xa1, 0xa3, 0x3e, 0xa6, 0xbe, 0xfd, 0x3d, 0x08, 0x00, 0x00, 0x00,
  0xa2, 0x02, 0xbb, 0xbe, 0x45, 0xbd, 0xab, 0xbe, 0x25, 0x6a, 0x83, 0xbd,
  0x23, 0xaf, 0x13, 0xbe, 0xe5, 0xaf, 0xcd, 0xbd, 0xb2, 0x59, 0x31, 0xbe,
  0xac, 0x5f, 0xc1, 0x3d, 0x08, 0x07, 0x97, 0xbe, 0x38, 0x00, 0x00, 0x00,
  0x30, 0x36, 0x5f, 0x4f, 0x72, 0x61, 0x6e, 0x67, 0x65, 0x4d, 0x69, 0x63,
  0x72, 0x6f, 0x44, 0x61, 0x72, 0x6b, 0x5f, 0x57, 0x4e, 0x31, 0x32, 0x5f,
  0x76, 0x32, 0x2f, 0x63, 0x6f, 0x6e, 0x76, 0x31, 0x64, 0x5f, 0x32, 0x34,
  0x2f, 0x63, 0x6f, 0x6e, 0x76, 0x31, 0x64, 0x2f, 0x45, 0x78, 0x70, 0x61,
  0x6e, 0x64, 0x44, 0x69, 0x6d, 0x73, 0x5f, 0x31, 0x00, 0x00, 0x00, 0x00,
  0x04, 0x00, 0x00, 0x00, 0x01, 0x00, 0x00, 0x00, 0x01, 0x00, 0x00, 0x00,
  0x05, 0x00, 0x00, 0x00, 0x08, 0x00, 0x00, 0x00, 0xea, 0xfe, 0xff, 0xff,
  0x00, 0x00, 0x00, 0x02, 0x5c, 0x00, 0x00, 0x00, 0x1c, 0x00, 0x00, 0x00,
  0x10, 0x00, 0x00, 0x00, 0x08, 0x00, 0x00, 0x00, 0x04, 0x00, 0x04, 0x00,
  0x04, 0x00, 0x00, 0x00, 0x3c, 0x00, 0x00, 0x00, 0x30, 0x36, 0x5f, 0x4f,
  0x72, 0x61, 0x6e, 0x67, 0x65, 0x4d, 0x69, 0x63, 0x72, 0x6f, 0x44, 0x61,
  0x72, 0x6b, 0x5f, 0x57, 0x4e, 0x31, 0x32, 0x5f, 0x76, 0x32, 0x2f, 0x63,
  0x6f, 0x6e, 0x76, 0x31, 0x64, 0x5f, 0x32, 0x34, 0x2f, 0x63, 0x6f, 0x6e,
  0x76, 0x31, 0x64, 0x2f, 0x45, 0x78, 0x70, 0x61, 0x6e, 0x64, 0x44, 0x69,
  0x6d, 0x73, 0x2f, 0x64, 0x69, 0x6d, 0x5f, 0x30, 0x00, 0x00, 0x00, 0x00,
  0x02, 0x00, 0x00, 0x00, 0x01, 0x00, 0x00, 0x00, 0x04, 0x00, 0x00, 0x00,
  0x5a, 0xff, 0xff, 0xff, 0x00, 0x00, 0x00, 0x09, 0x88, 0x00, 0x00, 0x00,
  0x26, 0x00, 0x00, 0x00, 0x44, 0x00, 0x00, 0x00, 0x04, 0x00, 0x00, 0x00,
  0x4c, 0xff, 0xff, 0xff, 0x30, 0x00, 0x00, 0x00, 0x24, 0x00, 0x00, 0x00,
  0x18, 0x00, 0x00, 0x00, 0x04, 0x00, 0x00, 0x00, 0x01, 0x00, 0x00, 0x00,
  0x0a, 0x00, 0x00, 0x00, 0x00, 0x00, 0x00, 0x00, 0x00, 0x00, 0x00, 0x00,
  0x01, 0x00, 0x00, 0x00, 0x21, 0x21, 0x55, 0x3b, 0x01, 0x00, 0x00, 0x00,
  0x00, 0xcc, 0xc2, 0x3e, 0x01, 0x00, 0x00, 0x00, 0x00, 0xcc, 0xe5, 0xbe,
  0x36, 0x00, 0x00, 0x00, 0x30, 0x36, 0x5f, 0x4f, 0x72, 0x61, 0x6e, 0x67,
  0x65, 0x4d, 0x69, 0x63, 0x72, 0x6f, 0x44, 0x61, 0x72, 0x6b, 0x5f, 0x57,
  0x4e, 0x31, 0x32, 0x5f, 0x76, 0x32, 0x2f, 0x63, 0x6f, 0x6e, 0x76, 0x31,
  0x64, 0x5f, 0x32, 0x34, 0x2f, 0x63, 0x6f, 0x6e, 0x76, 0x31, 0x64, 0x2f,
  0x45, 0x78, 0x70, 0x61, 0x6e, 0x64, 0x44, 0x69, 0x6d, 0x73, 0x00, 0x00,
  0x04, 0x00, 0x00, 0x00, 0x01, 0x00, 0x00, 0x00, 0x01, 0x00, 0x00, 0x00,
  0xf9, 0x01, 0x00, 0x00, 0x01, 0x00, 0x00, 0x00, 0x00, 0x00, 0x0e, 0x00,
  0x18, 0x00, 0x08, 0x00, 0x07, 0x00, 0x0c, 0x00, 0x10, 0x00, 0x14, 0x00,
  0x0e, 0x00, 0x00, 0x00, 0x00, 0x00, 0x00, 0x09, 0x84, 0x00, 0x00, 0x00,
  0x20, 0x00, 0x00, 0x00, 0x4c, 0x00, 0x00, 0x00, 0x10, 0x00, 0x00, 0x00,
  0x0c, 0x00, 0x14, 0x00, 0x04, 0x00, 0x08, 0x00, 0x0c, 0x00, 0x10, 0x00,
  0x0c, 0x00, 0x00, 0x00, 0x2c, 0x00, 0x00, 0x00, 0x20, 0x00, 0x00, 0x00,
  0x14, 0x00, 0x00, 0x00, 0x04, 0x00, 0x00, 0x00, 0x01, 0x00, 0x00, 0x00,
  0x80, 0xff, 0xff, 0xff, 0xff, 0xff, 0xff, 0xff, 0x01, 0x00, 0x00, 0x00,
  0x62, 0xb4, 0xbc, 0x3a, 0x01, 0x00, 0x00, 0x00, 0xae, 0xf7, 0xbb, 0x3e,
  0x01, 0x00, 0x00, 0x00, 0x00, 0x00, 0x00, 0x00, 0x29, 0x00, 0x00, 0x00,
  0x30, 0x36, 0x5f, 0x4f, 0x72, 0x61, 0x6e, 0x67, 0x65, 0x4d, 0x69, 0x63,
  0x72, 0x6f, 0x44, 0x61, 0x72, 0x6b, 0x5f, 0x57, 0x4e, 0x31, 0x32, 0x5f,
  0x76, 0x32, 0x2f, 0x63, 0x6f, 0x6e, 0x76, 0x31, 0x64, 0x5f, 0x32, 0x34,
  0x2f, 0x52, 0x65, 0x6c, 0x75, 0x00, 0x00, 0x00, 0x04, 0x00, 0x00, 0x00,
  0x01, 0x00, 0x00, 0x00, 0x01, 0x00, 0x00, 0x00, 0xf5, 0x01, 0x00, 0x00,
  0x08, 0x00, 0x00, 0x00, 0x03, 0x00, 0x00, 0x00, 0x3c, 0x00, 0x00, 0x00,
  0x20, 0x00, 0x00, 0x00, 0x0c, 0x00, 0x00, 0x00, 0x00, 0x00, 0x06, 0x00,
  0x06, 0x00, 0x05, 0x00, 0x06, 0x00, 0x00, 0x00, 0x00, 0x16, 0x0a, 0x00,
  0x0e, 0x00, 0x07, 0x00, 0x00, 0x00, 0x08, 0x00, 0x0a, 0x00, 0x00, 0x00,
  0x00, 0x00, 0x00, 0x04, 0x03, 0x00, 0x00, 0x00, 0x00, 0x00, 0x0a, 0x00,
  0x0c, 0x00, 0x07, 0x00, 0x00, 0x00, 0x08, 0x00, 0x0a, 0x00, 0x00, 0x00,
  0x00, 0x00, 0x00, 0x03, 0x03, 0x00, 0x00, 0x00
};

#endif //ORANGEMICRODARK_WN12_V2_H