unsigned char model_tflite[] = {
  0x24, 0x00, 0x00, 0x00, 0x54, 0x46, 0x4c, 0x33, 0x00, 0x00, 0x00, 0x00,
  0x00, 0x00, 0x00, 0x00, 0x00, 0x00, 0x12, 0x00, 0x1c, 0x00, 0x04, 0x00,
  0x08, 0x00, 0x0c, 0x00, 0x10, 0x00, 0x14, 0x00, 0x00, 0x00, 0x18, 0x00,
  0x12, 0x00, 0x00, 0x00, 0x03, 0x00, 0x00, 0x00, 0xf8, 0x2e, 0x00, 0x00,
  0x60, 0x07, 0x00, 0x00, 0x48, 0x07, 0x00, 0x00, 0x3c, 0x00, 0x00, 0x00,
  0x04, 0x00, 0x00, 0x00, 0x01, 0x00, 0x00, 0x00, 0x0c, 0x00, 0x00, 0x00,
  0x08, 0x00, 0x0c, 0x00, 0x04, 0x00, 0x08, 0x00, 0x08, 0x00, 0x00, 0x00,
  0x08, 0x00, 0x00, 0x00, 0x36, 0x00, 0x00, 0x00, 0x13, 0x00, 0x00, 0x00,
  0x6d, 0x69, 0x6e, 0x5f, 0x72, 0x75, 0x6e, 0x74, 0x69, 0x6d, 0x65, 0x5f,
  0x76, 0x65, 0x72, 0x73, 0x69, 0x6f, 0x6e, 0x00, 0x37, 0x00, 0x00, 0x00,
  0xf4, 0x06, 0x00, 0x00, 0xd8, 0x06, 0x00, 0x00, 0xcc, 0x06, 0x00, 0x00,
  0xb0, 0x06, 0x00, 0x00, 0xa4, 0x06, 0x00, 0x00, 0x78, 0x06, 0x00, 0x00,
  0x34, 0x06, 0x00, 0x00, 0x28, 0x06, 0x00, 0x00, 0xdc, 0x05, 0x00, 0x00,
  0xd0, 0x05, 0x00, 0x00, 0xa4, 0x05, 0x00, 0x00, 0x60, 0x05, 0x00, 0x00,
  0x54, 0x05, 0x00, 0x00, 0x08, 0x05, 0x00, 0x00, 0xfc, 0x04, 0x00, 0x00,
  0xd0, 0x04, 0x00, 0x00, 0x8c, 0x04, 0x00, 0x00, 0x80, 0x04, 0x00, 0x00,
  0x34, 0x04, 0x00, 0x00, 0x10, 0x04, 0x00, 0x00, 0x04, 0x04, 0x00, 0x00,
  0xd8, 0x03, 0x00, 0x00, 0xb4, 0x03, 0x00, 0x00, 0xa8, 0x03, 0x00, 0x00,
  0x7c, 0x03, 0x00, 0x00, 0x70, 0x03, 0x00, 0x00, 0x5c, 0x03, 0x00, 0x00,
  0x48, 0x03, 0x00, 0x00, 0x34, 0x03, 0x00, 0x00, 0x20, 0x03, 0x00, 0x00,
  0x04, 0x03, 0x00, 0x00, 0xc0, 0x02, 0x00, 0x00, 0xb4, 0x02, 0x00, 0x00,
  0x88, 0x02, 0x00, 0x00, 0x64, 0x02, 0x00, 0x00, 0x40, 0x02, 0x00, 0x00,
  0x34, 0x02, 0x00, 0x00, 0xe8, 0x01, 0x00, 0x00, 0xc4, 0x01, 0x00, 0x00,
  0xb8, 0x01, 0x00, 0x00, 0xa4, 0x01, 0x00, 0x00, 0x90, 0x01, 0x00, 0x00,
  0x7c, 0x01, 0x00, 0x00, 0x68, 0x01, 0x00, 0x00, 0x54, 0x01, 0x00, 0x00,
  0x40, 0x01, 0x00, 0x00, 0x2c, 0x01, 0x00, 0x00, 0xe0, 0x00, 0x00, 0x00,
  0xd4, 0x00, 0x00, 0x00, 0xc0, 0x00, 0x00, 0x00, 0x74, 0x00, 0x00, 0x00,
  0x50, 0x00, 0x00, 0x00, 0x2c, 0x00, 0x00, 0x00, 0x20, 0x00, 0x00, 0x00,
  0x04, 0x00, 0x00, 0x00, 0x22, 0xf4, 0xff, 0xff, 0x04, 0x00, 0x00, 0x00,
  0x06, 0x00, 0x00, 0x00, 0x31, 0x2e, 0x31, 0x34, 0x2e, 0x30, 0x00, 0x00,
  0x00, 0x00, 0x00, 0x00, 0x78, 0xde, 0xff, 0xff, 0x00, 0x00, 0x00, 0x00,
  0x42, 0xf4, 0xff, 0xff, 0x04, 0x00, 0x00, 0x00, 0x10, 0x00, 0x00, 0x00,
  0x00, 0x00, 0x00, 0x00, 0x00, 0x00, 0x00, 0x00, 0x00, 0x00, 0x00, 0x00,
  0x00, 0x00, 0x00, 0x00, 0x00, 0x00, 0x00, 0x00, 0x62, 0xf4, 0xff, 0xff,
  0x04, 0x00, 0x00, 0x00, 0x10, 0x00, 0x00, 0x00, 0x00, 0x00, 0x00, 0x00,
  0x00, 0x00, 0x00, 0x00, 0x00, 0x00, 0x00, 0x00, 0x00, 0x00, 0x00, 0x00,
  0x00, 0x00, 0x00, 0x00, 0x82, 0xf4, 0xff, 0xff, 0x04, 0x00, 0x00, 0x00,
  0x30, 0x00, 0x00, 0x00, 0x51, 0x6e, 0x2c, 0x7f, 0x2d, 0x7c, 0xc7, 0xa2,
  0x6b, 0xd4, 0xe0, 0x17, 0x06, 0xdb, 0x0f, 0x7f, 0x58, 0xf5, 0xb0, 0xa8,
  0xeb, 0x0b, 0x4f, 0xd7, 0x84, 0xeb, 0x81, 0xd3, 0xff, 0x00, 0x45, 0x6a,
  0xe7, 0xeb, 0x8e, 0x1e, 0xdc, 0x1b, 0xaa, 0x5e, 0xa2, 0xac, 0x56, 0xc2,
  0x7f, 0x81, 0x35, 0x15, 0x00, 0x00, 0x00, 0x00, 0x00, 0x00, 0x00, 0x00,
  0x00, 0x00, 0x00, 0x00, 0x08, 0xdf, 0xff, 0xff, 0x00, 0x00, 0x00, 0x00,
  0x00, 0x00, 0x00, 0x00, 0x00, 0x00, 0x00, 0x00, 0x18, 0xdf, 0xff, 0xff,
  0x00, 0x00, 0x00, 0x00, 0xe2, 0xf4, 0xff, 0xff, 0x04, 0x00, 0x00, 0x00,
  0x30, 0x00, 0x00, 0x00, 0xc9, 0xff, 0x81, 0x47, 0xef, 0xa7, 0xb3, 0x66,
  0x1a, 0xb1, 0xf5, 0x85, 0x42, 0x9e, 0x7f, 0x7e, 0xa3, 0x14, 0x7b, 0x05,
  0x22, 0xd4, 0x27, 0x13, 0x3a, 0x7f, 0xf3, 0x7d, 0x97, 0x6d, 0xa4, 0xe4,
  0x54, 0x30, 0x8e, 0x01, 0xcd, 0x00, 0x81, 0x90, 0x2f, 0x6f, 0x8f, 0xea,
  0xb5, 0x12, 0xda, 0xba, 0x00, 0x00, 0x00, 0x00, 0x00, 0x00, 0x00, 0x00,
  0x00, 0x00, 0x00, 0x00, 0x68, 0xdf, 0xff, 0xff, 0x00, 0x00, 0x00, 0x00,
  0x00, 0x00, 0x00, 0x00, 0x00, 0x00, 0x00, 0x00, 0x78, 0xdf, 0xff, 0xff,
  0x00, 0x00, 0x00, 0x00, 0x00, 0x00, 0x00, 0x00, 0x00, 0x00, 0x00, 0x00,
  0x88, 0xdf, 0xff, 0xff, 0x00, 0x00, 0x00, 0x00, 0x00, 0x00, 0x00, 0x00,
  0x00, 0x00, 0x00, 0x00, 0x98, 0xdf, 0xff, 0xff, 0x00, 0x00, 0x00, 0x00,
  0x00, 0x00, 0x00, 0x00, 0x00, 0x00, 0x00, 0x00, 0xa8, 0xdf, 0xff, 0xff,
  0x00, 0x00, 0x00, 0x00, 0x00, 0x00, 0x00, 0x00, 0x00, 0x00, 0x00, 0x00,
  0xb8, 0xdf, 0xff, 0xff, 0x00, 0x00, 0x00, 0x00, 0x00, 0x00, 0x00, 0x00,
  0x00, 0x00, 0x00, 0x00, 0xc8, 0xdf, 0xff, 0xff, 0x00, 0x00, 0x00, 0x00,
  0x00, 0x00, 0x00, 0x00, 0x00, 0x00, 0x00, 0x00, 0xd8, 0xdf, 0xff, 0xff,
  0x00, 0x00, 0x00, 0x00, 0xa2, 0xf5, 0xff, 0xff, 0x04, 0x00, 0x00, 0x00,
  0x10, 0x00, 0x00, 0x00, 0x01, 0x00, 0x00, 0x00, 0x01, 0x00, 0x00, 0x00,
  0xfd, 0x00, 0x00, 0x00, 0x01, 0x00, 0x00, 0x00, 0x00, 0x00, 0x00, 0x00,
  0xc2, 0xf5, 0xff, 0xff, 0x04, 0x00, 0x00, 0x00, 0x30, 0x00, 0x00, 0x00,
  0xb4, 0x84, 0xf4, 0xfc, 0x5a, 0x22, 0x5d, 0x81, 0x09, 0x4b, 0x59, 0xfd,
  0x2b, 0x69, 0x82, 0x05, 0x1d, 0xdc, 0x44, 0x81, 0x4e, 0x52, 0x01, 0xa3,
  0x4c, 0x51, 0xaa, 0x39, 0x2d, 0x50, 0x5e, 0xd7, 0x69, 0x7f, 0xb1, 0xbd,
  0x61, 0xd0, 0x1c, 0x81, 0xb3, 0x6c, 0x8e, 0x90, 0xaa, 0x9c, 0x4f, 0xd9,
  0x00, 0x00, 0x00, 0x00, 0x00, 0x00, 0x00, 0x00, 0x00, 0x00, 0x00, 0x00,
  0x48, 0xe0, 0xff, 0xff, 0x00, 0x00, 0x00, 0x00, 0x12, 0xf6, 0xff, 0xff,
  0x04, 0x00, 0x00, 0x00, 0x10, 0x00, 0x00, 0x00, 0x00, 0x00, 0x00, 0x00,
  0x00, 0x00, 0x00, 0x00, 0x00, 0x00, 0x00, 0x00, 0x00, 0x00, 0x00, 0x00,
  0x00, 0x00, 0x00, 0x00, 0x32, 0xf6, 0xff, 0xff, 0x04, 0x00, 0x00, 0x00,
  0x10, 0x00, 0x00, 0x00, 0x00, 0x00, 0x00, 0x00, 0x00, 0x00, 0x00, 0x00,
  0x00, 0x00, 0x00, 0x00, 0x00, 0x00, 0x00, 0x00, 0x00, 0x00, 0x00, 0x00,
  0x52, 0xf6, 0xff, 0xff, 0x04, 0x00, 0x00, 0x00, 0x10, 0x00, 0x00, 0x00,
  0x00, 0x00, 0x00, 0x00, 0x00, 0x00, 0x00, 0x00, 0x00, 0x00, 0x00, 0x00,
  0x00, 0x00, 0x00, 0x00, 0x00, 0x00, 0x00, 0x00, 0x00, 0x00, 0x00, 0x00,
  0x00, 0x00, 0x00, 0x00, 0xb8, 0xe0, 0xff, 0xff, 0x00, 0x00, 0x00, 0x00,
  0x82, 0xf6, 0xff, 0xff, 0x04, 0x00, 0x00, 0x00, 0x30, 0x00, 0x00, 0x00,
  0x0e, 0x33, 0x81, 0x0f, 0x28, 0x3d, 0x29, 0xf9, 0xd4, 0xce, 0x3e, 0xf1,
  0x45, 0x81, 0x0f, 0xc3, 0x4b, 0xb0, 0x5d, 0x3c, 0x4c, 0x95, 0x52, 0xc6,
  0x1e, 0x1e, 0x4d, 0x7f, 0x9e, 0xc0, 0x94, 0xbc, 0xa2, 0x45, 0x4b, 0x05,
  0x5e, 0x8b, 0xba, 0x6d, 0x0c, 0xa3, 0x9f, 0x72, 0x04, 0x24, 0x7f, 0xfd,
  0x00, 0x00, 0x00, 0x00, 0xc2, 0xf6, 0xff, 0xff, 0x04, 0x00, 0x00, 0x00,
  0x0c, 0x00, 0x00, 0x00, 0xec, 0x2c, 0x4c, 0xe3, 0xfd, 0x3f, 0x41, 0x81,
  0x6a, 0xc3, 0xb1, 0xac, 0x18, 0xe1, 0xff, 0xff, 0x00, 0x00, 0x00, 0x00,
  0x00, 0x00, 0x00, 0x00, 0x00, 0x00, 0x00, 0x00, 0x28, 0xe1, 0xff, 0xff,
  0x00, 0x00, 0x00, 0x00, 0x00, 0x00, 0x00, 0x00, 0x00, 0x00, 0x00, 0x00,
  0x38, 0xe1, 0xff, 0xff, 0x00, 0x00, 0x00, 0x00, 0x00, 0x00, 0x00, 0x00,
  0x00, 0x00, 0x00, 0x00, 0x48, 0xe1, 0xff, 0xff, 0x00, 0x00, 0x00, 0x00,
  0x00, 0x00, 0x00, 0x00, 0x00, 0x00, 0x00, 0x00, 0x58, 0xe1, 0xff, 0xff,
  0x00, 0x00, 0x00, 0x00, 0x22, 0xf7, 0xff, 0xff, 0x04, 0x00, 0x00, 0x00,
  0x10, 0x00, 0x00, 0x00, 0x00, 0x00, 0x00, 0x00, 0x00, 0x00, 0x00, 0x00,
  0x00, 0x00, 0x00, 0x00, 0x00, 0x00, 0x00, 0x00, 0x00, 0x00, 0x00, 0x00,
  0x00, 0x00, 0x00, 0x00, 0x00, 0x00, 0x00, 0x00, 0x88, 0xe1, 0xff, 0xff,
  0x00, 0x00, 0x00, 0x00, 0x52, 0xf7, 0xff, 0xff, 0x04, 0x00, 0x00, 0x00,
  0x0c, 0x00, 0x00, 0x00, 0x19, 0x81, 0x81, 0x81, 0xaa, 0x3d, 0x31, 0x9f,
  0x81, 0x02, 0x17, 0x10, 0x00, 0x00, 0x00, 0x00, 0x00, 0x00, 0x00, 0x00,
  0x72, 0xf7, 0xff, 0xff, 0x04, 0x00, 0x00, 0x00, 0x10, 0x00, 0x00, 0x00,
  0x00, 0x00, 0x00, 0x00, 0x00, 0x00, 0x00, 0x00, 0x00, 0x00, 0x00, 0x00,
  0x00, 0x00, 0x00, 0x00, 0x00, 0x00, 0x00, 0x00, 0x00, 0x00, 0x00, 0x00,
  0x00, 0x00, 0x00, 0x00, 0xd8, 0xe1, 0xff, 0xff, 0x00, 0x00, 0x00, 0x00,
  0xa2, 0xf7, 0xff, 0xff, 0x04, 0x00, 0x00, 0x00, 0x10, 0x00, 0x00, 0x00,
  0x00, 0x00, 0x00, 0x00, 0x00, 0x00, 0x00, 0x00, 0x00, 0x00, 0x00, 0x00,
  0x00, 0x00, 0x00, 0x00, 0x00, 0x00, 0x00, 0x00, 0xc2, 0xf7, 0xff, 0xff,
  0x04, 0x00, 0x00, 0x00, 0x30, 0x00, 0x00, 0x00, 0x7f, 0x6b, 0x28, 0x64,
  0x32, 0xf6, 0x6a, 0xe2, 0x2f, 0xf4, 0x30, 0xf9, 0x7c, 0x3c, 0x84, 0xaf,
  0x67, 0xe8, 0x81, 0x7c, 0xc3, 0xcc, 0x5b, 0xd5, 0x98, 0x81, 0x31, 0xe9,
  0x97, 0x26, 0x8e, 0xbb, 0x9f, 0xfc, 0xfa, 0xf9, 0x8c, 0x16, 0x09, 0x58,
  0x08, 0xab, 0x00, 0x18, 0xb0, 0x7f, 0x7c, 0x50, 0x00, 0x00, 0x00, 0x00,
  0x00, 0x00, 0x00, 0x00, 0x00, 0x00, 0x00, 0x00, 0x48, 0xe2, 0xff, 0xff,
  0x00, 0x00, 0x00, 0x00, 0x12, 0xf8, 0xff, 0xff, 0x04, 0x00, 0x00, 0x00,
  0x30, 0x00, 0x00, 0x00, 0xd6, 0x84, 0x93, 0x4e, 0xcc, 0xfd, 0x70, 0x0a,
  0x8e, 0x20, 0x81, 0x3b, 0x81, 0x89, 0x6c, 0x6c, 0x76, 0xaf, 0xa9, 0x6a,
  0x2b, 0x9b, 0xd7, 0x93, 0x35, 0xd6, 0x60, 0xa7, 0x81, 0xea, 0x5c, 0xee,
  0x53, 0xda, 0x5d, 0x50, 0x1e, 0xc6, 0x39, 0x65, 0x04, 0xbf, 0x6a, 0x8b,
  0x3b, 0x81, 0x41, 0x0c, 0x00, 0x00, 0x00, 0x00, 0x52, 0xf8, 0xff, 0xff,
  0x04, 0x00, 0x00, 0x00, 0x10, 0x00, 0x00, 0x00, 0x00, 0x00, 0x00, 0x00,
  0x00, 0x00, 0x00, 0x00, 0x00, 0x00, 0x00, 0x00, 0x00, 0x00, 0x00, 0x00,
  0x00, 0x00, 0x00, 0x00, 0x00, 0x00, 0x00, 0x00, 0x00, 0x00, 0x00, 0x00,
  0xb8, 0xe2, 0xff, 0xff, 0x00, 0x00, 0x00, 0x00, 0x82, 0xf8, 0xff, 0xff,
  0x04, 0x00, 0x00, 0x00, 0x30, 0x00, 0x00, 0x00, 0xb5, 0x4f, 0xca, 0x58,
  0x81, 0xfa, 0x62, 0x84, 0xa6, 0xad, 0x6d, 0xc2, 0xbc, 0x1e, 0x04, 0x81,
  0x10, 0xe2, 0x36, 0x39, 0x31, 0xa4, 0x0e, 0xca, 0x00, 0x8a, 0x95, 0xb7,
  0x81, 0x4e, 0xe8, 0xa8, 0xb3, 0xaa, 0xe6, 0xfa, 0x2d, 0x7f, 0x6c, 0xcc,
  0x2c, 0x73, 0xd8, 0x60, 0x46, 0x98, 0xaa, 0x5a, 0x00, 0x00, 0x00, 0x00,
  0x00, 0x00, 0x00, 0x00, 0x00, 0x00, 0x00, 0x00, 0x08, 0xe3, 0xff, 0xff,
  0x00, 0x00, 0x00, 0x00, 0xd2, 0xf8, 0xff, 0xff, 0x04, 0x00, 0x00, 0x00,
  0x30, 0x00, 0x00, 0x00, 0xbf, 0x00, 0x55, 0x63, 0x31, 0xc7, 0x2e, 0x7f,
  0x54, 0x39, 0x13, 0xb6, 0xba, 0x45, 0x02, 0xf9, 0x87, 0x57, 0x7f, 0xc3,
  0x16, 0x9a, 0x21, 0x8b, 0x31, 0xf2, 0xbb, 0x74, 0x1b, 0x6c, 0x7f, 0x5e,
  0x8b, 0xcb, 0xf9, 0xc8, 0x7f, 0x24, 0x2d, 0xa3, 0x2f, 0xbb, 0x78, 0xe1,
  0x84, 0x16, 0x14, 0xed, 0x00, 0x00, 0x00, 0x00, 0x12, 0xf9, 0xff, 0xff,
  0x04, 0x00, 0x00, 0x00, 0x10, 0x00, 0x00, 0x00, 0x00, 0x00, 0x00, 0x00,
  0x00, 0x00, 0x00, 0x00, 0x00, 0x00, 0x00, 0x00, 0x00, 0x00, 0x00, 0x00,
  0x00, 0x00, 0x00, 0x00, 0x00, 0x00, 0x00, 0x00, 0x00, 0x00, 0x00, 0x00,
  0x78, 0xe3, 0xff, 0xff, 0x00, 0x00, 0x00, 0x00, 0x42, 0xf9, 0xff, 0xff,
  0x04, 0x00, 0x00, 0x00, 0x30, 0x00, 0x00, 0x00, 0xde, 0x6d, 0x1a, 0x66,
  0x29, 0xc8, 0xd3, 0xca, 0x1d, 0x63, 0x81, 0x67, 0x7f, 0x88, 0xbe, 0x98,
  0x71, 0xf5, 0xee, 0xd7, 0x5b, 0xe9, 0x60, 0xd2, 0xcc, 0xe6, 0xeb, 0x7f,
  0xeb, 0xdd, 0xfb, 0x0a, 0xee, 0x78, 0x64, 0x82, 0x43, 0xa5, 0x01, 0x50,
  0xca, 0x53, 0x81, 0x7e, 0xb8, 0xc6, 0x5f, 0xc1, 0x00, 0x00, 0x00, 0x00,
  0x00, 0x00, 0x00, 0x00, 0x00, 0x00, 0x00, 0x00, 0xc8, 0xe3, 0xff, 0xff,
  0x00, 0x00, 0x00, 0x00, 0x92, 0xf9, 0xff, 0xff, 0x04, 0x00, 0x00, 0x00,
  0x30, 0x00, 0x00, 0x00, 0xb2, 0x72, 0x7f, 0x8e, 0xba, 0x91, 0x6e, 0x90,
  0x00, 0x9e, 0x98, 0xd0, 0x6f, 0xc4, 0xab, 0x63, 0x06, 0x48, 0x6d, 0x13,
  0x55, 0x81, 0x6a, 0x3d, 0x6f, 0x9a, 0x81, 0xcf, 0x65, 0xb3, 0x9e, 0x34,
  0xee, 0x65, 0xb8, 0xa1, 0xae, 0x81, 0x84, 0x6d, 0xd0, 0x8c, 0xba, 0x9d,
  0x86, 0x9b, 0x52, 0x04, 0x00, 0x00, 0x00, 0x00, 0xd2, 0xf9, 0xff, 0xff,
  0x04, 0x00, 0x00, 0x00, 0x10, 0x00, 0x00, 0x00, 0x00, 0x00, 0x00, 0x00,
  0x00, 0x00, 0x00, 0x00, 0x00, 0x00, 0x00, 0x00, 0x00, 0x00, 0x00, 0x00,
  0x00, 0x00, 0x00, 0x00, 0x00, 0x00, 0x00, 0x00, 0x00, 0x00, 0x00, 0x00,
  0x38, 0xe4, 0xff, 0xff, 0x00, 0x00, 0x00, 0x00, 0x02, 0xfa, 0xff, 0xff,
  0x04, 0x00, 0x00, 0x00, 0x04, 0x00, 0x00, 0x00, 0x00, 0x00, 0x00, 0x00,
  0x00, 0x00, 0x00, 0x00, 0x00, 0x00, 0x00, 0x00, 0x58, 0xe4, 0xff, 0xff,
  0x00, 0x00, 0x00, 0x00, 0x22, 0xfa, 0xff, 0xff, 0x04, 0x00, 0x00, 0x00,
  0x0c, 0x00, 0x00, 0x00, 0x01, 0x00, 0x00, 0x00, 0xe5, 0x00, 0x00, 0x00,
  0x01, 0x00, 0x00, 0x00, 0x78, 0xe4, 0xff, 0xff, 0x00, 0x00, 0x00, 0x00,
  0x00, 0x00, 0x00, 0x00, 0x00, 0x00, 0x00, 0x00, 0x0f, 0x00, 0x00, 0x00,
  0x54, 0x4f, 0x43, 0x4f, 0x20, 0x43, 0x6f, 0x6e, 0x76, 0x65, 0x72, 0x74,
  0x65, 0x64, 0x2e, 0x00, 0x01, 0x00, 0x00, 0x00, 0x04, 0x00, 0x00, 0x00,
  0x94, 0xd9, 0xff, 0xff, 0xdc, 0x05, 0x00, 0x00, 0xd0, 0x05, 0x00, 0x00,
  0xc4, 0x05, 0x00, 0x00, 0x04, 0x00, 0x00, 0x00, 0x1a, 0x00, 0x00, 0x00,
  0x68, 0x05, 0x00, 0x00, 0x04, 0x05, 0x00, 0x00, 0xd0, 0x04, 0x00, 0x00,
  0x78, 0x04, 0x00, 0x00, 0x44, 0x04, 0x00, 0x00, 0x04, 0x04, 0x00, 0x00,
  0xd0, 0x03, 0x00, 0x00, 0x90, 0x03, 0x00, 0x00, 0x6c, 0x03, 0x00, 0x00,
  0x2c, 0x03, 0x00, 0x00, 0x08, 0x03, 0x00, 0x00, 0xc8, 0x02, 0x00, 0x00,
  0xa4, 0x02, 0x00, 0x00, 0x64, 0x02, 0x00, 0x00, 0x40, 0x02, 0x00, 0x00,
  0x00, 0x02, 0x00, 0x00, 0xdc, 0x01, 0x00, 0x00, 0x9c, 0x01, 0x00, 0x00,
  0x78, 0x01, 0x00, 0x00, 0x38, 0x01, 0x00, 0x00, 0x14, 0x01, 0x00, 0x00,
  0xd4, 0x00, 0x00, 0x00, 0xb0, 0x00, 0x00, 0x00, 0x70, 0x00, 0x00, 0x00,
  0x4c, 0x00, 0x00, 0x00, 0x04, 0x00, 0x00, 0x00, 0x6e, 0xfb, 0xff, 0xff,
  0x00, 0x00, 0x00, 0x11, 0x02, 0x00, 0x00, 0x00, 0x2c, 0x00, 0x00, 0x00,
  0x20, 0x00, 0x00, 0x00, 0x04, 0x00, 0x00, 0x00, 0xfe, 0xfa, 0xff, 0xff,
  0x04, 0x00, 0x00, 0x00, 0x03, 0x00, 0x00, 0x00, 0x01, 0x00, 0x00, 0x00,
  0xe5, 0x00, 0x00, 0x00, 0x01, 0x00, 0x00, 0x00, 0x01, 0x00, 0x00, 0x00,
  0x32, 0x00, 0x00, 0x00, 0x02, 0x00, 0x00, 0x00, 0x0c, 0x00, 0x00, 0x00,
  0x33, 0x00, 0x00, 0x00, 0xde, 0xfb, 0xff, 0xff, 0x03, 0x00, 0x00, 0x00,
  0x10, 0x00, 0x00, 0x00, 0x04, 0x00, 0x00, 0x00, 0x01, 0x00, 0x00, 0x00,
  0x0c, 0x00, 0x00, 0x00, 0x01, 0x00, 0x00, 0x00, 0x0d, 0x00, 0x00, 0x00,
  0xc2, 0xfc, 0xff, 0xff, 0x00, 0x00, 0x00, 0x01, 0x24, 0x00, 0x00, 0x00,
  0x18, 0x00, 0x00, 0x00, 0x04, 0x00, 0x00, 0x00, 0x46, 0xfc, 0xff, 0xff,
  0x00, 0x00, 0x00, 0x01, 0x01, 0x00, 0x00, 0x00, 0x01, 0x00, 0x00, 0x00,
  0x01, 0x00, 0x00, 0x00, 0x0d, 0x00, 0x00, 0x00, 0x03, 0x00, 0x00, 0x00,
  0x08, 0x00, 0x00, 0x00, 0x0e, 0x00, 0x00, 0x00, 0x0f, 0x00, 0x00, 0x00,
  0x3a, 0xfc, 0xff, 0xff, 0x03, 0x00, 0x00, 0x00, 0x10, 0x00, 0x00, 0x00,
  0x04, 0x00, 0x00, 0x00, 0x01, 0x00, 0x00, 0x00, 0x08, 0x00, 0x00, 0x00,
  0x01, 0x00, 0x00, 0x00, 0x09, 0x00, 0x00, 0x00, 0x1e, 0xfd, 0xff, 0xff,
  0x00, 0x00, 0x00, 0x01, 0x24, 0x00, 0x00, 0x00, 0x18, 0x00, 0x00, 0x00,
  0x04, 0x00, 0x00, 0x00, 0xa2, 0xfc, 0xff, 0xff, 0x00, 0x00, 0x00, 0x01,
  0x01, 0x00, 0x00, 0x00, 0x01, 0x00, 0x00, 0x00, 0x01, 0x00, 0x00, 0x00,
  0x09, 0x00, 0x00, 0x00, 0x03, 0x00, 0x00, 0x00, 0x04, 0x00, 0x00, 0x00,
  0x0a, 0x00, 0x00, 0x00, 0x0b, 0x00, 0x00, 0x00, 0x96, 0xfc, 0xff, 0xff,
  0x03, 0x00, 0x00, 0x00, 0x10, 0x00, 0x00, 0x00, 0x04, 0x00, 0x00, 0x00,
  0x01, 0x00, 0x00, 0x00, 0x04, 0x00, 0x00, 0x00, 0x01, 0x00, 0x00, 0x00,
  0x05, 0x00, 0x00, 0x00, 0x7a, 0xfd, 0xff, 0xff, 0x00, 0x00, 0x00, 0x01,
  0x24, 0x00, 0x00, 0x00, 0x18, 0x00, 0x00, 0x00, 0x04, 0x00, 0x00, 0x00,
  0xfe, 0xfc, 0xff, 0xff, 0x00, 0x00, 0x00, 0x01, 0x01, 0x00, 0x00, 0x00,
  0x01, 0x00, 0x00, 0x00, 0x01, 0x00, 0x00, 0x00, 0x05, 0x00, 0x00, 0x00,
  0x03, 0x00, 0x00, 0x00, 0x00, 0x00, 0x00, 0x00, 0x06, 0x00, 0x00, 0x00,
  0x07, 0x00, 0x00, 0x00, 0xf2, 0xfc, 0xff, 0xff, 0x03, 0x00, 0x00, 0x00,
  0x10, 0x00, 0x00, 0x00, 0x04, 0x00, 0x00, 0x00, 0x01, 0x00, 0x00, 0x00,
  0x00, 0x00, 0x00, 0x00, 0x01, 0x00, 0x00, 0x00, 0x01, 0x00, 0x00, 0x00,
  0xd6, 0xfd, 0xff, 0xff, 0x00, 0x00, 0x00, 0x01, 0x24, 0x00, 0x00, 0x00,
  0x18, 0x00, 0x00, 0x00, 0x04, 0x00, 0x00, 0x00, 0x5a, 0xfd, 0xff, 0xff,
  0x00, 0x00, 0x00, 0x01, 0x01, 0x00, 0x00, 0x00, 0x01, 0x00, 0x00, 0x00,
  0x01, 0x00, 0x00, 0x00, 0x01, 0x00, 0x00, 0x00, 0x03, 0x00, 0x00, 0x00,
  0x2e, 0x00, 0x00, 0x00, 0x02, 0x00, 0x00, 0x00, 0x03, 0x00, 0x00, 0x00,
  0x4e, 0xfd, 0xff, 0xff, 0x03, 0x00, 0x00, 0x00, 0x10, 0x00, 0x00, 0x00,
  0x04, 0x00, 0x00, 0x00, 0x01, 0x00, 0x00, 0x00, 0x2e, 0x00, 0x00, 0x00,
  0x01, 0x00, 0x00, 0x00, 0x2f, 0x00, 0x00, 0x00, 0x32, 0xfe, 0xff, 0xff,
  0x00, 0x00, 0x00, 0x01, 0x24, 0x00, 0x00, 0x00, 0x18, 0x00, 0x00, 0x00,
  0x04, 0x00, 0x00, 0x00, 0xb6, 0xfd, 0xff, 0xff, 0x00, 0x00, 0x00, 0x01,
  0x01, 0x00, 0x00, 0x00, 0x01, 0x00, 0x00, 0x00, 0x01, 0x00, 0x00, 0x00,
  0x2f, 0x00, 0x00, 0x00, 0x03, 0x00, 0x00, 0x00, 0x2a, 0x00, 0x00, 0x00,
  0x30, 0x00, 0x00, 0x00, 0x31, 0x00, 0x00, 0x00, 0xaa, 0xfd, 0xff, 0xff,
  0x03, 0x00, 0x00, 0x00, 0x10, 0x00, 0x00, 0x00, 0x04, 0x00, 0x00, 0x00,
  0x01, 0x00, 0x00, 0x00, 0x2a, 0x00, 0x00, 0x00, 0x01, 0x00, 0x00, 0x00,
  0x2b, 0x00, 0x00, 0x00, 0x8e, 0xfe, 0xff, 0xff, 0x00, 0x00, 0x00, 0x01,
  0x24, 0x00, 0x00, 0x00, 0x18, 0x00, 0x00, 0x00, 0x04, 0x00, 0x00, 0x00,
  0x12, 0xfe, 0xff, 0xff, 0x00, 0x00, 0x00, 0x01, 0x01, 0x00, 0x00, 0x00,
  0x01, 0x00, 0x00, 0x00, 0x01, 0x00, 0x00, 0x00, 0x2b, 0x00, 0x00, 0x00,
  0x03, 0x00, 0x00, 0x00, 0x26, 0x00, 0x00, 0x00, 0x2c, 0x00, 0x00, 0x00,
  0x2d, 0x00, 0x00, 0x00, 0x06, 0xfe, 0xff, 0xff, 0x03, 0x00, 0x00, 0x00,
  0x10, 0x00, 0x00, 0x00, 0x04, 0x00, 0x00, 0x00, 0x01, 0x00, 0x00, 0x00,
  0x26, 0x00, 0x00, 0x00, 0x01, 0x00, 0x00, 0x00, 0x27, 0x00, 0x00, 0x00,
  0xea, 0xfe, 0xff, 0xff, 0x00, 0x00, 0x00, 0x01, 0x24, 0x00, 0x00, 0x00,
  0x18, 0x00, 0x00, 0x00, 0x04, 0x00, 0x00, 0x00, 0x6e, 0xfe, 0xff, 0xff,
  0x00, 0x00, 0x00, 0x01, 0x01, 0x00, 0x00, 0x00, 0x01, 0x00, 0x00, 0x00,
  0x01, 0x00, 0x00, 0x00, 0x27, 0x00, 0x00, 0x00, 0x03, 0x00, 0x00, 0x00,
  0x22, 0x00, 0x00, 0x00, 0x28, 0x00, 0x00, 0x00, 0x29, 0x00, 0x00, 0x00,
  0x62, 0xfe, 0xff, 0xff, 0x03, 0x00, 0x00, 0x00, 0x10, 0x00, 0x00, 0x00,
  0x04, 0x00, 0x00, 0x00, 0x01, 0x00, 0x00, 0x00, 0x22, 0x00, 0x00, 0x00,
  0x01, 0x00, 0x00, 0x00, 0x23, 0x00, 0x00, 0x00, 0x46, 0xff, 0xff, 0xff,
  0x00, 0x00, 0x00, 0x01, 0x24, 0x00, 0x00, 0x00, 0x18, 0x00, 0x00, 0x00,
  0x04, 0x00, 0x00, 0x00, 0xca, 0xfe, 0xff, 0xff, 0x00, 0x00, 0x00, 0x01,
  0x01, 0x00, 0x00, 0x00, 0x01, 0x00, 0x00, 0x00, 0x01, 0x00, 0x00, 0x00,
  0x23, 0x00, 0x00, 0x00, 0x03, 0x00, 0x00, 0x00, 0x1e, 0x00, 0x00, 0x00,
  0x24, 0x00, 0x00, 0x00, 0x25, 0x00, 0x00, 0x00, 0xbe, 0xfe, 0xff, 0xff,
  0x03, 0x00, 0x00, 0x00, 0x10, 0x00, 0x00, 0x00, 0x04, 0x00, 0x00, 0x00,
  0x01, 0x00, 0x00, 0x00, 0x1e, 0x00, 0x00, 0x00, 0x01, 0x00, 0x00, 0x00,
  0x1f, 0x00, 0x00, 0x00, 0xa2, 0xff, 0xff, 0xff, 0x00, 0x00, 0x00, 0x01,
  0x24, 0x00, 0x00, 0x00, 0x18, 0x00, 0x00, 0x00, 0x04, 0x00, 0x00, 0x00,
  0x26, 0xff, 0xff, 0xff, 0x00, 0x00, 0x00, 0x01, 0x01, 0x00, 0x00, 0x00,
  0x01, 0x00, 0x00, 0x00, 0x01, 0x00, 0x00, 0x00, 0x1f, 0x00, 0x00, 0x00,
  0x03, 0x00, 0x00, 0x00, 0x1a, 0x00, 0x00, 0x00, 0x20, 0x00, 0x00, 0x00,
  0x21, 0x00, 0x00, 0x00, 0x1a, 0xff, 0xff, 0xff, 0x03, 0x00, 0x00, 0x00,
  0x10, 0x00, 0x00, 0x00, 0x04, 0x00, 0x00, 0x00, 0x01, 0x00, 0x00, 0x00,
  0x1a, 0x00, 0x00, 0x00, 0x01, 0x00, 0x00, 0x00, 0x1b, 0x00, 0x00, 0x00,
  0x00, 0x00, 0x0e, 0x00, 0x14, 0x00, 0x00, 0x00, 0x08, 0x00, 0x0c, 0x00,
  0x07, 0x00, 0x10, 0x00, 0x0e, 0x00, 0x00, 0x00, 0x00, 0x00, 0x00, 0x01,
  0x24, 0x00, 0x00, 0x00, 0x18, 0x00, 0x00, 0x00, 0x04, 0x00, 0x00, 0x00,
  0x92, 0xff, 0xff, 0xff, 0x00, 0x00, 0x00, 0x01, 0x01, 0x00, 0x00, 0x00,
  0x01, 0x00, 0x00, 0x00, 0x01, 0x00, 0x00, 0x00, 0x1b, 0x00, 0x00, 0x00,
  0x03, 0x00, 0x00, 0x00, 0x16, 0x00, 0x00, 0x00, 0x1c, 0x00, 0x00, 0x00,
  0x1d, 0x00, 0x00, 0x00, 0x86, 0xff, 0xff, 0xff, 0x03, 0x00, 0x00, 0x00,
  0x10, 0x00, 0x00, 0x00, 0x04, 0x00, 0x00, 0x00, 0x01, 0x00, 0x00, 0x00,
  0x16, 0x00, 0x00, 0x00, 0x01, 0x00, 0x00, 0x00, 0x17, 0x00, 0x00, 0x00,
  0x00, 0x00, 0x0e, 0x00, 0x16, 0x00, 0x00, 0x00, 0x08, 0x00, 0x0c, 0x00,
  0x07, 0x00, 0x10, 0x00, 0x0e, 0x00, 0x00, 0x00, 0x00, 0x00, 0x00, 0x01,
  0x30, 0x00, 0x00, 0x00, 0x24, 0x00, 0x00, 0x00, 0x10, 0x00, 0x00, 0x00,
  0x00, 0x00, 0x0a, 0x00, 0x10, 0x00, 0x07, 0x00, 0x08, 0x00, 0x0c, 0x00,
  0x0a, 0x00, 0x00, 0x00, 0x00, 0x00, 0x00, 0x01, 0x01, 0x00, 0x00, 0x00,
  0x01, 0x00, 0x00, 0x00, 0x01, 0x00, 0x00, 0x00, 0x17, 0x00, 0x00, 0x00,
  0x03, 0x00, 0x00, 0x00, 0x10, 0x00, 0x00, 0x00, 0x18, 0x00, 0x00, 0x00,
  0x19, 0x00, 0x00, 0x00, 0x00, 0x00, 0x0a, 0x00, 0x10, 0x00, 0x04, 0x00,
  0x08, 0x00, 0x0c, 0x00, 0x0a, 0x00, 0x00, 0x00, 0x03, 0x00, 0x00, 0x00,
  0x10, 0x00, 0x00, 0x00, 0x04, 0x00, 0x00, 0x00, 0x01, 0x00, 0x00, 0x00,
  0x10, 0x00, 0x00, 0x00, 0x01, 0x00, 0x00, 0x00, 0x11, 0x00, 0x00, 0x00,
  0x00, 0x00, 0x0e, 0x00, 0x18, 0x00, 0x08, 0x00, 0x0c, 0x00, 0x10, 0x00,
  0x07, 0x00, 0x14, 0x00, 0x0e, 0x00, 0x00, 0x00, 0x00, 0x00, 0x00, 0x02,
  0x01, 0x00, 0x00, 0x00, 0x34, 0x00, 0x00, 0x00, 0x28, 0x00, 0x00, 0x00,
  0x10, 0x00, 0x00, 0x00, 0x0c, 0x00, 0x14, 0x00, 0x07, 0x00, 0x08, 0x00,
  0x0c, 0x00, 0x10, 0x00, 0x0c, 0x00, 0x00, 0x00, 0x00, 0x00, 0x00, 0x01,
  0x01, 0x00, 0x00, 0x00, 0x01, 0x00, 0x00, 0x00, 0x04, 0x00, 0x00, 0x00,
  0x01, 0x00, 0x00, 0x00, 0x11, 0x00, 0x00, 0x00, 0x03, 0x00, 0x00, 0x00,
  0x12, 0x00, 0x00, 0x00, 0x14, 0x00, 0x00, 0x00, 0x15, 0x00, 0x00, 0x00,
  0x00, 0x00, 0x0e, 0x00, 0x1a, 0x00, 0x08, 0x00, 0x0c, 0x00, 0x10, 0x00,
  0x07, 0x00, 0x14, 0x00, 0x0e, 0x00, 0x00, 0x00, 0x00, 0x00, 0x00, 0x11,
  0x02, 0x00, 0x00, 0x00, 0x38, 0x00, 0x00, 0x00, 0x2c, 0x00, 0x00, 0x00,
  0x0c, 0x00, 0x00, 0x00, 0x00, 0x00, 0x06, 0x00, 0x08, 0x00, 0x04, 0x00,
  0x06, 0x00, 0x00, 0x00, 0x04, 0x00, 0x00, 0x00, 0x04, 0x00, 0x00, 0x00,
  0x01, 0x00, 0x00, 0x00, 0x01, 0x00, 0x00, 0x00, 0xfd, 0x00, 0x00, 0x00,
  0x01, 0x00, 0x00, 0x00, 0x01, 0x00, 0x00, 0x00, 0x12, 0x00, 0x00, 0x00,
  0x02, 0x00, 0x00, 0x00, 0x34, 0x00, 0x00, 0x00, 0x13, 0x00, 0x00, 0x00,
  0x01, 0x00, 0x00, 0x00, 0x32, 0x00, 0x00, 0x00, 0x01, 0x00, 0x00, 0x00,
  0x34, 0x00, 0x00, 0x00, 0x35, 0x00, 0x00, 0x00, 0x20, 0x21, 0x00, 0x00,
  0x6c, 0x20, 0x00, 0x00, 0x84, 0x1f, 0x00, 0x00, 0xe0, 0x1e, 0x00, 0x00,
  0x5c, 0x1e, 0x00, 0x00, 0xc0, 0x1d, 0x00, 0x00, 0xdc, 0x1c, 0x00, 0x00,
  0x38, 0x1c, 0x00, 0x00, 0xb4, 0x1b, 0x00, 0x00, 0x18, 0x1b, 0x00, 0x00,
  0x34, 0x1a, 0x00, 0x00, 0x90, 0x19, 0x00, 0x00, 0x0c, 0x19, 0x00, 0x00,
  0x70, 0x18, 0x00, 0x00, 0xc4, 0x17, 0x00, 0x00, 0x48, 0x17, 0x00, 0x00,
  0xc4, 0x16, 0x00, 0x00, 0x28, 0x16, 0x00, 0x00, 0x84, 0x15, 0x00, 0x00,
  0x14, 0x15, 0x00, 0x00, 0x1c, 0x14, 0x00, 0x00, 0x70, 0x13, 0x00, 0x00,
  0xec, 0x12, 0x00, 0x00, 0x50, 0x12, 0x00, 0x00, 0x6c, 0x11, 0x00, 0x00,
  0xd0, 0x10, 0x00, 0x00, 0x4c, 0x10, 0x00, 0x00, 0xb0, 0x0f, 0x00, 0x00,
  0xcc, 0x0e, 0x00, 0x00, 0x30, 0x0e, 0x00, 0x00, 0xac, 0x0d, 0x00, 0x00,
  0x10, 0x0d, 0x00, 0x00, 0x2c, 0x0c, 0x00, 0x00, 0x90, 0x0b, 0x00, 0x00,
  0x0c, 0x0b, 0x00, 0x00, 0x70, 0x0a, 0x00, 0x00, 0x8c, 0x09, 0x00, 0x00,
  0xf0, 0x08, 0x00, 0x00, 0x6c, 0x08, 0x00, 0x00, 0xd0, 0x07, 0x00, 0x00,
  0xec, 0x06, 0x00, 0x00, 0x50, 0x06, 0x00, 0x00, 0xcc, 0x05, 0x00, 0x00,
  0x30, 0x05, 0x00, 0x00, 0x4c, 0x04, 0x00, 0x00, 0xb0, 0x03, 0x00, 0x00,
  0x2c, 0x03, 0x00, 0x00, 0x90, 0x02, 0x00, 0x00, 0xac, 0x01, 0x00, 0x00,
  0x10, 0x01, 0x00, 0x00, 0xb4, 0x00, 0x00, 0x00, 0x78, 0x00, 0x00, 0x00,
  0x04, 0x00, 0x00, 0x00, 0xc2, 0xdf, 0xff, 0xff, 0x00, 0x00, 0x00, 0x09,
  0x58, 0x00, 0x00, 0x00, 0x20, 0x00, 0x00, 0x00, 0x44, 0x00, 0x00, 0x00,
  0x04, 0x00, 0x00, 0x00, 0x64, 0xe0, 0xff, 0xff, 0x30, 0x00, 0x00, 0x00,
  0x24, 0x00, 0x00, 0x00, 0x18, 0x00, 0x00, 0x00, 0x04, 0x00, 0x00, 0x00,
  0x01, 0x00, 0x00, 0x00, 0x0a, 0x00, 0x00, 0x00, 0x00, 0x00, 0x00, 0x00,
  0x00, 0x00, 0x00, 0x00, 0x01, 0x00, 0x00, 0x00, 0x21, 0x21, 0x55, 0x3b,
  0x01, 0x00, 0x00, 0x00, 0x00, 0xcc, 0xc2, 0x3e, 0x01, 0x00, 0x00, 0x00,
  0x00, 0xcc, 0xe5, 0xbe, 0x07, 0x00, 0x00, 0x00, 0x69, 0x6e, 0x70, 0x75,
  0x74, 0x5f, 0x33, 0x00, 0x03, 0x00, 0x00, 0x00, 0x01, 0x00, 0x00, 0x00,
  0xfd, 0x00, 0x00, 0x00, 0x01, 0x00, 0x00, 0x00, 0x32, 0xe0, 0xff, 0xff,
  0x00, 0x00, 0x00, 0x02, 0x28, 0x00, 0x00, 0x00, 0x01, 0x00, 0x00, 0x00,
  0x0c, 0x00, 0x00, 0x00, 0x04, 0x00, 0x00, 0x00, 0xe4, 0xeb, 0xff, 0xff,
  0x0e, 0x00, 0x00, 0x00, 0x49, 0x64, 0x65, 0x6e, 0x74, 0x69, 0x74, 0x79,
  0x5f, 0x73, 0x68, 0x61, 0x70, 0x65, 0x00, 0x00, 0x01, 0x00, 0x00, 0x00,
  0x03, 0x00, 0x00, 0x00, 0x6a, 0xe0, 0xff, 0xff, 0x00, 0x00, 0x00, 0x09,
  0x40, 0x00, 0x00, 0x00, 0x17, 0x00, 0x00, 0x00, 0x28, 0x00, 0x00, 0x00,
  0x04, 0x00, 0x00, 0x00, 0x5c, 0xe0, 0xff, 0xff, 0x14, 0x00, 0x00, 0x00,
  0x04, 0x00, 0x00, 0x00, 0x01, 0x00, 0x00, 0x00, 0x00, 0x00, 0x00, 0x00,
  0x00, 0x00, 0x00, 0x00, 0x01, 0x00, 0x00, 0x00, 0x00, 0x00, 0x00, 0x3c,
  0x08, 0x00, 0x00, 0x00, 0x49, 0x64, 0x65, 0x6e, 0x74, 0x69, 0x74, 0x79,
  0x00, 0x00, 0x00, 0x00, 0x03, 0x00, 0x00, 0x00, 0x01, 0x00, 0x00, 0x00,
  0xe5, 0x00, 0x00, 0x00, 0x01, 0x00, 0x00, 0x00, 0xc2, 0xe0, 0xff, 0xff,
  0x00, 0x00, 0x00, 0x02, 0x88, 0x00, 0x00, 0x00, 0x0a, 0x00, 0x00, 0x00,
  0x4c, 0x00, 0x00, 0x00, 0x04, 0x00, 0x00, 0x00, 0xb4, 0xe0, 0xff, 0xff,
  0x2c, 0x00, 0x00, 0x00, 0x04, 0x00, 0x00, 0x00, 0x04, 0x00, 0x00, 0x00,
  0x00, 0x00, 0x00, 0x00, 0x00, 0x00, 0x00, 0x00, 0x00, 0x00, 0x00, 0x00,
  0x00, 0x00, 0x00, 0x00, 0x00, 0x00, 0x00, 0x00, 0x00, 0x00, 0x00, 0x00,
  0x00, 0x00, 0x00, 0x00, 0x00, 0x00, 0x00, 0x00, 0x04, 0x00, 0x00, 0x00,
  0xa9, 0xc4, 0xef, 0x37, 0xa7, 0xb3, 0x00, 0x38, 0x5d, 0xd4, 0xe5, 0x37,
  0xa5, 0xd6, 0xe2, 0x37, 0x2f, 0x00, 0x00, 0x00, 0x30, 0x34, 0x5f, 0x4f,
  0x72, 0x61, 0x6e, 0x67, 0x65, 0x4d, 0x69, 0x63, 0x72, 0x6f, 0x44, 0x61,
  0x72, 0x6b, 0x5f, 0x57, 0x4e, 0x31, 0x32, 0x5f, 0x76, 0x31, 0x2f, 0x63,
  0x6f, 0x6e, 0x76, 0x31, 0x64, 0x5f, 0x39, 0x2f, 0x63, 0x6f, 0x6e, 0x76,
  0x31, 0x64, 0x5f, 0x62, 0x69, 0x61, 0x73, 0x00, 0x01, 0x00, 0x00, 0x00,
  0x04, 0x00, 0x00, 0x00, 0x5a, 0xe1, 0xff, 0xff, 0x00, 0x00, 0x00, 0x09,
  0xc4, 0x00, 0x00, 0x00, 0x0b, 0x00, 0x00, 0x00, 0x80, 0x00, 0x00, 0x00,
  0x04, 0x00, 0x00, 0x00, 0xfc, 0xe1, 0xff, 0xff, 0x60, 0x00, 0x00, 0x00,
  0x48, 0x00, 0x00, 0x00, 0x30, 0x00, 0x00, 0x00, 0x04, 0x00, 0x00, 0x00,
  0x04, 0x00, 0x00, 0x00, 0x00, 0x00, 0x00, 0x00, 0x00, 0x00, 0x00, 0x00,
  0x00, 0x00, 0x00, 0x00, 0x00, 0x00, 0x00, 0x00, 0x00, 0x00, 0x00, 0x00,
  0x00, 0x00, 0x00, 0x00, 0x00, 0x00, 0x00, 0x00, 0x00, 0x00, 0x00, 0x00,
  0x00, 0x00, 0x00, 0x00, 0x04, 0x00, 0x00, 0x00, 0xa9, 0xc4, 0x6f, 0x3b,
  0xa7, 0xb3, 0x80, 0x3b, 0x5d, 0xd4, 0x65, 0x3b, 0xa5, 0xd6, 0x62, 0x3b,
  0x04, 0x00, 0x00, 0x00, 0x20, 0xe5, 0xed, 0x3e, 0x80, 0x64, 0xff, 0x3e,
  0xb4, 0x08, 0xe4, 0x3e, 0xf8, 0x10, 0xe1, 0x3e, 0x04, 0x00, 0x00, 0x00,
  0x8c, 0x85, 0x8b, 0xbe, 0x90, 0xae, 0xf3, 0xbe, 0x5c, 0x87, 0xd2, 0xbe,
  0x74, 0x93, 0xdb, 0xbe, 0x37, 0x00, 0x00, 0x00, 0x30, 0x34, 0x5f, 0x4f,
  0x72, 0x61, 0x6e, 0x67, 0x65, 0x4d, 0x69, 0x63, 0x72, 0x6f, 0x44, 0x61,
  0x72, 0x6b, 0x5f, 0x57, 0x4e, 0x31, 0x32, 0x5f, 0x76, 0x31, 0x2f, 0x63,
  0x6f, 0x6e, 0x76, 0x31, 0x64, 0x5f, 0x39, 0x2f, 0x63, 0x6f, 0x6e, 0x76,
  0x31, 0x64, 0x2f, 0x45, 0x78, 0x70, 0x61, 0x6e, 0x64, 0x44, 0x69, 0x6d,
  0x73, 0x5f, 0x31, 0x00, 0x04, 0x00, 0x00, 0x00, 0x04, 0x00, 0x00, 0x00,
  0x01, 0x00, 0x00, 0x00, 0x03, 0x00, 0x00, 0x00, 0x04, 0x00, 0x00, 0x00,
  0x3a, 0xe2, 0xff, 0xff, 0x00, 0x00, 0x00, 0x09, 0x7c, 0x00, 0x00, 0x00,
  0x1b, 0x00, 0x00, 0x00, 0x44, 0x00, 0x00, 0x00, 0x04, 0x00, 0x00, 0x00,
  0xdc, 0xe2, 0xff, 0xff, 0x30, 0x00, 0x00, 0x00, 0x24, 0x00, 0x00, 0x00,
  0x18, 0x00, 0x00, 0x00, 0x04, 0x00, 0x00, 0x00, 0x01, 0x00, 0x00, 0x00,
  0xf3, 0xff, 0xff, 0xff, 0xff, 0xff, 0xff, 0xff, 0x00, 0x00, 0x00, 0x00,
  0x01, 0x00, 0x00, 0x00, 0xdb, 0x14, 0x25, 0x3a, 0x01, 0x00, 0x00, 0x00,
  0xc0, 0x74, 0xb4, 0x3d, 0x01, 0x00, 0x00, 0x00, 0xcc, 0x6a, 0x94, 0xbd,
  0x2a, 0x00, 0x00, 0x00, 0x30, 0x34, 0x5f, 0x4f, 0x72, 0x61, 0x6e, 0x67,
  0x65, 0x4d, 0x69, 0x63, 0x72, 0x6f, 0x44, 0x61, 0x72, 0x6b, 0x5f, 0x57,
  0x4e, 0x31, 0x32, 0x5f, 0x76, 0x31, 0x2f, 0x63, 0x6f, 0x6e, 0x76, 0x31,
  0x64, 0x5f, 0x39, 0x2f, 0x63, 0x6f, 0x6e, 0x76, 0x31, 0x64, 0x00, 0x00,
  0x04, 0x00, 0x00, 0x00, 0x01, 0x00, 0x00, 0x00, 0x01, 0x00, 0x00, 0x00,
  0xed, 0x00, 0x00, 0x00, 0x04, 0x00, 0x00, 0x00, 0xd2, 0xe2, 0xff, 0xff,
  0x00, 0x00, 0x00, 0x09, 0x64, 0x00, 0x00, 0x00, 0x09, 0x00, 0x00, 0x00,
  0x2c, 0x00, 0x00, 0x00, 0x04, 0x00, 0x00, 0x00, 0xc4, 0xe2, 0xff, 0xff,
  0x18, 0x00, 0x00, 0x00, 0x04, 0x00, 0x00, 0x00, 0x01, 0x00, 0x00, 0x00,
  0x00, 0x00, 0x00, 0x00, 0x00, 0x00, 0x00, 0x00, 0x00, 0x00, 0x00, 0x00,
  0x01, 0x00, 0x00, 0x00, 0x00, 0x00, 0x00, 0x3c, 0x28, 0x00, 0x00, 0x00,
  0x30, 0x34, 0x5f, 0x4f, 0x72, 0x61, 0x6e, 0x67, 0x65, 0x4d, 0x69, 0x63,
  0x72, 0x6f, 0x44, 0x61, 0x72, 0x6b, 0x5f, 0x57, 0x4e, 0x31, 0x32, 0x5f,
  0x76, 0x31, 0x2f, 0x63, 0x6f, 0x6e, 0x76, 0x31, 0x64, 0x5f, 0x39, 0x2f,
  0x54, 0x61, 0x6e, 0x68, 0x00, 0x00, 0x00, 0x00, 0x04, 0x00, 0x00, 0x00,
  0x01, 0x00, 0x00, 0x00, 0x01, 0x00, 0x00, 0x00, 0xed, 0x00, 0x00, 0x00,
  0x04, 0x00, 0x00, 0x00, 0x52, 0xe3, 0xff, 0xff, 0x00, 0x00, 0x00, 0x02,
  0x88, 0x00, 0x00, 0x00, 0x21, 0x00, 0x00, 0x00, 0x4c, 0x00, 0x00, 0x00,
  0x04, 0x00, 0x00, 0x00, 0x44, 0xe3, 0xff, 0xff, 0x2c, 0x00, 0x00, 0x00,
  0x04, 0x00, 0x00, 0x00, 0x04, 0x00, 0x00, 0x00, 0x00, 0x00, 0x00, 0x00,
  0x00, 0x00, 0x00, 0x00, 0x00, 0x00, 0x00, 0x00, 0x00, 0x00, 0x00, 0x00,
  0x00, 0x00, 0x00, 0x00, 0x00, 0x00, 0x00, 0x00, 0x00, 0x00, 0x00, 0x00,
  0x00, 0x00, 0x00, 0x00, 0x04, 0x00, 0x00, 0x00, 0x9b, 0x45, 0xfa, 0x37,
  0xa7, 0x07, 0xd5, 0x37, 0xab, 0x95, 0xbb, 0x37, 0x3c, 0x6a, 0xe7, 0x37,
  0x2f, 0x00, 0x00, 0x00, 0x30, 0x34, 0x5f, 0x4f, 0x72, 0x61, 0x6e, 0x67,
  0x65, 0x4d, 0x69, 0x63, 0x72, 0x6f, 0x44, 0x61, 0x72, 0x6b, 0x5f, 0x57,
  0x4e, 0x31, 0x32, 0x5f, 0x76, 0x31, 0x2f, 0x63, 0x6f, 0x6e, 0x76, 0x31,
  0x64, 0x5f, 0x38, 0x2f, 0x63, 0x6f, 0x6e, 0x76, 0x31, 0x64, 0x5f, 0x62,
  0x69, 0x61, 0x73, 0x00, 0x01, 0x00, 0x00, 0x00, 0x04, 0x00, 0x00, 0x00,
  0xea, 0xe3, 0xff, 0xff, 0x00, 0x00, 0x00, 0x09, 0xc4, 0x00, 0x00, 0x00,
  0x32, 0x00, 0x00, 0x00, 0x80, 0x00, 0x00, 0x00, 0x04, 0x00, 0x00, 0x00,
  0x8c, 0xe4, 0xff, 0xff, 0x60, 0x00, 0x00, 0x00, 0x48, 0x00, 0x00, 0x00,
  0x30, 0x00, 0x00, 0x00, 0x04, 0x00, 0x00, 0x00, 0x04, 0x00, 0x00, 0x00,
  0x00, 0x00, 0x00, 0x00, 0x00, 0x00, 0x00, 0x00, 0x00, 0x00, 0x00, 0x00,
  0x00, 0x00, 0x00, 0x00, 0x00, 0x00, 0x00, 0x00, 0x00, 0x00, 0x00, 0x00,
  0x00, 0x00, 0x00, 0x00, 0x00, 0x00, 0x00, 0x00, 0x00, 0x00, 0x00, 0x00,
  0x04, 0x00, 0x00, 0x00, 0x9b, 0x45, 0x7a, 0x3b, 0xa7, 0x07, 0x55, 0x3b,
  0xab, 0x95, 0x3b, 0x3b, 0x3c, 0x6a, 0x67, 0x3b, 0x04, 0x00, 0x00, 0x00,
  0x10, 0x51, 0xf8, 0x3e, 0x98, 0x5d, 0xd3, 0x3e, 0x6c, 0xd7, 0x9a, 0x3e,
  0x40, 0xca, 0xe4, 0x3e, 0x04, 0x00, 0x00, 0x00, 0x4c, 0x4b, 0xb8, 0xbe,
  0x9c, 0x91, 0x92, 0xbe, 0x80, 0x1e, 0xba, 0xbe, 0x68, 0x9b, 0xe5, 0xbe,
  0x37, 0x00, 0x00, 0x00, 0x30, 0x34, 0x5f, 0x4f, 0x72, 0x61, 0x6e, 0x67,
  0x65, 0x4d, 0x69, 0x63, 0x72, 0x6f, 0x44, 0x61, 0x72, 0x6b, 0x5f, 0x57,
  0x4e, 0x31, 0x32, 0x5f, 0x76, 0x31, 0x2f, 0x63, 0x6f, 0x6e, 0x76, 0x31,
  0x64, 0x5f, 0x38, 0x2f, 0x63, 0x6f, 0x6e, 0x76, 0x31, 0x64, 0x2f, 0x45,
  0x78, 0x70, 0x61, 0x6e, 0x64, 0x44, 0x69, 0x6d, 0x73, 0x5f, 0x31, 0x00,
  0x04, 0x00, 0x00, 0x00, 0x04, 0x00, 0x00, 0x00, 0x01, 0x00, 0x00, 0x00,
  0x03, 0x00, 0x00, 0x00, 0x04, 0x00, 0x00, 0x00, 0xca, 0xe4, 0xff, 0xff,
  0x00, 0x00, 0x00, 0x09, 0x7c, 0x00, 0x00, 0x00, 0x35, 0x00, 0x00, 0x00,
  0x44, 0x00, 0x00, 0x00, 0x04, 0x00, 0x00, 0x00, 0x6c, 0xe5, 0xff, 0xff,
  0x30, 0x00, 0x00, 0x00, 0x24, 0x00, 0x00, 0x00, 0x18, 0x00, 0x00, 0x00,
  0x04, 0x00, 0x00, 0x00, 0x01, 0x00, 0x00, 0x00, 0xf1, 0xff, 0xff, 0xff,
  0xff, 0xff, 0xff, 0xff, 0x00, 0x00, 0x00, 0x00, 0x01, 0x00, 0x00, 0x00,
  0x3a, 0xb6, 0x3d, 0x3a, 0x01, 0x00, 0x00, 0x00, 0x62, 0x63, 0xd2, 0x3d,
  0x01, 0x00, 0x00, 0x00, 0xa5, 0x8d, 0xa7, 0xbd, 0x2a, 0x00, 0x00, 0x00,
  0x30, 0x34, 0x5f, 0x4f, 0x72, 0x61, 0x6e, 0x67, 0x65, 0x4d, 0x69, 0x63,
  0x72, 0x6f, 0x44, 0x61, 0x72, 0x6b, 0x5f, 0x57, 0x4e, 0x31, 0x32, 0x5f,
  0x76, 0x31, 0x2f, 0x63, 0x6f, 0x6e, 0x76, 0x31, 0x64, 0x5f, 0x38, 0x2f,
  0x63, 0x6f, 0x6e, 0x76, 0x31, 0x64, 0x00, 0x00, 0x04, 0x00, 0x00, 0x00,
  0x01, 0x00, 0x00, 0x00, 0x01, 0x00, 0x00, 0x00, 0xef, 0x00, 0x00, 0x00,
  0x04, 0x00, 0x00, 0x00, 0x62, 0xe5, 0xff, 0xff, 0x00, 0x00, 0x00, 0x09,
  0x64, 0x00, 0x00, 0x00, 0x0c, 0x00, 0x00, 0x00, 0x2c, 0x00, 0x00, 0x00,
  0x04, 0x00, 0x00, 0x00, 0x54, 0xe5, 0xff, 0xff, 0x18, 0x00, 0x00, 0x00,
  0x04, 0x00, 0x00, 0x00, 0x01, 0x00, 0x00, 0x00, 0x00, 0x00, 0x00, 0x00,
  0x00, 0x00, 0x00, 0x00, 0x00, 0x00, 0x00, 0x00, 0x01, 0x00, 0x00, 0x00,
  0x00, 0x00, 0x00, 0x3c, 0x28, 0x00, 0x00, 0x00, 0x30, 0x34, 0x5f, 0x4f,
  0x72, 0x61, 0x6e, 0x67, 0x65, 0x4d, 0x69, 0x63, 0x72, 0x6f, 0x44, 0x61,
  0x72, 0x6b, 0x5f, 0x57, 0x4e, 0x31, 0x32, 0x5f, 0x76, 0x31, 0x2f, 0x63,
  0x6f, 0x6e, 0x76, 0x31, 0x64, 0x5f, 0x38, 0x2f, 0x54, 0x61, 0x6e, 0x68,
  0x00, 0x00, 0x00, 0x00, 0x04, 0x00, 0x00, 0x00, 0x01, 0x00, 0x00, 0x00,
  0x01, 0x00, 0x00, 0x00, 0xef, 0x00, 0x00, 0x00, 0x04, 0x00, 0x00, 0x00,
  0xe2, 0xe5, 0xff, 0xff, 0x00, 0x00, 0x00, 0x02, 0x88, 0x00, 0x00, 0x00,
  0x18, 0x00, 0x00, 0x00, 0x4c, 0x00, 0x00, 0x00, 0x04, 0x00, 0x00, 0x00,
  0xd4, 0xe5, 0xff, 0xff, 0x2c, 0x00, 0x00, 0x00, 0x04, 0x00, 0x00, 0x00,
  0x04, 0x00, 0x00, 0x00, 0x00, 0x00, 0x00, 0x00, 0x00, 0x00, 0x00, 0x00,
  0x00, 0x00, 0x00, 0x00, 0x00, 0x00, 0x00, 0x00, 0x00, 0x00, 0x00, 0x00,
  0x00, 0x00, 0x00, 0x00, 0x00, 0x00, 0x00, 0x00, 0x00, 0x00, 0x00, 0x00,
  0x04, 0x00, 0x00, 0x00, 0x53, 0x45, 0xd1, 0x37, 0x5b, 0x8b, 0xea, 0x37,
  0xdc, 0x0d, 0xe5, 0x37, 0xdc, 0x53, 0xe4, 0x37, 0x2f, 0x00, 0x00, 0x00,
  0x30, 0x34, 0x5f, 0x4f, 0x72, 0x61, 0x6e, 0x67, 0x65, 0x4d, 0x69, 0x63,
  0x72, 0x6f, 0x44, 0x61, 0x72, 0x6b, 0x5f, 0x57, 0x4e, 0x31, 0x32, 0x5f,
  0x76, 0x31, 0x2f, 0x63, 0x6f, 0x6e, 0x76, 0x31, 0x64, 0x5f, 0x37, 0x2f,
  0x63, 0x6f, 0x6e, 0x76, 0x31, 0x64, 0x5f, 0x62, 0x69, 0x61, 0x73, 0x00,
  0x01, 0x00, 0x00, 0x00, 0x04, 0x00, 0x00, 0x00, 0x7a, 0xe6, 0xff, 0xff,
  0x00, 0x00, 0x00, 0x09, 0xc4, 0x00, 0x00, 0x00, 0x0d, 0x00, 0x00, 0x00,
  0x80, 0x00, 0x00, 0x00, 0x04, 0x00, 0x00, 0x00, 0x1c, 0xe7, 0xff, 0xff,
  0x60, 0x00, 0x00, 0x00, 0x48, 0x00, 0x00, 0x00, 0x30, 0x00, 0x00, 0x00,
  0x04, 0x00, 0x00, 0x00, 0x04, 0x00, 0x00, 0x00, 0x00, 0x00, 0x00, 0x00,
  0x00, 0x00, 0x00, 0x00, 0x00, 0x00, 0x00, 0x00, 0x00, 0x00, 0x00, 0x00,
  0x00, 0x00, 0x00, 0x00, 0x00, 0x00, 0x00, 0x00, 0x00, 0x00, 0x00, 0x00,
  0x00, 0x00, 0x00, 0x00, 0x00, 0x00, 0x00, 0x00, 0x04, 0x00, 0x00, 0x00,
  0x53, 0x45, 0x51, 0x3b, 0x5b, 0x8b, 0x6a, 0x3b, 0xdc, 0x0d, 0x65, 0x3b,
  0xdc, 0x53, 0x64, 0x3b, 0x04, 0x00, 0x00, 0x00, 0x28, 0xb6, 0xb2, 0x3e,
  0x68, 0x0f, 0x52, 0x3e, 0xd0, 0x99, 0x8b, 0x3e, 0x34, 0x8b, 0xe2, 0x3e,
  0x04, 0x00, 0x00, 0x00, 0xc8, 0xa2, 0xcf, 0xbe, 0x44, 0xb6, 0xe8, 0xbe,
  0xc0, 0x43, 0xe3, 0xbe, 0x04, 0xf5, 0xb8, 0xbe, 0x37, 0x00, 0x00, 0x00,
  0x30, 0x34, 0x5f, 0x4f, 0x72, 0x61, 0x6e, 0x67, 0x65, 0x4d, 0x69, 0x63,
  0x72, 0x6f, 0x44, 0x61, 0x72, 0x6b, 0x5f, 0x57, 0x4e, 0x31, 0x32, 0x5f,
  0x76, 0x31, 0x2f, 0x63, 0x6f, 0x6e, 0x76, 0x31, 0x64, 0x5f, 0x37, 0x2f,
  0x63, 0x6f, 0x6e, 0x76, 0x31, 0x64, 0x2f, 0x45, 0x78, 0x70, 0x61, 0x6e,
  0x64, 0x44, 0x69, 0x6d, 0x73, 0x5f, 0x31, 0x00, 0x04, 0x00, 0x00, 0x00,
  0x04, 0x00, 0x00, 0x00, 0x01, 0x00, 0x00, 0x00, 0x03, 0x00, 0x00, 0x00,
  0x04, 0x00, 0x00, 0x00, 0x5a, 0xe7, 0xff, 0xff, 0x00, 0x00, 0x00, 0x09,
  0x7c, 0x00, 0x00, 0x00, 0x31, 0x00, 0x00, 0x00, 0x44, 0x00, 0x00, 0x00,
  0x04, 0x00, 0x00, 0x00, 0xfc, 0xe7, 0xff, 0xff, 0x30, 0x00, 0x00, 0x00,
  0x24, 0x00, 0x00, 0x00, 0x18, 0x00, 0x00, 0x00, 0x04, 0x00, 0x00, 0x00,
  0x01, 0x00, 0x00, 0x00, 0xf9, 0xff, 0xff, 0xff, 0xff, 0xff, 0xff, 0xff,
  0x00, 0x00, 0x00, 0x00, 0x01, 0x00, 0x00, 0x00, 0xb9, 0xa7, 0x57, 0x3a,
  0x01, 0x00, 0x00, 0x00, 0x95, 0x2a, 0xe1, 0x3d, 0x01, 0x00, 0x00, 0x00,
  0x8d, 0x75, 0xcc, 0xbd, 0x2a, 0x00, 0x00, 0x00, 0x30, 0x34, 0x5f, 0x4f,
  0x72, 0x61, 0x6e, 0x67, 0x65, 0x4d, 0x69, 0x63, 0x72, 0x6f, 0x44, 0x61,
  0x72, 0x6b, 0x5f, 0x57, 0x4e, 0x31, 0x32, 0x5f, 0x76, 0x31, 0x2f, 0x63,
  0x6f, 0x6e, 0x76, 0x31, 0x64, 0x5f, 0x37, 0x2f, 0x63, 0x6f, 0x6e, 0x76,
  0x31, 0x64, 0x00, 0x00, 0x04, 0x00, 0x00, 0x00, 0x01, 0x00, 0x00, 0x00,
  0x01, 0x00, 0x00, 0x00, 0xf1, 0x00, 0x00, 0x00, 0x04, 0x00, 0x00, 0x00,
  0xf2, 0xe7, 0xff, 0xff, 0x00, 0x00, 0x00, 0x09, 0x64, 0x00, 0x00, 0x00,
  0x2d, 0x00, 0x00, 0x00, 0x2c, 0x00, 0x00, 0x00, 0x04, 0x00, 0x00, 0x00,
  0xe4, 0xe7, 0xff, 0xff, 0x18, 0x00, 0x00, 0x00, 0x04, 0x00, 0x00, 0x00,
  0x01, 0x00, 0x00, 0x00, 0x00, 0x00, 0x00, 0x00, 0x00, 0x00, 0x00, 0x00,
  0x00, 0x00, 0x00, 0x00, 0x01, 0x00, 0x00, 0x00, 0x00, 0x00, 0x00, 0x3c,
  0x28, 0x00, 0x00, 0x00, 0x30, 0x34, 0x5f, 0x4f, 0x72, 0x61, 0x6e, 0x67,
  0x65, 0x4d, 0x69, 0x63, 0x72, 0x6f, 0x44, 0x61, 0x72, 0x6b, 0x5f, 0x57,
  0x4e, 0x31, 0x32, 0x5f, 0x76, 0x31, 0x2f, 0x63, 0x6f, 0x6e, 0x76, 0x31,
  0x64, 0x5f, 0x37, 0x2f, 0x54, 0x61, 0x6e, 0x68, 0x00, 0x00, 0x00, 0x00,
  0x04, 0x00, 0x00, 0x00, 0x01, 0x00, 0x00, 0x00, 0x01, 0x00, 0x00, 0x00,
  0xf1, 0x00, 0x00, 0x00, 0x04, 0x00, 0x00, 0x00, 0x72, 0xe8, 0xff, 0xff,
  0x00, 0x00, 0x00, 0x02, 0x88, 0x00, 0x00, 0x00, 0x0f, 0x00, 0x00, 0x00,
  0x4c, 0x00, 0x00, 0x00, 0x04, 0x00, 0x00, 0x00, 0x64, 0xe8, 0xff, 0xff,
  0x2c, 0x00, 0x00, 0x00, 0x04, 0x00, 0x00, 0x00, 0x04, 0x00, 0x00, 0x00,
  0x00, 0x00, 0x00, 0x00, 0x00, 0x00, 0x00, 0x00, 0x00, 0x00, 0x00, 0x00,
  0x00, 0x00, 0x00, 0x00, 0x00, 0x00, 0x00, 0x00, 0x00, 0x00, 0x00, 0x00,
  0x00, 0x00, 0x00, 0x00, 0x00, 0x00, 0x00, 0x00, 0x04, 0x00, 0x00, 0x00,
  0x8d, 0x1a, 0xe5, 0x37, 0xd6, 0x16, 0xeb, 0x37, 0xb3, 0xf7, 0xf9, 0x37,
  0x24, 0x2a, 0xf6, 0x37, 0x2f, 0x00, 0x00, 0x00, 0x30, 0x34, 0x5f, 0x4f,
  0x72, 0x61, 0x6e, 0x67, 0x65, 0x4d, 0x69, 0x63, 0x72, 0x6f, 0x44, 0x61,
  0x72, 0x6b, 0x5f, 0x57, 0x4e, 0x31, 0x32, 0x5f, 0x76, 0x31, 0x2f, 0x63,
  0x6f, 0x6e, 0x76, 0x31, 0x64, 0x5f, 0x36, 0x2f, 0x63, 0x6f, 0x6e, 0x76,
  0x31, 0x64, 0x5f, 0x62, 0x69, 0x61, 0x73, 0x00, 0x01, 0x00, 0x00, 0x00,
  0x04, 0x00, 0x00, 0x00, 0x0a, 0xe9, 0xff, 0xff, 0x00, 0x00, 0x00, 0x09,
  0xc4, 0x00, 0x00, 0x00, 0x10, 0x00, 0x00, 0x00, 0x80, 0x00, 0x00, 0x00,
  0x04, 0x00, 0x00, 0x00, 0xac, 0xe9, 0xff, 0xff, 0x60, 0x00, 0x00, 0x00,
  0x48, 0x00, 0x00, 0x00, 0x30, 0x00, 0x00, 0x00, 0x04, 0x00, 0x00, 0x00,
  0x04, 0x00, 0x00, 0x00, 0x00, 0x00, 0x00, 0x00, 0x00, 0x00, 0x00, 0x00,
  0x00, 0x00, 0x00, 0x00, 0x00, 0x00, 0x00, 0x00, 0x00, 0x00, 0x00, 0x00,
  0x00, 0x00, 0x00, 0x00, 0x00, 0x00, 0x00, 0x00, 0x00, 0x00, 0x00, 0x00,
  0x00, 0x00, 0x00, 0x00, 0x04, 0x00, 0x00, 0x00, 0x8d, 0x1a, 0x65, 0x3b,
  0xd6, 0x16, 0x6b, 0x3b, 0xb3, 0xf7, 0x79, 0x3b, 0x24, 0x2a, 0x76, 0x3b,
  0x04, 0x00, 0x00, 0x00, 0xfc, 0x9c, 0xc7, 0x3e, 0x88, 0x17, 0xd8, 0x3e,
  0x30, 0x9d, 0xbb, 0x3e, 0xa4, 0xcf, 0xcc, 0x3e, 0x04, 0x00, 0x00, 0x00,
  0x58, 0x50, 0xe3, 0xbe, 0xa8, 0x40, 0xe9, 0xbe, 0xc4, 0x03, 0xf8, 0xbe,
  0xd0, 0x3d, 0xf4, 0xbe, 0x37, 0x00, 0x00, 0x00, 0x30, 0x34, 0x5f, 0x4f,
  0x72, 0x61, 0x6e, 0x67, 0x65, 0x4d, 0x69, 0x63, 0x72, 0x6f, 0x44, 0x61,
  0x72, 0x6b, 0x5f, 0x57, 0x4e, 0x31, 0x32, 0x5f, 0x76, 0x31, 0x2f, 0x63,
  0x6f, 0x6e, 0x76, 0x31, 0x64, 0x5f, 0x36, 0x2f, 0x63, 0x6f, 0x6e, 0x76,
  0x31, 0x64, 0x2f, 0x45, 0x78, 0x70, 0x61, 0x6e, 0x64, 0x44, 0x69, 0x6d,
  0x73, 0x5f, 0x31, 0x00, 0x04, 0x00, 0x00, 0x00, 0x04, 0x00, 0x00, 0x00,
  0x01, 0x00, 0x00, 0x00, 0x03, 0x00, 0x00, 0x00, 0x04, 0x00, 0x00, 0x00,
  0xea, 0xe9, 0xff, 0xff, 0x00, 0x00, 0x00, 0x09, 0x7c, 0x00, 0x00, 0x00,
  0x30, 0x00, 0x00, 0x00, 0x44, 0x00, 0x00, 0x00, 0x04, 0x00, 0x00, 0x00,
  0x8c, 0xea, 0xff, 0xff, 0x30, 0x00, 0x00, 0x00, 0x24, 0x00, 0x00, 0x00,
  0x18, 0x00, 0x00, 0x00, 0x04, 0x00, 0x00, 0x00, 0x01, 0x00, 0x00, 0x00,
  0xf4, 0xff, 0xff, 0xff, 0xff, 0xff, 0xff, 0xff, 0x00, 0x00, 0x00, 0x00,
  0x01, 0x00, 0x00, 0x00, 0x2a, 0xd8, 0x8d, 0x3a, 0x01, 0x00, 0x00, 0x00,
  0xbb, 0x2c, 0x1a, 0x3e, 0x01, 0x00, 0x00, 0x00, 0xe9, 0x67, 0x00, 0xbe,
  0x2a, 0x00, 0x00, 0x00, 0x30, 0x34, 0x5f, 0x4f, 0x72, 0x61, 0x6e, 0x67,
  0x65, 0x4d, 0x69, 0x63, 0x72, 0x6f, 0x44, 0x61, 0x72, 0x6b, 0x5f, 0x57,
  0x4e, 0x31, 0x32, 0x5f, 0x76, 0x31, 0x2f, 0x63, 0x6f, 0x6e, 0x76, 0x31,
  0x64, 0x5f, 0x36, 0x2f, 0x63, 0x6f, 0x6e, 0x76, 0x31, 0x64, 0x00, 0x00,
  0x04, 0x00, 0x00, 0x00, 0x01, 0x00, 0x00, 0x00, 0x01, 0x00, 0x00, 0x00,
  0xf3, 0x00, 0x00, 0x00, 0x04, 0x00, 0x00, 0x00, 0x82, 0xea, 0xff, 0xff,
  0x00, 0x00, 0x00, 0x09, 0x64, 0x00, 0x00, 0x00, 0x0e, 0x00, 0x00, 0x00,
  0x2c, 0x00, 0x00, 0x00, 0x04, 0x00, 0x00, 0x00, 0x74, 0xea, 0xff, 0xff,
  0x18, 0x00, 0x00, 0x00, 0x04, 0x00, 0x00, 0x00, 0x01, 0x00, 0x00, 0x00,
  0x00, 0x00, 0x00, 0x00, 0x00, 0x00, 0x00, 0x00, 0x00, 0x00, 0x00, 0x00,
  0x01, 0x00, 0x00, 0x00, 0x00, 0x00, 0x00, 0x3c, 0x28, 0x00, 0x00, 0x00,
  0x30, 0x34, 0x5f, 0x4f, 0x72, 0x61, 0x6e, 0x67, 0x65, 0x4d, 0x69, 0x63,
  0x72, 0x6f, 0x44, 0x61, 0x72, 0x6b, 0x5f, 0x57, 0x4e, 0x31, 0x32, 0x5f,
  0x76, 0x31, 0x2f, 0x63, 0x6f, 0x6e, 0x76, 0x31, 0x64, 0x5f, 0x36, 0x2f,
  0x54, 0x61, 0x6e, 0x68, 0x00, 0x00, 0x00, 0x00, 0x04, 0x00, 0x00, 0x00,
  0x01, 0x00, 0x00, 0x00, 0x01, 0x00, 0x00, 0x00, 0xf3, 0x00, 0x00, 0x00,
  0x04, 0x00, 0x00, 0x00, 0x02, 0xeb, 0xff, 0xff, 0x00, 0x00, 0x00, 0x02,
  0x88, 0x00, 0x00, 0x00, 0x34, 0x00, 0x00, 0x00, 0x4c, 0x00, 0x00, 0x00,
  0x04, 0x00, 0x00, 0x00, 0xf4, 0xea, 0xff, 0xff, 0x2c, 0x00, 0x00, 0x00,
  0x04, 0x00, 0x00, 0x00, 0x04, 0x00, 0x00, 0x00, 0x00, 0x00, 0x00, 0x00,
  0x00, 0x00, 0x00, 0x00, 0x00, 0x00, 0x00, 0x00, 0x00, 0x00, 0x00, 0x00,
  0x00, 0x00, 0x00, 0x00, 0x00, 0x00, 0x00, 0x00, 0x00, 0x00, 0x00, 0x00,
  0x00, 0x00, 0x00, 0x00, 0x04, 0x00, 0x00, 0x00, 0x5b, 0x8f, 0xf6, 0x37,
  0xe6, 0xa4, 0xfa, 0x37, 0x22, 0x19, 0xc5, 0x37, 0xa9, 0x98, 0xed, 0x37,
  0x2f, 0x00, 0x00, 0x00, 0x30, 0x34, 0x5f, 0x4f, 0x72, 0x61, 0x6e, 0x67,
  0x65, 0x4d, 0x69, 0x63, 0x72, 0x6f, 0x44, 0x61, 0x72, 0x6b, 0x5f, 0x57,
  0x4e, 0x31, 0x32, 0x5f, 0x76, 0x31, 0x2f, 0x63, 0x6f, 0x6e, 0x76, 0x31,
  0x64, 0x5f, 0x35, 0x2f, 0x63, 0x6f, 0x6e, 0x76, 0x31, 0x64, 0x5f, 0x62,
  0x69, 0x61, 0x73, 0x00, 0x01, 0x00, 0x00, 0x00, 0x04, 0x00, 0x00, 0x00,
  0x9a, 0xeb, 0xff, 0xff, 0x00, 0x00, 0x00, 0x09, 0xc4, 0x00, 0x00, 0x00,
  0x12, 0x00, 0x00, 0x00, 0x80, 0x00, 0x00, 0x00, 0x04, 0x00, 0x00, 0x00,
  0x3c, 0xec, 0xff, 0xff, 0x60, 0x00, 0x00, 0x00, 0x48, 0x00, 0x00, 0x00,
  0x30, 0x00, 0x00, 0x00, 0x04, 0x00, 0x00, 0x00, 0x04, 0x00, 0x00, 0x00,
  0x00, 0x00, 0x00, 0x00, 0x00, 0x00, 0x00, 0x00, 0x00, 0x00, 0x00, 0x00,
  0x00, 0x00, 0x00, 0x00, 0x00, 0x00, 0x00, 0x00, 0x00, 0x00, 0x00, 0x00,
  0x00, 0x00, 0x00, 0x00, 0x00, 0x00, 0x00, 0x00, 0x00, 0x00, 0x00, 0x00,
  0x04, 0x00, 0x00, 0x00, 0x5b, 0x8f, 0x76, 0x3b, 0xe6, 0xa4, 0x7a, 0x3b,
  0x22, 0x19, 0x45, 0x3b, 0xa9, 0x98, 0x6d, 0x3b, 0x04, 0x00, 0x00, 0x00,
  0x3c, 0xa2, 0xf4, 0x3e, 0x34, 0x87, 0xf3, 0x3e, 0xe8, 0xac, 0x16, 0x3e,
  0x78, 0xbd, 0xeb, 0x3e, 0x04, 0x00, 0x00, 0x00, 0x20, 0x82, 0xe4, 0xbd,
  0x9c, 0xaf, 0xf8, 0xbe, 0xf0, 0x8e, 0xc3, 0xbe, 0x08, 0x8c, 0xd7, 0xbe,
  0x37, 0x00, 0x00, 0x00, 0x30, 0x34, 0x5f, 0x4f, 0x72, 0x61, 0x6e, 0x67,
  0x65, 0x4d, 0x69, 0x63, 0x72, 0x6f, 0x44, 0x61, 0x72, 0x6b, 0x5f, 0x57,
  0x4e, 0x31, 0x32, 0x5f, 0x76, 0x31, 0x2f, 0x63, 0x6f, 0x6e, 0x76, 0x31,
  0x64, 0x5f, 0x35, 0x2f, 0x63, 0x6f, 0x6e, 0x76, 0x31, 0x64, 0x2f, 0x45,
  0x78, 0x70, 0x61, 0x6e, 0x64, 0x44, 0x69, 0x6d, 0x73, 0x5f, 0x31, 0x00,
  0x04, 0x00, 0x00, 0x00, 0x04, 0x00, 0x00, 0x00, 0x01, 0x00, 0x00, 0x00,
  0x03, 0x00, 0x00, 0x00, 0x04, 0x00, 0x00, 0x00, 0x7a, 0xec, 0xff, 0xff,
  0x00, 0x00, 0x00, 0x09, 0x7c, 0x00, 0x00, 0x00, 0x2b, 0x00, 0x00, 0x00,
  0x44, 0x00, 0x00, 0x00, 0x04, 0x00, 0x00, 0x00, 0x1c, 0xed, 0xff, 0xff,
  0x30, 0x00, 0x00, 0x00, 0x24, 0x00, 0x00, 0x00, 0x18, 0x00, 0x00, 0x00,
  0x04, 0x00, 0x00, 0x00, 0x01, 0x00, 0x00, 0x00, 0xf6, 0xff, 0xff, 0xff,
  0xff, 0xff, 0xff, 0xff, 0x00, 0x00, 0x00, 0x00, 0x01, 0x00, 0x00, 0x00,
  0x12, 0x7f, 0x9a, 0x3a, 0x01, 0x00, 0x00, 0x00, 0x09, 0xc3, 0x24, 0x3e,
  0x01, 0x00, 0x00, 0x00, 0x1d, 0x06, 0x0f, 0xbe, 0x2a, 0x00, 0x00, 0x00,
  0x30, 0x34, 0x5f, 0x4f, 0x72, 0x61, 0x6e, 0x67, 0x65, 0x4d, 0x69, 0x63,
  0x72, 0x6f, 0x44, 0x61, 0x72, 0x6b, 0x5f, 0x57, 0x4e, 0x31, 0x32, 0x5f,
  0x76, 0x31, 0x2f, 0x63, 0x6f, 0x6e, 0x76, 0x31, 0x64, 0x5f, 0x35, 0x2f,
  0x63, 0x6f, 0x6e, 0x76, 0x31, 0x64, 0x00, 0x00, 0x04, 0x00, 0x00, 0x00,
  0x01, 0x00, 0x00, 0x00, 0x01, 0x00, 0x00, 0x00, 0xf5, 0x00, 0x00, 0x00,
  0x04, 0x00, 0x00, 0x00, 0x12, 0xed, 0xff, 0xff, 0x00, 0x00, 0x00, 0x09,
  0x64, 0x00, 0x00, 0x00, 0x11, 0x00, 0x00, 0x00, 0x2c, 0x00, 0x00, 0x00,
  0x04, 0x00, 0x00, 0x00, 0x04, 0xed, 0xff, 0xff, 0x18, 0x00, 0x00, 0x00,
  0x04, 0x00, 0x00, 0x00, 0x01, 0x00, 0x00, 0x00, 0x00, 0x00, 0x00, 0x00,
  0x00, 0x00, 0x00, 0x00, 0x00, 0x00, 0x00, 0x00, 0x01, 0x00, 0x00, 0x00,
  0x00, 0x00, 0x00, 0x3c, 0x28, 0x00, 0x00, 0x00, 0x30, 0x34, 0x5f, 0x4f,
  0x72, 0x61, 0x6e, 0x67, 0x65, 0x4d, 0x69, 0x63, 0x72, 0x6f, 0x44, 0x61,
  0x72, 0x6b, 0x5f, 0x57, 0x4e, 0x31, 0x32, 0x5f, 0x76, 0x31, 0x2f, 0x63,
  0x6f, 0x6e, 0x76, 0x31, 0x64, 0x5f, 0x35, 0x2f, 0x54, 0x61, 0x6e, 0x68,
  0x00, 0x00, 0x00, 0x00, 0x04, 0x00, 0x00, 0x00, 0x01, 0x00, 0x00, 0x00,
  0x01, 0x00, 0x00, 0x00, 0xf5, 0x00, 0x00, 0x00, 0x04, 0x00, 0x00, 0x00,
  0x92, 0xed, 0xff, 0xff, 0x00, 0x00, 0x00, 0x02, 0x88, 0x00, 0x00, 0x00,
  0x22, 0x00, 0x00, 0x00, 0x4c, 0x00, 0x00, 0x00, 0x04, 0x00, 0x00, 0x00,
  0x84, 0xed, 0xff, 0xff, 0x2c, 0x00, 0x00, 0x00, 0x04, 0x00, 0x00, 0x00,
  0x04, 0x00, 0x00, 0x00, 0x00, 0x00, 0x00, 0x00, 0x00, 0x00, 0x00, 0x00,
  0x00, 0x00, 0x00, 0x00, 0x00, 0x00, 0x00, 0x00, 0x00, 0x00, 0x00, 0x00,
  0x00, 0x00, 0x00, 0x00, 0x00, 0x00, 0x00, 0x00, 0x00, 0x00, 0x00, 0x00,
  0x04, 0x00, 0x00, 0x00, 0x41, 0xa2, 0xe1, 0x37, 0xc4, 0x1d, 0xf2, 0x37,
  0xa7, 0x33, 0xfc, 0x37, 0x77, 0x09, 0xf4, 0x37, 0x2f, 0x00, 0x00, 0x00,
  0x30, 0x34, 0x5f, 0x4f, 0x72, 0x61, 0x6e, 0x67, 0x65, 0x4d, 0x69, 0x63,
  0x72, 0x6f, 0x44, 0x61, 0x72, 0x6b, 0x5f, 0x57, 0x4e, 0x31, 0x32, 0x5f,
  0x76, 0x31, 0x2f, 0x63, 0x6f, 0x6e, 0x76, 0x31, 0x64, 0x5f, 0x34, 0x2f,
  0x63, 0x6f, 0x6e, 0x76, 0x31, 0x64, 0x5f, 0x62, 0x69, 0x61, 0x73, 0x00,
  0x01, 0x00, 0x00, 0x00, 0x04, 0x00, 0x00, 0x00, 0x2a, 0xee, 0xff, 0xff,
  0x00, 0x00, 0x00, 0x09, 0xc4, 0x00, 0x00, 0x00, 0x2f, 0x00, 0x00, 0x00,
  0x80, 0x00, 0x00, 0x00, 0x04, 0x00, 0x00, 0x00, 0xcc, 0xee, 0xff, 0xff,
  0x60, 0x00, 0x00, 0x00, 0x48, 0x00, 0x00, 0x00, 0x30, 0x00, 0x00, 0x00,
  0x04, 0x00, 0x00, 0x00, 0x04, 0x00, 0x00, 0x00, 0x00, 0x00, 0x00, 0x00,
  0x00, 0x00, 0x00, 0x00, 0x00, 0x00, 0x00, 0x00, 0x00, 0x00, 0x00, 0x00,
  0x00, 0x00, 0x00, 0x00, 0x00, 0x00, 0x00, 0x00, 0x00, 0x00, 0x00, 0x00,
  0x00, 0x00, 0x00, 0x00, 0x00, 0x00, 0x00, 0x00, 0x04, 0x00, 0x00, 0x00,
  0x41, 0xa2, 0x61, 0x3b, 0xc4, 0x1d, 0x72, 0x3b, 0xa7, 0x33, 0x7c, 0x3b,
  0x77, 0x09, 0x74, 0x3b, 0x04, 0x00, 0x00, 0x00, 0x24, 0x5c, 0xb3, 0x3e,
  0x88, 0x39, 0xf0, 0x3e, 0x40, 0x3b, 0xfa, 0x3e, 0xb8, 0x55, 0xd3, 0x3e,
  0x04, 0x00, 0x00, 0x00, 0xfc, 0xde, 0xdf, 0xbe, 0xec, 0xac, 0xb8, 0xbe,
  0xbc, 0x0e, 0xe0, 0xbe, 0x64, 0x21, 0xf2, 0xbe, 0x37, 0x00, 0x00, 0x00,
  0x30, 0x34, 0x5f, 0x4f, 0x72, 0x61, 0x6e, 0x67, 0x65, 0x4d, 0x69, 0x63,
  0x72, 0x6f, 0x44, 0x61, 0x72, 0x6b, 0x5f, 0x57, 0x4e, 0x31, 0x32, 0x5f,
  0x76, 0x31, 0x2f, 0x63, 0x6f, 0x6e, 0x76, 0x31, 0x64, 0x5f, 0x34, 0x2f,
  0x63, 0x6f, 0x6e, 0x76, 0x31, 0x64, 0x2f, 0x45, 0x78, 0x70, 0x61, 0x6e,
  0x64, 0x44, 0x69, 0x6d, 0x73, 0x5f, 0x31, 0x00, 0x04, 0x00, 0x00, 0x00,
  0x04, 0x00, 0x00, 0x00, 0x01, 0x00, 0x00, 0x00, 0x03, 0x00, 0x00, 0x00,
  0x04, 0x00, 0x00, 0x00, 0x0a, 0xef, 0xff, 0xff, 0x00, 0x00, 0x00, 0x09,
  0x7c, 0x00, 0x00, 0x00, 0x1d, 0x00, 0x00, 0x00, 0x44, 0x00, 0x00, 0x00,
  0x04, 0x00, 0x00, 0x00, 0xac, 0xef, 0xff, 0xff, 0x30, 0x00, 0x00, 0x00,
  0x24, 0x00, 0x00, 0x00, 0x18, 0x00, 0x00, 0x00, 0x04, 0x00, 0x00, 0x00,
  0x01, 0x00, 0x00, 0x00, 0x03, 0x00, 0x00, 0x00, 0x00, 0x00, 0x00, 0x00,
  0x00, 0x00, 0x00, 0x00, 0x01, 0x00, 0x00, 0x00, 0xeb, 0x4c, 0xf1, 0x3a,
  0x01, 0x00, 0x00, 0x00, 0xcf, 0x7b, 0x6a, 0x3e, 0x01, 0x00, 0x00, 0x00,
  0x6d, 0x3b, 0x76, 0xbe, 0x2a, 0x00, 0x00, 0x00, 0x30, 0x34, 0x5f, 0x4f,
  0x72, 0x61, 0x6e, 0x67, 0x65, 0x4d, 0x69, 0x63, 0x72, 0x6f, 0x44, 0x61,
  0x72, 0x6b, 0x5f, 0x57, 0x4e, 0x31, 0x32, 0x5f, 0x76, 0x31, 0x2f, 0x63,
  0x6f, 0x6e, 0x76, 0x31, 0x64, 0x5f, 0x34, 0x2f, 0x63, 0x6f, 0x6e, 0x76,
  0x31, 0x64, 0x00, 0x00, 0x04, 0x00, 0x00, 0x00, 0x01, 0x00, 0x00, 0x00,
  0x01, 0x00, 0x00, 0x00, 0xf7, 0x00, 0x00, 0x00, 0x04, 0x00, 0x00, 0x00,
  0xa2, 0xef, 0xff, 0xff, 0x00, 0x00, 0x00, 0x09, 0x64, 0x00, 0x00, 0x00,
  0x29, 0x00, 0x00, 0x00, 0x2c, 0x00, 0x00, 0x00, 0x04, 0x00, 0x00, 0x00,
  0x94, 0xef, 0xff, 0xff, 0x18, 0x00, 0x00, 0x00, 0x04, 0x00, 0x00, 0x00,
  0x01, 0x00, 0x00, 0x00, 0x00, 0x00, 0x00, 0x00, 0x00, 0x00, 0x00, 0x00,
  0x00, 0x00, 0x00, 0x00, 0x01, 0x00, 0x00, 0x00, 0x00, 0x00, 0x00, 0x3c,
  0x28, 0x00, 0x00, 0x00, 0x30, 0x34, 0x5f, 0x4f, 0x72, 0x61, 0x6e, 0x67,
  0x65, 0x4d, 0x69, 0x63, 0x72, 0x6f, 0x44, 0x61, 0x72, 0x6b, 0x5f, 0x57,
  0x4e, 0x31, 0x32, 0x5f, 0x76, 0x31, 0x2f, 0x63, 0x6f, 0x6e, 0x76, 0x31,
  0x64, 0x5f, 0x34, 0x2f, 0x54, 0x61, 0x6e, 0x68, 0x00, 0x00, 0x00, 0x00,
  0x04, 0x00, 0x00, 0x00, 0x01, 0x00, 0x00, 0x00, 0x01, 0x00, 0x00, 0x00,
  0xf7, 0x00, 0x00, 0x00, 0x04, 0x00, 0x00, 0x00, 0x22, 0xf0, 0xff, 0xff,
  0x00, 0x00, 0x00, 0x02, 0x88, 0x00, 0x00, 0x00, 0x13, 0x00, 0x00, 0x00,
  0x4c, 0x00, 0x00, 0x00, 0x04, 0x00, 0x00, 0x00, 0x14, 0xf0, 0xff, 0xff,
  0x2c, 0x00, 0x00, 0x00, 0x04, 0x00, 0x00, 0x00, 0x04, 0x00, 0x00, 0x00,
  0x00, 0x00, 0x00, 0x00, 0x00, 0x00, 0x00, 0x00, 0x00, 0x00, 0x00, 0x00,
  0x00, 0x00, 0x00, 0x00, 0x00, 0x00, 0x00, 0x00, 0x00, 0x00, 0x00, 0x00,
  0x00, 0x00, 0x00, 0x00, 0x00, 0x00, 0x00, 0x00, 0x04, 0x00, 0x00, 0x00,
  0x1a, 0x95, 0xf2, 0x37, 0x8d, 0x44, 0xfa, 0x37, 0x2e, 0x81, 0xfd, 0x37,
  0xca, 0xb6, 0xf5, 0x37, 0x2f, 0x00, 0x00, 0x00, 0x30, 0x34, 0x5f, 0x4f,
  0x72, 0x61, 0x6e, 0x67, 0x65, 0x4d, 0x69, 0x63, 0x72, 0x6f, 0x44, 0x61,
  0x72, 0x6b, 0x5f, 0x57, 0x4e, 0x31, 0x32, 0x5f, 0x76, 0x31, 0x2f, 0x63,
  0x6f, 0x6e, 0x76, 0x31, 0x64, 0x5f, 0x33, 0x2f, 0x63, 0x6f, 0x6e, 0x76,
  0x31, 0x64, 0x5f, 0x62, 0x69, 0x61, 0x73, 0x00, 0x01, 0x00, 0x00, 0x00,
  0x04, 0x00, 0x00, 0x00, 0xba, 0xf0, 0xff, 0xff, 0x00, 0x00, 0x00, 0x09,
  0xc4, 0x00, 0x00, 0x00, 0x1f, 0x00, 0x00, 0x00, 0x80, 0x00, 0x00, 0x00,
  0x04, 0x00, 0x00, 0x00, 0x5c, 0xf1, 0xff, 0xff, 0x60, 0x00, 0x00, 0x00,
  0x48, 0x00, 0x00, 0x00, 0x30, 0x00, 0x00, 0x00, 0x04, 0x00, 0x00, 0x00,
  0x04, 0x00, 0x00, 0x00, 0x00, 0x00, 0x00, 0x00, 0x00, 0x00, 0x00, 0x00,
  0x00, 0x00, 0x00, 0x00, 0x00, 0x00, 0x00, 0x00, 0x00, 0x00, 0x00, 0x00,
  0x00, 0x00, 0x00, 0x00, 0x00, 0x00, 0x00, 0x00, 0x00, 0x00, 0x00, 0x00,
  0x00, 0x00, 0x00, 0x00, 0x04, 0x00, 0x00, 0x00, 0x1a, 0x95, 0x72, 0x3b,
  0x8d, 0x44, 0x7a, 0x3b, 0x2e, 0x81, 0x7d, 0x3b, 0xca, 0xb6, 0x75, 0x3b,
  0x04, 0x00, 0x00, 0x00, 0xc0, 0x73, 0x6a, 0x3e, 0x18, 0x74, 0xb6, 0x3e,
  0x2c, 0x86, 0xfb, 0x3e, 0x5c, 0xcb, 0xf3, 0x3e, 0x04, 0x00, 0x00, 0x00,
  0xf0, 0xaf, 0xf0, 0xbe, 0x04, 0x50, 0xf8, 0xbe, 0xa4, 0x8b, 0xd5, 0xbe,
  0x08, 0xf0, 0xe0, 0xbe, 0x37, 0x00, 0x00, 0x00, 0x30, 0x34, 0x5f, 0x4f,
  0x72, 0x61, 0x6e, 0x67, 0x65, 0x4d, 0x69, 0x63, 0x72, 0x6f, 0x44, 0x61,
  0x72, 0x6b, 0x5f, 0x57, 0x4e, 0x31, 0x32, 0x5f, 0x76, 0x31, 0x2f, 0x63,
  0x6f, 0x6e, 0x76, 0x31, 0x64, 0x5f, 0x33, 0x2f, 0x63, 0x6f, 0x6e, 0x76,
  0x31, 0x64, 0x2f, 0x45, 0x78, 0x70, 0x61, 0x6e, 0x64, 0x44, 0x69, 0x6d,
  0x73, 0x5f, 0x31, 0x00, 0x04, 0x00, 0x00, 0x00, 0x04, 0x00, 0x00, 0x00,
  0x01, 0x00, 0x00, 0x00, 0x03, 0x00, 0x00, 0x00, 0x04, 0x00, 0x00, 0x00,
  0x9a, 0xf1, 0xff, 0xff, 0x00, 0x00, 0x00, 0x09, 0x7c, 0x00, 0x00, 0x00,
  0x2e, 0x00, 0x00, 0x00, 0x44, 0x00, 0x00, 0x00, 0x04, 0x00, 0x00, 0x00,
  0x3c, 0xf2, 0xff, 0xff, 0x30, 0x00, 0x00, 0x00, 0x24, 0x00, 0x00, 0x00,
  0x18, 0x00, 0x00, 0x00, 0x04, 0x00, 0x00, 0x00, 0x01, 0x00, 0x00, 0x00,
  0xf6, 0xff, 0xff, 0xff, 0xff, 0xff, 0xff, 0xff, 0x00, 0x00, 0x00, 0x00,
  0x01, 0x00, 0x00, 0x00, 0xd9, 0x76, 0x2c, 0x3b, 0x01, 0x00, 0x00, 0x00,
  0x1a, 0x77, 0xb8, 0x3e, 0x01, 0x00, 0x00, 0x00, 0xab, 0x1d, 0x9f, 0xbe,
  0x2a, 0x00, 0x00, 0x00, 0x30, 0x34, 0x5f, 0x4f, 0x72, 0x61, 0x6e, 0x67,
  0x65, 0x4d, 0x69, 0x63, 0x72, 0x6f, 0x44, 0x61, 0x72, 0x6b, 0x5f, 0x57,
  0x4e, 0x31, 0x32, 0x5f, 0x76, 0x31, 0x2f, 0x63, 0x6f, 0x6e, 0x76, 0x31,
  0x64, 0x5f, 0x33, 0x2f, 0x63, 0x6f, 0x6e, 0x76, 0x31, 0x64, 0x00, 0x00,
  0x04, 0x00, 0x00, 0x00, 0x01, 0x00, 0x00, 0x00, 0x01, 0x00, 0x00, 0x00,
  0xf9, 0x00, 0x00, 0x00, 0x04, 0x00, 0x00, 0x00, 0x32, 0xf2, 0xff, 0xff,
  0x00, 0x00, 0x00, 0x09, 0x64, 0x00, 0x00, 0x00, 0x28, 0x00, 0x00, 0x00,
  0x2c, 0x00, 0x00, 0x00, 0x04, 0x00, 0x00, 0x00, 0x24, 0xf2, 0xff, 0xff,
  0x18, 0x00, 0x00, 0x00, 0x04, 0x00, 0x00, 0x00, 0x01, 0x00, 0x00, 0x00,
  0x00, 0x00, 0x00, 0x00, 0x00, 0x00, 0x00, 0x00, 0x00, 0x00, 0x00, 0x00,
  0x01, 0x00, 0x00, 0x00, 0x00, 0x00, 0x00, 0x3c, 0x28, 0x00, 0x00, 0x00,
  0x30, 0x34, 0x5f, 0x4f, 0x72, 0x61, 0x6e, 0x67, 0x65, 0x4d, 0x69, 0x63,
  0x72, 0x6f, 0x44, 0x61, 0x72, 0x6b, 0x5f, 0x57, 0x4e, 0x31, 0x32, 0x5f,
  0x76, 0x31, 0x2f, 0x63, 0x6f, 0x6e, 0x76, 0x31, 0x64, 0x5f, 0x33, 0x2f,
  0x54, 0x61, 0x6e, 0x68, 0x00, 0x00, 0x00, 0x00, 0x04, 0x00, 0x00, 0x00,
  0x01, 0x00, 0x00, 0x00, 0x01, 0x00, 0x00, 0x00, 0xf9, 0x00, 0x00, 0x00,
  0x04, 0x00, 0x00, 0x00, 0xb2, 0xf2, 0xff, 0xff, 0x00, 0x00, 0x00, 0x02,
  0x88, 0x00, 0x00, 0x00, 0x15, 0x00, 0x00, 0x00, 0x4c, 0x00, 0x00, 0x00,
  0x04, 0x00, 0x00, 0x00, 0xa4, 0xf2, 0xff, 0xff, 0x2c, 0x00, 0x00, 0x00,
  0x04, 0x00, 0x00, 0x00, 0x04, 0x00, 0x00, 0x00, 0x00, 0x00, 0x00, 0x00,
  0x00, 0x00, 0x00, 0x00, 0x00, 0x00, 0x00, 0x00, 0x00, 0x00, 0x00, 0x00,
  0x00, 0x00, 0x00, 0x00, 0x00, 0x00, 0x00, 0x00, 0x00, 0x00, 0x00, 0x00,
  0x00, 0x00, 0x00, 0x00, 0x04, 0x00, 0x00, 0x00, 0x3f, 0x3f, 0x05, 0x37,
  0x04, 0x7d, 0x06, 0x37, 0x6c, 0x2e, 0x31, 0x37, 0xee, 0x91, 0x7a, 0x37,
  0x2f, 0x00, 0x00, 0x00, 0x30, 0x34, 0x5f, 0x4f, 0x72, 0x61, 0x6e, 0x67,
  0x65, 0x4d, 0x69, 0x63, 0x72, 0x6f, 0x44, 0x61, 0x72, 0x6b, 0x5f, 0x57,
  0x4e, 0x31, 0x32, 0x5f, 0x76, 0x31, 0x2f, 0x63, 0x6f, 0x6e, 0x76, 0x31,
  0x64, 0x5f, 0x32, 0x2f, 0x63, 0x6f, 0x6e, 0x76, 0x31, 0x64, 0x5f, 0x62,
  0x69, 0x61, 0x73, 0x00, 0x01, 0x00, 0x00, 0x00, 0x04, 0x00, 0x00, 0x00,
  0x00, 0x00, 0x0e, 0x00, 0x1a, 0x00, 0x08, 0x00, 0x07, 0x00, 0x0c, 0x00,
  0x10, 0x00, 0x14, 0x00, 0x0e, 0x00, 0x00, 0x00, 0x00, 0x00, 0x00, 0x09,
  0xd8, 0x00, 0x00, 0x00, 0x16, 0x00, 0x00, 0x00, 0x94, 0x00, 0x00, 0x00,
  0x18, 0x00, 0x00, 0x00, 0x00, 0x00, 0x12, 0x00, 0x18, 0x00, 0x04, 0x00,
  0x08, 0x00, 0x0c, 0x00, 0x10, 0x00, 0x00, 0x00, 0x00, 0x00, 0x14, 0x00,
  0x12, 0x00, 0x00, 0x00, 0x60, 0x00, 0x00, 0x00, 0x48, 0x00, 0x00, 0x00,
  0x30, 0x00, 0x00, 0x00, 0x08, 0x00, 0x00, 0x00, 0x03, 0x00, 0x00, 0x00,
  0x04, 0x00, 0x00, 0x00, 0x00, 0x00, 0x00, 0x00, 0x00, 0x00, 0x00, 0x00,
  0x00, 0x00, 0x00, 0x00, 0x00, 0x00, 0x00, 0x00, 0x00, 0x00, 0x00, 0x00,
  0x00, 0x00, 0x00, 0x00, 0x00, 0x00, 0x00, 0x00, 0x00, 0x00, 0x00, 0x00,
  0x04, 0x00, 0x00, 0x00, 0xa9, 0x0c, 0x20, 0x3b, 0x59, 0x8a, 0x21, 0x3b,
  0x30, 0xd2, 0x54, 0x3b, 0x62, 0x7c, 0x96, 0x3b, 0x04, 0x00, 0x00, 0x00,
  0xc0, 0x83, 0x7b, 0x3d, 0xbc, 0xc5, 0x19, 0x3e, 0x30, 0x95, 0x22, 0x3e,
  0x40, 0x42, 0x97, 0x3d, 0x04, 0x00, 0x00, 0x00, 0x90, 0xcc, 0x9e, 0xbe,
  0x44, 0x47, 0xa0, 0xbe, 0x8c, 0x28, 0xd3, 0xbe, 0x69, 0x4f, 0x15, 0xbf,
  0x37, 0x00, 0x00, 0x00, 0x30, 0x34, 0x5f, 0x4f, 0x72, 0x61, 0x6e, 0x67,
  0x65, 0x4d, 0x69, 0x63, 0x72, 0x6f, 0x44, 0x61, 0x72, 0x6b, 0x5f, 0x57,
  0x4e, 0x31, 0x32, 0x5f, 0x76, 0x31, 0x2f, 0x63, 0x6f, 0x6e, 0x76, 0x31,
  0x64, 0x5f, 0x32, 0x2f, 0x63, 0x6f, 0x6e, 0x76, 0x31, 0x64, 0x2f, 0x45,
  0x78, 0x70, 0x61, 0x6e, 0x64, 0x44, 0x69, 0x6d, 0x73, 0x5f, 0x31, 0x00,
  0x04, 0x00, 0x00, 0x00, 0x01, 0x00, 0x00, 0x00, 0x01, 0x00, 0x00, 0x00,
  0x03, 0x00, 0x00, 0x00, 0x04, 0x00, 0x00, 0x00, 0x4e, 0xf4, 0xff, 0xff,
  0x00, 0x00, 0x00, 0x02, 0x58, 0x00, 0x00, 0x00, 0x26, 0x00, 0x00, 0x00,
  0x10, 0x00, 0x00, 0x00, 0x08, 0x00, 0x00, 0x00, 0x04, 0x00, 0x04, 0x00,
  0x04, 0x00, 0x00, 0x00, 0x3b, 0x00, 0x00, 0x00, 0x30, 0x34, 0x5f, 0x4f,
  0x72, 0x61, 0x6e, 0x67, 0x65, 0x4d, 0x69, 0x63, 0x72, 0x6f, 0x44, 0x61,
  0x72, 0x6b, 0x5f, 0x57, 0x4e, 0x31, 0x32, 0x5f, 0x76, 0x31, 0x2f, 0x63,
  0x6f, 0x6e, 0x76, 0x31, 0x64, 0x5f, 0x32, 0x2f, 0x63, 0x6f, 0x6e, 0x76,
  0x31, 0x64, 0x2f, 0x45, 0x78, 0x70, 0x61, 0x6e, 0x64, 0x44, 0x69, 0x6d,
  0x73, 0x2f, 0x64, 0x69, 0x6d, 0x5f, 0x30, 0x00, 0x02, 0x00, 0x00, 0x00,
  0x01, 0x00, 0x00, 0x00, 0x04, 0x00, 0x00, 0x00, 0xba, 0xf4, 0xff, 0xff,
  0x00, 0x00, 0x00, 0x09, 0x84, 0x00, 0x00, 0x00, 0x24, 0x00, 0x00, 0x00,
  0x40, 0x00, 0x00, 0x00, 0x04, 0x00, 0x00, 0x00, 0x5c, 0xf5, 0xff, 0xff,
  0x2c, 0x00, 0x00, 0x00, 0x20, 0x00, 0x00, 0x00, 0x14, 0x00, 0x00, 0x00,
  0x04, 0x00, 0x00, 0x00, 0x01, 0x00, 0x00, 0x00, 0x0a, 0x00, 0x00, 0x00,
  0x00, 0x00, 0x00, 0x00, 0x01, 0x00, 0x00, 0x00, 0x21, 0x21, 0x55, 0x3b,
  0x01, 0x00, 0x00, 0x00, 0x00, 0xcc, 0xc2, 0x3e, 0x01, 0x00, 0x00, 0x00,
  0x00, 0xcc, 0xe5, 0xbe, 0x35, 0x00, 0x00, 0x00, 0x30, 0x34, 0x5f, 0x4f,
  0x72, 0x61, 0x6e, 0x67, 0x65, 0x4d, 0x69, 0x63, 0x72, 0x6f, 0x44, 0x61,
  0x72, 0x6b, 0x5f, 0x57, 0x4e, 0x31, 0x32, 0x5f, 0x76, 0x31, 0x2f, 0x63,
  0x6f, 0x6e, 0x76, 0x31, 0x64, 0x5f, 0x32, 0x2f, 0x63, 0x6f, 0x6e, 0x76,
  0x31, 0x64, 0x2f, 0x45, 0x78, 0x70, 0x61, 0x6e, 0x64, 0x44, 0x69, 0x6d,
  0x73, 0x00, 0x00, 0x00, 0x04, 0x00, 0x00, 0x00, 0x01, 0x00, 0x00, 0x00,
  0x01, 0x00, 0x00, 0x00, 0xfd, 0x00, 0x00, 0x00, 0x01, 0x00, 0x00, 0x00,
  0x5a, 0xf5, 0xff, 0xff, 0x00, 0x00, 0x00, 0x09, 0x7c, 0x00, 0x00, 0x00,
  0x27, 0x00, 0x00, 0x00, 0x44, 0x00, 0x00, 0x00, 0x04, 0x00, 0x00, 0x00,
  0xfc, 0xf5, 0xff, 0xff, 0x30, 0x00, 0x00, 0x00, 0x24, 0x00, 0x00, 0x00,
  0x18, 0x00, 0x00, 0x00, 0x04, 0x00, 0x00, 0x00, 0x01, 0x00, 0x00, 0x00,
  0xf5, 0xff, 0xff, 0xff, 0xff, 0xff, 0xff, 0xff, 0x00, 0x00, 0x00, 0x00,
  0x01, 0x00, 0x00, 0x00, 0xde, 0x95, 0x4b, 0x3b, 0x01, 0x00, 0x00, 0x00,
  0x27, 0x9c, 0xdb, 0x3e, 0x01, 0x00, 0x00, 0x00, 0x68, 0xf8, 0xb9, 0xbe,
  0x2a, 0x00, 0x00, 0x00, 0x30, 0x34, 0x5f, 0x4f, 0x72, 0x61, 0x6e, 0x67,
  0x65, 0x4d, 0x69, 0x63, 0x72, 0x6f, 0x44, 0x61, 0x72, 0x6b, 0x5f, 0x57,
  0x4e, 0x31, 0x32, 0x5f, 0x76, 0x31, 0x2f, 0x63, 0x6f, 0x6e, 0x76, 0x31,
  0x64, 0x5f, 0x32, 0x2f, 0x63, 0x6f, 0x6e, 0x76, 0x31, 0x64, 0x00, 0x00,
  0x04, 0x00, 0x00, 0x00, 0x01, 0x00, 0x00, 0x00, 0x01, 0x00, 0x00, 0x00,
  0xfb, 0x00, 0x00, 0x00, 0x04, 0x00, 0x00, 0x00, 0xf2, 0xf5, 0xff, 0xff,
  0x00, 0x00, 0x00, 0x09, 0x64, 0x00, 0x00, 0x00, 0x14, 0x00, 0x00, 0x00,
  0x2c, 0x00, 0x00, 0x00, 0x04, 0x00, 0x00, 0x00, 0xe4, 0xf5, 0xff, 0xff,
  0x18, 0x00, 0x00, 0x00, 0x04, 0x00, 0x00, 0x00, 0x01, 0x00, 0x00, 0x00,
  0x00, 0x00, 0x00, 0x00, 0x00, 0x00, 0x00, 0x00, 0x00, 0x00, 0x00, 0x00,
  0x01, 0x00, 0x00, 0x00, 0x00, 0x00, 0x00, 0x3c, 0x28, 0x00, 0x00, 0x00,
  0x30, 0x34, 0x5f, 0x4f, 0x72, 0x61, 0x6e, 0x67, 0x65, 0x4d, 0x69, 0x63,
  0x72, 0x6f, 0x44, 0x61, 0x72, 0x6b, 0x5f, 0x57, 0x4e, 0x31, 0x32, 0x5f,
  0x76, 0x31, 0x2f, 0x63, 0x6f, 0x6e, 0x76, 0x31, 0x64, 0x5f, 0x32, 0x2f,
  0x54, 0x61, 0x6e, 0x68, 0x00, 0x00, 0x00, 0x00, 0x04, 0x00, 0x00, 0x00,
  0x01, 0x00, 0x00, 0x00, 0x01, 0x00, 0x00, 0x00, 0xfb, 0x00, 0x00, 0x00,
  0x04, 0x00, 0x00, 0x00, 0x72, 0xf6, 0xff, 0xff, 0x00, 0x00, 0x00, 0x02,
  0x68, 0x00, 0x00, 0x00, 0x03, 0x00, 0x00, 0x00, 0x28, 0x00, 0x00, 0x00,
  0x04, 0x00, 0x00, 0x00, 0x64, 0xf6, 0xff, 0xff, 0x14, 0x00, 0x00, 0x00,
  0x04, 0x00, 0x00, 0x00, 0x01, 0x00, 0x00, 0x00, 0x00, 0x00, 0x00, 0x00,
  0x00, 0x00, 0x00, 0x00, 0x01, 0x00, 0x00, 0x00, 0xa5, 0xbb, 0x15, 0x38,
  0x30, 0x00, 0x00, 0x00, 0x30, 0x34, 0x5f, 0x4f, 0x72, 0x61, 0x6e, 0x67,
  0x65, 0x4d, 0x69, 0x63, 0x72, 0x6f, 0x44, 0x61, 0x72, 0x6b, 0x5f, 0x57,
  0x4e, 0x31, 0x32, 0x5f, 0x76, 0x31, 0x2f, 0x63, 0x6f, 0x6e, 0x76, 0x31,
  0x64, 0x5f, 0x31, 0x33, 0x2f, 0x63, 0x6f, 0x6e, 0x76, 0x31, 0x64, 0x5f,
  0x62, 0x69, 0x61, 0x73, 0x00, 0x00, 0x00, 0x00, 0x01, 0x00, 0x00, 0x00,
  0x01, 0x00, 0x00, 0x00, 0xea, 0xf6, 0xff, 0xff, 0x00, 0x00, 0x00, 0x09,
  0x8c, 0x00, 0x00, 0x00, 0x1e, 0x00, 0x00, 0x00, 0x44, 0x00, 0x00, 0x00,
  0x04, 0x00, 0x00, 0x00, 0x8c, 0xf7, 0xff, 0xff, 0x30, 0x00, 0x00, 0x00,
  0x24, 0x00, 0x00, 0x00, 0x18, 0x00, 0x00, 0x00, 0x04, 0x00, 0x00, 0x00,
  0x01, 0x00, 0x00, 0x00, 0x00, 0x00, 0x00, 0x00, 0x00, 0x00, 0x00, 0x00,
  0x00, 0x00, 0x00, 0x00, 0x01, 0x00, 0x00, 0x00, 0xa5, 0xbb, 0x95, 0x3b,
  0x01, 0x00, 0x00, 0x00, 0x16, 0x18, 0xf8, 0x3e, 0x01, 0x00, 0x00, 0x00,
  0x2e, 0x90, 0x14, 0xbf, 0x38, 0x00, 0x00, 0x00, 0x30, 0x34, 0x5f, 0x4f,
  0x72, 0x61, 0x6e, 0x67, 0x65, 0x4d, 0x69, 0x63, 0x72, 0x6f, 0x44, 0x61,
  0x72, 0x6b, 0x5f, 0x57, 0x4e, 0x31, 0x32, 0x5f, 0x76, 0x31, 0x2f, 0x63,
  0x6f, 0x6e, 0x76, 0x31, 0x64, 0x5f, 0x31, 0x33, 0x2f, 0x63, 0x6f, 0x6e,
  0x76, 0x31, 0x64, 0x2f, 0x45, 0x78, 0x70, 0x61, 0x6e, 0x64, 0x44, 0x69,
  0x6d, 0x73, 0x5f, 0x31, 0x00, 0x00, 0x00, 0x00, 0x04, 0x00, 0x00, 0x00,
  0x01, 0x00, 0x00, 0x00, 0x01, 0x00, 0x00, 0x00, 0x03, 0x00, 0x00, 0x00,
  0x04, 0x00, 0x00, 0x00, 0x92, 0xf7, 0xff, 0xff, 0x00, 0x00, 0x00, 0x09,
  0x7c, 0x00, 0x00, 0x00, 0x1c, 0x00, 0x00, 0x00, 0x44, 0x00, 0x00, 0x00,
  0x04, 0x00, 0x00, 0x00, 0x34, 0xf8, 0xff, 0xff, 0x30, 0x00, 0x00, 0x00,
  0x24, 0x00, 0x00, 0x00, 0x18, 0x00, 0x00, 0x00, 0x04, 0x00, 0x00, 0x00,
  0x01, 0x00, 0x00, 0x00, 0x0a, 0x00, 0x00, 0x00, 0x00, 0x00, 0x00, 0x00,
  0x00, 0x00, 0x00, 0x00, 0x01, 0x00, 0x00, 0x00, 0x8e, 0x9b, 0x64, 0x3a,
  0x01, 0x00, 0x00, 0x00, 0x4b, 0x95, 0xd1, 0x3d, 0x01, 0x00, 0x00, 0x00,
  0x98, 0xd8, 0xf5, 0xbd, 0x2b, 0x00, 0x00, 0x00, 0x30, 0x34, 0x5f, 0x4f,
  0x72, 0x61, 0x6e, 0x67, 0x65, 0x4d, 0x69, 0x63, 0x72, 0x6f, 0x44, 0x61,
  0x72, 0x6b, 0x5f, 0x57, 0x4e, 0x31, 0x32, 0x5f, 0x76, 0x31, 0x2f, 0x63,
  0x6f, 0x6e, 0x76, 0x31, 0x64, 0x5f, 0x31, 0x33, 0x2f, 0x63, 0x6f, 0x6e,
  0x76, 0x31, 0x64, 0x00, 0x04, 0x00, 0x00, 0x00, 0x01, 0x00, 0x00, 0x00,
  0x01, 0x00, 0x00, 0x00, 0xe5, 0x00, 0x00, 0x00, 0x01, 0x00, 0x00, 0x00,
  0x2a, 0xf8, 0xff, 0xff, 0x00, 0x00, 0x00, 0x09, 0x64, 0x00, 0x00, 0x00,
  0x02, 0x00, 0x00, 0x00, 0x2c, 0x00, 0x00, 0x00, 0x04, 0x00, 0x00, 0x00,
  0x1c, 0xf8, 0xff, 0xff, 0x18, 0x00, 0x00, 0x00, 0x04, 0x00, 0x00, 0x00,
  0x01, 0x00, 0x00, 0x00, 0x00, 0x00, 0x00, 0x00, 0x00, 0x00, 0x00, 0x00,
  0x00, 0x00, 0x00, 0x00, 0x01, 0x00, 0x00, 0x00, 0x00, 0x00, 0x00, 0x3c,
  0x29, 0x00, 0x00, 0x00, 0x30, 0x34, 0x5f, 0x4f, 0x72, 0x61, 0x6e, 0x67,
  0x65, 0x4d, 0x69, 0x63, 0x72, 0x6f, 0x44, 0x61, 0x72, 0x6b, 0x5f, 0x57,
  0x4e, 0x31, 0x32, 0x5f, 0x76, 0x31, 0x2f, 0x63, 0x6f, 0x6e, 0x76, 0x31,
  0x64, 0x5f, 0x31, 0x33, 0x2f, 0x54, 0x61, 0x6e, 0x68, 0x00, 0x00, 0x00,
  0x04, 0x00, 0x00, 0x00, 0x01, 0x00, 0x00, 0x00, 0x01, 0x00, 0x00, 0x00,
  0xe5, 0x00, 0x00, 0x00, 0x01, 0x00, 0x00, 0x00, 0xaa, 0xf8, 0xff, 0xff,
  0x00, 0x00, 0x00, 0x02, 0x90, 0x00, 0x00, 0x00, 0x05, 0x00, 0x00, 0x00,
  0x50, 0x00, 0x00, 0x00, 0x04, 0x00, 0x00, 0x00, 0x9c, 0xf8, 0xff, 0xff,
  0x30, 0x00, 0x00, 0x00, 0x04, 0x00, 0x00, 0x00, 0x04, 0x00, 0x00, 0x00,
  0x00, 0x00, 0x00, 0x00, 0x00, 0x00, 0x00, 0x00, 0x00, 0x00, 0x00, 0x00,
  0x00, 0x00, 0x00, 0x00, 0x00, 0x00, 0x00, 0x00, 0x00, 0x00, 0x00, 0x00,
  0x00, 0x00, 0x00, 0x00, 0x00, 0x00, 0x00, 0x00, 0x00, 0x00, 0x00, 0x00,
  0x04, 0x00, 0x00, 0x00, 0xb7, 0x63, 0xd7, 0x37, 0x53, 0x21, 0xcc, 0x37,
  0x43, 0xb5, 0xe9, 0x37, 0x63, 0x09, 0xf4, 0x37, 0x30, 0x00, 0x00, 0x00,
  0x30, 0x34, 0x5f, 0x4f, 0x72, 0x61, 0x6e, 0x67, 0x65, 0x4d, 0x69, 0x63,
  0x72, 0x6f, 0x44, 0x61, 0x72, 0x6b, 0x5f, 0x57, 0x4e, 0x31, 0x32, 0x5f,
  0x76, 0x31, 0x2f, 0x63, 0x6f, 0x6e, 0x76, 0x31, 0x64, 0x5f, 0x31, 0x32,
  0x2f, 0x63, 0x6f, 0x6e, 0x76, 0x31, 0x64, 0x5f, 0x62, 0x69, 0x61, 0x73,
  0x00, 0x00, 0x00, 0x00, 0x01, 0x00, 0x00, 0x00, 0x04, 0x00, 0x00, 0x00,
  0x4a, 0xf9, 0xff, 0xff, 0x00, 0x00, 0x00, 0x09, 0xc4, 0x00, 0x00, 0x00,
  0x25, 0x00, 0x00, 0x00, 0x7c, 0x00, 0x00, 0x00, 0x04, 0x00, 0x00, 0x00,
  0xec, 0xf9, 0xff, 0xff, 0x5c, 0x00, 0x00, 0x00, 0x44, 0x00, 0x00, 0x00,
  0x2c, 0x00, 0x00, 0x00, 0x04, 0x00, 0x00, 0x00, 0x04, 0x00, 0x00, 0x00,
  0x00, 0x00, 0x00, 0x00, 0x00, 0x00, 0x00, 0x00, 0x00, 0x00, 0x00, 0x00,
  0x00, 0x00, 0x00, 0x00, 0x00, 0x00, 0x00, 0x00, 0x00, 0x00, 0x00, 0x00,
  0x00, 0x00, 0x00, 0x00, 0x00, 0x00, 0x00, 0x00, 0x04, 0x00, 0x00, 0x00,
  0xb7, 0x63, 0x57, 0x3b, 0x53, 0x21, 0x4c, 0x3b, 0x43, 0xb5, 0x69, 0x3b,
  0x63, 0x09, 0x74, 0x3b, 0x04, 0x00, 0x00, 0x00, 0x3c, 0x31, 0x9d, 0x3e,
  0xa4, 0x0a, 0xa7, 0x3e, 0xd8, 0xe1, 0xe7, 0x3e, 0xdc, 0x4e, 0xce, 0x3e,
  0x04, 0x00, 0x00, 0x00, 0xf0, 0xb4, 0xd5, 0xbe, 0x10, 0x89, 0xca, 0xbe,
  0x8c, 0x55, 0x9d, 0xbe, 0x50, 0x21, 0xf2, 0xbe, 0x38, 0x00, 0x00, 0x00,
  0x30, 0x34, 0x5f, 0x4f, 0x72, 0x61, 0x6e, 0x67, 0x65, 0x4d, 0x69, 0x63,
  0x72, 0x6f, 0x44, 0x61, 0x72, 0x6b, 0x5f, 0x57, 0x4e, 0x31, 0x32, 0x5f,
  0x76, 0x31, 0x2f, 0x63, 0x6f, 0x6e, 0x76, 0x31, 0x64, 0x5f, 0x31, 0x32,
  0x2f, 0x63, 0x6f, 0x6e, 0x76, 0x31, 0x64, 0x2f, 0x45, 0x78, 0x70, 0x61,
  0x6e, 0x64, 0x44, 0x69, 0x6d, 0x73, 0x5f, 0x31, 0x00, 0x00, 0x00, 0x00,
  0x04, 0x00, 0x00, 0x00, 0x04, 0x00, 0x00, 0x00, 0x01, 0x00, 0x00, 0x00,
  0x03, 0x00, 0x00, 0x00, 0x04, 0x00, 0x00, 0x00, 0x2a, 0xfa, 0xff, 0xff,
  0x00, 0x00, 0x00, 0x09, 0x7c, 0x00, 0x00, 0x00, 0x19, 0x00, 0x00, 0x00,
  0x44, 0x00, 0x00, 0x00, 0x04, 0x00, 0x00, 0x00, 0xcc, 0xfa, 0xff, 0xff,
  0x30, 0x00, 0x00, 0x00, 0x24, 0x00, 0x00, 0x00, 0x18, 0x00, 0x00, 0x00,
  0x04, 0x00, 0x00, 0x00, 0x01, 0x00, 0x00, 0x00, 0xf3, 0xff, 0xff, 0xff,
  0xff, 0xff, 0xff, 0xff, 0x00, 0x00, 0x00, 0x00, 0x01, 0x00, 0x00, 0x00,
  0xcf, 0x2f, 0x60, 0x3a, 0x01, 0x00, 0x00, 0x00, 0xec, 0x60, 0xf4, 0x3d,
  0x01, 0x00, 0x00, 0x00, 0x52, 0x3e, 0xca, 0xbd, 0x2b, 0x00, 0x00, 0x00,
  0x30, 0x34, 0x5f, 0x4f, 0x72, 0x61, 0x6e, 0x67, 0x65, 0x4d, 0x69, 0x63,
  0x72, 0x6f, 0x44, 0x61, 0x72, 0x6b, 0x5f, 0x57, 0x4e, 0x31, 0x32, 0x5f,
  0x76, 0x31, 0x2f, 0x63, 0x6f, 0x6e, 0x76, 0x31, 0x64, 0x5f, 0x31, 0x32,
  0x2f, 0x63, 0x6f, 0x6e, 0x76, 0x31, 0x64, 0x00, 0x04, 0x00, 0x00, 0x00,
  0x01, 0x00, 0x00, 0x00, 0x01, 0x00, 0x00, 0x00, 0xe7, 0x00, 0x00, 0x00,
  0x04, 0x00, 0x00, 0x00, 0xc2, 0xfa, 0xff, 0xff, 0x00, 0x00, 0x00, 0x09,
  0x64, 0x00, 0x00, 0x00, 0x04, 0x00, 0x00, 0x00, 0x2c, 0x00, 0x00, 0x00,
  0x04, 0x00, 0x00, 0x00, 0xb4, 0xfa, 0xff, 0xff, 0x18, 0x00, 0x00, 0x00,
  0x04, 0x00, 0x00, 0x00, 0x01, 0x00, 0x00, 0x00, 0x00, 0x00, 0x00, 0x00,
  0x00, 0x00, 0x00, 0x00, 0x00, 0x00, 0x00, 0x00, 0x01, 0x00, 0x00, 0x00,
  0x00, 0x00, 0x00, 0x3c, 0x29, 0x00, 0x00, 0x00, 0x30, 0x34, 0x5f, 0x4f,
  0x72, 0x61, 0x6e, 0x67, 0x65, 0x4d, 0x69, 0x63, 0x72, 0x6f, 0x44, 0x61,
  0x72, 0x6b, 0x5f, 0x57, 0x4e, 0x31, 0x32, 0x5f, 0x76, 0x31, 0x2f, 0x63,
  0x6f, 0x6e, 0x76, 0x31, 0x64, 0x5f, 0x31, 0x32, 0x2f, 0x54, 0x61, 0x6e,
  0x68, 0x00, 0x00, 0x00, 0x04, 0x00, 0x00, 0x00, 0x01, 0x00, 0x00, 0x00,
  0x01, 0x00, 0x00, 0x00, 0xe7, 0x00, 0x00, 0x00, 0x04, 0x00, 0x00, 0x00,
  0x42, 0xfb, 0xff, 0xff, 0x00, 0x00, 0x00, 0x02, 0x90, 0x00, 0x00, 0x00,
  0x33, 0x00, 0x00, 0x00, 0x50, 0x00, 0x00, 0x00, 0x04, 0x00, 0x00, 0x00,
  0x34, 0xfb, 0xff, 0xff, 0x30, 0x00, 0x00, 0x00, 0x04, 0x00, 0x00, 0x00,
  0x04, 0x00, 0x00, 0x00, 0x00, 0x00, 0x00, 0x00, 0x00, 0x00, 0x00, 0x00,
  0x00, 0x00, 0x00, 0x00, 0x00, 0x00, 0x00, 0x00, 0x00, 0x00, 0x00, 0x00,
  0x00, 0x00, 0x00, 0x00, 0x00, 0x00, 0x00, 0x00, 0x00, 0x00, 0x00, 0x00,
  0x00, 0x00, 0x00, 0x00, 0x04, 0x00, 0x00, 0x00, 0xb9, 0xd0, 0xee, 0x37,
  0x7f, 0xc3, 0xfa, 0x37, 0xa1, 0x8e, 0xe4, 0x37, 0x7b, 0x7b, 0xf0, 0x37,
  0x30, 0x00, 0x00, 0x00, 0x30, 0x34, 0x5f, 0x4f, 0x72, 0x61, 0x6e, 0x67,
  0x65, 0x4d, 0x69, 0x63, 0x72, 0x6f, 0x44, 0x61, 0x72, 0x6b, 0x5f, 0x57,
  0x4e, 0x31, 0x32, 0x5f, 0x76, 0x31, 0x2f, 0x63, 0x6f, 0x6e, 0x76, 0x31,
  0x64, 0x5f, 0x31, 0x31, 0x2f, 0x63, 0x6f, 0x6e, 0x76, 0x31, 0x64, 0x5f,
  0x62, 0x69, 0x61, 0x73, 0x00, 0x00, 0x00, 0x00, 0x01, 0x00, 0x00, 0x00,
  0x04, 0x00, 0x00, 0x00, 0xe2, 0xfb, 0xff, 0xff, 0x00, 0x00, 0x00, 0x09,
  0xc4, 0x00, 0x00, 0x00, 0x06, 0x00, 0x00, 0x00, 0x7c, 0x00, 0x00, 0x00,
  0x04, 0x00, 0x00, 0x00, 0x84, 0xfc, 0xff, 0xff, 0x5c, 0x00, 0x00, 0x00,
  0x44, 0x00, 0x00, 0x00, 0x2c, 0x00, 0x00, 0x00, 0x04, 0x00, 0x00, 0x00,
  0x04, 0x00, 0x00, 0x00, 0x00, 0x00, 0x00, 0x00, 0x00, 0x00, 0x00, 0x00,
  0x00, 0x00, 0x00, 0x00, 0x00, 0x00, 0x00, 0x00, 0x00, 0x00, 0x00, 0x00,
  0x00, 0x00, 0x00, 0x00, 0x00, 0x00, 0x00, 0x00, 0x00, 0x00, 0x00, 0x00,
  0x04, 0x00, 0x00, 0x00, 0xb9, 0xd0, 0x6e, 0x3b, 0x7f, 0xc3, 0x7a, 0x3b,
  0xa1, 0x8e, 0x64, 0x3b, 0x7b, 0x7b, 0x70, 0x3b, 0x04, 0x00, 0x00, 0x00,
  0x18, 0xf3, 0xec, 0x3e, 0xa0, 0x07, 0xd9, 0x3e, 0xa8, 0x68, 0xc6, 0x3e,
  0xb8, 0x03, 0xcd, 0x3e, 0x04, 0x00, 0x00, 0x00, 0x8c, 0x78, 0xd5, 0xbe,
  0xf8, 0xcd, 0xf8, 0xbe, 0x84, 0xc5, 0xe2, 0xbe, 0x84, 0x9a, 0xee, 0xbe,
  0x38, 0x00, 0x00, 0x00, 0x30, 0x34, 0x5f, 0x4f, 0x72, 0x61, 0x6e, 0x67,
  0x65, 0x4d, 0x69, 0x63, 0x72, 0x6f, 0x44, 0x61, 0x72, 0x6b, 0x5f, 0x57,
  0x4e, 0x31, 0x32, 0x5f, 0x76, 0x31, 0x2f, 0x63, 0x6f, 0x6e, 0x76, 0x31,
  0x64, 0x5f, 0x31, 0x31, 0x2f, 0x63, 0x6f, 0x6e, 0x76, 0x31, 0x64, 0x2f,
  0x45, 0x78, 0x70, 0x61, 0x6e, 0x64, 0x44, 0x69, 0x6d, 0x73, 0x5f, 0x31,
  0x00, 0x00, 0x00, 0x00, 0x04, 0x00, 0x00, 0x00, 0x04, 0x00, 0x00, 0x00,
  0x01, 0x00, 0x00, 0x00, 0x03, 0x00, 0x00, 0x00, 0x04, 0x00, 0x00, 0x00,
  0xc2, 0xfc, 0xff, 0xff, 0x00, 0x00, 0x00, 0x09, 0x7c, 0x00, 0x00, 0x00,
  0x1a, 0x00, 0x00, 0x00, 0x44, 0x00, 0x00, 0x00, 0x04, 0x00, 0x00, 0x00,
  0x64, 0xfd, 0xff, 0xff, 0x30, 0x00, 0x00, 0x00, 0x24, 0x00, 0x00, 0x00,
  0x18, 0x00, 0x00, 0x00, 0x04, 0x00, 0x00, 0x00, 0x01, 0x00, 0x00, 0x00,
  0x0b, 0x00, 0x00, 0x00, 0x00, 0x00, 0x00, 0x00, 0x00, 0x00, 0x00, 0x00,
  0x01, 0x00, 0x00, 0x00, 0x6f, 0xa5, 0x48, 0x3a, 0x01, 0x00, 0x00, 0x00,
  0x5c, 0x5a, 0xb5, 0x3d, 0x01, 0x00, 0x00, 0x00, 0x37, 0x5f, 0xda, 0xbd,
  0x2b, 0x00, 0x00, 0x00, 0x30, 0x34, 0x5f, 0x4f, 0x72, 0x61, 0x6e, 0x67,
  0x65, 0x4d, 0x69, 0x63, 0x72, 0x6f, 0x44, 0x61, 0x72, 0x6b, 0x5f, 0x57,
  0x4e, 0x31, 0x32, 0x5f, 0x76, 0x31, 0x2f, 0x63, 0x6f, 0x6e, 0x76, 0x31,
  0x64, 0x5f, 0x31, 0x31, 0x2f, 0x63, 0x6f, 0x6e, 0x76, 0x31, 0x64, 0x00,
  0x04, 0x00, 0x00, 0x00, 0x01, 0x00, 0x00, 0x00, 0x01, 0x00, 0x00, 0x00,
  0xe9, 0x00, 0x00, 0x00, 0x04, 0x00, 0x00, 0x00, 0x5a, 0xfd, 0xff, 0xff,
  0x00, 0x00, 0x00, 0x09, 0x64, 0x00, 0x00, 0x00, 0x2c, 0x00, 0x00, 0x00,
  0x2c, 0x00, 0x00, 0x00, 0x04, 0x00, 0x00, 0x00, 0x4c, 0xfd, 0xff, 0xff,
  0x18, 0x00, 0x00, 0x00, 0x04, 0x00, 0x00, 0x00, 0x01, 0x00, 0x00, 0x00,
  0x00, 0x00, 0x00, 0x00, 0x00, 0x00, 0x00, 0x00, 0x00, 0x00, 0x00, 0x00,
  0x01, 0x00, 0x00, 0x00, 0x00, 0x00, 0x00, 0x3c, 0x29, 0x00, 0x00, 0x00,
  0x30, 0x34, 0x5f, 0x4f, 0x72, 0x61, 0x6e, 0x67, 0x65, 0x4d, 0x69, 0x63,
  0x72, 0x6f, 0x44, 0x61, 0x72, 0x6b, 0x5f, 0x57, 0x4e, 0x31, 0x32, 0x5f,
  0x76, 0x31, 0x2f, 0x63, 0x6f, 0x6e, 0x76, 0x31, 0x64, 0x5f, 0x31, 0x31,
  0x2f, 0x54, 0x61, 0x6e, 0x68, 0x00, 0x00, 0x00, 0x04, 0x00, 0x00, 0x00,
  0x01, 0x00, 0x00, 0x00, 0x01, 0x00, 0x00, 0x00, 0xe9, 0x00, 0x00, 0x00,
  0x04, 0x00, 0x00, 0x00, 0xda, 0xfd, 0xff, 0xff, 0x00, 0x00, 0x00, 0x02,
  0x90, 0x00, 0x00, 0x00, 0x23, 0x00, 0x00, 0x00, 0x50, 0x00, 0x00, 0x00,
  0x04, 0x00, 0x00, 0x00, 0xcc, 0xfd, 0xff, 0xff, 0x30, 0x00, 0x00, 0x00,
  0x04, 0x00, 0x00, 0x00, 0x04, 0x00, 0x00, 0x00, 0x00, 0x00, 0x00, 0x00,
  0x00, 0x00, 0x00, 0x00, 0x00, 0x00, 0x00, 0x00, 0x00, 0x00, 0x00, 0x00,
  0x00, 0x00, 0x00, 0x00, 0x00, 0x00, 0x00, 0x00, 0x00, 0x00, 0x00, 0x00,
  0x00, 0x00, 0x00, 0x00, 0x00, 0x00, 0x00, 0x00, 0x04, 0x00, 0x00, 0x00,
  0x3a, 0x95, 0xfc, 0x37, 0x4f, 0x3f, 0xf2, 0x37, 0x81, 0x0c, 0xd1, 0x37,
  0xaf, 0x31, 0xff, 0x37, 0x30, 0x00, 0x00, 0x00, 0x30, 0x34, 0x5f, 0x4f,
  0x72, 0x61, 0x6e, 0x67, 0x65, 0x4d, 0x69, 0x63, 0x72, 0x6f, 0x44, 0x61,
  0x72, 0x6b, 0x5f, 0x57, 0x4e, 0x31, 0x32, 0x5f, 0x76, 0x31, 0x2f, 0x63,
  0x6f, 0x6e, 0x76, 0x31, 0x64, 0x5f, 0x31, 0x30, 0x2f, 0x63, 0x6f, 0x6e,
  0x76, 0x31, 0x64, 0x5f, 0x62, 0x69, 0x61, 0x73, 0x00, 0x00, 0x00, 0x00,
  0x01, 0x00, 0x00, 0x00, 0x04, 0x00, 0x00, 0x00, 0x7a, 0xfe, 0xff, 0xff,
  0x00, 0x00, 0x00, 0x09, 0xc8, 0x00, 0x00, 0x00, 0x08, 0x00, 0x00, 0x00,
  0x80, 0x00, 0x00, 0x00, 0x04, 0x00, 0x00, 0x00, 0x1c, 0xff, 0xff, 0xff,
  0x60, 0x00, 0x00, 0x00, 0x48, 0x00, 0x00, 0x00, 0x30, 0x00, 0x00, 0x00,
  0x04, 0x00, 0x00, 0x00, 0x04, 0x00, 0x00, 0x00, 0x00, 0x00, 0x00, 0x00,
  0x00, 0x00, 0x00, 0x00, 0x00, 0x00, 0x00, 0x00, 0x00, 0x00, 0x00, 0x00,
  0x00, 0x00, 0x00, 0x00, 0x00, 0x00, 0x00, 0x00, 0x00, 0x00, 0x00, 0x00,
  0x00, 0x00, 0x00, 0x00, 0x00, 0x00, 0x00, 0x00, 0x04, 0x00, 0x00, 0x00,
  0x3a, 0x95, 0x7c, 0x3b, 0x4f, 0x3f, 0x72, 0x3b, 0x81, 0x0c, 0x51, 0x3b,
  0xaf, 0x31, 0x7f, 0x3b, 0x04, 0x00, 0x00, 0x00, 0x80, 0xff, 0xd7, 0x3e,
  0xd0, 0x5a, 0xf0, 0x3e, 0x68, 0x6a, 0xcf, 0x3e, 0x0c, 0xdf, 0xfa, 0x3e,
  0x04, 0x00, 0x00, 0x00, 0x10, 0x9c, 0xfa, 0xbe, 0x50, 0x43, 0xe3, 0xbe,
  0xe4, 0xea, 0xcd, 0xbe, 0x4c, 0x33, 0xfd, 0xbe, 0x38, 0x00, 0x00, 0x00,
  0x30, 0x34, 0x5f, 0x4f, 0x72, 0x61, 0x6e, 0x67, 0x65, 0x4d, 0x69, 0x63,
  0x72, 0x6f, 0x44, 0x61, 0x72, 0x6b, 0x5f, 0x57, 0x4e, 0x31, 0x32, 0x5f,
  0x76, 0x31, 0x2f, 0x63, 0x6f, 0x6e, 0x76, 0x31, 0x64, 0x5f, 0x31, 0x30,
  0x2f, 0x63, 0x6f, 0x6e, 0x76, 0x31, 0x64, 0x2f, 0x45, 0x78, 0x70, 0x61,
  0x6e, 0x64, 0x44, 0x69, 0x6d, 0x73, 0x5f, 0x31, 0x00, 0x00, 0x00, 0x00,
  0x04, 0x00, 0x00, 0x00, 0x04, 0x00, 0x00, 0x00, 0x01, 0x00, 0x00, 0x00,
  0x03, 0x00, 0x00, 0x00, 0x04, 0x00, 0x00, 0x00, 0x5e, 0xff, 0xff, 0xff,
  0x00, 0x00, 0x00, 0x09, 0x84, 0x00, 0x00, 0x00, 0x2a, 0x00, 0x00, 0x00,
  0x4c, 0x00, 0x00, 0x00, 0x10, 0x00, 0x00, 0x00, 0x0c, 0x00, 0x14, 0x00,
  0x04, 0x00, 0x08, 0x00, 0x0c, 0x00, 0x10, 0x00, 0x0c, 0x00, 0x00, 0x00,
  0x2c, 0x00, 0x00, 0x00, 0x20, 0x00, 0x00, 0x00, 0x14, 0x00, 0x00, 0x00,
  0x04, 0x00, 0x00, 0x00, 0x01, 0x00, 0x00, 0x00, 0xf8, 0xff, 0xff, 0xff,
  0xff, 0xff, 0xff, 0xff, 0x01, 0x00, 0x00, 0x00, 0x11, 0x43, 0x34, 0x3a,
  0x01, 0x00, 0x00, 0x00, 0xa1, 0x9a, 0xbd, 0x3d, 0x01, 0x00, 0x00, 0x00,
  0xfa, 0x82, 0xa9, 0xbd, 0x2b, 0x00, 0x00, 0x00, 0x30, 0x34, 0x5f, 0x4f,
  0x72, 0x61, 0x6e, 0x67, 0x65, 0x4d, 0x69, 0x63, 0x72, 0x6f, 0x44, 0x61,
  0x72, 0x6b, 0x5f, 0x57, 0x4e, 0x31, 0x32, 0x5f, 0x76, 0x31, 0x2f, 0x63,
  0x6f, 0x6e, 0x76, 0x31, 0x64, 0x5f, 0x31, 0x30, 0x2f, 0x63, 0x6f, 0x6e,
  0x76, 0x31, 0x64, 0x00, 0x04, 0x00, 0x00, 0x00, 0x01, 0x00, 0x00, 0x00,
  0x01, 0x00, 0x00, 0x00, 0xeb, 0x00, 0x00, 0x00, 0x04, 0x00, 0x00, 0x00,
  0x00, 0x00, 0x0e, 0x00, 0x18, 0x00, 0x08, 0x00, 0x07, 0x00, 0x0c, 0x00,
  0x10, 0x00, 0x14, 0x00, 0x0e, 0x00, 0x00, 0x00, 0x00, 0x00, 0x00, 0x09,
  0x6c, 0x00, 0x00, 0x00, 0x07, 0x00, 0x00, 0x00, 0x34, 0x00, 0x00, 0x00,
  0x10, 0x00, 0x00, 0x00, 0x0c, 0x00, 0x0c, 0x00, 0x00, 0x00, 0x00, 0x00,
  0x04, 0x00, 0x08, 0x00, 0x0c, 0x00, 0x00, 0x00, 0x14, 0x00, 0x00, 0x00,
  0x04, 0x00, 0x00, 0x00, 0x01, 0x00, 0x00, 0x00, 0x00, 0x00, 0x00, 0x00,
  0x00, 0x00, 0x00, 0x00, 0x01, 0x00, 0x00, 0x00, 0x00, 0x00, 0x00, 0x3c,
  0x29, 0x00, 0x00, 0x00, 0x30, 0x34, 0x5f, 0x4f, 0x72, 0x61, 0x6e, 0x67,
  0x65, 0x4d, 0x69, 0x63, 0x72, 0x6f, 0x44, 0x61, 0x72, 0x6b, 0x5f, 0x57,
  0x4e, 0x31, 0x32, 0x5f, 0x76, 0x31, 0x2f, 0x63, 0x6f, 0x6e, 0x76, 0x31,
  0x64, 0x5f, 0x31, 0x30, 0x2f, 0x54, 0x61, 0x6e, 0x68, 0x00, 0x00, 0x00,
  0x04, 0x00, 0x00, 0x00, 0x01, 0x00, 0x00, 0x00, 0x01, 0x00, 0x00, 0x00,
  0xeb, 0x00, 0x00, 0x00, 0x04, 0x00, 0x00, 0x00, 0x04, 0x00, 0x00, 0x00,
  0x4c, 0x00, 0x00, 0x00, 0x30, 0x00, 0x00, 0x00, 0x1c, 0x00, 0x00, 0x00,
  0x04, 0x00, 0x00, 0x00, 0xe6, 0xff, 0xff, 0xff, 0x00, 0x00, 0x00, 0x1c,
  0x02, 0x00, 0x00, 0x00, 0x00, 0x00, 0x06, 0x00, 0x06, 0x00, 0x05, 0x00,
  0x06, 0x00, 0x00, 0x00, 0x00, 0x16, 0x0a, 0x00, 0x0e, 0x00, 0x07, 0x00,
  0x00, 0x00, 0x08, 0x00, 0x0a, 0x00, 0x00, 0x00, 0x00, 0x00, 0x00, 0x04,
  0x03, 0x00, 0x00, 0x00, 0x00, 0x00, 0x0a, 0x00, 0x0c, 0x00, 0x07, 0x00,
  0x00, 0x00, 0x08, 0x00, 0x0a, 0x00, 0x00, 0x00, 0x00, 0x00, 0x00, 0x03,
  0x03, 0x00, 0x00, 0x00
};
unsigned int model_tflite_len = 12160;
