#include "d_data.h"

ai_handle ai_d_data_weights_get(void)
{

  AI_ALIGNED(4)
  static const ai_u8 s_d_weights[ 2196 ] = {
    0xe0, 0x3c, 0x68, 0xbe, 0x80, 0xb4, 0x9c, 0x3b, 0xf8, 0x69,
    0xc9, 0x3d, 0x90, 0x55, 0x63, 0x3e, 0xf2, 0x3d, 0xd2, 0x3e,
    0xa8, 0x6d, 0xed, 0xbd, 0x1c, 0xaa, 0x3e, 0x3e, 0x18, 0xc0,
    0x41, 0x3e, 0xaa, 0x9b, 0xe8, 0xbe, 0x2c, 0x0c, 0x34, 0x3e,
    0x6e, 0x1c, 0xcc, 0x3e, 0x91, 0xba, 0x15, 0x3f, 0x00, 0x00,
    0x00, 0x00, 0x00, 0x00, 0x00, 0x00, 0x00, 0x00, 0x00, 0x00,
    0x00, 0x00, 0x00, 0x00, 0xa8, 0xe8, 0x9c, 0x3e, 0xe8, 0x9b,
    0x13, 0x3e, 0x00, 0xe8, 0xa1, 0x3c, 0x80, 0x53, 0x4a, 0xbd,
    0xd0, 0xf9, 0xc6, 0x3d, 0x70, 0xe2, 0xe2, 0xbd, 0x0c, 0x1f,
    0xa1, 0x3e, 0x80, 0x92, 0x76, 0xbd, 0x30, 0x77, 0xa0, 0x3e,
    0xf4, 0x70, 0xb8, 0x3e, 0x30, 0x5b, 0x8c, 0xbe, 0x50, 0x02,
    0xee, 0x3d, 0x20, 0xe8, 0xdf, 0xbe, 0x20, 0xdf, 0xbe, 0xbd,
    0x20, 0x2e, 0x65, 0xbe, 0x60, 0xfb, 0x18, 0xbe, 0x40, 0x8e,
    0x55, 0x3d, 0x80, 0x31, 0x02, 0xbe, 0xd0, 0x57, 0xe4, 0xbd,
    0x54, 0xd0, 0xb1, 0xbe, 0x80, 0x5a, 0xa4, 0x3e, 0x70, 0x83,
    0x83, 0xbe, 0x98, 0xcb, 0x77, 0xbe, 0x20, 0xcf, 0xc0, 0x3e,
    0x80, 0x36, 0x4d, 0xbe, 0x00, 0x7e, 0x9c, 0x3b, 0x4c, 0xa5,
    0xb4, 0xbe, 0x84, 0x59, 0xa6, 0xbe, 0x88, 0xf0, 0xcb, 0xbe,
    0x18, 0x49, 0x33, 0x3e, 0x10, 0x16, 0x87, 0x3e, 0xc0, 0x90,
    0xa8, 0xbc, 0x68, 0x3e, 0xd9, 0xbe, 0x1c, 0x47, 0xe1, 0x3e,
    0x00, 0x75, 0x27, 0x3c, 0x00, 0xc1, 0xe7, 0x3c, 0x80, 0xc1,
    0x7d, 0xbc, 0xc0, 0x20, 0xe3, 0xbe, 0xb0, 0x41, 0x37, 0xbe,
    0x78, 0xcb, 0x9c, 0x3e, 0x60, 0x73, 0x37, 0x3e, 0x54, 0x42,
    0xc8, 0x3e, 0x3c, 0x0e, 0xcb, 0xbe, 0x84, 0xbd, 0x9f, 0xbe,
    0x9c, 0x9b, 0xe6, 0x3e, 0x20, 0x6d, 0x31, 0xbe, 0xa0, 0xea,
    0x9a, 0xbe, 0x30, 0x6f, 0xec, 0x3d, 0x00, 0x00, 0x00, 0x00,
    0x00, 0x00, 0x00, 0x00, 0x00, 0x00, 0x00, 0x00, 0x00, 0x00,
    0x00, 0x00, 0xa8, 0x7d, 0xf6, 0xbe, 0x8c, 0x97, 0x9b, 0xbe,
    0x20, 0xea, 0x8a, 0x3d, 0xd0, 0xf3, 0xdf, 0x3e, 0xc8, 0xe2,
    0x8f, 0x3e, 0x98, 0x3d, 0xfb, 0xbe, 0x74, 0x47, 0xf1, 0xbe,
    0x0c, 0x91, 0x8e, 0xbe, 0x60, 0x8e, 0x10, 0x3e, 0xc0, 0x99,
    0xf1, 0x3c, 0x90, 0x04, 0xcf, 0xbe, 0xc8, 0xb3, 0x80, 0xbe,
    0x80, 0x19, 0x8e, 0x3e, 0x20, 0x3f, 0x9c, 0x3e, 0xfc, 0x3d,
    0xe9, 0xbe, 0x28, 0x32, 0x54, 0x3e, 0xb0, 0x28, 0xb6, 0xbd,
    0x60, 0xfb, 0xa7, 0xbd, 0x48, 0xe0, 0x9f, 0xbe, 0x48, 0x7e,
    0xa4, 0xbe, 0xb8, 0x95, 0x9b, 0xbe, 0x00, 0x0b, 0x8b, 0x3d,
    0x74, 0xe8, 0x8d, 0x3e, 0xa0, 0xc5, 0x4d, 0x3d, 0xc0, 0x70,
    0xf4, 0xbe, 0x04, 0xac, 0xd0, 0x3e, 0x88, 0x4d, 0x36, 0xbe,
    0xe0, 0x07, 0x12, 0x3d, 0xc8, 0xf9, 0xa4, 0x3e, 0x28, 0xa7,
    0xec, 0xbe, 0xe0, 0x45, 0x4f, 0x3d, 0x70, 0x0a, 0x37, 0x3e,
    0xf0, 0x8f, 0xf9, 0x3e, 0x80, 0xa2, 0x89, 0xbc, 0x50, 0x60,
    0xbb, 0xbd, 0x60, 0x78, 0x3e, 0xbd, 0xf4, 0xca, 0xe5, 0xbe,
    0xc0, 0x01, 0x8a, 0xbc, 0x34, 0x2d, 0xbb, 0x3e, 0x00, 0xea,
    0xfa, 0x3c, 0x08, 0xd0, 0x4a, 0xbe, 0x78, 0x4e, 0x77, 0x3e,
    0x84, 0xf3, 0x9b, 0xbe, 0x44, 0x2c, 0x8d, 0xbe, 0x40, 0xc4,
    0x6f, 0xbe, 0xfc, 0x33, 0x85, 0x3e, 0x48, 0x55, 0xe8, 0xbe,
    0xf0, 0x1c, 0x6a, 0xbe, 0x00, 0x00, 0x00, 0x00, 0x00, 0x00,
    0x00, 0x00, 0x00, 0x00, 0x00, 0x00, 0x00, 0x00, 0x00, 0x00,
    0xa0, 0x3c, 0x85, 0x3d, 0xfc, 0x06, 0x99, 0x3e, 0xb4, 0x46,
    0xce, 0x3e, 0x58, 0x0a, 0xdd, 0xbe, 0x38, 0x08, 0x2e, 0xbe,
    0x6c, 0x87, 0xa6, 0x3e, 0x2c, 0x15, 0xca, 0x3e, 0xfc, 0x7d,
    0x90, 0x3e, 0x58, 0xcd, 0xf6, 0xbe, 0xf4, 0x04, 0xfa, 0xbe,
    0x70, 0x54, 0xc3, 0xbe, 0x88, 0x76, 0xc4, 0x3e, 0x2c, 0xa9,
    0xe7, 0xbe, 0xe0, 0xb7, 0x32, 0x3e, 0xb0, 0x89, 0x49, 0x3e,
    0xec, 0x4f, 0xcb, 0x3e, 0x9c, 0xe5, 0xe6, 0x3e, 0xe0, 0x24,
    0xe6, 0xbd, 0xd8, 0x18, 0x5f, 0xbe, 0x40, 0x39, 0x5a, 0xbe,
    0x44, 0xe5, 0xbe, 0xbe, 0xd4, 0xd9, 0xe7, 0x3e, 0xd0, 0x40,
    0x93, 0x3d, 0x94, 0xa4, 0xcd, 0xbe, 0x18, 0xba, 0x0f, 0x3e,
    0xc8, 0x2d, 0x0b, 0x3e, 0x80, 0x03, 0x5c, 0xbc, 0xe0, 0x82,
    0x94, 0xbd, 0xc4, 0x42, 0xbf, 0x3e, 0xc0, 0xef, 0xc6, 0xbc,
    0x00, 0x54, 0xa2, 0x3d, 0x90, 0x2b, 0x9d, 0x3d, 0x80, 0x89,
    0x46, 0x3e, 0x80, 0xd5, 0x5d, 0x3d, 0x88, 0x75, 0x42, 0x3e,
    0xa8, 0x9f, 0x59, 0x3e, 0x30, 0xde, 0x30, 0xbe, 0x88, 0xee,
    0xed, 0xbe, 0x28, 0x59, 0x9e, 0x3e, 0xa0, 0x8c, 0xcc, 0x3e,
    0x80, 0x47, 0x84, 0x3c, 0xd4, 0x47, 0xd1, 0x3e, 0xa0, 0x33,
    0xe3, 0xbd, 0xd0, 0xd5, 0x55, 0xbe, 0x54, 0x29, 0xe1, 0x3e,
    0xc4, 0x0c, 0xc0, 0xbe, 0xd0, 0x99, 0xfe, 0x3e, 0xa0, 0x2a,
    0xb1, 0x3e, 0x00, 0x00, 0x00, 0x00, 0x00, 0x00, 0x00, 0x00,
    0x00, 0x00, 0x00, 0x00, 0x00, 0x00, 0x00, 0x00, 0xb0, 0x84,
    0x6a, 0xbe, 0xb0, 0x04, 0xa8, 0x3e, 0x8c, 0x9e, 0xb8, 0x3e,
    0xf8, 0x9b, 0x92, 0xbe, 0xf0, 0x81, 0x16, 0x3e, 0xc0, 0xdc,
    0x19, 0x3d, 0x20, 0x88, 0x6a, 0xbd, 0x50, 0x47, 0x6a, 0x3e,
    0xec, 0xad, 0xb7, 0x3e, 0x90, 0x3b, 0x5c, 0x3e, 0x00, 0xac,
    0x27, 0x3b, 0x8c, 0x8f, 0xfe, 0xbe, 0xf0, 0xe5, 0x50, 0x3e,
    0xec, 0x09, 0xd2, 0xbe, 0x60, 0x21, 0x05, 0xbe, 0xa4, 0x0c,
    0xc4, 0x3e, 0xb4, 0xc5, 0xf6, 0xbe, 0xa0, 0xa2, 0x7b, 0xbd,
    0x00, 0xfa, 0x64, 0x3d, 0xa4, 0x35, 0xb0, 0xbe, 0xa0, 0x0b,
    0xa9, 0x3d, 0xe0, 0xb8, 0xef, 0x3e, 0xf8, 0x56, 0xbf, 0xbe,
    0xb0, 0x38, 0xc0, 0x3e, 0x24, 0x4f, 0xf2, 0xbe, 0x98, 0x36,
    0x82, 0x3e, 0x44, 0x7a, 0xdb, 0xbe, 0xd8, 0x72, 0x7d, 0x3e,
    0xb0, 0xed, 0x70, 0x3e, 0xbc, 0x3c, 0xff, 0xbe, 0xb8, 0xc4,
    0x43, 0x3e, 0xe0, 0xf9, 0x35, 0xbe, 0x50, 0xd8, 0x99, 0xbe,
    0x00, 0xb2, 0xf1, 0x3d, 0xcc, 0x1f, 0xbf, 0x3e, 0xf4, 0x70,
    0xbb, 0xbe, 0xa8, 0x24, 0x16, 0x3e, 0xec, 0x9a, 0xa0, 0xbe,
    0x34, 0x11, 0x9d, 0xbe, 0xe0, 0x08, 0xc8, 0xbe, 0x34, 0x3b,
    0xa0, 0xbe, 0xe8, 0x32, 0x18, 0x3e, 0x18, 0x2d, 0xcc, 0xbe,
    0x10, 0x8b, 0xcb, 0x3e, 0x2c, 0xa3, 0xe4, 0xbe, 0x84, 0x6c,
    0x9a, 0xbe, 0x60, 0xe3, 0x04, 0x3d, 0xc4, 0xb8, 0x98, 0xbe,
    0x00, 0x00, 0x00, 0x00, 0x00, 0x00, 0x00, 0x00, 0x00, 0x00,
    0x00, 0x00, 0x00, 0x00, 0x00, 0x00, 0xdc, 0xa9, 0x81, 0x3e,
    0x00, 0x04, 0x4b, 0x3c, 0x90, 0x27, 0x4a, 0xbe, 0xd8, 0x22,
    0x1d, 0xbe, 0xc0, 0x42, 0x9e, 0x3e, 0x54, 0x15, 0xa4, 0x3e,
    0x20, 0x86, 0x78, 0x3d, 0x10, 0x87, 0x29, 0x3e, 0x58, 0xc8,
    0xf5, 0xbe, 0x1c, 0x67, 0xdf, 0xbe, 0x60, 0xe9, 0xc1, 0x3e,
    0xf8, 0x90, 0x45, 0xbe, 0x68, 0x25, 0x3b, 0xbe, 0x18, 0xcc,
    0xf7, 0xbe, 0x1c, 0x1b, 0xc0, 0xbe, 0x20, 0x94, 0xdc, 0xbd,
    0xd0, 0x43, 0xbf, 0x3e, 0x40, 0x33, 0xb1, 0x3d, 0xac, 0x95,
    0x95, 0x3e, 0x20, 0x50, 0xcb, 0xbd, 0xd8, 0x0b, 0x3c, 0x3e,
    0xa4, 0x2b, 0x9d, 0x3e, 0xec, 0xf9, 0xf0, 0xbe, 0xc0, 0x6c,
    0x84, 0x3c, 0x18, 0xcb, 0xbd, 0x3e, 0xb0, 0xd5, 0x2a, 0xbe,
    0xb8, 0x20, 0xf6, 0xbe, 0x70, 0x83, 0x8a, 0x3d, 0xd8, 0xc6,
    0x00, 0xbe, 0x48, 0x92, 0x6b, 0x3e, 0xcc, 0x68, 0xb5, 0x3e,
    0x84, 0x94, 0xc1, 0xbe, 0xc4, 0x54, 0x90, 0x3e, 0x30, 0xe7,
    0xaf, 0x3e, 0x90, 0x2c, 0xf7, 0x3d, 0x40, 0x5b, 0x38, 0xbe,
    0x78, 0x81, 0xf8, 0xbe, 0xd8, 0xb4, 0x56, 0xbe, 0xf8, 0x2c,
    0x59, 0xbe, 0x34, 0xcd, 0x9f, 0x3e, 0x70, 0x05, 0xf2, 0xbd,
    0xc0, 0x4d, 0x7e, 0xbd, 0xd4, 0x42, 0xb0, 0xbe, 0xb0, 0x90,
    0x25, 0x3e, 0x50, 0x20, 0x9e, 0xbd, 0xac, 0x09, 0xbb, 0x3e,
    0x00, 0x54, 0x63, 0x3b, 0x60, 0x71, 0x44, 0x3e, 0x00, 0x00,
    0x00, 0x00, 0x00, 0x00, 0x00, 0x00, 0x00, 0x00, 0x00, 0x00,
    0x00, 0x00, 0x00, 0x00, 0x94, 0x6c, 0xf7, 0x3e, 0xd0, 0xa0,
    0xa2, 0x3d, 0x08, 0x8e, 0x5e, 0x3e, 0xc0, 0x8b, 0x02, 0xbd,
    0xc0, 0xe2, 0x81, 0x3e, 0xe0, 0x58, 0xfd, 0x3e, 0x20, 0xb0,
    0x50, 0xbe, 0x44, 0xa0, 0xfe, 0xbe, 0x00, 0x4e, 0x02, 0xbe,
    0x04, 0xd0, 0xd2, 0x3e, 0x10, 0x7b, 0x37, 0x3e, 0x18, 0xb5,
    0x8d, 0xbe, 0xf0, 0xb4, 0xf8, 0xbd, 0xcc, 0x19, 0xe0, 0xbe,
    0x24, 0x74, 0x9e, 0x3e, 0x40, 0xc9, 0xb0, 0xbc, 0x98, 0x92,
    0xf6, 0x3e, 0x00, 0xfc, 0xd2, 0x3d, 0x38, 0x9f, 0xfa, 0xbe,
    0xe0, 0xb8, 0xc4, 0x3d, 0x20, 0x48, 0xb0, 0xbe, 0x68, 0x7a,
    0xaa, 0x3e, 0xec, 0x14, 0xc6, 0xbe, 0x40, 0x02, 0x0c, 0xbd,
    0x98, 0x47, 0xee, 0x3e, 0x54, 0x6a, 0xab, 0xbe, 0xac, 0xe6,
    0xff, 0x3e, 0x20, 0xfa, 0x7f, 0xbe, 0x90, 0xd2, 0xc7, 0x3d,
    0x80, 0x6b, 0x50, 0x3e, 0xa0, 0xdb, 0x9e, 0xbe, 0xa0, 0x79,
    0x36, 0xbe, 0xdc, 0x13, 0xf3, 0xbe, 0x9c, 0xbb, 0xde, 0x3e,
    0x14, 0xb4, 0xff, 0xbe, 0x64, 0x00, 0xa3, 0xbe, 0x80, 0xa5,
    0x1a, 0xbe, 0x60, 0x7a, 0xb5, 0xbe, 0x80, 0xc8, 0x09, 0xbe,
    0x80, 0xde, 0x54, 0xbe, 0xfc, 0x57, 0xd8, 0x3e, 0x4c, 0x04,
    0x9c, 0x3e, 0x54, 0x71, 0x90, 0x3e, 0x58, 0x82, 0x7e, 0x3e,
    0xc8, 0x69, 0xe6, 0x3e, 0x00, 0xc4, 0xd0, 0x3e, 0xa0, 0xba,
    0x56, 0x3d, 0x84, 0x72, 0xd4, 0x3e, 0x00, 0x00, 0x00, 0x00,
    0x00, 0x00, 0x00, 0x00, 0x00, 0x00, 0x00, 0x00, 0x00, 0x00,
    0x00, 0x00, 0x1c, 0xb2, 0x88, 0xbe, 0xb8, 0x41, 0xd8, 0xbe,
    0xb8, 0x46, 0x61, 0x3e, 0x80, 0x0a, 0xda, 0x3c, 0xd8, 0x83,
    0xf8, 0xbe, 0x34, 0xd5, 0xcf, 0xbe, 0x00, 0x32, 0xff, 0xbd,
    0xd0, 0x08, 0x07, 0x3e, 0x78, 0xd5, 0x33, 0x3e, 0x50, 0x58,
    0x9c, 0xbe, 0x10, 0xc3, 0x76, 0x3e, 0x84, 0x8e, 0xf4, 0x3e,
    0x50, 0xdc, 0x4f, 0x3e, 0xc0, 0x3c, 0x88, 0x3d, 0xa0, 0xff,
    0x5b, 0xbe, 0xd8, 0xbb, 0xb1, 0xbe, 0x90, 0x35, 0x54, 0x3e,
    0xd8, 0x7a, 0xb3, 0xbe, 0x50, 0x96, 0xa3, 0x3e, 0xc8, 0x39,
    0x2d, 0xbe, 0x64, 0xc5, 0x8b, 0x3e, 0x00, 0x98, 0xf6, 0x3c,
    0x90, 0xf2, 0x7b, 0xbe, 0x58, 0x15, 0x11, 0xbe, 0x80, 0x51,
    0xe5, 0x3c, 0x44, 0x21, 0x8d, 0xbe, 0xa4, 0xbc, 0xc2, 0x3e,
    0x14, 0x28, 0x91, 0x3e, 0x30, 0xa9, 0x61, 0xbe, 0x90, 0xfb,
    0xcf, 0xbd, 0xf0, 0x26, 0x5f, 0xbe, 0x60, 0xa6, 0xaa, 0xbe,
    0x58, 0x37, 0x4c, 0xbe, 0x9c, 0x7f, 0xe7, 0xbe, 0x6c, 0xac,
    0xf8, 0x3e, 0x30, 0x5d, 0xda, 0x3e, 0xc8, 0x47, 0x37, 0xbe,
    0x40, 0xd8, 0x82, 0x3c, 0xa0, 0x3e, 0x3f, 0x3d, 0x0c, 0x74,
    0xe8, 0x3e, 0x00, 0xb9, 0x6b, 0xbd, 0xe8, 0x97, 0x03, 0x3e,
    0xc0, 0xb1, 0x1b, 0x3e, 0x00, 0x2f, 0x1f, 0x3e, 0x90, 0x35,
    0xc6, 0x3d, 0x80, 0x10, 0x39, 0xbe, 0xa8, 0xfe, 0x13, 0x3e,
    0xc0, 0xa5, 0x56, 0xbe, 0x00, 0x00, 0x00, 0x00, 0x00, 0x00,
    0x00, 0x00, 0x00, 0x00, 0x00, 0x00, 0x00, 0x00, 0x00, 0x00,
    0xa4, 0xf4, 0xfb, 0xbe, 0xe4, 0x09, 0xc6, 0x3e, 0x28, 0xa7,
    0x0c, 0xbe, 0xd4, 0x9f, 0xf0, 0x3e, 0x28, 0x8f, 0xef, 0xbe,
    0xbc, 0x08, 0xd7, 0xbe, 0x68, 0x71, 0x1f, 0xbe, 0xe8, 0x1f,
    0xf1, 0x3e, 0x30, 0x50, 0x7d, 0xbe, 0x80, 0x86, 0xf3, 0x3d,
    0x40, 0xae, 0xe0, 0x3d, 0x30, 0x2d, 0x9f, 0x3d, 0xdc, 0xd3,
    0xf8, 0xbe, 0x24, 0xde, 0xf6, 0x3e, 0x00, 0xe1, 0xab, 0x3b,
    0x18, 0x00, 0x1c, 0x3e, 0x80, 0x75, 0x65, 0xbd, 0xe4, 0xe0,
    0xb7, 0x3e, 0x18, 0x55, 0x28, 0x3e, 0x04, 0xad, 0xaf, 0x3e,
    0x98, 0xc5, 0xa3, 0x3e, 0x88, 0xa7, 0x8d, 0xbe, 0xb8, 0x55,
    0x31, 0x3e, 0x48, 0x21, 0x08, 0xbe, 0x40, 0x91, 0x81, 0x3c,
    0xb8, 0x69, 0x18, 0x3e, 0x58, 0x11, 0x1a, 0xbe, 0xa0, 0xd1,
    0x98, 0x3e, 0xb8, 0xab, 0x5f, 0xbe, 0xc8, 0xd9, 0x4b, 0x3e,
    0xe0, 0xc7, 0xec, 0xbe, 0x10, 0x70, 0x35, 0x3e, 0x38, 0xad,
    0x72, 0x3e, 0xdc, 0x30, 0xa7, 0xbe, 0x40, 0xc3, 0xc9, 0x3e,
    0xe4, 0xf1, 0xaa, 0x3e, 0x40, 0x55, 0x75, 0xbe, 0x64, 0xbe,
    0x8d, 0xbe, 0x5c, 0x5c, 0x8f, 0x3e, 0xc8, 0x7f, 0x86, 0x3e,
    0xb0, 0x19, 0x75, 0xbe, 0x40, 0x09, 0x9b, 0xbc, 0x60, 0x99,
    0xf0, 0x3d, 0x84, 0xc7, 0xe9, 0x3e, 0x60, 0xe2, 0x13, 0x3e,
    0x1c, 0xb1, 0xc7, 0x3e, 0x08, 0x4a, 0x99, 0xbe, 0x78, 0x15,
    0x64, 0x3e, 0x00, 0x00, 0x00, 0x00, 0x00, 0x00, 0x00, 0x00,
    0x00, 0x00, 0x00, 0x00, 0x00, 0x00, 0x00, 0x00, 0x00, 0x3c,
    0x65, 0xbd, 0xe0, 0xb2, 0x39, 0xbe, 0x08, 0xff, 0x64, 0x3e,
    0x60, 0xba, 0x3f, 0x3d, 0x00, 0x6e, 0x2c, 0xbd, 0xa8, 0xf4,
    0xfa, 0x3e, 0x30, 0x73, 0xc7, 0x3d, 0x9c, 0xea, 0xe1, 0x3e,
    0xb0, 0x22, 0xc8, 0x3d, 0xd0, 0x78, 0xda, 0x3e, 0x2c, 0x56,
    0xc9, 0xbe, 0xc0, 0x7a, 0xb5, 0xbe, 0xc8, 0x54, 0x64, 0x3e,
    0x94, 0xd9, 0x9c, 0xbe, 0xc0, 0xc8, 0xa2, 0xbe, 0x08, 0xdb,
    0x84, 0xbe, 0x08, 0x20, 0x63, 0x3e, 0x18, 0xe4, 0xae, 0xbe,
    0x00, 0x12, 0x72, 0x3b, 0x1c, 0x9a, 0xae, 0x3e, 0x60, 0x6b,
    0xad, 0x3d, 0xc0, 0xfd, 0x83, 0xbd, 0x10, 0x9d, 0x3c, 0x3e,
    0x88, 0x77, 0x5b, 0xbe, 0xfc, 0x8f, 0xec, 0xbe, 0x88, 0xea,
    0x0a, 0xbe, 0x88, 0x7e, 0x9e, 0x3e, 0x80, 0x91, 0x14, 0x3c,
    0x20, 0xf2, 0x8d, 0xbd, 0x78, 0x24, 0x3f, 0xbe, 0x90, 0x77,
    0xd5, 0xbd, 0x00, 0x40, 0xb3, 0x3e, 0xd8, 0x65, 0xda, 0xbe,
    0x20, 0x11, 0xf3, 0xbe, 0x08, 0x5f, 0x83, 0x3e, 0xc0, 0x44,
    0x10, 0x3d, 0x94, 0x39, 0x93, 0xbe, 0xd8, 0x2e, 0x46, 0xbe,
    0x28, 0x42, 0xd1, 0xbe, 0x78, 0x16, 0xbf, 0xbe, 0x40, 0xa2,
    0xfe, 0xbe, 0xd0, 0x28, 0x82, 0x3e, 0x08, 0x17, 0x09, 0xbe,
    0xc0, 0xb1, 0xaa, 0xbc, 0x60, 0x83, 0x8a, 0xbe, 0xa4, 0xce,
    0xcd, 0xbe, 0xe4, 0xb2, 0xa2, 0xbe, 0x64, 0xcf, 0xcc, 0x3e,
    0x00, 0x00, 0x00, 0x00, 0x00, 0x00, 0x00, 0x00, 0x00, 0x00,
    0x00, 0x00, 0x00, 0x00, 0x00, 0x00, 0x7c, 0x22, 0xee, 0x3e,
    0x74, 0x37, 0xa7, 0xbe, 0x40, 0x67, 0xe1, 0xbc, 0x94, 0x54,
    0xff, 0xbe, 0xe4, 0xc4, 0xd4, 0xbe, 0xf0, 0xd7, 0xe4, 0xbe,
    0xac, 0x8d, 0x8c, 0xbe, 0x2c, 0xc5, 0xca, 0x3e, 0xd4, 0x04,
    0xfc, 0x3e, 0x48, 0x3f, 0xbb, 0x3e, 0xb0, 0xf6, 0xa2, 0xbe,
    0x38, 0xaf, 0x63, 0x3e, 0x54, 0xd6, 0xad, 0x3e, 0x08, 0xe7,
    0x0c, 0x3e, 0x78, 0xdd, 0x49, 0xbe, 0xe0, 0xbc, 0x64, 0x3d,
    0x80, 0xb5, 0x9c, 0xbc, 0x80, 0xc3, 0xe5, 0xbc, 0x10, 0xae,
    0x8d, 0xbe, 0x38, 0xeb, 0xb6, 0x3e, 0x70, 0xab, 0x8f, 0xbd,
    0xa0, 0xd3, 0x06, 0xbe, 0x20, 0x7d, 0x04, 0x3e, 0x70, 0x5d,
    0x09, 0x3e, 0x38, 0x0c, 0xa4, 0xbe, 0x10, 0xb9, 0x5c, 0xbe,
    0xb8, 0xa1, 0x4f, 0xbe, 0x50, 0x27, 0xf2, 0xbd, 0x80, 0x95,
    0xb0, 0xbc, 0x90, 0xa8, 0xde, 0xbd, 0x50, 0x07, 0xfb, 0xbd,
    0xf8, 0x9e, 0x54, 0xbe, 0xb4, 0x78, 0x84, 0x3e, 0x40, 0xa7,
    0x4b, 0xbe, 0x40, 0x80, 0x15, 0xbe, 0xf8, 0x64, 0xcf, 0x3e,
    0x50, 0x01, 0x94, 0xbe, 0x70, 0xd4, 0x84, 0x3e, 0xe4, 0x45,
    0xfb, 0xbe, 0x00, 0x60, 0x95, 0x3c, 0x90, 0xad, 0xb6, 0x3e,
    0xac, 0x43, 0xb6, 0x3e, 0xbc, 0x50, 0xc6, 0xbe, 0xa4, 0x79,
    0x9b, 0xbe, 0x50, 0xf9, 0xfa, 0xbd, 0x44, 0xff, 0xf5, 0xbe,
    0x74, 0x71, 0x84, 0xbe, 0x0c, 0x7c, 0xed, 0x3e, 0x00, 0x00,
    0x00, 0x00, 0x00, 0x00, 0x00, 0x00, 0x00, 0x00, 0x00, 0x00,
    0x00, 0x00, 0x00, 0x00, 0xf0, 0xd3, 0x34, 0x3d, 0xa0, 0x57,
    0xec, 0xbd, 0x0e, 0xd3, 0xda, 0x3e, 0xb5, 0x19, 0x13, 0xbf,
    0xce, 0x3e, 0x57, 0xbe, 0x2a, 0x12, 0xdb, 0x3e, 0x80,
    0x48, 0xbd, 0xbc, 0xe0, 0x62, 0x1c, 0x3e, 0x67, 0xd0,
    0x1f, 0x3f, 0x00, 0x0e, 0xb9, 0x3a, 0xed, 0x04, 0x15,
    0x3f, 0x1c, 0xe0, 0xae, 0x3e, 0x00, 0x00, 0x00, 0x00
  };

  return AI_HANDLE_PTR(s_d_weights);

}

