#include "vn_12_5_data.h"

ai_handle ai_vn_12_5_data_weights_get(void)
{

  AI_ALIGNED(4)
  static const ai_u8 s_vn_12_5_weights[ 2196 ] = {
    0xf9, 0xad, 0x38, 0xbe, 0xa8, 0x8f, 0x98, 0xbd, 0x4b, 0xaa,
    0xa2, 0xbf, 0x6d, 0xb8, 0x76, 0xbf, 0x19, 0xd9, 0xbf, 0xbf,
    0x01, 0x5f, 0xaa, 0xbf, 0x9d, 0xca, 0xe7, 0x3f, 0x29, 0xfa,
    0x97, 0x3f, 0x49, 0x3a, 0xcf, 0x3f, 0x0b, 0x81, 0xac, 0x3f,
    0xec, 0xbc, 0x92, 0x3f, 0x4d, 0x70, 0x4d, 0x3f, 0x4e, 0x4a,
    0x35, 0xbc, 0x76, 0xe8, 0xe3, 0xbb, 0x42, 0x95, 0xbf, 0xb9,
    0x98, 0xab, 0xb8, 0x3b, 0xe7, 0x9a, 0x07, 0x3f, 0xa8, 0xd6,
    0x65, 0x3e, 0x60, 0x9c, 0x19, 0xbf, 0xef, 0x6a, 0x03, 0xbf,
    0xd3, 0xb6, 0x09, 0xbf, 0xd8, 0x7b, 0xdd, 0x3e, 0xb2, 0x84,
    0x3e, 0xbd, 0x86, 0x23, 0x2d, 0xbd, 0x2b, 0xa3, 0x88, 0xbd,
    0x7b, 0xf2, 0xd2, 0xbd, 0xc4, 0x29, 0x25, 0x3e, 0x90, 0xe4,
    0x00, 0x3f, 0xb8, 0x0a, 0x85, 0x3e, 0xe5, 0x73, 0xfc, 0xbe,
    0x2d, 0x55, 0x89, 0xbe, 0x99, 0x5b, 0xdf, 0xbe, 0xfa, 0x30,
    0x91, 0xbe, 0x07, 0x47, 0xc8, 0xbe, 0x42, 0x0f, 0x31, 0x3f,
    0x0d, 0xc6, 0xd3, 0x3d, 0xd5, 0xad, 0x94, 0xbc, 0x64, 0x82,
    0xd6, 0x3d, 0xd0, 0xd1, 0x25, 0x3f, 0x69, 0x9a, 0xf8, 0x3e,
    0x56, 0x34, 0x83, 0x3d, 0x5d, 0x19, 0x80, 0x3e, 0x1f, 0x8f,
    0x8a, 0xbe, 0x4e, 0xfa, 0x8f, 0x3d, 0x7f, 0xfb, 0xa5, 0xbe,
    0x4b, 0x11, 0xb5, 0x3e, 0x42, 0xf5, 0x2e, 0x3e, 0x60, 0x65,
    0x62, 0xbe, 0xff, 0x1a, 0xae, 0x3e, 0x12, 0xb0, 0x7e, 0xbd,
    0xbb, 0x97, 0x35, 0x3d, 0x0a, 0xff, 0x9d, 0xbc, 0x5a, 0x26,
    0x16, 0x3e, 0xa3, 0x0a, 0xf1, 0xbe, 0x70, 0xc6, 0x4c, 0x3e,
    0x21, 0xac, 0xf0, 0x3e, 0xee, 0x7f, 0x30, 0xbe, 0x9b, 0xe9,
    0xbd, 0xbd, 0x51, 0xf5, 0xf0, 0x3d, 0x7b, 0x04, 0xbf, 0xbe,
    0x70, 0xe6, 0xc5, 0x3d, 0x61, 0x39, 0x80, 0x3d, 0xe5, 0x11,
    0xff, 0xbe, 0xd7, 0xe5, 0xa4, 0x3d, 0x0b, 0xfa, 0x48, 0xbd,
    0x8d, 0xb4, 0x76, 0xbd, 0x92, 0x1b, 0x93, 0xbc, 0xc3, 0x9d,
    0x81, 0xbd, 0x16, 0xc9, 0xc7, 0x3e, 0xb0, 0xfc, 0xbf, 0xbd,
    0xbd, 0x12, 0x0e, 0x3f, 0x26, 0xb3, 0xc3, 0xbe, 0x63, 0x23,
    0xda, 0x3d, 0x79, 0xba, 0x3b, 0xbe, 0xc6, 0xb6, 0x85, 0x3c,
    0x3e, 0x9b, 0xf0, 0xbe, 0x46, 0xa8, 0xe8, 0x3d, 0x55, 0xf3,
    0xbf, 0x3e, 0x6a, 0x64, 0xf4, 0x3d, 0xaa, 0x53, 0xae, 0x3e,
    0x61, 0x37, 0x3d, 0xbf, 0x67, 0x34, 0x19, 0x3f, 0x65, 0xef,
    0xc4, 0xbe, 0xf0, 0xc4, 0xd6, 0x3e, 0x56, 0x13, 0xaf, 0xbe,
    0xf8, 0xc1, 0x19, 0xbf, 0xfc, 0x98, 0xca, 0x3e, 0xd0, 0x36,
    0x1b, 0x3e, 0xe0, 0x5a, 0x42, 0x3f, 0xc5, 0x2b, 0x01, 0xbf,
    0x1f, 0x54, 0xaf, 0x3e, 0xea, 0x6c, 0x95, 0xbf, 0x60, 0x08,
    0x4c, 0xbf, 0x28, 0x2d, 0x7d, 0xbe, 0x5c, 0x46, 0x6c, 0x3e,
    0xa8, 0x57, 0xf5, 0x3e, 0x71, 0x4d, 0xae, 0x3d, 0x25, 0xb8,
    0x03, 0xbe, 0xd4, 0x72, 0xec, 0xbe, 0x10, 0x30, 0x6f, 0xbb,
    0x31, 0x73, 0xe0, 0xbe, 0x2d, 0x65, 0x10, 0x3f, 0x6f, 0xf7,
    0x39, 0xbe, 0xb1, 0x8a, 0x3d, 0xbe, 0xf8, 0x24, 0x20, 0xbe,
    0x42, 0xe7, 0xa6, 0xbe, 0x22, 0xb1, 0x4e, 0xbe, 0x3e, 0x81,
    0xda, 0x3e, 0x10, 0x14, 0x0f, 0x3e, 0xee, 0x80, 0xaa, 0xbe,
    0xec, 0x43, 0x45, 0xbe, 0xef, 0x98, 0x17, 0xbe, 0x4c, 0xcb,
    0x13, 0x3f, 0xef, 0x2d, 0x3a, 0xbf, 0x75, 0x41, 0x21, 0x3f,
    0x82, 0x53, 0xba, 0xbd, 0x03, 0xf8, 0x09, 0x3c, 0x36, 0x99,
    0x77, 0xbb, 0x5c, 0xd5, 0x3c, 0xbd, 0xa0, 0x3a, 0xda, 0x3d,
    0x15, 0xc4, 0x54, 0x3e, 0x29, 0x3c, 0x88, 0x3e, 0x87, 0x5b,
    0x6c, 0xbe, 0x53, 0x06, 0xfc, 0x3e, 0x1b, 0x6f, 0x21, 0x3e,
    0xf5, 0xc6, 0x97, 0x3e, 0xc6, 0xab, 0x8c, 0x3d, 0x9e, 0x83,
    0xe0, 0x3e, 0xa9, 0x68, 0x01, 0xbf, 0x51, 0xf8, 0x4e, 0xbf,
    0x60, 0x3c, 0x13, 0x3f, 0x61, 0x54, 0x6d, 0xbf, 0xbf, 0x16,
    0xa7, 0x3f, 0x7f, 0xd6, 0xbb, 0xbd, 0xad, 0x8f, 0x9c, 0xbf,
    0xa1, 0xef, 0xef, 0x3e, 0x0d, 0x28, 0xf8, 0x3e, 0x5f, 0x45,
    0x8e, 0x3c, 0x08, 0xb2, 0xf4, 0x3a, 0x62, 0x3a, 0x98, 0xbe,
    0x3d, 0xf3, 0xa3, 0xbe, 0x85, 0xe8, 0x9d, 0xbf, 0x72, 0x98,
    0x7d, 0x3f, 0x2d, 0x2e, 0x64, 0xbf, 0xf5, 0xda, 0xcf, 0xbe,
    0xdc, 0xab, 0xce, 0x3d, 0x6f, 0xaf, 0x11, 0x3f, 0x84, 0x5d,
    0xbd, 0x3d, 0xe1, 0x16, 0x81, 0x3d, 0x56, 0x94, 0xbf, 0x3c,
    0xb0, 0x86, 0x20, 0x3f, 0xb5, 0x6a, 0x0b, 0x3e, 0xf7, 0x05,
    0xba, 0xbe, 0xcc, 0xf4, 0x39, 0xbe, 0x70, 0x56, 0x8e, 0x3e,
    0xfe, 0x18, 0xd6, 0xbd, 0x38, 0x5a, 0xa9, 0x3e, 0x51, 0x21,
    0xf6, 0x3d, 0xbb, 0x7f, 0x35, 0xbf, 0x88, 0x9b, 0x47, 0x3f,
    0x17, 0x1e, 0xc8, 0x3d, 0x35, 0x71, 0xab, 0x3e, 0x64, 0xc0,
    0xfb, 0x3c, 0x1b, 0x4d, 0xe4, 0x3e, 0x8a, 0xbb, 0x9b, 0xbe,
    0x56, 0xf6, 0x6c, 0x3e, 0xc5, 0xbe, 0x7d, 0x3d, 0x69, 0x0c,
    0x9d, 0x3e, 0x24, 0x16, 0xeb, 0xbc, 0x85, 0x8f, 0x7e, 0xbe,
    0xdc, 0xd0, 0x4c, 0x3c, 0x1e, 0x33, 0x48, 0xbc, 0x83, 0x77,
    0x20, 0x3e, 0x67, 0x21, 0x9d, 0xbe, 0xf7, 0x66, 0x63, 0x3e,
    0x48, 0x27, 0xda, 0x3e, 0x35, 0x89, 0x09, 0xbf, 0xd3, 0x36,
    0x12, 0xbf, 0x99, 0x11, 0x04, 0x3f, 0x95, 0x45, 0x61, 0xbe,
    0x31, 0xb7, 0x4d, 0x3c, 0x32, 0xd8, 0x2d, 0xbf, 0xa1, 0xfe,
    0xda, 0xbe, 0x60, 0xb2, 0xf8, 0xbd, 0x8d, 0x5e, 0xa2, 0xb9,
    0x0b, 0x71, 0x2c, 0x3e, 0xd0, 0x6d, 0xad, 0x3e, 0xdd, 0x3a,
    0x38, 0xbf, 0x71, 0x48, 0x8e, 0xbe, 0x48, 0xb8, 0xde, 0x3e,
    0xb7, 0x4c, 0x01, 0x3f, 0x1b, 0x7d, 0x78, 0xbe, 0x75, 0xc3,
    0xa7, 0xbf, 0x08, 0x0c, 0x81, 0xbf, 0x9c, 0x6b, 0x32, 0xbf,
    0x53, 0x48, 0x98, 0x3e, 0x37, 0xf0, 0xb6, 0x3e, 0x3d, 0x4c,
    0x06, 0x3f, 0xef, 0x97, 0x9f, 0xbd, 0x27, 0xe1, 0xea, 0xbe,
    0xde, 0x9d, 0x80, 0xbe, 0xe5, 0xf2, 0x90, 0xbe, 0x90, 0x16,
    0x00, 0xbf, 0x41, 0x4d, 0x60, 0x3e, 0x26, 0x12, 0x9f, 0x3d,
    0x16, 0x03, 0x2d, 0xbb, 0xf0, 0x1a, 0xcd, 0x3e, 0x0a, 0x6f,
    0xd9, 0xbe, 0xba, 0x73, 0x10, 0xbe, 0x9a, 0x65, 0xe6, 0xbd,
    0x4e, 0x75, 0x02, 0xbf, 0x67, 0x7c, 0xae, 0xbe, 0xb5, 0x02,
    0x05, 0x3d, 0xd9, 0x40, 0x7c, 0x3e, 0x3e, 0xff, 0xdd, 0xbe,
    0x4c, 0x14, 0x3d, 0xbe, 0xf7, 0x0b, 0x81, 0x3e, 0x24, 0x2f,
    0xab, 0x3e, 0x29, 0xae, 0xd8, 0x3e, 0x4e, 0xe2, 0xed, 0x3e,
    0x9b, 0x86, 0x17, 0xbe, 0xb6, 0x5b, 0x62, 0x3d, 0x9d, 0x8c,
    0x13, 0x3e, 0x78, 0xb2, 0xe8, 0x3d, 0xf3, 0x02, 0xff, 0x3e,
    0x64, 0xb3, 0x1b, 0x3e, 0x99, 0xb9, 0x76, 0xbe, 0xac, 0x05,
    0x47, 0x3e, 0xb6, 0x67, 0xda, 0x3e, 0xe8, 0xfa, 0x6a, 0x3e,
    0xee, 0x79, 0x6a, 0x3d, 0x07, 0x6c, 0x61, 0xbe, 0xc9, 0x8c,
    0xa5, 0xbe, 0xa9, 0x72, 0x96, 0xbf, 0xf2, 0x5f, 0x1a, 0x3f,
    0x7a, 0xc3, 0xed, 0x3e, 0xcb, 0x06, 0xe0, 0x3e, 0xa8, 0x8d,
    0x51, 0xbe, 0xb6, 0x19, 0x0a, 0x3e, 0x6a, 0xa1, 0xfc, 0x3d,
    0x79, 0xbe, 0x98, 0x3e, 0xb9, 0xb7, 0x0d, 0x3e, 0x7d, 0x3f,
    0x82, 0x3d, 0x49, 0x4d, 0x47, 0x3e, 0x76, 0x5b, 0xbb, 0x3d,
    0x45, 0x9e, 0x2d, 0xbf, 0xcb, 0x68, 0x3e, 0x3f, 0x5c, 0x7c,
    0x09, 0xbe, 0xbe, 0xb0, 0xd9, 0x3e, 0x0d, 0x1b, 0xb5, 0xbe,
    0x19, 0x30, 0xbb, 0xbe, 0xdb, 0x62, 0x44, 0xbf, 0xb7, 0x20,
    0x7c, 0x3e, 0x7a, 0xfd, 0x92, 0xbe, 0x6b, 0x13, 0x38, 0x3e,
    0x4f, 0x74, 0xfe, 0xbb, 0x36, 0xb9, 0x9b, 0xbe, 0x6a, 0x3b,
    0x35, 0xbf, 0x97, 0xc7, 0x05, 0x3c, 0xe3, 0x58, 0xf4, 0x3e,
    0x3d, 0x62, 0x80, 0xbe, 0x6e, 0xb2, 0xd2, 0xbe, 0x27, 0x22,
    0x9a, 0x3e, 0x9f, 0xda, 0x5a, 0xbe, 0x52, 0x0b, 0x6e, 0xbe,
    0x0c, 0xfb, 0x15, 0xbf, 0x4a, 0x0a, 0xa1, 0xbc, 0x5f, 0xa5,
    0xea, 0x3e, 0x0d, 0x94, 0x2e, 0x3d, 0xb1, 0xeb, 0x64, 0x3b,
    0x23, 0x81, 0x02, 0xbf, 0x29, 0xb1, 0xc7, 0x3e, 0xc3, 0xa3,
    0xb1, 0xbd, 0xf8, 0xa3, 0x14, 0xbe, 0x89, 0x8d, 0x97, 0xbd,
    0xf2, 0xe4, 0x97, 0x3e, 0xf4, 0x25, 0xaf, 0x3e, 0x87, 0xa3,
    0xe9, 0x3e, 0x6b, 0xf9, 0x5b, 0x3f, 0x90, 0xc0, 0x7a, 0x3d,
    0x40, 0xf6, 0xca, 0x3e, 0xd4, 0xc0, 0x4b, 0x3e, 0xa8, 0x9a,
    0x88, 0x3e, 0xac, 0x17, 0x6a, 0xbe, 0x27, 0x6b, 0x3f, 0xbe,
    0x1e, 0xae, 0xb1, 0xbe, 0xbe, 0x4c, 0x0b, 0x3f, 0x37, 0x3c,
    0x43, 0xbf, 0x25, 0xa3, 0xe0, 0xbc, 0x89, 0xcd, 0x0a, 0x3e,
    0x9a, 0xbf, 0xe4, 0x3c, 0x34, 0xb6, 0xb3, 0x3e, 0x1f, 0x47,
    0xfd, 0x3e, 0x00, 0x2f, 0x72, 0x3d, 0xb0, 0x29, 0xba, 0x3e,
    0x79, 0x2b, 0x5e, 0x3c, 0x62, 0x0c, 0x4d, 0x3e, 0x82, 0x05,
    0x82, 0xbe, 0x24, 0xb6, 0xb7, 0xbe, 0x37, 0x11, 0xe8, 0xbe,
    0x73, 0x7e, 0xc5, 0xbe, 0xab, 0xf2, 0xae, 0x3d, 0x3e, 0x0a,
    0x8d, 0x3e, 0x6f, 0x69, 0x34, 0x3e, 0x49, 0x7f, 0x0c, 0xbe,
    0xab, 0xff, 0x11, 0xbe, 0xf4, 0x24, 0xc1, 0xbe, 0x2f, 0x1a,
    0xd5, 0x3e, 0xa7, 0x5a, 0x35, 0x3e, 0x03, 0xc4, 0x2d, 0xbe,
    0x5e, 0x5d, 0x9f, 0x3e, 0xe1, 0x03, 0x62, 0x3e, 0x4e, 0xf4,
    0xbb, 0x3e, 0x31, 0xf7, 0x08, 0xbe, 0x65, 0x42, 0xad, 0x3d,
    0xd8, 0x85, 0xac, 0xbe, 0xe8, 0x8b, 0x63, 0x3d, 0x86, 0x9e,
    0x17, 0x3e, 0xaa, 0xdb, 0xc1, 0xbd, 0xb2, 0x89, 0x81, 0x3e,
    0x67, 0xaa, 0x49, 0x3e, 0xc3, 0xa6, 0x5e, 0xbc, 0x29, 0x33,
    0x94, 0x3d, 0x80, 0x0d, 0x80, 0x3e, 0x88, 0x74, 0x92, 0xbd,
    0x1b, 0xc0, 0xa9, 0xbc, 0xed, 0xa6, 0x2b, 0x3e, 0x32, 0xa3,
    0xc3, 0xbd, 0x09, 0x95, 0x63, 0xbd, 0xb4, 0x43, 0x62, 0x3d,
    0xaf, 0xbf, 0xbf, 0x3b, 0xbc, 0x95, 0x9e, 0x3e, 0x8b, 0x45,
    0x37, 0xbe, 0x4c, 0x9a, 0x93, 0xbe, 0x12, 0x96, 0x87, 0x3e,
    0x85, 0xd8, 0x85, 0xbc, 0x5f, 0x46, 0x37, 0x3e, 0xed, 0x10,
    0x2d, 0xbe, 0x5b, 0xc2, 0xf9, 0x3e, 0xe3, 0x3b, 0x2f, 0x3e,
    0x91, 0x70, 0x05, 0xbc, 0xaf, 0x02, 0x97, 0xbe, 0xb3, 0x31,
    0xd8, 0x3e, 0x8a, 0x39, 0x92, 0x3e, 0xd4, 0x2e, 0xdc, 0x3e,
    0x68, 0x25, 0x2e, 0xbe, 0x9a, 0x78, 0x89, 0xbd, 0x9f, 0x63,
    0x94, 0xbe, 0x7e, 0x05, 0xee, 0xbd, 0x79, 0xdf, 0xf8, 0xbd,
    0xa8, 0x9d, 0xe7, 0x3d, 0x2c, 0x17, 0x11, 0xbf, 0x1a, 0xdd,
    0xbe, 0xbe, 0x42, 0x2e, 0xde, 0xbb, 0x0b, 0x0e, 0xe3, 0xbe,
    0x23, 0x9b, 0xb8, 0x3e, 0x13, 0xe3, 0x5d, 0x3e, 0xdd, 0x86,
    0xda, 0x3e, 0x13, 0x62, 0xe3, 0xbd, 0xc5, 0xab, 0x31, 0xbb,
    0x82, 0x01, 0xa7, 0xbe, 0x35, 0xf9, 0x61, 0xbe, 0x42, 0x86,
    0xf5, 0x3d, 0xb3, 0x50, 0x0b, 0xbe, 0x86, 0xfb, 0xa3, 0xbe,
    0x06, 0x5b, 0xf4, 0xbd, 0x58, 0xd3, 0xd0, 0x3e, 0x56, 0x51,
    0x01, 0xbf, 0xa6, 0x51, 0xfb, 0xbd, 0xe5, 0xe5, 0xe0, 0xbe,
    0x82, 0xc9, 0x6f, 0xbe, 0xc2, 0x4e, 0x7d, 0xbe, 0xa3, 0x6d,
    0x59, 0xbd, 0xc6, 0x54, 0xd4, 0xbe, 0x9d, 0xc3, 0xa2, 0x3e,
    0x8a, 0x77, 0xd8, 0x3e, 0x31, 0x3e, 0x1e, 0x3e, 0x11, 0x0c,
    0x2d, 0xbd, 0x1a, 0xbb, 0xe3, 0xbb, 0x8a, 0x25, 0xd4, 0xbc,
    0x71, 0x63, 0x2f, 0xbe, 0xca, 0x2c, 0x64, 0xbe, 0xc4, 0xd2,
    0x6f, 0x3d, 0x1d, 0xee, 0x39, 0x3e, 0x86, 0xa5, 0x72, 0x3e,
    0xe7, 0x3c, 0x41, 0xbe, 0x73, 0x01, 0xd2, 0xbe, 0xe1, 0x27,
    0x31, 0x3e, 0xa3, 0xad, 0x98, 0xbb, 0x6e, 0x32, 0x70, 0x3e,
    0x99, 0xaa, 0x5c, 0x3e, 0x23, 0x3b, 0xb1, 0xbe, 0x3b, 0x54,
    0x18, 0xbe, 0x03, 0x03, 0x80, 0xbe, 0xd2, 0xa8, 0xbc, 0x3c,
    0xb5, 0x4b, 0x8f, 0x3e, 0xd9, 0x17, 0x47, 0xbe, 0xcc, 0x1d,
    0xd4, 0x3e, 0x8d, 0x15, 0x43, 0x3e, 0x2b, 0x03, 0x39, 0x3d,
    0xae, 0x31, 0xef, 0x3b, 0xa0, 0xcb, 0xf1, 0x3c, 0x86, 0xe2,
    0xe3, 0xbc, 0x29, 0x05, 0x3d, 0x3e, 0xbb, 0x74, 0xfb, 0x3d,
    0x6e, 0x76, 0xd6, 0xbd, 0x59, 0x23, 0xa1, 0x3e, 0x93, 0x4b,
    0x01, 0xbd, 0x4d, 0xdc, 0xa4, 0xbe, 0x74, 0xe0, 0x01, 0xbe,
    0x3b, 0x39, 0x9f, 0xbd, 0x41, 0xdf, 0x60, 0xbd, 0xca, 0x32,
    0xa7, 0xbe, 0x12, 0xfe, 0x05, 0xbc, 0x7c, 0x47, 0x2f, 0x3e,
    0x32, 0xe3, 0xb6, 0x3e, 0x08, 0x69, 0x01, 0xbe, 0xac, 0x43,
    0xa2, 0xbe, 0xa3, 0x7a, 0x08, 0x3e, 0x8d, 0x4f, 0x70, 0x3e,
    0x6e, 0xbd, 0xbe, 0x3c, 0x5b, 0x67, 0xcd, 0xbe, 0xc8, 0x33,
    0x9d, 0xbe, 0xca, 0xdb, 0x6f, 0x3e, 0xbe, 0x55, 0x70, 0x3e,
    0x05, 0x53, 0x35, 0x3e, 0x0b, 0xef, 0x8f, 0xbe, 0xca, 0x46,
    0x14, 0xbf, 0x98, 0x78, 0x03, 0xbb, 0x17, 0xb5, 0xbd, 0x3a,
    0xba, 0x06, 0xaa, 0x3c, 0xb0, 0x38, 0x85, 0x3c, 0x6e, 0x18,
    0xf4, 0x3d, 0xdc, 0xbe, 0x92, 0xbe, 0xb8, 0x11, 0xa4, 0xbd,
    0x0d, 0xcc, 0x40, 0xbd, 0x38, 0xdf, 0xe1, 0xbd, 0x7b, 0xfd,
    0x07, 0xbe, 0xb6, 0xa2, 0x59, 0xbd, 0xf7, 0x30, 0xe6, 0x3c,
    0xc1, 0x58, 0x6e, 0x3c, 0x39, 0x45, 0x36, 0xbe, 0x75, 0xf3,
    0x22, 0x3d, 0x4a, 0x4e, 0x98, 0xbe, 0x85, 0x9b, 0xc4, 0x3e,
    0x59, 0x36, 0x4f, 0x3e, 0x88, 0xe7, 0xed, 0xbe, 0xa5, 0x53,
    0x0c, 0x3e, 0x7b, 0x14, 0xa8, 0xbe, 0x74, 0xd7, 0x2e, 0xbe,
    0xfa, 0xd2, 0x4e, 0x3e, 0xc0, 0x40, 0x08, 0xbf, 0x7a, 0x90,
    0x2f, 0x3d, 0x17, 0x22, 0xf0, 0xbd, 0x3f, 0xba, 0xa8, 0xbe,
    0x0b, 0x91, 0x4a, 0x3e, 0x71, 0x3d, 0xc2, 0xbe, 0x70, 0xda,
    0xb7, 0xbe, 0xf9, 0x5c, 0x9b, 0xbd, 0x57, 0xc0, 0xb0, 0xbe,
    0x98, 0x1a, 0x92, 0x3e, 0x77, 0x96, 0xad, 0x3d, 0xba, 0x71,
    0xb0, 0xbe, 0x45, 0x5a, 0xfc, 0x3e, 0x10, 0xfa, 0xc4, 0x3d,
    0xd3, 0x55, 0x69, 0x3e, 0x57, 0x46, 0x47, 0xbe, 0x27, 0xd4,
    0x2b, 0xbe, 0x14, 0x11, 0x72, 0xbe, 0x1d, 0x07, 0x89, 0x3e,
    0xf6, 0x79, 0xe9, 0x3b, 0x86, 0xaf, 0x4b, 0x3e, 0x8e, 0x52,
    0xe7, 0xbd, 0xe7, 0x1e, 0xe7, 0xbc, 0x9b, 0xd1, 0x27, 0x3e,
    0x66, 0x55, 0x3a, 0x3c, 0x79, 0x1f, 0x8e, 0x3e, 0x15, 0xe8,
    0x1f, 0xbf, 0xbf, 0x0e, 0x59, 0xbe, 0xb9, 0xae, 0x7d, 0x3e,
    0xa7, 0xd3, 0x23, 0x3c, 0x2f, 0xa9, 0x09, 0xbd, 0x4f, 0xd8,
    0xd2, 0xbc, 0x29, 0x39, 0xe0, 0x3c, 0x56, 0xe8, 0x83, 0x3e,
    0xb0, 0x66, 0xbe, 0x3e, 0xd4, 0xaf, 0xa2, 0x3e, 0x2b, 0xe8,
    0x92, 0x3e, 0x8e, 0x4c, 0x0e, 0xbe, 0xf5, 0xa8, 0x6e, 0xbd,
    0xcb, 0xa3, 0x95, 0xbd, 0x6d, 0xc9, 0x58, 0x3e, 0xb4, 0x46,
    0xb3, 0xbd, 0x2f, 0x35, 0xad, 0xbd, 0x3e, 0x7a, 0x3a, 0x3d,
    0x62, 0x70, 0x2a, 0x3e, 0xd7, 0xb6, 0x0c, 0xbd, 0x86, 0xf0,
    0xd2, 0xbe, 0x9d, 0xa9, 0xb8, 0xbe, 0xac, 0x9d, 0xd9, 0xbd,
    0xbb, 0x3a, 0xcf, 0xbe, 0xbb, 0xca, 0xab, 0xbe, 0x24, 0xbf,
    0x9b, 0xbd, 0xd6, 0xa4, 0x82, 0x3e, 0x43, 0x28, 0x36, 0x3e,
    0x78, 0x11, 0xb6, 0xbd, 0x5e, 0x8c, 0x61, 0x3e, 0x80, 0xd3,
    0xa4, 0xbd, 0xeb, 0xac, 0x77, 0x3e, 0x2c, 0x22, 0xa4, 0x3c,
    0xf1, 0xd4, 0xe1, 0x3c, 0x5d, 0x65, 0x96, 0x3d, 0xa0, 0xab,
    0xe8, 0xbe, 0xdb, 0xd2, 0xf8, 0xbd, 0xb7, 0x19, 0x9a, 0xbb,
    0x8a, 0x1f, 0xd3, 0x3d, 0x64, 0xc2, 0x6d, 0xbe, 0x4f, 0xec,
    0xa9, 0xbe, 0xdd, 0xbb, 0xaf, 0xbe, 0xb6, 0xad, 0x4f, 0xbf,
    0x80, 0xbd, 0xbb, 0x3e, 0x97, 0xb2, 0x60, 0x3e, 0x59, 0xa1,
    0xfd, 0x3e, 0x77, 0x2d, 0xd6, 0xbd, 0xf9, 0xd3, 0xbc, 0xbe,
    0x17, 0x96, 0xb8, 0xbe, 0x7a, 0x61, 0x47, 0x3e, 0x34, 0x24,
    0x09, 0x3f, 0x21, 0x1c, 0xa5, 0x3e, 0xb1, 0xc3, 0x27, 0xbe,
    0x18, 0x5a, 0x3f, 0xbd, 0xae, 0xf7, 0x87, 0xbd, 0xc4, 0x1c,
    0xb5, 0x3c, 0x74, 0x3d, 0xa3, 0xbc, 0x26, 0x25, 0xf7, 0x3c,
    0x8d, 0x2f, 0x71, 0x3c, 0x3c, 0xe4, 0xab, 0x3e, 0xaf, 0xaf,
    0x76, 0xbe, 0xce, 0x58, 0x4d, 0xbe, 0x23, 0xc5, 0x8a, 0x3e,
    0x2d, 0xf5, 0x21, 0xbd, 0x2e, 0x41, 0x11, 0x3d, 0x16,
    0x82, 0x9b, 0xbe, 0xed, 0xd1, 0x2d, 0x3e, 0x52, 0xb3,
    0x93, 0xbe, 0x4a, 0xde, 0x2c, 0x3e, 0x6f, 0xb1, 0x2d,
    0x3f, 0x8c, 0xd9, 0x6b, 0xbe, 0xcf, 0xa3, 0x81, 0xbb
  };

  return AI_HANDLE_PTR(s_vn_12_5_weights);

}

