#include "wn12_v1_data.h"

ai_handle ai_wn12_v1_data_weights_get(void)
{

  AI_ALIGNED(4)
  static const ai_u8 s_wn12_v1_weights[ 8228 ] = {
    0x92, 0x46, 0x5c, 0x3f, 0x3f, 0x2e, 0x9f, 0x3e, 0x6c, 0xfd,
    0xd1, 0x3e, 0x5b, 0x21, 0x46, 0x3f, 0x1a, 0xf6, 0xf8, 0x3e,
    0x28, 0xff, 0xc6, 0xbe, 0xa7, 0x5e, 0x60, 0x3e, 0xb9, 0x63,
    0x8a, 0xbe, 0x4f, 0x01, 0xb4, 0xbe, 0xa9, 0x1b, 0x28, 0x3e,
    0x1a, 0xe2, 0x4b, 0x3f, 0x1a, 0x73, 0xed, 0x3e, 0x75, 0x86,
    0x87, 0xbd, 0x3b, 0x9a, 0x1c, 0x3c, 0xaa, 0xb6, 0x42, 0x3d,
    0xf1, 0x6d, 0xe8, 0xbe, 0x7c, 0xed, 0xe0, 0x3e, 0x94, 0x0a,
    0x38, 0xbd, 0xb3, 0xd7, 0x51, 0x3f, 0x9c, 0x65, 0x10, 0x3f,
    0x59, 0x9a, 0x35, 0x3d, 0x87, 0x38, 0x5f, 0x3c, 0xd1, 0x12,
    0xb7, 0x3e, 0x1a, 0x8a, 0xb0, 0xbe, 0x6f, 0xd5, 0xca, 0x3c,
    0xd4, 0x49, 0x71, 0x3c, 0x56, 0x2e, 0xc0, 0xba, 0xd1, 0x67,
    0x41, 0xbd, 0x8e, 0xde, 0x80, 0x3b, 0xfd, 0x9e, 0x27, 0xbb,
    0xed, 0x28, 0xd3, 0xba, 0x9a, 0x5c, 0xa0, 0x3b, 0x0c, 0x73,
    0x4e, 0x3e, 0x43, 0xfa, 0xba, 0x3e, 0x9f, 0xf5, 0x6b, 0xbe,
    0xc4, 0xd0, 0x38, 0x3e, 0x54, 0x92, 0x45, 0xbe, 0xee, 0x6d,
    0x88, 0xbd, 0xbf, 0xaa, 0x0e, 0xbe, 0x4d, 0x19, 0x86, 0xbd,
    0x99, 0xff, 0x75, 0x3e, 0xa9, 0xf4, 0x48, 0xbe, 0xb8, 0xa9,
    0x08, 0x3e, 0x68, 0xc9, 0xb8, 0xbe, 0x2f, 0x86, 0xa0, 0x3d,
    0xbf, 0x8d, 0x3c, 0xbe, 0x7b, 0xd4, 0x40, 0x3e, 0xa0, 0x00,
    0x09, 0xbe, 0x1e, 0xd4, 0xd4, 0xbe, 0x33, 0x7d, 0x09, 0xbf,
    0x7f, 0xde, 0xa3, 0x3c, 0x41, 0x29, 0x7f, 0xbd, 0x04, 0xc1,
    0x5e, 0x3e, 0x84, 0x7f, 0x56, 0x3e, 0x21, 0x12, 0x48, 0xbe,
    0xeb, 0x78, 0x7b, 0x3d, 0xe4, 0x26, 0x21, 0xbf, 0x0d, 0x97,
    0x66, 0xbf, 0xc8, 0x65, 0x8f, 0xbe, 0xf6, 0x56, 0x94, 0xbe,
    0x06, 0x0b, 0xfb, 0x3e, 0xea, 0x84, 0x4a, 0x3f, 0xb1, 0x1d,
    0x89, 0xbe, 0x8d, 0x5e, 0xa9, 0xbe, 0x07, 0x32, 0x04, 0x3d,
    0xe9, 0x3a, 0xdf, 0x3e, 0x5b, 0x97, 0x99, 0xbd, 0xa1, 0xb0,
    0x04, 0x3e, 0xa4, 0x95, 0xc9, 0xbe, 0xe0, 0x71, 0x84, 0xbd,
    0x6b, 0x89, 0x83, 0xbd, 0xdb, 0x9d, 0x05, 0x3f, 0x9f, 0xa0,
    0xe0, 0x3e, 0x5a, 0xc6, 0x18, 0xbd, 0x61, 0x58, 0xc8, 0xbd,
    0x43, 0xcb, 0xc6, 0x3e, 0x7f, 0xf8, 0xae, 0xbb, 0x89, 0x9a,
    0xd7, 0xbc, 0x4d, 0x8f, 0xc6, 0x3e, 0x66, 0x81, 0xbb, 0xbe,
    0x60, 0x04, 0x6f, 0xbe, 0x0f, 0x29, 0x7a, 0xbe, 0x7a, 0x2a,
    0x62, 0xbe, 0x3d, 0x6d, 0x7a, 0xbe, 0x64, 0x28, 0x42, 0x3e,
    0x93, 0x89, 0xbd, 0x3e, 0xd7, 0xef, 0x73, 0xbe, 0x90, 0x2d,
    0xb5, 0x3c, 0xcc, 0x2a, 0x0f, 0xbe, 0xc7, 0x0e, 0x29, 0xbe,
    0xa0, 0x8d, 0x95, 0x3e, 0x89, 0x99, 0x08, 0xbe, 0x91, 0xb8,
    0xc6, 0xbd, 0x7e, 0x8f, 0x51, 0xbe, 0x3b, 0x6b, 0x70, 0x3c,
    0x6d, 0x45, 0x1a, 0x3e, 0xf0, 0x3d, 0x4c, 0xbe, 0x7a, 0x60,
    0xda, 0xbd, 0xbb, 0x82, 0x28, 0xbe, 0xf5, 0x64, 0xa9, 0xbe,
    0xa3, 0x4b, 0xc8, 0xbd, 0x4c, 0x93, 0x37, 0xbe, 0x15, 0x5d,
    0xa7, 0xbe, 0x05, 0x26, 0xb3, 0xbe, 0x7c, 0xa2, 0xb8, 0xbe,
    0x8e, 0xc4, 0xfc, 0xbd, 0x00, 0x93, 0x22, 0x3e, 0x88, 0xd0,
    0x02, 0xbf, 0x23, 0x52, 0x96, 0xbe, 0xef, 0xf9, 0x2d, 0x3d,
    0x9e, 0x35, 0xbc, 0xbd, 0x4a, 0xfb, 0x56, 0xbe, 0x7c, 0x14,
    0x01, 0xbc, 0x70, 0xdb, 0xc0, 0x3e, 0x96, 0xc6, 0x65, 0xbd,
    0xfb, 0x49, 0x7e, 0xbe, 0x83, 0xf2, 0x22, 0xbe, 0x70, 0x43,
    0xf0, 0xbe, 0x0d, 0x0e, 0x2f, 0x3e, 0x0c, 0xd0, 0x0f, 0x3f,
    0x6f, 0x73, 0x95, 0xbe, 0x4f, 0x1b, 0x62, 0x3e, 0x5a, 0x3a,
    0x2b, 0xbd, 0xf4, 0xea, 0x2d, 0xbe, 0x82, 0x46, 0xcf, 0x3e,
    0x0a, 0x5d, 0x4e, 0x3e, 0x4d, 0xf0, 0xd5, 0xbe, 0xd3, 0xc2,
    0x84, 0xbe, 0xf3, 0x2d, 0x92, 0xbc, 0xae, 0xc0, 0x9b, 0xbe,
    0xb6, 0xca, 0x90, 0xbc, 0x16, 0x13, 0x87, 0x3e, 0x6f, 0x81,
    0x1e, 0x3e, 0x01, 0x68, 0xe3, 0x3e, 0x20, 0xed, 0x34, 0xbd,
    0x59, 0x16, 0xb4, 0xbd, 0xc4, 0x7b, 0x99, 0xbd, 0x99, 0xe6,
    0xe2, 0x3d, 0x1a, 0x83, 0x1d, 0xbe, 0x20, 0x81, 0xe2, 0xbd,
    0xb4, 0x57, 0x43, 0x3e, 0xae, 0x33, 0x05, 0x3e, 0x25, 0x8b,
    0x64, 0x3e, 0xd8, 0x18, 0xfe, 0x3d, 0x6a, 0x19, 0x26, 0x3e,
    0x53, 0xf2, 0x82, 0xbe, 0x73, 0x6f, 0x9a, 0xbe, 0xb2, 0xf9,
    0xe6, 0x3d, 0xba, 0x11, 0x78, 0x3c, 0xc7, 0xd7, 0xe3, 0xbd,
    0x5d, 0xee, 0x24, 0xbe, 0xa6, 0x57, 0xc0, 0xbe, 0x59, 0x78,
    0x68, 0xbf, 0xa2, 0x15, 0x3b, 0xbf, 0xe6, 0x48, 0x6b, 0x3e,
    0x29, 0xcd, 0xd2, 0x3d, 0xf3, 0x3c, 0x23, 0x3e, 0xfb, 0x79,
    0x95, 0x3e, 0xb6, 0x9e, 0x23, 0xbf, 0xab, 0xf9, 0x3d, 0xbe,
    0x03, 0x92, 0xb2, 0xbe, 0x29, 0x7e, 0x8d, 0xbe, 0x20, 0xac,
    0xd3, 0x3d, 0x60, 0x14, 0xc5, 0x3d, 0xb8, 0x11, 0x75, 0x3e,
    0x67, 0x1f, 0x8a, 0x3e, 0x8b, 0x6e, 0xe4, 0x3c, 0x69, 0x64,
    0x06, 0x3f, 0x55, 0x4a, 0x0d, 0x3e, 0x66, 0xf1, 0xbf, 0xbd,
    0xb3, 0x69, 0x42, 0xbd, 0x2c, 0x33, 0x91, 0xbd, 0xcf, 0xd3,
    0xb4, 0xbe, 0x6b, 0x52, 0xa7, 0xbe, 0x9f, 0x3d, 0x3b, 0xbd,
    0x3a, 0x99, 0xc3, 0xbe, 0xa8, 0x7a, 0x50, 0xbe, 0x89, 0x16,
    0xa5, 0xbe, 0x80, 0x92, 0xac, 0x3e, 0xe9, 0xd3, 0xc0, 0x3d,
    0x52, 0x95, 0x73, 0x3d, 0xba, 0xe2, 0xb0, 0x3e, 0x51, 0xd4,
    0xa5, 0xbe, 0xc1, 0x50, 0xca, 0xbe, 0x2a, 0xdf, 0xd1, 0x3c,
    0x0c, 0xd8, 0x11, 0x3d, 0x8e, 0xbc, 0x6b, 0x3d, 0x9c, 0xc4,
    0x4e, 0x3e, 0xbd, 0x20, 0x3a, 0xbe, 0x98, 0x26, 0xe2, 0xbe,
    0x13, 0x96, 0x64, 0x3e, 0xee, 0xa9, 0xd8, 0xbd, 0xf3, 0x1b,
    0x12, 0x3f, 0xa6, 0xaf, 0xd6, 0x3e, 0x7e, 0x1c, 0x31, 0xbf,
    0x25, 0x24, 0x42, 0x3f, 0xe6, 0x72, 0xfa, 0x3d, 0x6a, 0xc9,
    0x06, 0xbe, 0x6a, 0x46, 0x09, 0x3f, 0x2b, 0x7d, 0xd6, 0x3e,
    0x7b, 0xc6, 0x34, 0xbf, 0x30, 0x4f, 0xb5, 0xbe, 0x02, 0xab,
    0xd4, 0x3b, 0x08, 0x30, 0x15, 0xbf, 0x3f, 0x2c, 0x23, 0x3e,
    0x72, 0x32, 0xa3, 0x3d, 0x48, 0x77, 0x49, 0xbf, 0x26, 0xba,
    0xb3, 0xbe, 0x5c, 0x41, 0x1d, 0xba, 0xba, 0xb0, 0x50, 0x3d,
    0xf8, 0x06, 0x3b, 0xbe, 0xe1, 0xb5, 0x59, 0x3e, 0x72, 0xe0,
    0xe2, 0xbc, 0x9b, 0x4e, 0x91, 0xbd, 0xdb, 0xf6, 0xc4, 0xbe,
    0x07, 0x81, 0x6f, 0xbe, 0xc8, 0x33, 0x42, 0x3d, 0x2d, 0xf2,
    0xdd, 0x3c, 0xb5, 0x6a, 0xb7, 0xbc, 0xbe, 0x41, 0x3d, 0xbe,
    0x36, 0x5a, 0x81, 0xbd, 0xfe, 0xe6, 0xb0, 0x3b, 0x49, 0x99,
    0x81, 0x3e, 0xad, 0xcd, 0x1d, 0x3f, 0xfb, 0x73, 0x03, 0xbc,
    0x36, 0xda, 0x6e, 0x3d, 0xbe, 0xa3, 0xc9, 0x3d, 0x0e, 0x7a,
    0x8c, 0xbd, 0xdf, 0x9b, 0xb1, 0x3c, 0xb8, 0xf0, 0xe6, 0xbe,
    0xa0, 0x63, 0x46, 0xbd, 0x73, 0xe4, 0x4b, 0x3e, 0xc9, 0xd2,
    0x68, 0xbe, 0x8e, 0x19, 0x0a, 0xbf, 0xcf, 0x8b, 0x22, 0xbf,
    0x1e, 0x26, 0x01, 0xbe, 0xdd, 0xcd, 0x3e, 0x3e, 0x3d, 0x7c,
    0x97, 0xbe, 0x89, 0xe0, 0x58, 0x3b, 0xb1, 0xa9, 0x2c, 0xbf,
    0xe2, 0xe5, 0xe4, 0x3e, 0xd1, 0x46, 0x5e, 0xbe, 0x43, 0x33,
    0xd5, 0x3e, 0x54, 0x86, 0x55, 0x3d, 0x25, 0xb6, 0x86, 0xbd,
    0x30, 0x74, 0x0a, 0xbe, 0x78, 0x70, 0xfd, 0xbe, 0x97, 0x7e,
    0x16, 0x3e, 0x04, 0xcc, 0xeb, 0xbd, 0x7f, 0x05, 0x01, 0x3f,
    0x35, 0xbc, 0x26, 0x3f, 0x01, 0x74, 0xae, 0x3e, 0x68, 0x3d,
    0xba, 0xbd, 0xc1, 0x23, 0xa1, 0x3e, 0x18, 0xe2, 0x9d, 0xbe,
    0x42, 0x36, 0x5b, 0x3f, 0xa5, 0x96, 0xa8, 0x3d, 0xe6, 0x81,
    0xe7, 0x3e, 0xbd, 0x14, 0x79, 0x3e, 0x50, 0xfd, 0xb1, 0x3e,
    0xb6, 0x0c, 0x2b, 0xbe, 0x29, 0xc6, 0x2d, 0x3e, 0xd6, 0x5a,
    0x96, 0xbe, 0xa5, 0x5c, 0x18, 0x3f, 0xeb, 0x20, 0x83, 0x3d,
    0x01, 0x9e, 0xb0, 0xbe, 0x3e, 0x7d, 0x02, 0x3f, 0xf3, 0x0b,
    0x1c, 0x3e, 0x18, 0x24, 0x1c, 0xbe, 0x6d, 0xb3, 0xef, 0xbb,
    0xe1, 0xf9, 0xe3, 0xbe, 0x2d, 0x1b, 0xbb, 0x3e, 0x31, 0x7d,
    0x5c, 0xbe, 0x5c, 0x18, 0x4e, 0xbe, 0x18, 0x47, 0x9b, 0x3d,
    0x56, 0xa0, 0x3c, 0x3e, 0xcc, 0x00, 0xdf, 0x3e, 0xf9, 0x04,
    0x6e, 0x3e, 0x1b, 0x82, 0x3b, 0x3e, 0xec, 0xff, 0x92, 0xbe,
    0xce, 0x2e, 0x83, 0xbc, 0xca, 0x60, 0x0a, 0xbe, 0x0e, 0xe2,
    0x0d, 0x3f, 0xf7, 0xa2, 0x28, 0xbe, 0x7c, 0x89, 0x99, 0xbe,
    0xd1, 0x6a, 0x08, 0xbf, 0x97, 0xed, 0x88, 0xbe, 0x65, 0xd5,
    0xd0, 0x3e, 0x79, 0x52, 0x07, 0x3f, 0xd6, 0xad, 0xe3, 0x3e,
    0xfd, 0x1f, 0x42, 0x3f, 0x99, 0xd8, 0x08, 0x3f, 0xee, 0x0e,
    0x60, 0xbe, 0x70, 0x85, 0x72, 0xbe, 0xd2, 0xb8, 0x20, 0xbf,
    0xe7, 0xef, 0x0c, 0x3f, 0x83, 0x9d, 0x0e, 0x3e, 0x56, 0xeb,
    0x4a, 0x3d, 0x8e, 0x67, 0xc9, 0x3d, 0xea, 0x94, 0xce, 0x3e,
    0x1a, 0xa9, 0x5d, 0x3c, 0x7d, 0x94, 0x83, 0xbc, 0xa5, 0xff,
    0xbd, 0x3e, 0xc1, 0x73, 0x79, 0x3f, 0x57, 0x6e, 0xf4, 0x3d,
    0xb2, 0x1d, 0x52, 0x3e, 0xce, 0x6e, 0x95, 0x3e, 0xaa, 0x41,
    0x6f, 0x3e, 0x04, 0xdc, 0x00, 0x3e, 0xbf, 0x2f, 0x80, 0x3d,
    0x07, 0x7d, 0x4d, 0xbd, 0xd5, 0x55, 0x0a, 0x3f, 0x8b, 0xe5,
    0x8a, 0x3e, 0xcb, 0x43, 0x7c, 0x3e, 0xeb, 0x33, 0xd7, 0x3e,
    0x1a, 0xfe, 0x61, 0x3e, 0x82, 0x73, 0x96, 0xbe, 0xb9, 0xef,
    0x98, 0x3c, 0x1b, 0x05, 0x20, 0xbf, 0x69, 0x13, 0xba, 0xbc,
    0x22, 0x4a, 0xeb, 0x3d, 0xa3, 0x24, 0x08, 0xbd, 0xc6, 0xe3,
    0xd1, 0xbd, 0x95, 0x9d, 0x34, 0x3e, 0xee, 0x9d, 0x4b, 0xbe,
    0x4a, 0x7a, 0x26, 0x3f, 0x85, 0x13, 0x00, 0x3d, 0x18, 0x7a,
    0xb8, 0x3d, 0x39, 0x75, 0x3a, 0x3d, 0x79, 0x14, 0x85, 0xbe,
    0xbf, 0x59, 0x91, 0xbe, 0x60, 0x63, 0xfd, 0xbe, 0x62, 0xe1,
    0x96, 0xbd, 0x85, 0x85, 0x00, 0xbf, 0x1f, 0x91, 0xcb, 0x3d,
    0x77, 0x46, 0xe3, 0xbc, 0x90, 0x8e, 0x8f, 0x3e, 0x4b, 0xfa,
    0x12, 0xbe, 0x6d, 0xa0, 0xa7, 0x3e, 0x63, 0x07, 0x9a, 0x3e,
    0xdf, 0x4d, 0x0b, 0x3d, 0x79, 0x93, 0x8f, 0x3e, 0x15, 0x6d,
    0xce, 0xbe, 0x29, 0xa8, 0x21, 0xbe, 0x43, 0x8f, 0xae, 0xbe,
    0x96, 0x98, 0x1c, 0x3f, 0x55, 0xe0, 0x95, 0x3e, 0x0f, 0x50,
    0xaa, 0x3e, 0xbb, 0x0f, 0x76, 0xbd, 0xf1, 0x38, 0x2c, 0x3f,
    0xc8, 0x3b, 0xf9, 0x3e, 0x73, 0x51, 0x9c, 0x3e, 0x8c, 0xa0,
    0xf6, 0xbe, 0xee, 0x0a, 0x41, 0x3f, 0x4c, 0x70, 0xcf, 0x3e,
    0xdf, 0x6d, 0x04, 0x3f, 0x50, 0x70, 0xcf, 0x3d, 0x4e, 0x6f,
    0x51, 0x3f, 0x2f, 0x33, 0xd5, 0x3d, 0xb6, 0x4e, 0xf9, 0x3e,
    0x6e, 0x7e, 0x83, 0xbe, 0x55, 0xa8, 0x16, 0xbe, 0x41, 0x53,
    0x1e, 0xbd, 0x98, 0xe1, 0x07, 0xbe, 0xcc, 0xce, 0xbd, 0x3e,
    0xb4, 0x7c, 0x77, 0x3e, 0xb5, 0x21, 0x63, 0x3d, 0xea, 0x89,
    0x5a, 0x3e, 0xad, 0x2f, 0x02, 0x3f, 0x14, 0xe0, 0x42, 0xbf,
    0xf6, 0x11, 0xd7, 0x3d, 0xe7, 0xb2, 0x2d, 0x3e, 0x13, 0xa4,
    0x9c, 0xbe, 0xbb, 0x52, 0x78, 0xbe, 0xbb, 0xec, 0xbd, 0xbe,
    0x79, 0x1d, 0x0c, 0x3e, 0x47, 0x60, 0x15, 0xbe, 0x4d, 0x82,
    0x13, 0xbc, 0xd0, 0x92, 0xad, 0xbe, 0x37, 0x07, 0x8c, 0x3e,
    0xef, 0x3d, 0xd0, 0x3e, 0x11, 0x70, 0xf1, 0x3e, 0x5d, 0x14,
    0xe7, 0x3e, 0x32, 0xb7, 0x72, 0x3e, 0x79, 0x8c, 0x7c, 0x3e,
    0xca, 0x12, 0xba, 0xbe, 0xfa, 0x38, 0xbb, 0x3e, 0x05, 0x1e,
    0x29, 0x3e, 0x29, 0x34, 0x8a, 0xbe, 0xa2, 0x6a, 0x5d, 0x3f,
    0xc5, 0xd7, 0x76, 0xbe, 0x8c, 0x17, 0x91, 0xbe, 0x2a, 0xa5,
    0x10, 0x3f, 0x96, 0x35, 0x4f, 0x3e, 0x8e, 0x1d, 0x5a, 0x3e,
    0xd5, 0xd7, 0x4e, 0x3f, 0x3e, 0xe7, 0xdb, 0xbe, 0x98, 0xf0,
    0x8a, 0x3f, 0xa3, 0xd5, 0xaf, 0xbe, 0xe6, 0x8d, 0x0e, 0x3e,
    0xc2, 0x81, 0xb2, 0x3d, 0x41, 0xea, 0xc8, 0x3c, 0x15, 0x86,
    0x94, 0x3e, 0x15, 0x30, 0xb5, 0x3c, 0x02, 0x51, 0xbd, 0xbd,
    0x7e, 0xc6, 0x80, 0x3d, 0x02, 0x41, 0xed, 0x3b, 0x14, 0x99,
    0x71, 0xbe, 0x1c, 0xd5, 0x5a, 0xbe, 0xbe, 0xbe, 0x1c, 0xbe,
    0xef, 0x5b, 0xe7, 0xbe, 0xda, 0x45, 0xb4, 0xbe, 0xe4, 0x9e,
    0x9e, 0x3e, 0x3f, 0xe8, 0xdd, 0xbe, 0x9e, 0x6e, 0x83, 0x3e,
    0x1f, 0xde, 0x45, 0xbe, 0x66, 0x8e, 0xfe, 0xbd, 0x1b, 0xab,
    0x94, 0x3d, 0x60, 0x68, 0x1e, 0xbe, 0x2e, 0x5f, 0xcb, 0xbe,
    0x07, 0xc8, 0xb9, 0xbe, 0x78, 0x96, 0x29, 0xbf, 0x6d, 0x24,
    0x8b, 0xbe, 0xd6, 0xe2, 0xbc, 0xbe, 0xab, 0x87, 0xaa, 0x3d,
    0xc8, 0x72, 0x22, 0xbd, 0x29, 0xb9, 0xe9, 0x3e, 0x56, 0xd7,
    0xf6, 0xbd, 0xd2, 0x8b, 0x92, 0x3d, 0x7a, 0x93, 0x8e, 0xbc,
    0xf6, 0x7b, 0xc6, 0xbe, 0xa4, 0x17, 0x75, 0x3d, 0xf3, 0x57,
    0x38, 0x3e, 0x85, 0x17, 0x97, 0x3c, 0xa6, 0x9f, 0x91, 0xbe,
    0xa7, 0x04, 0xd6, 0xbe, 0x03, 0x23, 0x0e, 0xbd, 0x80, 0x2d,
    0x5f, 0xbf, 0x10, 0xae, 0x17, 0xbf, 0x17, 0x32, 0x18, 0x3e,
    0x7b, 0x6f, 0x22, 0x3e, 0x95, 0xd9, 0xaa, 0xbd, 0x4c, 0xbc,
    0x5f, 0xbd, 0x4c, 0x72, 0xe7, 0x3d, 0xe0, 0xb9, 0xd6, 0x3d,
    0xad, 0x32, 0xdb, 0x3d, 0x15, 0x83, 0xb4, 0xbe, 0x71, 0xb1,
    0x59, 0x3d, 0x5f, 0x05, 0x27, 0x3f, 0x6b, 0x1a, 0x06, 0x3f,
    0xf6, 0x6c, 0x28, 0x3f, 0x34, 0x76, 0xa5, 0x3e, 0xeb, 0x07,
    0x94, 0x3e, 0x56, 0x53, 0x16, 0x3e, 0x84, 0x1a, 0x26, 0x3f,
    0x5b, 0x9e, 0x90, 0xbe, 0x96, 0x8e, 0xad, 0xbe, 0x88, 0x71,
    0x16, 0xbf, 0x83, 0x7c, 0xa0, 0xbe, 0x2a, 0xe0, 0x5b, 0xbe,
    0x26, 0xac, 0xbc, 0xbe, 0x66, 0x1c, 0x1b, 0xbf, 0x70, 0x8c,
    0x46, 0xbe, 0xd5, 0xdd, 0x86, 0x3e, 0x00, 0xc7, 0x4e, 0xbe,
    0x47, 0xba, 0x55, 0x3e, 0xcd, 0xd9, 0xda, 0xbe, 0xc2, 0xa4,
    0x19, 0x3e, 0xe5, 0xb5, 0x93, 0xbc, 0x78, 0xd9, 0x82, 0x3e,
    0xe4, 0x1b, 0x10, 0xbe, 0x18, 0x14, 0x3b, 0xbe, 0x84, 0x2c,
    0x57, 0xbe, 0xfd, 0xe3, 0x14, 0x3f, 0xf1, 0x4f, 0xc0, 0x3e,
    0x21, 0x5c, 0x95, 0x3e, 0x80, 0xd1, 0x13, 0xbd, 0x3d, 0x02,
    0x1b, 0x3f, 0xc0, 0x4e, 0x1f, 0x3d, 0x03, 0xb6, 0x3e, 0xbf,
    0x27, 0x8e, 0x86, 0x3e, 0x36, 0x3a, 0x23, 0xbf, 0x90, 0xab,
    0x12, 0xbf, 0x6f, 0xcf, 0x08, 0xbf, 0xca, 0x6f, 0x15, 0x3d,
    0xee, 0x62, 0xc8, 0xbe, 0xf1, 0x40, 0x1e, 0xbf, 0x91, 0x1b,
    0x10, 0x3f, 0x6e, 0x79, 0x2f, 0x3d, 0xf1, 0xc2, 0xaa, 0xbe,
    0x79, 0x95, 0xe0, 0x3c, 0x78, 0x81, 0xb6, 0xbd, 0xa5, 0xfe,
    0xc2, 0xbe, 0x0b, 0x93, 0x6f, 0x3e, 0x88, 0xf4, 0x1f, 0x3e,
    0x17, 0x65, 0x0b, 0xbe, 0xb8, 0x49, 0x06, 0x3f, 0x7a, 0xfd,
    0xe5, 0x3e, 0xe6, 0x01, 0x1a, 0x3f, 0x19, 0x7a, 0xf6, 0x3e,
    0x96, 0x96, 0x6d, 0x3f, 0x76, 0xc1, 0xd7, 0x3e, 0x67, 0xfd,
    0xad, 0x3e, 0x5a, 0x01, 0x44, 0xbf, 0xf5, 0x1d, 0x2e, 0x3f,
    0xd1, 0x03, 0x82, 0xbe, 0x07, 0x46, 0xd9, 0x3e, 0x26, 0x7f,
    0xef, 0xbd, 0x2b, 0xb3, 0xf6, 0x3e, 0xed, 0x0f, 0x88, 0x3e,
    0x7b, 0x42, 0xc5, 0x3c, 0xe9, 0x60, 0xc3, 0xbe, 0x4c, 0xc0,
    0xc6, 0x3e, 0x2e, 0x96, 0x57, 0x3e, 0xd7, 0x3f, 0x29, 0xbe,
    0x3c, 0xaf, 0xdb, 0x3e, 0x3f, 0x64, 0xe3, 0x3d, 0x7c, 0x7f,
    0x9e, 0xbd, 0x0f, 0x16, 0x72, 0x3d, 0xd5, 0x56, 0x98, 0xbe,
    0x22, 0x36, 0x0e, 0xbf, 0x45, 0x34, 0xc7, 0xbd, 0x8c, 0x60,
    0x1d, 0xbf, 0x2f, 0x5e, 0x01, 0xbf, 0xb1, 0xe5, 0x13, 0xbf,
    0x10, 0x32, 0x88, 0xbe, 0x9e, 0xf1, 0x05, 0xbf, 0xf5, 0x14,
    0x99, 0x3e, 0x3f, 0x06, 0x58, 0xbe, 0x0b, 0x0b, 0x05, 0xbe,
    0x90, 0x6b, 0x40, 0xbf, 0xa6, 0xa1, 0xbf, 0xbe, 0x63, 0xbf,
    0x98, 0xbd, 0x0c, 0xd4, 0xc1, 0xbd, 0xf5, 0x5c, 0x8d, 0xbe,
    0x79, 0x5d, 0x9a, 0x3e, 0x14, 0xd6, 0xf5, 0x3e, 0x4d, 0x55,
    0x24, 0xbe, 0x10, 0xc7, 0x83, 0x3e, 0xb8, 0xd0, 0x15, 0x3e,
    0xbc, 0x28, 0x3d, 0x3e, 0x41, 0x3f, 0xf8, 0xbd, 0x06, 0x4f,
    0x13, 0xbd, 0xb6, 0x1b, 0x98, 0xbd, 0x0c, 0xa2, 0xdf, 0xbd,
    0xe8, 0xda, 0xdc, 0xbe, 0x42, 0xbd, 0x09, 0xbe, 0x49, 0xd8,
    0xab, 0xbe, 0x15, 0xf9, 0x58, 0xbf, 0xc3, 0xbd, 0xb5, 0x3d,
    0x62, 0xa7, 0x87, 0xbe, 0x68, 0x93, 0xe8, 0x3e, 0xa8, 0x81,
    0x98, 0x3e, 0x85, 0x3a, 0x8b, 0xbe, 0xd3, 0x89, 0xb0, 0xbe,
    0x69, 0x9d, 0x2b, 0xbf, 0xc3, 0x62, 0x12, 0x3e, 0x75, 0x63,
    0x58, 0xbf, 0x5d, 0xc6, 0x68, 0xbe, 0xfc, 0x1a, 0xec, 0x3e,
    0xec, 0x2e, 0x7b, 0x3e, 0x63, 0x83, 0x8f, 0xbe, 0xbf, 0xf5,
    0x17, 0xbe, 0x1c, 0xb2, 0xd3, 0xbd, 0x71, 0x19, 0xcc, 0xbe,
    0xc8, 0xb1, 0x0f, 0x3e, 0x17, 0xdc, 0xa5, 0x3e, 0xdd, 0x32,
    0x6b, 0x3e, 0x4c, 0x6a, 0x23, 0x3f, 0xc2, 0x3e, 0xeb, 0x3e,
    0xcd, 0x58, 0x22, 0x3f, 0xcc, 0x5f, 0x13, 0x3f, 0x9b, 0x8c,
    0x76, 0x3f, 0x03, 0x35, 0xea, 0x3d, 0x9f, 0x04, 0x1c, 0x3f,
    0x44, 0x77, 0x36, 0xbf, 0x84, 0x77, 0x37, 0x3f, 0x62, 0xbc,
    0x22, 0xbe, 0xbe, 0x9b, 0x45, 0xbe, 0x9a, 0x2e, 0x46, 0x3e,
    0x2e, 0xb6, 0x6c, 0x3e, 0x4f, 0x32, 0x39, 0xbf, 0xc2, 0xd3,
    0x1c, 0xbf, 0x3c, 0x0e, 0x04, 0x3e, 0xc2, 0x00, 0x8a, 0x3d,
    0xf0, 0xef, 0x3d, 0xbe, 0x0f, 0x0e, 0x02, 0xbf, 0x96, 0xf4,
    0x0f, 0x3b, 0xe4, 0xa2, 0x28, 0xbf, 0x3d, 0xae, 0x12, 0xbe,
    0x5b, 0x43, 0x0f, 0xbf, 0xfd, 0xc1, 0x89, 0x3e, 0xfc, 0x6a,
    0x27, 0xbe, 0xa1, 0x5c, 0x24, 0x3f, 0x7d, 0xaf, 0x5d, 0xbe,
    0x1a, 0x18, 0x2d, 0x3e, 0x2a, 0x00, 0x76, 0xbe, 0xae, 0x6a,
    0xe1, 0x3e, 0xdf, 0x8b, 0xd7, 0xbe, 0x3f, 0x2d, 0x8b, 0x3d,
    0x09, 0x6a, 0x6d, 0xbe, 0x35, 0x1f, 0x0d, 0x3f, 0x15, 0xb5,
    0xb6, 0x3e, 0x25, 0xd8, 0xe4, 0x3e, 0x0c, 0xc0, 0x38, 0xbf,
    0x45, 0xe0, 0x9d, 0x3f, 0x68, 0xfc, 0xfe, 0x3d, 0xcc, 0x93,
    0x8f, 0xbd, 0xb8, 0xc5, 0xe1, 0x3e, 0x4d, 0x29, 0x75, 0x3e,
    0x66, 0xfe, 0xc3, 0x3e, 0xaf, 0xbd, 0xf8, 0xbd, 0x80, 0x60,
    0xcf, 0x3e, 0x75, 0xb5, 0x4a, 0xbe, 0xed, 0xc6, 0xbb, 0x3e,
    0x0c, 0x68, 0x9e, 0xbe, 0xd7, 0xdd, 0x04, 0x3f, 0x5e, 0x03,
    0xec, 0x3c, 0x1a, 0xab, 0x40, 0xbd, 0x6a, 0x4f, 0xfa, 0x3d,
    0xb8, 0xfe, 0x79, 0x3e, 0xb7, 0x12, 0xca, 0xbe, 0x0a, 0xb2,
    0xbf, 0x3c, 0xf0, 0x6a, 0x8b, 0x3e, 0x72, 0xb6, 0x04, 0xbe,
    0x22, 0x2a, 0x69, 0xbd, 0x81, 0x57, 0x83, 0x3d, 0xcf, 0x11,
    0xd2, 0xbd, 0x6a, 0xb5, 0xbe, 0xbd, 0x38, 0xbf, 0xdd, 0xbc,
    0x6c, 0xf8, 0x35, 0xbd, 0x16, 0xfa, 0x9e, 0x3d, 0x0c, 0x09,
    0x1f, 0x3d, 0x61, 0x36, 0xd2, 0x3e, 0xdb, 0x90, 0x0e, 0x3f,
    0x37, 0xfd, 0xd4, 0x3d, 0xdc, 0xdb, 0x44, 0x3d, 0xbe, 0xc1,
    0x2a, 0xbd, 0xa1, 0x9a, 0xb3, 0x3e, 0x7c, 0xf4, 0x54, 0xbe,
    0xd0, 0x91, 0x79, 0x3e, 0xe4, 0x2e, 0xa6, 0xbc, 0xe2, 0x34,
    0xb5, 0x3e, 0xe6, 0x59, 0x20, 0xbf, 0x0d, 0xe2, 0xc5, 0xbd,
    0xda, 0x61, 0xff, 0x3e, 0xe5, 0x0c, 0x80, 0xbe, 0x74, 0xcf,
    0xa4, 0x3d, 0x0f, 0x19, 0xa6, 0x3e, 0x25, 0xea, 0xfe, 0x3e,
    0x99, 0xca, 0x13, 0x3f, 0x39, 0x3d, 0x00, 0x3f, 0xfe, 0x7d,
    0xea, 0x3e, 0x4f, 0x00, 0x9f, 0x3e, 0x49, 0xf8, 0x64, 0xbd,
    0x19, 0xa3, 0xbf, 0x3d, 0xc6, 0xd4, 0xa2, 0x3c, 0x8a, 0xb7,
    0xbf, 0xbe, 0x80, 0x98, 0x26, 0xbe, 0x81, 0x0c, 0x9d, 0xbd,
    0x5a, 0xa3, 0x0d, 0xbf, 0x38, 0x99, 0x12, 0xbe, 0xd3, 0x2b,
    0xcc, 0xbe, 0xfd, 0xce, 0x90, 0x3f, 0x19, 0xd5, 0x40, 0x3e,
    0x02, 0xf1, 0x60, 0x3d, 0x87, 0x86, 0xb0, 0x3e, 0x88, 0x07,
    0x1c, 0xbc, 0x42, 0x9b, 0x1e, 0x3e, 0x14, 0x96, 0xdc, 0x3e,
    0xcf, 0x21, 0x43, 0xbe, 0x40, 0x3a, 0x7e, 0x3e, 0xce, 0xf6,
    0xf9, 0xbe, 0x43, 0x26, 0x81, 0xbc, 0xd2, 0x44, 0x9c, 0x3d,
    0xc4, 0xb5, 0x19, 0xbf, 0xb9, 0xce, 0x16, 0x3e, 0x9d, 0x24,
    0xb3, 0x3e, 0x56, 0x10, 0x92, 0xbb, 0x97, 0x21, 0xb3, 0xbe,
    0xde, 0x0f, 0x9d, 0xbe, 0xe2, 0x49, 0xb5, 0x3e, 0x79, 0x02,
    0xf6, 0xbe, 0xfb, 0xb2, 0x26, 0xbd, 0x2b, 0x49, 0xc1, 0x3e,
    0xfe, 0xc9, 0x39, 0xbf, 0x08, 0x86, 0xdf, 0xbc, 0xa4, 0x80,
    0xd4, 0x3d, 0xff, 0x4e, 0x81, 0x3d, 0x30, 0x7f, 0x3b, 0xbf,
    0x1d, 0x1f, 0x7b, 0xbf, 0x9a, 0x7c, 0x2b, 0x3f, 0xf1, 0x5c,
    0x9b, 0xbc, 0x3f, 0x55, 0x2a, 0xbf, 0x0d, 0x98, 0x4e, 0x3c,
    0x6d, 0x5a, 0xe0, 0xbe, 0xbf, 0xd9, 0xce, 0x3d, 0x42, 0x00,
    0xde, 0xba, 0x84, 0x0d, 0x29, 0x3f, 0x1e, 0x31, 0xb6, 0xbe,
    0x41, 0x20, 0x32, 0xbf, 0x2a, 0x21, 0x7a, 0x3f, 0x98, 0x85,
    0x8e, 0xbe, 0xa1, 0xf1, 0xdd, 0x3e, 0x10, 0xf7, 0x31, 0x3e,
    0xa6, 0x13, 0x20, 0xbe, 0xdf, 0xba, 0x5b, 0xbe, 0x80, 0xa1,
    0xca, 0x3c, 0x08, 0x7e, 0x22, 0x3f, 0x02, 0x6a, 0x95, 0x3e,
    0x5a, 0xa4, 0xe1, 0x3e, 0xd2, 0x52, 0xbf, 0xbe, 0xed, 0x83,
    0x32, 0x3f, 0xf2, 0x79, 0x87, 0x3d, 0x21, 0xa4, 0x22, 0x3d,
    0x06, 0xdc, 0xb6, 0x3c, 0x0a, 0xce, 0xf8, 0x3e, 0x1d, 0xa9,
    0x55, 0xbc, 0x02, 0x6b, 0x16, 0x3f, 0x01, 0x24, 0xd3, 0xbc,
    0x03, 0xc6, 0x5c, 0x3f, 0x05, 0x6a, 0x1a, 0x3e, 0x9c, 0xf2,
    0xb3, 0x3f, 0x64, 0xa1, 0x23, 0xbf, 0x41, 0xba, 0x00, 0xbe,
    0xb5, 0xf1, 0x55, 0x3f, 0xb9, 0xdc, 0xc9, 0x3e, 0x64, 0x30,
    0x9e, 0x3e, 0xd1, 0x96, 0x20, 0xbe, 0x40, 0x98, 0x98, 0x3e,
    0x7a, 0xb5, 0xbf, 0x3d, 0x91, 0xd8, 0x88, 0x3e, 0x52, 0x16,
    0xf9, 0x3e, 0x1e, 0xfc, 0x9d, 0xbd, 0x0b, 0xb6, 0x26, 0x3f,
    0x2a, 0x7a, 0x3e, 0xbf, 0x5b, 0xb2, 0x1e, 0x3e, 0x3b, 0x6b,
    0x15, 0x3f, 0x1b, 0xfa, 0x8d, 0xbe, 0x69, 0x9a, 0xfa, 0x3c,
    0x95, 0x99, 0xa2, 0x3e, 0x27, 0x25, 0xa1, 0xbc, 0x75, 0x74,
    0x90, 0x3e, 0x1c, 0xca, 0xe1, 0xbe, 0xb5, 0xdd, 0x03, 0x3f,
    0x2e, 0x19, 0xca, 0x3e, 0xe0, 0x76, 0x95, 0x3f, 0xd1, 0x75,
    0x29, 0xbf, 0x4e, 0x8d, 0xee, 0xbe, 0xb3, 0xb4, 0x95, 0x3f,
    0xd6, 0x0a, 0x5e, 0xbe, 0xc5, 0x72, 0x89, 0x3e, 0xa2, 0x00,
    0xb3, 0xbe, 0xd9, 0xbe, 0x0e, 0x3e, 0xb1, 0x33, 0x75, 0xbe,
    0x5c, 0x50, 0xd4, 0xbc, 0x21, 0xaf, 0x92, 0x3d, 0xa2, 0xac,
    0xdb, 0xbd, 0xff, 0x6c, 0x68, 0x3d, 0xfc, 0xee, 0x5f, 0xbe,
    0x48, 0xba, 0x7a, 0xbe, 0xa6, 0x81, 0x24, 0x3e, 0xb6, 0x9f,
    0x0a, 0xbe, 0xb7, 0x73, 0x96, 0x3e, 0x80, 0x13, 0xdb, 0xbe,
    0x99, 0xc2, 0xbd, 0x3d, 0xf3, 0xb2, 0x16, 0x3f, 0xc0, 0x05,
    0xb6, 0xbc, 0xdc, 0xfd, 0x8c, 0xbe, 0x10, 0x05, 0x79, 0xbd,
    0x9d, 0x4b, 0x02, 0xbe, 0x34, 0x41, 0x88, 0xbd, 0xd4, 0xd1,
    0xdb, 0xbe, 0xf6, 0xe1, 0x18, 0xbf, 0x83, 0xef, 0x7c, 0x3f,
    0x42, 0x01, 0x6e, 0x3e, 0xf5, 0x5e, 0x0d, 0xbf, 0xa9, 0xc0,
    0x9f, 0xbe, 0xe0, 0xd5, 0x66, 0xbf, 0x60, 0xed, 0x80, 0xbf,
    0xc2, 0x72, 0xe1, 0x3e, 0x15, 0x53, 0xd6, 0xbf, 0xa4, 0x3d,
    0x98, 0xbf, 0xff, 0xf3, 0xf7, 0x3e, 0x00, 0x54, 0x80, 0xbe,
    0xb5, 0xde, 0x3c, 0xbd, 0x20, 0xca, 0x9a, 0x3d, 0x60, 0xa8,
    0xae, 0xbe, 0xa9, 0x9e, 0x37, 0x3e, 0x4d, 0x7e, 0x5c, 0x3e,
    0xf3, 0x30, 0x55, 0xbe, 0x03, 0x66, 0xa0, 0xbe, 0x67, 0x84,
    0x3f, 0x3e, 0xfc, 0x44, 0xb5, 0xbe, 0x39, 0xa6, 0x85, 0xbe,
    0x6c, 0x67, 0x5a, 0xbe, 0x4c, 0xc6, 0x99, 0x3e, 0x7d, 0xec,
    0x94, 0x3e, 0x5a, 0xfa, 0x3d, 0xbd, 0x95, 0xc7, 0xcb, 0xbc,
    0x08, 0x93, 0x0c, 0xbd, 0xbf, 0xa8, 0x2f, 0x3d, 0xa7, 0x8f,
    0xa4, 0x3b, 0x03, 0x0d, 0xe2, 0xbe, 0x40, 0x95, 0x22, 0x3c,
    0x5c, 0x30, 0xdb, 0xbe, 0xfc, 0x66, 0xd4, 0x3e, 0x02, 0xc3,
    0xf3, 0xbd, 0xbd, 0x4f, 0x31, 0xbe, 0xc0, 0xff, 0x4d, 0x3f,
    0x54, 0x7c, 0xec, 0x3e, 0x5a, 0xee, 0x06, 0x3f, 0xe8, 0x85,
    0x17, 0xbe, 0x0d, 0x78, 0xd6, 0xbd, 0xbf, 0x8f, 0xab, 0x3e,
    0xe9, 0x1c, 0xc8, 0xbe, 0x09, 0x2b, 0xc6, 0xbe, 0xa5, 0x67,
    0x34, 0xbe, 0xed, 0x5f, 0x94, 0x3e, 0x2c, 0xfb, 0x16, 0xbf,
    0x73, 0x64, 0x20, 0xbf, 0xdb, 0x3c, 0x2d, 0x3f, 0x4c, 0x02,
    0x4e, 0xbe, 0x23, 0x3a, 0x1b, 0x3e, 0xa7, 0xa3, 0xb3, 0xbd,
    0x9c, 0x80, 0x1a, 0x3e, 0x21, 0x75, 0xe1, 0x3b, 0xbb, 0xbf,
    0x75, 0xbe, 0x63, 0xd5, 0x70, 0xbd, 0x80, 0x0f, 0xfa, 0x3c,
    0xc0, 0x27, 0xb4, 0x3e, 0x26, 0x35, 0x18, 0x3e, 0x99, 0x93,
    0x15, 0x3f, 0x03, 0x71, 0xa5, 0xbe, 0x83, 0xa4, 0x5a, 0xbe,
    0x01, 0x19, 0x8c, 0xbd, 0x62, 0x53, 0x16, 0x3f, 0x1f, 0x24,
    0xab, 0x3e, 0xf8, 0x0d, 0xcd, 0xbf, 0x64, 0xa8, 0x57, 0xbf,
    0xb9, 0x1c, 0xc4, 0xbc, 0xb9, 0x30, 0xaf, 0xbe, 0xc5, 0xc0,
    0x46, 0x3e, 0x40, 0x5a, 0x24, 0x3e, 0xdc, 0xfa, 0x8f, 0x3e,
    0x99, 0x3d, 0x9e, 0xbe, 0xf0, 0x92, 0xdc, 0x3e, 0x96, 0x45,
    0x4e, 0xbc, 0x67, 0x24, 0x62, 0xbe, 0x0b, 0xdc, 0x84, 0xbc,
    0x0a, 0xf7, 0x18, 0x3f, 0x32, 0x1a, 0xae, 0xbe, 0x51, 0xe8,
    0x37, 0xbe, 0xf2, 0x38, 0x24, 0xbe, 0xe5, 0x28, 0xc3, 0x3e,
    0x9b, 0x94, 0xd7, 0x3e, 0x67, 0xd5, 0x81, 0xbe, 0xf1, 0x3b,
    0xf3, 0xbd, 0x12, 0x51, 0x6d, 0x3e, 0x8c, 0x9a, 0x70, 0xbe,
    0x21, 0x78, 0x80, 0xbe, 0x34, 0x6e, 0xbd, 0x3e, 0xca, 0x22,
    0xcf, 0x3d, 0x39, 0x62, 0xd0, 0x3d, 0x5e, 0xb8, 0x23, 0xbe,
    0x44, 0xfe, 0x78, 0xbe, 0x33, 0xc4, 0x3e, 0x3e, 0xc5, 0x6b,
    0xbc, 0x3d, 0x39, 0x19, 0x00, 0xbe, 0x95, 0x28, 0x1e, 0xbe,
    0x40, 0xdb, 0x50, 0xbd, 0x47, 0xc2, 0x76, 0x3d, 0x13, 0xde,
    0xb0, 0x3e, 0xf3, 0x7b, 0x2b, 0x3e, 0x97, 0x5a, 0x15, 0x3f,
    0xf3, 0x5e, 0x62, 0x3f, 0x18, 0x33, 0x7d, 0x3f, 0x36, 0x4f,
    0xa4, 0xbe, 0x1f, 0x04, 0x9a, 0x3d, 0x29, 0x85, 0xc8, 0x3e,
    0x43, 0xbb, 0x35, 0x3e, 0x10, 0xe2, 0x33, 0x3e, 0x95, 0x8f,
    0xeb, 0x3d, 0xa0, 0xab, 0x24, 0xbe, 0xeb, 0x39, 0xe8, 0xbd,
    0x72, 0xab, 0x93, 0xbe, 0xa8, 0x63, 0x85, 0xbd, 0xce, 0x49,
    0x51, 0x3e, 0x07, 0x51, 0x91, 0x3e, 0x9b, 0x6f, 0xe9, 0x3e,
    0x76, 0x1b, 0x1d, 0xbe, 0xdd, 0xba, 0x80, 0x3e, 0x09, 0xe7,
    0xcd, 0xbc, 0xaa, 0xae, 0x6e, 0xbe, 0x51, 0xcf, 0xeb, 0x3c,
    0x6d, 0xed, 0x8b, 0xbe, 0x91, 0x85, 0x78, 0xbd, 0xc4, 0xb6,
    0x94, 0xbe, 0x57, 0x7c, 0x0f, 0xbe, 0x43, 0x7e, 0x64, 0xbf,
    0xd2, 0xea, 0x82, 0xbf, 0x98, 0x8b, 0xf2, 0x3e, 0xab, 0xfd,
    0x3f, 0x3d, 0x54, 0x72, 0x8b, 0xbe, 0x39, 0xf6, 0x3e, 0xbe,
    0xf3, 0xe2, 0x8a, 0xbf, 0x74, 0x85, 0x04, 0x3e, 0xe2, 0xae,
    0x58, 0xbe, 0x1a, 0x9d, 0x8f, 0xbe, 0xf6, 0x22, 0x26, 0xbd,
    0xdb, 0x90, 0xc9, 0x3e, 0x78, 0xc9, 0xca, 0x3e, 0x77, 0x0a,
    0xa4, 0xbe, 0x5a, 0xda, 0x20, 0x3e, 0x4d, 0xaa, 0xd9, 0xbc,
    0x87, 0x0e, 0xad, 0x3e, 0x4c, 0x2e, 0xb4, 0xbd, 0x72, 0x20,
    0x12, 0xbe, 0xe3, 0xdd, 0x0b, 0xbf, 0xee, 0xa7, 0x86, 0xbe,
    0x6a, 0x14, 0x67, 0x3d, 0xaf, 0xf9, 0x6d, 0x3e, 0x81, 0xa9,
    0xbc, 0x3d, 0x92, 0xe0, 0xd0, 0x3e, 0xfe, 0x5f, 0x1a, 0x3e,
    0x87, 0xc5, 0xfb, 0xbd, 0xd5, 0x1e, 0x4d, 0xbe, 0xcf, 0x0f,
    0xfe, 0xbe, 0x60, 0xd3, 0xc5, 0x3e, 0xbb, 0x33, 0x79, 0x3f,
    0x99, 0xde, 0x9a, 0xbe, 0x00, 0x56, 0xab, 0x3e, 0x08, 0xbe,
    0xe6, 0x3e, 0xbf, 0x4f, 0x83, 0xbe, 0x56, 0x6f, 0x5c, 0xbf,
    0x6b, 0x25, 0x87, 0x3e, 0x1b, 0x53, 0x88, 0x3e, 0x42, 0xab,
    0xb2, 0xbc, 0xbd, 0xb9, 0x0f, 0xbe, 0x4e, 0x32, 0x31, 0x3e,
    0x29, 0xfa, 0xd0, 0x3e, 0x21, 0x00, 0x41, 0x3e, 0x60, 0x70,
    0xc4, 0x3e, 0xfc, 0x6f, 0x95, 0x3e, 0x91, 0x73, 0x03, 0xbe,
    0x77, 0xb2, 0x0f, 0xbe, 0xab, 0x62, 0x95, 0xbe, 0x9d, 0x8e,
    0xec, 0xbd, 0x12, 0x65, 0xbc, 0x3e, 0x35, 0x14, 0x91, 0xbe,
    0x50, 0x31, 0x71, 0x3e, 0x0e, 0x01, 0x96, 0xbe, 0x8d, 0x5a,
    0x8a, 0x3d, 0xdb, 0xe1, 0x29, 0xbe, 0x2f, 0xbf, 0xfc, 0x3c,
    0xd2, 0x46, 0x49, 0x3e, 0x48, 0x8f, 0x3b, 0x3f, 0xbe, 0x44,
    0x72, 0x3f, 0x9c, 0x94, 0x40, 0xbf, 0x35, 0xcd, 0x78, 0xbf,
    0xee, 0xdf, 0x9a, 0xbc, 0x08, 0x4e, 0xbf, 0x3e, 0xeb, 0x27,
    0xae, 0x3e, 0x74, 0xa2, 0xb7, 0xbc, 0x47, 0x85, 0x8c, 0xbe,
    0x5a, 0xe3, 0xb1, 0xbe, 0xb3, 0x35, 0xc9, 0x3d, 0x7e, 0x97,
    0x10, 0xbf, 0x41, 0x94, 0xa5, 0x3e, 0x70, 0xa6, 0x5b, 0xbe,
    0x49, 0x3c, 0x00, 0xbf, 0x45, 0x07, 0xb3, 0xbd, 0x2b, 0x1c,
    0x01, 0xbd, 0x78, 0x27, 0xd8, 0xbd, 0x05, 0x05, 0x99, 0x3e,
    0x68, 0x3d, 0x39, 0x3e, 0xfe, 0x51, 0x90, 0xbd, 0x99, 0x77,
    0x97, 0x3e, 0x85, 0xde, 0x48, 0x3e, 0x93, 0x2e, 0x07, 0x3f,
    0x10, 0xd5, 0xe7, 0x3f, 0x94, 0xbd, 0x4a, 0x3e, 0xda, 0x0d,
    0xf5, 0x3e, 0x14, 0xd8, 0xa4, 0x3e, 0x03, 0xe7, 0x40, 0xbe,
    0x14, 0xf2, 0x70, 0xbe, 0xc8, 0x1e, 0x25, 0x3e, 0x7f, 0x68,
    0xa0, 0x3c, 0xaa, 0xb0, 0x8c, 0xbe, 0x00, 0x64, 0xa2, 0xbe,
    0x32, 0x7e, 0xdb, 0xbd, 0x1d, 0x04, 0x0b, 0xbf, 0x70, 0x50,
    0xc7, 0xbe, 0x86, 0x68, 0x63, 0xbc, 0xb4, 0x6c, 0x58, 0x3e,
    0x75, 0x7e, 0x0a, 0xbe, 0x28, 0x61, 0x20, 0xbe, 0xe0, 0x4a,
    0xa6, 0x3e, 0xcb, 0x8b, 0x1a, 0xbe, 0x89, 0x34, 0x90, 0x3e,
    0xbd, 0x92, 0xf0, 0xbe, 0xf0, 0xb7, 0xf9, 0xbd, 0xa1, 0xb9,
    0xdf, 0x3d, 0x99, 0x32, 0x61, 0x3c, 0x65, 0x6b, 0x79, 0x3e,
    0x7e, 0xdc, 0x91, 0x3e, 0x89, 0x5c, 0xd4, 0x3e, 0x31, 0x8d,
    0x97, 0xbd, 0x16, 0x68, 0x43, 0x3d, 0x87, 0xbe, 0x9e, 0xbb,
    0xa9, 0x4d, 0xa9, 0x3e, 0x6f, 0x37, 0x0a, 0x3f, 0xc0, 0xb8,
    0x32, 0x3f, 0xb2, 0x89, 0x0d, 0xbf, 0x37, 0xbc, 0x06, 0x3f,
    0x82, 0x9a, 0x99, 0x3e, 0x03, 0x2c, 0xf8, 0x3d, 0x61, 0x2d,
    0xdf, 0xbd, 0x7f, 0x2c, 0x0a, 0xbe, 0xe0, 0xae, 0xe5, 0xbd,
    0x84, 0x65, 0x05, 0xbf, 0x04, 0x9e, 0x06, 0x3d, 0x4c, 0x73,
    0x84, 0xbe, 0xaf, 0x7b, 0xfb, 0x3e, 0x25, 0xcf, 0x87, 0x3d,
    0xcf, 0x44, 0x44, 0xbd, 0x08, 0x35, 0x6c, 0x3e, 0xfa, 0x92,
    0x49, 0x3d, 0x60, 0x34, 0x16, 0x3c, 0x9a, 0x57, 0x2e, 0xbe,
    0x84, 0x41, 0xa2, 0x3d, 0xb4, 0xba, 0x9c, 0x3d, 0xd1, 0x2d,
    0x8e, 0x3e, 0xe7, 0x32, 0x2c, 0xbf, 0x3f, 0xef, 0x04, 0x3f,
    0x54, 0x40, 0x6e, 0x3e, 0xeb, 0x71, 0xac, 0xbd, 0x19, 0xa0,
    0x3d, 0x3c, 0x40, 0x12, 0x68, 0xbe, 0xbc, 0x1e, 0xc3, 0x3d,
    0x37, 0xa4, 0x97, 0xbe, 0x39, 0x85, 0xc4, 0xbe, 0x03, 0x67,
    0x27, 0x3f, 0xcc, 0x7b, 0x78, 0xbe, 0x5d, 0x8e, 0x48, 0x3d,
    0xc2, 0x74, 0x35, 0xbe, 0x86, 0x27, 0x0f, 0x3e, 0xd8, 0x24,
    0x93, 0xbd, 0x91, 0x95, 0xf8, 0x3d, 0xb2, 0xba, 0x96, 0xbb,
    0xb5, 0x7f, 0x1b, 0x3e, 0xa2, 0x9b, 0x2c, 0xbd, 0x1a, 0xda,
    0xfe, 0x3c, 0x56, 0xf6, 0xa7, 0xbc, 0x69, 0x7b, 0xac, 0x3d,
    0xf0, 0x8c, 0xc7, 0x3d, 0x09, 0xbd, 0x04, 0x3f, 0xcc, 0x40,
    0x54, 0x3e, 0x85, 0xee, 0x00, 0xbf, 0xb4, 0x53, 0xc8, 0xbe,
    0x08, 0x5a, 0xe3, 0x3e, 0x9c, 0x52, 0xc1, 0x3e, 0x59, 0x06,
    0xa9, 0x3e, 0x8c, 0x4c, 0x30, 0xbe, 0x04, 0x93, 0xb4, 0x3e,
    0xed, 0x95, 0xd7, 0xbc, 0xf4, 0xa1, 0x1d, 0xbe, 0x71, 0x95,
    0x02, 0xbf, 0x37, 0x07, 0x9b, 0xbc, 0x30, 0x88, 0x3f, 0x3e,
    0x3a, 0x5a, 0xcd, 0x3e, 0xea, 0xc1, 0xe6, 0x3d, 0x3a, 0xf5,
    0x14, 0xbe, 0x64, 0x22, 0x06, 0xbe, 0xab, 0x57, 0x57, 0x3d,
    0x07, 0x95, 0x9e, 0xbd, 0x24, 0xcc, 0x47, 0xbe, 0xcf, 0x06,
    0xb2, 0xbe, 0x1b, 0xdd, 0xb8, 0x3e, 0xc9, 0x20, 0x6c, 0xbe,
    0xb0, 0xf4, 0x0d, 0xbf, 0xa1, 0xa8, 0x1c, 0x3d, 0x19, 0xa8,
    0xea, 0x3d, 0xfa, 0x2e, 0xb6, 0x3e, 0xa2, 0x5e, 0x7c, 0xbe,
    0xdb, 0x0a, 0x2d, 0xbf, 0x9f, 0x6e, 0x27, 0xbf, 0x1c, 0x2d,
    0xd7, 0xbd, 0x17, 0x5f, 0x67, 0x3d, 0xf4, 0xc9, 0x39, 0x3d,
    0x56, 0x17, 0x8b, 0x3d, 0xd0, 0xd5, 0x9f, 0xbe, 0x76, 0x88,
    0x05, 0x3e, 0xf1, 0x4f, 0x26, 0xbf, 0x84, 0x26, 0x00, 0xbe,
    0xc3, 0xfa, 0x50, 0xbc, 0xe3, 0xd2, 0x94, 0x3e, 0x74, 0x18,
    0x34, 0x3e, 0x72, 0xfb, 0xb8, 0x3d, 0x4e, 0xf1, 0xa3, 0x3e,
    0x96, 0xb4, 0xbc, 0x3d, 0xb5, 0xe7, 0x80, 0xbe, 0xc7, 0xa8,
    0x4a, 0xbe, 0xe1, 0xc8, 0xd2, 0xbd, 0xd0, 0xa4, 0xe5, 0x3e,
    0x88, 0x51, 0x9e, 0x3e, 0x6a, 0x0a, 0x57, 0x3d, 0xf1, 0x27,
    0x70, 0xbe, 0xdc, 0xdd, 0xa5, 0x3e, 0x00, 0xe5, 0xd2, 0x3d,
    0x76, 0xae, 0xb0, 0x3e, 0xa5, 0x53, 0xcc, 0xbd, 0xcc, 0x66,
    0x99, 0xbd, 0x0a, 0x70, 0x97, 0xbd, 0x40, 0xff, 0xfa, 0x3e,
    0x80, 0x11, 0xfa, 0xbe, 0x6f, 0xe7, 0x14, 0x3d, 0x45, 0x10,
    0xe1, 0x3d, 0xef, 0xdf, 0x48, 0x3e, 0xc8, 0x36, 0x76, 0x3e,
    0x8c, 0x4d, 0x5b, 0xbb, 0x7b, 0x00, 0x28, 0x3f, 0x55, 0xe8,
    0x2c, 0xbd, 0x7e, 0x95, 0x02, 0xbf, 0x4c, 0x79, 0x94, 0xbe,
    0x84, 0x37, 0xfc, 0xbe, 0xa3, 0x42, 0x05, 0xbe, 0x1a, 0x3c,
    0xb9, 0x3c, 0x24, 0x0d, 0xba, 0xbe, 0x48, 0x65, 0x35, 0xbe,
    0xb2, 0xe4, 0x9f, 0x3e, 0x00, 0x13, 0xba, 0x3e, 0x66, 0x9d,
    0x00, 0xbf, 0x4c, 0xc6, 0x8a, 0x3d, 0xb4, 0x69, 0x73, 0x3e,
    0xbe, 0x68, 0x1e, 0xbe, 0xbb, 0xfc, 0x5c, 0x3e, 0xff, 0x54,
    0xea, 0x3c, 0xcb, 0x41, 0x53, 0xbd, 0x96, 0x13, 0x87, 0x3e,
    0x37, 0x6d, 0xb9, 0xbe, 0x40, 0x47, 0xa3, 0x3e, 0x48, 0x0d,
    0x78, 0xbe, 0x6f, 0x01, 0xac, 0xbd, 0x6a, 0x76, 0x3f, 0x3e,
    0xf9, 0xaa, 0x08, 0xbe, 0xc1, 0x99, 0x5a, 0x3e, 0x7e, 0x0c,
    0x8c, 0xbe, 0xee, 0xcb, 0x01, 0xbf, 0x70, 0xa6, 0x65, 0xbe,
    0xab, 0x70, 0x2d, 0x3d, 0x9d, 0x8d, 0x29, 0x3d, 0xbf, 0x57,
    0x44, 0xbf, 0xab, 0xb5, 0xba, 0xbe, 0x5c, 0xdb, 0x05, 0xbe,
    0x3b, 0xcb, 0x6a, 0xbf, 0x18, 0xae, 0x9b, 0x3e, 0xb8, 0x75,
    0xdd, 0x3e, 0x7e, 0xcc, 0x4f, 0x3d, 0x78, 0x33, 0x98, 0xbf,
    0xd5, 0x1c, 0x0c, 0xbf, 0x64, 0x4d, 0x44, 0xbe, 0x76, 0x70,
    0x8e, 0xbd, 0x57, 0x12, 0xc2, 0xbe, 0xd0, 0xee, 0xfb, 0x3e,
    0xc0, 0x21, 0x01, 0x3f, 0xcc, 0x9b, 0xa9, 0xbd, 0x19, 0x96,
    0x6b, 0xbf, 0xbb, 0xe2, 0x18, 0xbe, 0x38, 0xc7, 0x5d, 0x3e,
    0x53, 0xb6, 0xb6, 0xbc, 0x49, 0xe3, 0xe2, 0xbe, 0x0e, 0xda,
    0x54, 0x3e, 0x62, 0x1d, 0x03, 0x3f, 0x92, 0x50, 0xa8, 0xbe,
    0x82, 0xa7, 0x82, 0xbf, 0x85, 0xa3, 0x17, 0xbe, 0xec, 0xaa,
    0xa7, 0xbe, 0x0b, 0x1e, 0x1c, 0x3e, 0x58, 0x2a, 0xbf, 0xbe,
    0x98, 0x42, 0xec, 0x3e, 0x43, 0xd4, 0xc4, 0x3e, 0x6b, 0xc3,
    0x84, 0xbe, 0xb2, 0x89, 0xa2, 0xbe, 0x4d, 0xa2, 0x93, 0xbe,
    0x58, 0x25, 0x99, 0x3e, 0xe5, 0xbc, 0x24, 0xbc, 0xc1, 0xc8,
    0x1d, 0xbe, 0x92, 0x70, 0x0b, 0x3f, 0x64, 0x9b, 0x42, 0xbe,
    0x3f, 0x0a, 0x6b, 0x3e, 0xe4, 0x20, 0x89, 0x3d, 0x0d, 0x39,
    0xa6, 0xbc, 0x3e, 0x77, 0xff, 0xbe, 0x8c, 0xe5, 0xc5, 0xbd,
    0xc9, 0x35, 0x68, 0x3e, 0x59, 0xf6, 0xae, 0x3e, 0x4e, 0x20,
    0x12, 0xbe, 0x56, 0xc2, 0xbe, 0x3d, 0x6a, 0xdc, 0x1c, 0x3e,
    0x78, 0x3d, 0x67, 0x3c, 0x39, 0x74, 0x05, 0x3f, 0x61, 0xb2,
    0xcf, 0xbe, 0xe2, 0x06, 0xa4, 0xbe, 0xd9, 0xcf, 0xcd, 0xbe,
    0x26, 0xaa, 0xa4, 0x3d, 0xcf, 0xa8, 0x6c, 0x3e, 0x90, 0xc5,
    0x95, 0xbe, 0xd2, 0x3e, 0x72, 0x3e, 0x41, 0xf6, 0x0c, 0x3f,
    0xf7, 0x66, 0xbf, 0xbd, 0xb2, 0x5d, 0x9c, 0x3e, 0x10, 0x7b,
    0xa3, 0xbe, 0xc6, 0x25, 0x59, 0x3e, 0xa9, 0x09, 0x31, 0xbe,
    0x95, 0xa8, 0x0d, 0x3e, 0xaf, 0xa2, 0xad, 0xbd, 0xed, 0x12,
    0xf3, 0x3e, 0x52, 0x8e, 0x35, 0xbf, 0x09, 0x4a, 0x05, 0x3e,
    0x39, 0x37, 0x0c, 0x3c, 0xec, 0x44, 0x1a, 0xbe, 0xf9, 0x3c,
    0x57, 0xbd, 0x0c, 0xa2, 0x24, 0xbd, 0xac, 0x91, 0xcb, 0xbe,
    0xe1, 0xc8, 0x4e, 0xbd, 0x1c, 0x7e, 0x1b, 0x3a, 0x6a, 0x77,
    0x88, 0x3d, 0x5b, 0x83, 0xf6, 0x3d, 0x34, 0x66, 0x73, 0x3d,
    0x5f, 0x24, 0xa1, 0xbe, 0xfe, 0x31, 0x72, 0xbe, 0x13, 0x6b,
    0x24, 0x3e, 0xa3, 0xb4, 0x79, 0x3e, 0xec, 0x3c, 0x60, 0xbe,
    0x7f, 0x57, 0xcc, 0x3e, 0x75, 0xf0, 0x69, 0xbe, 0x33, 0xb8,
    0x34, 0xbe, 0x56, 0x49, 0xcd, 0x3d, 0xbf, 0xcf, 0x73, 0xbe,
    0xed, 0xb1, 0x80, 0xbe, 0xdb, 0xc1, 0xa8, 0x3e, 0x85, 0xdd,
    0x20, 0xbe, 0xe1, 0xac, 0x81, 0xbe, 0x63, 0x2f, 0xe5, 0xbd,
    0x04, 0x26, 0xe1, 0x3d, 0xe6, 0x79, 0x52, 0x3e, 0x29, 0x0d,
    0xbf, 0xbd, 0x96, 0x3b, 0x87, 0xbe, 0xb4, 0x7d, 0xae, 0x3e,
    0x93, 0xef, 0xed, 0x3d, 0xda, 0x94, 0x66, 0xbe, 0x82, 0xa5,
    0x10, 0x3e, 0x02, 0x31, 0x0c, 0xbe, 0xa7, 0x87, 0x12, 0x3e,
    0xe0, 0xd9, 0x3e, 0x3d, 0x73, 0x59, 0xa9, 0xbe, 0x8e, 0x07,
    0x21, 0xbe, 0x02, 0x79, 0x06, 0xbe, 0xd5, 0xba, 0xb3, 0x3e,
    0xa7, 0x77, 0xb5, 0xbe, 0xab, 0x52, 0xdb, 0x3d, 0xd7, 0x2a,
    0xd9, 0x3c, 0xdf, 0xd0, 0x87, 0x3e, 0x8c, 0xfa, 0x7f, 0x3d,
    0xdb, 0x94, 0xbb, 0x3d, 0x51, 0x10, 0x83, 0x3d, 0x98, 0xc1,
    0xc4, 0xbd, 0xbd, 0xd5, 0x71, 0xbe, 0xda, 0x9b, 0x6d, 0xbe,
    0x03, 0x56, 0xa6, 0xbe, 0x0d, 0x29, 0x97, 0x3e, 0x15, 0xf3,
    0x4b, 0x3f, 0x8e, 0xb7, 0xee, 0x3e, 0xdb, 0x7b, 0x68, 0x3d,
    0xa8, 0x31, 0x94, 0x3e, 0x97, 0x6e, 0xef, 0xbd, 0x6a, 0x9d,
    0x8b, 0x3d, 0xa0, 0xff, 0x41, 0xbe, 0x22, 0xf7, 0xa2, 0xbe,
    0xc8, 0x10, 0x18, 0xbf, 0x59, 0xea, 0xb6, 0x3d, 0x5d, 0x3d,
    0xfa, 0xbd, 0x2c, 0x5c, 0x05, 0x3e, 0x6b, 0xa9, 0x7d, 0xbe,
    0xa4, 0xb5, 0x49, 0xbd, 0xa3, 0x11, 0xc0, 0xbe, 0xa7, 0x95,
    0x1c, 0xbd, 0xa3, 0xee, 0x61, 0x3d, 0xee, 0x1c, 0xaa, 0xbd,
    0x76, 0x60, 0xe9, 0xbc, 0xb8, 0xc0, 0x80, 0x3c, 0x38, 0x48,
    0xb9, 0x3d, 0x91, 0x56, 0xe4, 0xbd, 0xda, 0x57, 0xf7, 0xbd,
    0xc0, 0xc1, 0xf7, 0xbd, 0xaa, 0xea, 0xcd, 0x3e, 0x2d, 0xea,
    0xcc, 0xbe, 0xf5, 0x7a, 0x9e, 0x3d, 0xdd, 0xf2, 0x03, 0xbf,
    0xcb, 0xba, 0x89, 0x3e, 0xc0, 0x55, 0x2f, 0x3e, 0x56, 0x9d,
    0x12, 0x3f, 0xb0, 0x3d, 0x34, 0xbe, 0x0c, 0x7e, 0xad, 0xbe,
    0x2e, 0x87, 0x21, 0x3e, 0x75, 0x17, 0x4d, 0xbc, 0x07, 0x98,
    0x21, 0x3c, 0xee, 0x5b, 0x98, 0xbe, 0x2c, 0x0e, 0xa7, 0x3d,
    0xa7, 0x3f, 0xa4, 0x3e, 0xa1, 0x92, 0xa8, 0xbe, 0xcf, 0xd9,
    0x37, 0x3f, 0x16, 0x06, 0x8c, 0x3d, 0x68, 0x7f, 0xda, 0x3d,
    0x0f, 0x0b, 0x46, 0x3e, 0xc8, 0xeb, 0x7e, 0xbd, 0x7b, 0x1b,
    0x03, 0x3e, 0xf0, 0x1e, 0xec, 0xbd, 0x4c, 0x89, 0x38, 0xbf,
    0xe8, 0x7b, 0xce, 0x3e, 0x18, 0xdf, 0xb8, 0xbe, 0xc5, 0x89,
    0x2e, 0xbe, 0xfa, 0xcb, 0xd1, 0xbe, 0x3b, 0x07, 0xbd, 0xbd,
    0x5d, 0x0c, 0xbc, 0xbc, 0xb7, 0x9f, 0x90, 0x3e, 0x3d, 0x4c,
    0x2b, 0xbd, 0xdb, 0xd4, 0x09, 0xbe, 0x0b, 0xf3, 0x24, 0x3d,
    0x04, 0x16, 0xa4, 0xbe, 0x8b, 0x0c, 0x10, 0xbe, 0xfc, 0x4c,
    0xfb, 0xbc, 0xce, 0x45, 0x91, 0xbe, 0x8b, 0xea, 0x92, 0x3d,
    0xf4, 0xb4, 0x1f, 0x3e, 0xd7, 0x3a, 0x1c, 0x3e, 0xc4, 0x0f,
    0xfb, 0xbd, 0x2d, 0xf9, 0xda, 0xbd, 0x16, 0x9b, 0xf9, 0xbd,
    0x64, 0x85, 0x06, 0x3f, 0xa3, 0x56, 0x20, 0xbb, 0xaf, 0x01,
    0x05, 0x3f, 0xd0, 0x7f, 0x98, 0xbb, 0x4c, 0xc7, 0x14, 0x3f,
    0x3d, 0xc7, 0x5d, 0x3e, 0xed, 0x0e, 0x07, 0xbd, 0xc9, 0x8f,
    0xc7, 0x3c, 0xd0, 0xc4, 0x54, 0x3e, 0x32, 0x56, 0xa6, 0x3a,
    0xe9, 0x68, 0x7b, 0x3e, 0x46, 0x74, 0x2f, 0xbb, 0xbb, 0xc1,
    0x74, 0xbe, 0x6c, 0x58, 0x81, 0x3d, 0xa6, 0x2b, 0xc7, 0xbc,
    0x5a, 0xc2, 0x6b, 0xbe, 0xf3, 0x86, 0xd5, 0xbd, 0x48, 0xc0,
    0xa0, 0x3d, 0x8c, 0x3b, 0x46, 0xbe, 0x29, 0xa0, 0x9b, 0xbd,
    0x3c, 0xcd, 0xf9, 0x3e, 0x94, 0xfb, 0xd6, 0x3d, 0xd4, 0x2a,
    0x08, 0x3e, 0x69, 0xd7, 0xdc, 0x3e, 0xee, 0x7b, 0x7f, 0x3e,
    0x00, 0xbe, 0x56, 0xbd, 0x53, 0x69, 0xce, 0xbe, 0xa6, 0x6c,
    0x20, 0xbf, 0x81, 0x0e, 0x58, 0x3e, 0xcd, 0x77, 0x50, 0x3d,
    0xc6, 0xb4, 0xe4, 0xbd, 0x72, 0xf6, 0x8d, 0x3d, 0x6b, 0xb3,
    0x41, 0x3e, 0xae, 0x0a, 0x1f, 0xbe, 0xf6, 0xc4, 0x55, 0xbd,
    0x98, 0x99, 0xbe, 0xbe, 0x65, 0x9e, 0x95, 0xbd, 0x6c, 0xc8,
    0x18, 0x3f, 0x5c, 0x97, 0xb5, 0xbd, 0x31, 0x4b, 0x6d, 0x3e,
    0xa6, 0x03, 0x00, 0x3e, 0xc5, 0x22, 0xb9, 0xbe, 0x46, 0x90,
    0xc3, 0xbe, 0x68, 0x55, 0x53, 0x3e, 0x86, 0x0c, 0x23, 0x3f,
    0xd9, 0xbb, 0x8f, 0x3d, 0x0d, 0x69, 0xca, 0x3d, 0xf6, 0xb8,
    0xe6, 0x3b, 0xc6, 0xa2, 0x07, 0x3f, 0x2b, 0x9a, 0xda, 0xbd,
    0x34, 0x83, 0x0e, 0xbe, 0xf2, 0xc1, 0x52, 0xbe, 0x30, 0xe0,
    0x0a, 0x3d, 0xb2, 0x8f, 0xd4, 0x3e, 0x47, 0x57, 0x95, 0x3d,
    0x83, 0x8f, 0x7e, 0x3e, 0x7f, 0xd2, 0x45, 0x3e, 0x4a, 0x57,
    0x8d, 0xbc, 0xdc, 0x99, 0x45, 0xbd, 0xec, 0x0c, 0x92, 0x3e,
    0xde, 0xff, 0xd1, 0xbc, 0x13, 0xf6, 0x5e, 0xbe, 0xbd, 0x3e,
    0x74, 0x3e, 0x66, 0xe1, 0xbb, 0xbc, 0x0b, 0x22, 0x27, 0x3e,
    0xb6, 0x40, 0xaf, 0x3e, 0x63, 0x04, 0x8b, 0xbc, 0xbd, 0xe2,
    0x84, 0x3e, 0x86, 0xfb, 0xc0, 0xbc, 0xf6, 0x5c, 0x87, 0x3e,
    0x42, 0x54, 0x99, 0x3e, 0x42, 0x03, 0xf2, 0x3d, 0xd0, 0x75,
    0xfa, 0x3d, 0x09, 0x50, 0x3e, 0x3e, 0x8e, 0xce, 0x22, 0xbd,
    0xfb, 0xdf, 0x87, 0xbe, 0x62, 0x74, 0xa1, 0x3e, 0xb3, 0xa6,
    0x30, 0x3e, 0xbf, 0x1d, 0xdd, 0x3d, 0x06, 0xf2, 0x90, 0xbd,
    0xcc, 0x74, 0xaa, 0x3e, 0x6a, 0x23, 0xcf, 0x3e, 0x1d, 0x05,
    0x31, 0xbf, 0x16, 0x45, 0x02, 0xbe, 0xdd, 0x2b, 0x08, 0x3e,
    0xf4, 0x78, 0xa4, 0xbd, 0x46, 0x02, 0xde, 0xbd, 0xfe, 0x44,
    0xa8, 0xbe, 0xa8, 0x02, 0x6e, 0xbd, 0xba, 0x62, 0x48, 0x3e,
    0xc0, 0xf2, 0x22, 0x3e, 0xbc, 0x23, 0xcb, 0xbd, 0x77, 0x8a,
    0x27, 0x3e, 0xb1, 0x13, 0x07, 0x3e, 0x91, 0xb3, 0x53, 0xbe,
    0xe8, 0x4d, 0xd0, 0x3d, 0xd0, 0xc8, 0xe1, 0xbc, 0xb6, 0xff,
    0xcb, 0xbc, 0x59, 0x76, 0x80, 0xbd, 0xdf, 0x5a, 0x52, 0xbd,
    0x22, 0x77, 0x46, 0xbe, 0xe8, 0xfe, 0xda, 0x3d, 0x9f, 0x1a,
    0x4e, 0x3e, 0x9d, 0xf7, 0x89, 0x3e, 0x1b, 0xf6, 0x11, 0x3e,
    0x04, 0x2f, 0x13, 0xbe, 0x35, 0x1e, 0x38, 0xbe, 0x29, 0xc9,
    0x67, 0x3e, 0xa6, 0x4a, 0x82, 0xbe, 0x6c, 0x28, 0x01, 0x3d,
    0x89, 0x82, 0x7f, 0x3e, 0x76, 0xde, 0x60, 0x3f, 0x35, 0x8b,
    0xd6, 0x3e, 0x16, 0x7d, 0x7f, 0x3e, 0x54, 0xb0, 0xd9, 0x3e,
    0x3a, 0xf2, 0xa9, 0x3d, 0xaa, 0xe6, 0xa5, 0x3d, 0xb0, 0x56,
    0xb3, 0x3e, 0x58, 0x63, 0xdd, 0x3d, 0x04, 0xb5, 0x57, 0x3e,
    0x3f, 0xf1, 0x22, 0xbc, 0xc6, 0x09, 0xb1, 0xbe, 0x5b, 0x96,
    0x3f, 0x3e, 0x4f, 0xfb, 0x93, 0xbe, 0x2a, 0x85, 0x3f, 0x3d,
    0xf4, 0x92, 0x5d, 0xbd, 0x1a, 0x28, 0x83, 0xbe, 0x54, 0x92,
    0x60, 0x3d, 0xf7, 0x08, 0x87, 0x3c, 0x23, 0x8f, 0x8d, 0xbe,
    0x8b, 0xc6, 0x06, 0x3e, 0x9c, 0x4e, 0xf6, 0xbe, 0xf1, 0x7a,
    0x70, 0xbe, 0x64, 0x5f, 0x8a, 0x3e, 0x85, 0xec, 0x00, 0xbf,
    0x10, 0x1e, 0x1a, 0x3e, 0x6f, 0x58, 0x7d, 0x3e, 0xf4, 0xa6,
    0xf6, 0x3e, 0xf5, 0xf9, 0x02, 0x3f, 0x89, 0x02, 0x32, 0x3d,
    0x23, 0xb7, 0xdb, 0x3e, 0x97, 0x24, 0x81, 0x3e, 0x49, 0x20,
    0xcd, 0x3d, 0xcb, 0xd7, 0xc2, 0x3e, 0x17, 0x96, 0xdc, 0xbe,
    0xce, 0x73, 0xcb, 0xbd, 0xe5, 0x3c, 0xb0, 0xbe, 0x69, 0x1e,
    0x63, 0xbb, 0x36, 0x90, 0x70, 0x3e, 0x42, 0x49, 0x59, 0x3e,
    0x4a, 0x66, 0x1b, 0x3e, 0xf3, 0xda, 0x00, 0x3d, 0x46, 0x3b,
    0x84, 0x3d, 0xc2, 0x7e, 0xcc, 0x3e, 0xc3, 0x5a, 0x82, 0xbe,
    0xba, 0x17, 0x05, 0xbd, 0xff, 0xd1, 0xe5, 0xbd, 0x22, 0x11,
    0xa7, 0xbe, 0x88, 0x9d, 0xc5, 0x3e, 0x28, 0x7d, 0x8c, 0x3e,
    0x2d, 0xab, 0x9f, 0x3e, 0xb1, 0x75, 0x53, 0x3f, 0x60, 0x27,
    0x37, 0xbe, 0x5c, 0xba, 0x6f, 0x3e, 0x4f, 0x27, 0x0b, 0xbf,
    0x9c, 0xa8, 0x16, 0x3e, 0x17, 0x95, 0xce, 0xbd, 0xe6, 0x3f,
    0xed, 0x3d, 0xc0, 0xa1, 0xed, 0xbe, 0x28, 0x72, 0xc1, 0x3d,
    0x64, 0x0a, 0x7a, 0x3d, 0x8e, 0xfc, 0x97, 0xbe, 0x7e, 0xac,
    0x7e, 0xbe, 0x6a, 0x12, 0x4f, 0x3b, 0x55, 0x93, 0xa5, 0xbd,
    0xd6, 0x4c, 0x70, 0xbb, 0x27, 0x8f, 0x3e, 0x3e, 0x12, 0x72,
    0x04, 0xbe, 0xd2, 0x99, 0xa5, 0xbe, 0xf6, 0xd2, 0x4a, 0x3e,
    0x22, 0x86, 0xf1, 0xbe, 0xa7, 0x4b, 0x9a, 0xbc, 0x74, 0x28,
    0x23, 0xbe, 0x37, 0x54, 0x86, 0x3e, 0x85, 0x89, 0xe8, 0xbd,
    0xf6, 0x76, 0x3c, 0x3e, 0x9a, 0x53, 0xce, 0xbd, 0x02, 0x56,
    0x96, 0x3e, 0x56, 0x97, 0x6b, 0xbe, 0xc0, 0x5e, 0xff, 0xbb,
    0x35, 0x4f, 0x70, 0xbe, 0x1f, 0xe1, 0x19, 0x3f, 0xb3, 0x5a,
    0x99, 0xbe, 0xe2, 0x8c, 0x50, 0xbe, 0x57, 0x76, 0xc5, 0xbe,
    0x59, 0xf5, 0x9f, 0x3e, 0x89, 0xc5, 0x93, 0xbd, 0x6d, 0xb9,
    0x33, 0x3d, 0xc9, 0x3c, 0x4d, 0xbe, 0xb0, 0x3f, 0x07, 0x3f,
    0xb2, 0x20, 0x0e, 0xbe, 0x89, 0xe1, 0xbd, 0xbe, 0x76, 0x55,
    0x85, 0x3e, 0x45, 0x77, 0x94, 0xbd, 0x19, 0x49, 0x07, 0xbe,
    0x6a, 0x89, 0x9d, 0x3d, 0xd5, 0x4b, 0xaa, 0x3d, 0x1e, 0x6f,
    0x2b, 0xbe, 0xe2, 0x83, 0x9d, 0xbe, 0x5b, 0x9d, 0x20, 0xbf,
    0xd6, 0x8a, 0x05, 0x3e, 0x4e, 0xc3, 0x38, 0x3e, 0xe3, 0x6d,
    0xd8, 0x3e, 0x4d, 0xe4, 0x7e, 0x3e, 0x0d, 0x6c, 0x82, 0x3e,
    0x00, 0xf9, 0xb1, 0x3d, 0x9d, 0x5d, 0x6e, 0xbe, 0xad, 0x66,
    0x5f, 0x3d, 0xee, 0xe0, 0x3b, 0xba, 0x7c, 0x32, 0x70, 0xbe,
    0x23, 0x5d, 0xc9, 0x3d, 0x58, 0x36, 0xa8, 0x3e, 0xf6, 0x6d,
    0x47, 0x3e, 0xfb, 0xad, 0xd3, 0xbe, 0xdf, 0x43, 0x0e, 0xbe,
    0x7a, 0xc7, 0x81, 0x3d, 0x35, 0x0f, 0xde, 0xbe, 0x7d, 0xc0,
    0x2f, 0x3b, 0x41, 0x55, 0xb9, 0x3e, 0x50, 0x0d, 0x97, 0xbe,
    0xbb, 0x9c, 0xae, 0xbe, 0x20, 0xc5, 0xb0, 0x3d, 0xed, 0x5c,
    0x16, 0xbe, 0x91, 0xb2, 0x3c, 0x3e, 0x86, 0x69, 0x03, 0xbf,
    0x20, 0xc8, 0x01, 0xbe, 0x33, 0xc0, 0x2d, 0xbe, 0x46, 0x58,
    0x0f, 0x3e, 0x8b, 0x19, 0x02, 0x3e, 0x20, 0x1e, 0xaa, 0x3e,
    0x88, 0x75, 0x34, 0x3e, 0x64, 0x1c, 0xed, 0x3e, 0x01, 0x2a,
    0x3a, 0xbb, 0xaf, 0x02, 0x15, 0x3e, 0x85, 0x7e, 0x53, 0x3e,
    0x07, 0xd9, 0xb1, 0xbe, 0x7d, 0x9c, 0x77, 0xbd, 0xf0, 0x0d,
    0x18, 0xbf, 0xf3, 0x25, 0xeb, 0xbe, 0x94, 0x05, 0xb3, 0xbe,
    0x9b, 0x43, 0x76, 0x3d, 0xba, 0xa6, 0xe7, 0xbd, 0xc1, 0x7f,
    0x8d, 0x3d, 0xbd, 0x47, 0xda, 0x3e, 0xb5, 0xc1, 0x07, 0x3d,
    0x5b, 0x96, 0x10, 0x3f, 0xf7, 0x7a, 0x84, 0xbd, 0x07, 0x09,
    0x8b, 0x3e, 0xa9, 0xe7, 0x1f, 0xbe, 0x3f, 0xc2, 0x24, 0x3d,
    0xa1, 0x88, 0x07, 0xbf, 0x8f, 0xaf, 0x0e, 0xbf, 0x9a, 0xf9,
    0x31, 0x3e, 0x37, 0xc2, 0x42, 0xbe, 0x57, 0x94, 0xe0, 0x3d,
    0x0e, 0xfc, 0xe9, 0xbd, 0x5c, 0xaa, 0xab, 0xbb, 0x3d, 0x06,
    0x05, 0x3f, 0xff, 0x23, 0x92, 0x3e, 0xd2, 0x85, 0x08, 0xbe,
    0x59, 0x1f, 0x82, 0x3d, 0xd2, 0x6d, 0x57, 0xbe, 0xf1, 0xd4,
    0x21, 0x3e, 0x08, 0xc7, 0xc9, 0xbd, 0x93, 0xb8, 0x7e, 0xbd,
    0x86, 0xc2, 0xfe, 0x3d, 0x9d, 0xd7, 0x2d, 0x3e, 0x0b, 0x1d,
    0xe4, 0xbd, 0xd2, 0x74, 0x6f, 0x3e, 0xac, 0x12, 0xb8, 0x3e,
    0x0c, 0x64, 0x28, 0x3e, 0xa4, 0x7f, 0xcd, 0xba, 0xdd, 0x18,
    0x4b, 0x3e, 0xad, 0xb7, 0x51, 0xbe, 0xda, 0x7b, 0xeb, 0xbe,
    0xaa, 0x09, 0x0c, 0xbd, 0x6d, 0x3c, 0x88, 0x3e, 0xf6, 0x8f,
    0x53, 0x3d, 0xb7, 0x80, 0x74, 0x3d, 0x03, 0x39, 0xe0, 0x3d,
    0x17, 0x1c, 0x39, 0xbc, 0xbb, 0xc0, 0xdf, 0x3d, 0xb5, 0x50,
    0x3f, 0xbd, 0xa2, 0x1e, 0xe4, 0x3d, 0x3b, 0xe3, 0x15, 0xbd,
    0xf2, 0xef, 0x47, 0x3e, 0x1b, 0xac, 0xf6, 0x3e, 0x94, 0xc7,
    0x21, 0xbd, 0x19, 0x28, 0xbe, 0xbd, 0xf9, 0x9d, 0xd8, 0x3e,
    0xb0, 0x1e, 0x27, 0x3e, 0xe9, 0xd2, 0x00, 0x3e, 0x4c, 0xe7,
    0xcb, 0x3d, 0x11, 0x04, 0x7b, 0x3d, 0x5e, 0xc7, 0xb1, 0x3d,
    0x34, 0x72, 0x2d, 0xbe, 0x26, 0x30, 0xbc, 0x3e, 0x0d, 0xbc,
    0x29, 0x3e, 0xff, 0x0b, 0xc1, 0x3e, 0x9d, 0x0f, 0x5f, 0xbe,
    0x69, 0xbb, 0x1e, 0xbe, 0x73, 0x08, 0xcc, 0x3e, 0x0e, 0xd8,
    0x45, 0x3e, 0xba, 0x17, 0x43, 0x3e, 0x4f, 0x43, 0x87, 0xbf,
    0xb7, 0x6c, 0x9b, 0x3e, 0xdd, 0x35, 0xd1, 0x3c, 0x67, 0xdd,
    0xa2, 0x3c, 0xba, 0x05, 0x08, 0xbe, 0x2a, 0x58, 0xce, 0xbc,
    0xa6, 0x2e, 0xb3, 0xbe, 0x78, 0x15, 0xf4, 0x3e, 0x9b, 0x54,
    0x3a, 0x3d, 0x5b, 0xc1, 0x09, 0xbe, 0xd7, 0x5e, 0x93, 0xbe,
    0xbd, 0x3e, 0x48, 0x3c, 0xb2, 0x69, 0x58, 0x3c, 0x70, 0x4e,
    0x31, 0x3c, 0x3d, 0x8b, 0xae, 0xbe, 0xdd, 0x14, 0xc1, 0x3e,
    0xdd, 0xd5, 0xe5, 0x3d, 0x7c, 0x88, 0x8e, 0x3d, 0x84, 0x50,
    0xf0, 0xbe, 0x4c, 0x7a, 0xd3, 0x3c, 0x37, 0xff, 0x6b, 0xbe,
    0x87, 0xd1, 0x74, 0xbd, 0xbd, 0x0e, 0xd0, 0xbe, 0x4f, 0x19,
    0x5d, 0x3d, 0xea, 0xa9, 0xd0, 0xbe, 0x6a, 0x20, 0x59, 0x3d,
    0x11, 0xb2, 0xcd, 0x3b, 0x44, 0xe5, 0x89, 0xbe, 0xf2, 0x47,
    0xb6, 0xbd, 0xc5, 0x42, 0x4a, 0x3e, 0xe2, 0xe2, 0x66, 0xbe,
    0x87, 0xc7, 0xd8, 0xbe, 0xff, 0x95, 0x40, 0xbc, 0x61, 0xf7,
    0x45, 0x3d, 0xf5, 0x23, 0x8f, 0xbe, 0x26, 0x89, 0x89, 0xbd,
    0x59, 0x08, 0xcd, 0xbe, 0x7e, 0x97, 0x01, 0xbe, 0x51, 0xd2,
    0x4b, 0xbd, 0x91, 0xb8, 0xe0, 0x3d, 0xaf, 0x68, 0x1c, 0x3e,
    0xb0, 0xfa, 0x02, 0xbe, 0x65, 0x3b, 0x4e, 0xbf, 0xe7, 0x12,
    0x50, 0xbe, 0x09, 0xb0, 0x04, 0xbf, 0x0b, 0xe3, 0x4f, 0xbe,
    0x03, 0xda, 0xa3, 0x3e, 0xe8, 0xe2, 0xf3, 0x3c, 0xa9, 0x1d,
    0x89, 0x3e, 0xb4, 0x6c, 0xb6, 0x3d, 0x58, 0x5b, 0xda, 0x3d,
    0x68, 0xb4, 0xc0, 0x3e, 0x76, 0x2b, 0x88, 0xbe, 0x9e, 0x86,
    0x42, 0xbd, 0x3a, 0x9d, 0x32, 0xbe, 0xe9, 0x40, 0x06, 0x3e,
    0xad, 0x71, 0xd7, 0xbd, 0x95, 0x73, 0xcc, 0xbe, 0x12, 0xdd,
    0x44, 0x3e, 0xaa, 0x40, 0xfa, 0x3e, 0xff, 0x81, 0x26, 0xbe,
    0xcb, 0x89, 0xd1, 0xbe, 0xf6, 0x90, 0x30, 0x3e, 0xe5, 0xa4,
    0xe1, 0xbd, 0x8a, 0xfb, 0xc5, 0xbc, 0x7e, 0x41, 0xc2, 0xbe,
    0xcc, 0xc6, 0x93, 0x3e, 0x74, 0xf1, 0x00, 0x3f, 0xfe, 0xd5,
    0xf8, 0xbd, 0xbb, 0xe7, 0x8e, 0xbd, 0x04, 0xf6, 0x0f, 0x3f,
    0x22, 0xfe, 0x1f, 0xbe, 0x76, 0xbe, 0x9b, 0x3d, 0x21, 0xc0,
    0xa7, 0x3e, 0xc8, 0x48, 0xaf, 0x3c, 0x29, 0x0c, 0xf5, 0x3c,
    0xab, 0x8c, 0x96, 0x3e, 0x83, 0x6e, 0x59, 0xbe, 0xad, 0xbe,
    0xde, 0x3e, 0x15, 0x68, 0x8b, 0x3c, 0x7b, 0x71, 0xbf, 0x3d,
    0x22, 0x08, 0x79, 0x3e, 0xf6, 0x42, 0x80, 0x3e, 0x3c, 0xe4,
    0x28, 0xbe, 0x0e, 0x1f, 0x95, 0x3e, 0x86, 0x50, 0x5f, 0xbe,
    0x44, 0xa1, 0x38, 0x3e, 0xcc, 0x9c, 0x60, 0xbe, 0xf0, 0x39,
    0xd4, 0x3c, 0x0c, 0x8d, 0x29, 0x3e, 0xbc, 0x69, 0x10, 0xbf,
    0x98, 0xc5, 0x50, 0xbe, 0xf0, 0x4f, 0xd2, 0xbe, 0x49, 0xfc,
    0x01, 0x3e, 0x99, 0xbd, 0xb9, 0xbd, 0x3b, 0xdb, 0x2d, 0x3e,
    0x95, 0x6a, 0x41, 0x3e, 0x6a, 0x92, 0x12, 0xbd, 0x73, 0x0e,
    0x53, 0xbe, 0x48, 0x85, 0x7d, 0xbe, 0x09, 0xef, 0xa2, 0x3d,
    0xbe, 0x33, 0x56, 0x3e, 0x71, 0xcb, 0xd0, 0x3c, 0x2c, 0x5d,
    0x15, 0xbf, 0x4d, 0x43, 0x21, 0x3c, 0xdc, 0x32, 0x37, 0x3e,
    0x2a, 0x1b, 0xaf, 0xbd, 0xf8, 0x47, 0x10, 0x3d, 0x67, 0x08,
    0x54, 0xbd, 0x8b, 0xcf, 0x0d, 0xbb, 0x7c, 0xf8, 0x1f, 0xbd,
    0x33, 0x18, 0x60, 0xbe, 0xc5, 0xf9, 0x14, 0xbe, 0x43, 0x93,
    0x7b, 0x3c, 0x30, 0xf8, 0x59, 0xbe, 0xf7, 0x9c, 0x81, 0x3b,
    0x08, 0xcc, 0x18, 0x3e, 0x9b, 0x70, 0x40, 0x3d, 0x63, 0x27,
    0x59, 0xbe, 0x13, 0x22, 0xcd, 0xbe, 0x42, 0xa2, 0x24, 0x3f,
    0x47, 0x57, 0xa4, 0x3d, 0xb6, 0x97, 0xe6, 0xba, 0x88, 0xe1,
    0xa3, 0x3d, 0x2d, 0x9e, 0x84, 0x3e, 0xc3, 0x9d, 0x83, 0xbd,
    0xa0, 0x59, 0x8c, 0x3e, 0x40, 0x08, 0xc0, 0x3e, 0xdd, 0x07,
    0x35, 0x3a, 0xef, 0xe8, 0x11, 0xbd, 0x2a, 0x99, 0x7e, 0xbe,
    0xec, 0x57, 0x8f, 0xbd, 0x9c, 0xb4, 0x04, 0xbe, 0xf5, 0x99,
    0xa2, 0xbe, 0xa1, 0x8b, 0xd1, 0x3d, 0x25, 0x83, 0xaa, 0x3e,
    0x2a, 0x0b, 0x03, 0xbe, 0x30, 0xc4, 0x22, 0xbd, 0xb2, 0x50,
    0x31, 0x3f, 0x2f, 0x73, 0xaf, 0x3d, 0xd6, 0x9d, 0xe8, 0x3e,
    0xde, 0x9d, 0xa9, 0x3d, 0x6c, 0xe7, 0x2a, 0xbe, 0x0d, 0x8b,
    0x1a, 0xbe, 0x30, 0x79, 0x23, 0x3f, 0x2a, 0x64, 0x1b, 0x3e,
    0xd2, 0x62, 0x68, 0x3e, 0x04, 0x22, 0xa1, 0xbe, 0x89, 0xd4,
    0xcd, 0x3e, 0xf5, 0x5b, 0xf9, 0x3d, 0x12, 0xfc, 0x11, 0x3f,
    0x08, 0xe4, 0x08, 0x3d, 0xd7, 0x00, 0xf9, 0x3d, 0x7a, 0xd0,
    0x9f, 0xbe, 0x6c, 0x21, 0x3e, 0x3d, 0xe2, 0x20, 0x82, 0xbd,
    0xb8, 0x1e, 0x1a, 0x3e, 0x11, 0xa9, 0x16, 0x3d, 0x75, 0x76,
    0xd9, 0x3e, 0x2d, 0x65, 0x11, 0x3e, 0x33, 0xd9, 0xe6, 0x3d,
    0xb4, 0xb4, 0x8b, 0xbe, 0xb7, 0x5c, 0xd1, 0xbe, 0x87, 0x6a,
    0x9c, 0xbd, 0xe2, 0x32, 0x83, 0xbe, 0xa9, 0x03, 0xce, 0x3d,
    0xb2, 0x0e, 0x0a, 0xbd, 0x70, 0xcf, 0x52, 0xbd, 0x11, 0xc6,
    0x3b, 0xbc, 0xf3, 0x3c, 0x96, 0xbe, 0x31, 0x31, 0xf5, 0xbc,
    0x89, 0x8a, 0xcf, 0x3d, 0x00, 0x02, 0xe9, 0xbd, 0xee, 0x2a,
    0x33, 0xbe, 0x6c, 0x08, 0x81, 0xbd, 0x64, 0x0a, 0x34, 0x3e,
    0xc2, 0xc9, 0xd7, 0xbc, 0x55, 0x1c, 0x2d, 0xbd, 0x97, 0xe5,
    0x28, 0xbe, 0xdb, 0xa0, 0x04, 0xbb, 0x17, 0xab, 0x50, 0xbe,
    0x26, 0x8e, 0x94, 0x3d, 0x6e, 0x6c, 0xfc, 0xbd, 0x53, 0x27,
    0xcc, 0xbd, 0xa7, 0xb9, 0x3c, 0x3e, 0xb5, 0xc5, 0x89, 0x3e,
    0x17, 0xa4, 0x16, 0x3e, 0xf0, 0x0f, 0x25, 0x3d, 0x69, 0xca,
    0x32, 0xbf, 0x92, 0x90, 0x16, 0xbe, 0xaa, 0x0a, 0xa8, 0x3e,
    0x88, 0xa1, 0x5e, 0x3e, 0xae, 0x34, 0x05, 0xbe, 0xbc, 0x0a,
    0xf1, 0x3c, 0xee, 0xdc, 0xe7, 0xbe, 0xeb, 0xd9, 0xde, 0xbe,
    0xbc, 0x2c, 0x1b, 0xbc, 0x07, 0xa1, 0x05, 0x3e, 0x4b, 0x09,
    0x42, 0x3d, 0x64, 0x8a, 0x78, 0xbd, 0x98, 0x5b, 0x83, 0xbd,
    0x59, 0x7f, 0x6e, 0x3e, 0x7a, 0xb5, 0x6d, 0x3e, 0x17, 0x75,
    0xeb, 0xbe, 0x28, 0x46, 0xa3, 0xbe, 0xca, 0x48, 0x3c, 0xbe,
    0x6a, 0x29, 0xd1, 0x3e, 0x02, 0xaf, 0x9e, 0xbd, 0x6c, 0x07,
    0x90, 0x3e, 0xa7, 0xaf, 0x0b, 0x3f, 0xf5, 0x48, 0x01, 0xbe,
    0x98, 0x87, 0x2c, 0xbe, 0x5f, 0x6d, 0x4b, 0x3e, 0x75, 0x16,
    0xce, 0xbe, 0x87, 0xc0, 0x76, 0xbe, 0x12, 0x86, 0x3a, 0xbc,
    0x97, 0x72, 0x3b, 0x3d, 0x9d, 0xa3, 0xe7, 0x3d, 0x56, 0xd4,
    0x1b, 0x3a, 0x1e, 0x64, 0xe1, 0x3d, 0x9c, 0x6c, 0x27, 0xbd,
    0x90, 0xb4, 0x06, 0xbe, 0x44, 0xfe, 0x29, 0x3e, 0x6b, 0xda,
    0x19, 0xbf, 0x4c, 0x31, 0xaf, 0x3d, 0x0a, 0x86, 0x9c, 0x3d,
    0xe6, 0x4b, 0x50, 0x3d, 0x2b, 0x86, 0xaf, 0x3e, 0x29, 0x61,
    0x1b, 0xbe, 0x9a, 0xee, 0x7f, 0x3e, 0x83, 0xe5, 0xc4, 0x3d,
    0x22, 0x1a, 0xf3, 0x3d, 0xfb, 0x85, 0x05, 0xbe, 0xa4, 0xfa,
    0x0a, 0xbf, 0xab, 0x34, 0x07, 0xbd, 0x82, 0x3a, 0x04, 0x3e,
    0x48, 0xd6, 0x74, 0xbe, 0x83, 0x24, 0x09, 0x3e, 0x30, 0xaa,
    0x7f, 0xbd, 0x85, 0x66, 0x4c, 0xbe, 0x23, 0x17, 0xff, 0xbd,
    0xdb, 0x7a, 0x80, 0xbe, 0x28, 0x40, 0x7f, 0xbe, 0x4d, 0xa6,
    0x7a, 0xbe, 0x43, 0x73, 0x75, 0x3e, 0xf0, 0x50, 0x29, 0x3e,
    0x7b, 0x78, 0xee, 0x3e, 0x92, 0x36, 0x9f, 0x3e, 0xe6, 0xac,
    0x16, 0x3d, 0x2c, 0x91, 0xd8, 0x3e, 0x26, 0xf5, 0x8a, 0x3e,
    0xc7, 0x14, 0x7e, 0xbe, 0x84, 0x97, 0x0e, 0x3e, 0x3c, 0x04,
    0x42, 0xbe, 0xef, 0x5f, 0x46, 0x3e, 0xc3, 0x27, 0x0e, 0x3f,
    0x77, 0xc7, 0x2a, 0xbe, 0x45, 0xd0, 0x74, 0xbe, 0xdc, 0x8c,
    0x90, 0xbc, 0x52, 0xf4, 0xa0, 0xbe, 0x08, 0x92, 0x28, 0xbe,
    0x53, 0x44, 0xe9, 0xbd, 0x01, 0xd7, 0x7f, 0xbd, 0xbf, 0xc6,
    0x34, 0x3e, 0x71, 0x7b, 0x1f, 0xbe, 0x80, 0xe4, 0x22, 0x3e,
    0x58, 0xce, 0x44, 0xbf, 0xac, 0x28, 0xc3, 0xbd, 0xd8, 0x53,
    0x7d, 0xbd, 0x5f, 0xc5, 0xb5, 0xbb, 0xc3, 0xdb, 0x4b, 0x3e,
    0xd1, 0xbb, 0x9d, 0xbe, 0xbe, 0x1f, 0x49, 0x3e, 0x34, 0x3d,
    0xa7, 0x3d, 0x55, 0x18, 0xe3, 0x3e, 0xdd, 0xdf, 0x6f, 0xbe,
    0x41, 0x28, 0xab, 0x3d, 0xdb, 0x79, 0x24, 0x3e, 0x6c, 0x51,
    0xec, 0x3d, 0x46, 0x1b, 0x02, 0x3f, 0xf9, 0x68, 0x29, 0x3b,
    0xc6, 0x3f, 0x21, 0xbe, 0x3f, 0xf2, 0xed, 0x3d, 0xb9, 0x43,
    0xa0, 0xbe, 0xce, 0x23, 0x47, 0xbe, 0x1d, 0x41, 0x00, 0xbd,
    0xa5, 0x07, 0x90, 0x3d, 0x14, 0x85, 0x0b, 0xbc, 0x43, 0x67,
    0xad, 0xbe, 0xdc, 0x13, 0x3f, 0x3d, 0x82, 0x48, 0x8a, 0xbd,
    0xe0, 0xa6, 0x71, 0xba, 0x7f, 0x5a, 0x0e, 0x3f, 0xcb, 0x84,
    0x8a, 0x3c, 0xe0, 0xd4, 0x07, 0x3f, 0x35, 0x5b, 0xc1, 0xbe,
    0x50, 0xce, 0x1a, 0xbf, 0x3e, 0xcb, 0xda, 0x3e, 0xdf, 0x5b,
    0x11, 0xbf, 0x3d, 0x09, 0xe7, 0x3e, 0xab, 0x1d, 0x0b, 0x3d,
    0x52, 0xa1, 0xa2, 0x3e, 0x31, 0xa7, 0x48, 0xbe, 0xb8, 0x1e,
    0x12, 0xbf, 0x25, 0xa8, 0xd5, 0xbd, 0xe7, 0x73, 0xf3, 0xbe,
    0x08, 0xee, 0x7b, 0xbe, 0x45, 0x10, 0x3d, 0x3e, 0xcb, 0x35,
    0x93, 0x3e, 0xe6, 0x92, 0x85, 0x3c, 0x6e, 0x15, 0xa5, 0xbe,
    0xe4, 0x3f, 0x96, 0xbd, 0x7e, 0x47, 0xbe, 0x3d, 0xde, 0x93,
    0x45, 0xbd, 0x17, 0x15, 0x84, 0xbe, 0x33, 0x91, 0x38, 0xbe,
    0xc9, 0x2a, 0xb7, 0x3e, 0x91, 0x01, 0x57, 0xbd, 0x26, 0x2a,
    0x26, 0x3f, 0x8d, 0x79, 0xd0, 0x3e, 0x78, 0xc5, 0xaf, 0xbe,
    0x90, 0xa6, 0xc4, 0x3e, 0xb0, 0x6c, 0x38, 0xbe, 0x19, 0x9d,
    0x69, 0x3d, 0xce, 0x87, 0x0b, 0xbb, 0xbb, 0xe9, 0x8d, 0x3e,
    0x00, 0xd4, 0x8d, 0x3e, 0x63, 0xd9, 0xc1, 0xbe, 0xec, 0x60,
    0x41, 0x3e, 0x28, 0x93, 0x89, 0x3e, 0xec, 0x25, 0xfd, 0xbd,
    0x13, 0xa4, 0x78, 0x3e, 0xfb, 0xa9, 0x0f, 0xbc, 0x2a, 0x03,
    0x11, 0x3e, 0x5f, 0xe5, 0x0b, 0x3d, 0x80, 0x5d, 0xc2, 0x3c,
    0x87, 0xd2, 0x34, 0x3c, 0x93, 0xf5, 0x54, 0xbe, 0x86, 0x88,
    0x03, 0x3f, 0x32, 0xea, 0xc2, 0xbe, 0xe6, 0xff, 0x34, 0xbf,
    0x46, 0x16, 0x4b, 0xbe, 0xbb, 0xe9, 0x0e, 0xbf, 0x2f, 0xff,
    0x08, 0x3e, 0x13, 0x2c, 0x36, 0x3f, 0xf6, 0x5a, 0x82, 0xbe,
    0xfe, 0x17, 0x6c, 0x3e, 0xab, 0x5c, 0xba, 0x3d, 0x91, 0xe3,
    0x78, 0x3e, 0xd3, 0xd5, 0x02, 0x3e, 0xab, 0x0c, 0x39, 0xbe,
    0xfc, 0x32, 0xfa, 0x3e, 0x00, 0xb8, 0xb4, 0xbe, 0x42, 0x40,
    0x3a, 0xbf, 0x3f, 0x6f, 0xae, 0xbd, 0x7c, 0xec, 0x4e, 0x3e,
    0xdc, 0x8f, 0xb4, 0x3d, 0x71, 0x13, 0x90, 0xbc, 0xe2, 0x6a,
    0x46, 0xbe, 0x02, 0xb0, 0x05, 0x3e, 0x73, 0xdc, 0xea, 0xbe,
    0xbd, 0xdb, 0x94, 0xbe, 0xa5, 0xc2, 0x99, 0xbe, 0x0c, 0xdb,
    0x18, 0x3e, 0x7d, 0x7f, 0x25, 0x3f, 0x66, 0x63, 0x4e, 0xbe,
    0xcf, 0xc9, 0x42, 0x3f, 0x98, 0xa7, 0xb8, 0xbd, 0xdf, 0xe4,
    0xc3, 0xbe, 0x5f, 0xed, 0xd5, 0x3e, 0x07, 0x96, 0xad, 0x3d,
    0xf0, 0x31, 0x43, 0xbb, 0xd4, 0xec, 0xf6, 0x3d, 0xf1, 0xec,
    0xdf, 0xbc, 0x15, 0x49, 0xd2, 0xbd, 0xc2, 0x07, 0x22, 0xbe,
    0x5e, 0xf1, 0x91, 0xbb, 0xd7, 0x57, 0x92, 0xbe, 0x72, 0x01,
    0xe8, 0x3d, 0x07, 0xf1, 0xfd, 0x3d, 0x11, 0x1d, 0xf0, 0xbc,
    0x5e, 0x53, 0x8d, 0x3d, 0x41, 0x11, 0x2f, 0x3d, 0xe0, 0x81,
    0xb2, 0xbd, 0xce, 0x43, 0xf8, 0xbd, 0x00, 0x4b, 0x16, 0xbe,
    0xfe, 0x0d, 0x19, 0x3d, 0x0f, 0x28, 0x05, 0x3e, 0x0c, 0xf9,
    0xf5, 0x3c, 0x1d, 0x29, 0x47, 0x3e, 0x51, 0x96, 0x1c, 0x3d,
    0x24, 0xc3, 0x49, 0xbd, 0x47, 0x8e, 0xbd, 0xbd, 0x47, 0x24,
    0xa9, 0xbd, 0x0a, 0xa0, 0x56, 0xbe, 0x9b, 0x2d, 0xa9, 0x3d,
    0x47, 0xa9, 0x37, 0xbe, 0xe8, 0x87, 0x57, 0xbe, 0x7c, 0x76,
    0x5c, 0x3e, 0x99, 0xe7, 0x2f, 0xbe, 0xe8, 0xec, 0xc6,
    0xbe, 0xfc, 0xc2, 0x91, 0x3e, 0xc6, 0x06, 0xc1, 0x3c
  };

  return AI_HANDLE_PTR(s_wn12_v1_weights);

}

