#include "wn12_3_data.h"

ai_handle ai_wn12_3_data_weights_get(void)
{

  AI_ALIGNED(4)
  static const ai_u8 s_wn12_3_weights[ 8228 ] = {
    0x11, 0x24, 0x88, 0x3f, 0x9f, 0xd0, 0xd2, 0x3f, 0x4d, 0xb7,
    0xb4, 0x3f, 0xf5, 0x78, 0x05, 0x3f, 0x33, 0xeb, 0x77, 0x3e,
    0xa6, 0x24, 0x98, 0x3d, 0xf7, 0x29, 0x89, 0x3f, 0xe8, 0x6e,
    0xff, 0x3e, 0xd4, 0xd2, 0x0f, 0x3e, 0x15, 0xfc, 0xce, 0x3f,
    0x0d, 0xe2, 0x93, 0x3f, 0xe8, 0x28, 0xa5, 0x3f, 0xe6, 0xe3,
    0x3c, 0xbf, 0x83, 0xa0, 0x91, 0xbe, 0xa2, 0x6b, 0xf5, 0xbe,
    0xf1, 0x4e, 0xad, 0x3f, 0x7b, 0x3a, 0xfb, 0x3e, 0x7d, 0xca,
    0x74, 0x3f, 0xa8, 0x51, 0x92, 0x3f, 0x2d, 0x01, 0x88, 0x3f,
    0xb8, 0xe5, 0x66, 0x3f, 0xe9, 0xd6, 0xce, 0x3f, 0x20, 0x20,
    0xcf, 0x3f, 0x57, 0x1a, 0xbe, 0x3f, 0xc7, 0x89, 0x5d, 0xbc,
    0xb3, 0x08, 0xc0, 0xbc, 0x91, 0x2e, 0xf9, 0xbb, 0x91, 0x89,
    0x2e, 0xbb, 0x7e, 0xb3, 0x4a, 0xbd, 0xfc, 0x08, 0x6c, 0xbc,
    0x91, 0xb2, 0xa3, 0xbd, 0x8d, 0xb6, 0x32, 0xbb, 0x97, 0x02,
    0xc2, 0x3e, 0xb3, 0xd4, 0xde, 0x3e, 0x1c, 0x10, 0x20, 0xbe,
    0x9f, 0x88, 0x9e, 0x3e, 0x62, 0x59, 0xab, 0xbe, 0xeb, 0xba,
    0xec, 0x3e, 0xc4, 0x97, 0x05, 0x3d, 0x64, 0x2f, 0xdc, 0x3e,
    0xe2, 0x01, 0xbf, 0x3d, 0x17, 0x87, 0x00, 0xbe, 0x3a, 0x54,
    0x8c, 0x3e, 0xbd, 0x3e, 0xcb, 0x3e, 0x6c, 0xce, 0x7e, 0xbe,
    0xc9, 0x3d, 0x54, 0x3e, 0xf6, 0x3d, 0xc5, 0xbd, 0xab, 0xe5,
    0xa5, 0x3e, 0xb8, 0xe7, 0x2f, 0xbd, 0x8f, 0x85, 0x85, 0x3e,
    0xde, 0x1d, 0x23, 0xbe, 0x5a, 0xc3, 0x83, 0xbe, 0x7c, 0x86,
    0x8d, 0x3e, 0xc1, 0x36, 0x9c, 0xbe, 0xa5, 0x60, 0x14, 0x3e,
    0x4b, 0xb9, 0xcb, 0xbb, 0x2e, 0x07, 0xb8, 0x3d, 0x0f, 0x4a,
    0xdd, 0x3e, 0xe7, 0x36, 0x5e, 0x3e, 0xcf, 0x2b, 0xba, 0x3e,
    0x81, 0xff, 0xd4, 0xbe, 0x6b, 0xb1, 0x9a, 0x3d, 0x47, 0xc4,
    0x1f, 0x3f, 0xaf, 0x6d, 0x02, 0x3e, 0x2a, 0x99, 0x79, 0x3e,
    0x7f, 0x58, 0x5b, 0xbe, 0x22, 0xa6, 0x14, 0xbd, 0x2c, 0xc0,
    0x56, 0xbe, 0xa8, 0x7b, 0xa7, 0x3d, 0xcc, 0x3d, 0x9d, 0x3e,
    0xef, 0x81, 0x42, 0x3e, 0x7b, 0x57, 0xba, 0x3e, 0x03, 0x80,
    0xa3, 0xbe, 0xe7, 0xf7, 0x26, 0x3e, 0x7c, 0xfc, 0x15, 0x3e,
    0xb3, 0xc7, 0xd6, 0xbd, 0x2b, 0xae, 0xb5, 0x3e, 0x3b, 0x93,
    0x17, 0xbe, 0x40, 0x6d, 0x67, 0x3d, 0x4f, 0xde, 0x60, 0x3e,
    0x5d, 0xe0, 0x6d, 0xbc, 0x98, 0x7f, 0xf2, 0x39, 0xf3, 0x72,
    0x84, 0xbc, 0x35, 0xcd, 0xcd, 0x3c, 0x36, 0xb0, 0x2f, 0x3d,
    0x9b, 0xc8, 0xcb, 0xbe, 0x56, 0x3b, 0xe8, 0xbe, 0xcc, 0x77,
    0x82, 0xbe, 0xfd, 0x93, 0xcd, 0xbe, 0x0d, 0x1c, 0x1b, 0xbe,
    0x66, 0x62, 0xee, 0xbe, 0x5b, 0x22, 0xb4, 0xbe, 0x1d, 0x54,
    0xf7, 0xbe, 0x76, 0xad, 0x11, 0x3e, 0xb6, 0x0a, 0x49, 0x3e,
    0xa7, 0x58, 0x12, 0xbf, 0xac, 0x83, 0x51, 0xbd, 0xd1, 0x7d,
    0x31, 0x3d, 0x72, 0x97, 0xbb, 0x3d, 0x57, 0x8d, 0xcb, 0x3e,
    0x9c, 0x16, 0x9c, 0xbe, 0x2b, 0xd5, 0x06, 0x3d, 0x18, 0x1b,
    0x4e, 0x3e, 0xd5, 0x00, 0x56, 0xbe, 0x02, 0x59, 0x88, 0xbd,
    0x7d, 0x3a, 0x31, 0x3c, 0xae, 0x5b, 0x53, 0x3e, 0xa0, 0xee,
    0xb5, 0x3d, 0x5b, 0xde, 0xb5, 0xbb, 0xf2, 0x7a, 0x4b, 0xbe,
    0x18, 0x02, 0xa4, 0x3e, 0x0a, 0x91, 0xe6, 0xbd, 0xf2, 0xd5,
    0x60, 0xbe, 0x8e, 0x53, 0x01, 0xbd, 0x25, 0x5a, 0x93, 0xbe,
    0x40, 0xa3, 0xaf, 0x3e, 0xb9, 0x03, 0x55, 0xbe, 0x3b, 0x3d,
    0x3a, 0xbe, 0x59, 0x18, 0xfb, 0x3b, 0x55, 0x7c, 0xf7, 0x3e,
    0xb0, 0xfe, 0xbf, 0x3e, 0x45, 0xdc, 0x3d, 0xbe, 0xb3, 0x72,
    0xf5, 0xbc, 0x64, 0x15, 0x8e, 0x3e, 0xf1, 0xd7, 0x8d, 0xbc,
    0x54, 0xe7, 0xa2, 0x3c, 0x1f, 0x8b, 0x13, 0x3e, 0x20, 0xd5,
    0x89, 0x3e, 0xa8, 0xf6, 0x04, 0x3f, 0xa6, 0x04, 0xcb, 0xbd,
    0x43, 0x32, 0x23, 0x3e, 0x54, 0xfb, 0xf0, 0x3e, 0x15, 0x25,
    0x7f, 0xbd, 0xb4, 0x6d, 0x72, 0xbd, 0x1e, 0x09, 0x82, 0x3e,
    0x3f, 0x91, 0x2b, 0x3e, 0x2a, 0x5a, 0x99, 0xbd, 0xd3, 0xf8,
    0xa9, 0xbd, 0x67, 0x7b, 0xaa, 0x3d, 0xc7, 0x97, 0xad, 0x3e,
    0x96, 0xa2, 0x1f, 0x3e, 0xef, 0x53, 0xac, 0x3e, 0x80, 0x8b,
    0x3c, 0x3e, 0xdf, 0x45, 0xf9, 0xbd, 0xc0, 0x1a, 0x64, 0x3d,
    0x07, 0xbe, 0xe0, 0x3e, 0x33, 0x7f, 0xd3, 0x3d, 0xa2, 0x0c,
    0xef, 0xbd, 0xfb, 0x69, 0x72, 0x3e, 0x3d, 0xe3, 0x1d, 0xbe,
    0xa7, 0xa5, 0xa1, 0xbe, 0x8d, 0xbc, 0x09, 0x3e, 0xf9, 0xf7,
    0x74, 0x3e, 0x65, 0xa8, 0xa4, 0xbd, 0x07, 0x22, 0x6e, 0xbe,
    0x7a, 0x1f, 0xce, 0xbc, 0xe0, 0xc0, 0xcf, 0x3c, 0x3b, 0x01,
    0x70, 0x3e, 0x85, 0xcb, 0x21, 0x3e, 0xe9, 0xf3, 0xa7, 0x3e,
    0x48, 0xf8, 0xa9, 0x3e, 0x44, 0x0a, 0xd7, 0x3e, 0xf4, 0xc3,
    0xfa, 0xbc, 0xe1, 0x9e, 0x56, 0x3e, 0x4a, 0x2f, 0xd4, 0xbd,
    0xf1, 0x59, 0xbe, 0x3e, 0x46, 0xfa, 0xa5, 0x3e, 0x81, 0x1a,
    0xfb, 0x3e, 0xe7, 0x33, 0xd3, 0x3e, 0xb8, 0x09, 0xc7, 0x3b,
    0x68, 0xee, 0xfe, 0x3e, 0x33, 0x31, 0x06, 0x3f, 0x4b, 0xe0,
    0x4b, 0xbe, 0xd3, 0x82, 0x07, 0x3e, 0xc2, 0x05, 0x06, 0x3e,
    0xf2, 0xe0, 0x9e, 0x3d, 0x3a, 0x9c, 0x80, 0x3d, 0xd4, 0xd4,
    0xb2, 0xbd, 0x8a, 0x27, 0x89, 0x3e, 0x3d, 0xd8, 0x80, 0xbe,
    0xad, 0x95, 0xbd, 0x3e, 0xfe, 0xcf, 0xd4, 0xbd, 0x02, 0x3f,
    0xa2, 0xbe, 0x25, 0x1a, 0x92, 0x3b, 0x8d, 0x34, 0xb7, 0x3e,
    0xc1, 0x15, 0x1f, 0x3e, 0xa0, 0xb2, 0xa4, 0xbe, 0xd5, 0xbb,
    0x9f, 0x3e, 0xe4, 0x62, 0x22, 0x3e, 0x09, 0x6f, 0x4a, 0x3d,
    0x02, 0x93, 0x62, 0x3e, 0x48, 0xfd, 0x9a, 0x3e, 0xfe, 0xb0,
    0xbb, 0xbe, 0x2a, 0x9a, 0x3b, 0x3e, 0xcc, 0x6f, 0x99, 0x3d,
    0x4a, 0x58, 0x64, 0xbe, 0xa0, 0x01, 0x82, 0xbe, 0x34, 0xb1,
    0xf0, 0x3d, 0xc2, 0x11, 0x94, 0xbe, 0x27, 0x70, 0x82, 0x3e,
    0x52, 0x24, 0x9c, 0xbe, 0x73, 0x95, 0xa4, 0x3d, 0x13, 0x35,
    0x90, 0xbe, 0x2a, 0x78, 0xdb, 0xbd, 0x6a, 0x3a, 0xb7, 0x3e,
    0x38, 0xd3, 0x27, 0xbe, 0xf0, 0x70, 0x27, 0xbe, 0xd5, 0x69,
    0x38, 0xbe, 0xd7, 0x07, 0x13, 0x3e, 0xce, 0xb7, 0x83, 0xbe,
    0x77, 0xf8, 0x93, 0x3d, 0xbc, 0x0c, 0x53, 0xbc, 0x0b, 0x2d,
    0x9b, 0x3e, 0x79, 0xbe, 0x1d, 0xbe, 0xbd, 0x25, 0x30, 0x3e,
    0x21, 0x70, 0x28, 0xbd, 0x23, 0xaa, 0xd0, 0x3e, 0xc8, 0xf9,
    0x42, 0x3e, 0x44, 0xdd, 0x7a, 0x3e, 0xe5, 0x95, 0xc0, 0x3e,
    0x1f, 0xeb, 0x2c, 0xbe, 0xaf, 0x71, 0x3a, 0x3e, 0x09, 0x26,
    0xf6, 0x3d, 0xbf, 0x81, 0x28, 0x3f, 0xa0, 0x74, 0x82, 0xbd,
    0x55, 0x0b, 0x8e, 0xbd, 0x44, 0xf6, 0xe6, 0x3c, 0xb1, 0x99,
    0x95, 0xbc, 0xab, 0xec, 0x5d, 0xbc, 0x84, 0x99, 0xe8, 0xbc,
    0x4f, 0xc6, 0x6f, 0xbd, 0x4d, 0xf4, 0xf0, 0xbc, 0xce, 0xdb,
    0xad, 0xbd, 0x6e, 0xb3, 0x16, 0x3d, 0x95, 0xe6, 0xbc, 0xbe,
    0x22, 0xae, 0x50, 0x3d, 0x8b, 0x03, 0x9c, 0x3e, 0x2d, 0x18,
    0x7d, 0x3c, 0x4e, 0xbe, 0x30, 0xbd, 0xbd, 0xc0, 0xe2, 0xbd,
    0x11, 0xb7, 0xa3, 0xbe, 0x57, 0xe8, 0xe6, 0xbd, 0x32, 0x60,
    0x12, 0x3f, 0x26, 0x3e, 0x0f, 0xbf, 0x8d, 0x78, 0xd8, 0xbe,
    0x94, 0x32, 0xea, 0xbe, 0x65, 0x3f, 0x8d, 0xbe, 0x84, 0x13,
    0x11, 0xbf, 0x77, 0xce, 0x40, 0xbe, 0x88, 0xd9, 0x13, 0xbf,
    0x41, 0x2e, 0x94, 0x3e, 0x00, 0x33, 0xd4, 0xbe, 0xf2, 0x7e,
    0x00, 0xbe, 0xd1, 0x13, 0x3e, 0xbd, 0x36, 0x7d, 0xd2, 0x3c,
    0x79, 0x9d, 0x81, 0x3e, 0x6f, 0xac, 0x39, 0x3e, 0x06, 0x71,
    0xd2, 0x3e, 0x76, 0x66, 0x81, 0xbe, 0x31, 0xdf, 0x2e, 0x3e,
    0xd6, 0x78, 0xa1, 0x3e, 0x40, 0x99, 0xb6, 0xbe, 0x9f, 0x81,
    0xf0, 0xbc, 0x50, 0x14, 0xa2, 0x3e, 0xba, 0x66, 0xc1, 0x3d,
    0x4c, 0x30, 0x9e, 0x3e, 0x1b, 0x6c, 0x56, 0x3e, 0xc2, 0xfe,
    0x07, 0x3f, 0xf2, 0xfe, 0xae, 0xbe, 0x51, 0xe1, 0x42, 0xbe,
    0x78, 0xb6, 0xf4, 0x3d, 0x96, 0x91, 0x4b, 0x3e, 0x62, 0x06,
    0x23, 0xbe, 0x46, 0xcf, 0xf1, 0x3d, 0xc5, 0xeb, 0x07, 0xbe,
    0x66, 0x9e, 0x6a, 0xbe, 0x27, 0x8c, 0x5e, 0xbc, 0x29, 0x2b,
    0x56, 0xbd, 0xb5, 0x7e, 0xe9, 0xbd, 0x3a, 0xcb, 0x09, 0x3d,
    0x90, 0x3f, 0xce, 0x3d, 0x3c, 0xcc, 0x97, 0xbd, 0x42, 0xb3,
    0x0a, 0x3b, 0xde, 0xa6, 0x2f, 0xbd, 0x7a, 0xb0, 0x71, 0x3e,
    0x74, 0x4d, 0xe3, 0x3c, 0x6e, 0xa3, 0x91, 0x3e, 0x1c, 0xdf,
    0x7a, 0xbd, 0x55, 0x2d, 0x0a, 0x3e, 0x59, 0xd1, 0xe1, 0xbd,
    0x50, 0xf7, 0xa1, 0xbe, 0x0d, 0x9b, 0x82, 0xbe, 0xac, 0x71,
    0x7f, 0x3c, 0x73, 0xb7, 0x0b, 0x3d, 0xb9, 0x56, 0x15, 0xbe,
    0x0f, 0xea, 0x53, 0xbd, 0x2a, 0x05, 0x66, 0xbe, 0xdc, 0x48,
    0x32, 0x3e, 0x10, 0xe6, 0xa0, 0x3e, 0x7d, 0x92, 0x29, 0xbe,
    0xc3, 0xb3, 0xa7, 0xbe, 0x65, 0x22, 0xc6, 0x3b, 0xb4, 0x0c,
    0xa1, 0x3e, 0x45, 0x1e, 0xf4, 0x3d, 0x70, 0x36, 0x9f, 0xbd,
    0x01, 0x77, 0x50, 0xbd, 0xa6, 0x66, 0xaf, 0x3d, 0x5d, 0x9b,
    0x80, 0xbe, 0xc3, 0x05, 0x0e, 0xbd, 0x57, 0x50, 0xa4, 0xbe,
    0x5d, 0x4a, 0x0b, 0xbd, 0x9e, 0xb0, 0x2d, 0x3e, 0xb4, 0xd3,
    0xb4, 0x3d, 0xb4, 0x69, 0x8b, 0xbe, 0x30, 0xdc, 0xc7, 0x3e,
    0xd6, 0x55, 0x1d, 0xbe, 0xec, 0xd0, 0x19, 0xbe, 0x11, 0x49,
    0xe5, 0xbd, 0xdc, 0xe6, 0xe1, 0xbd, 0x23, 0xde, 0xbc, 0x3d,
    0x78, 0x07, 0xec, 0xbd, 0xc9, 0x25, 0x86, 0x3d, 0x3a, 0x02,
    0x87, 0xbe, 0xc5, 0x8a, 0x39, 0xbe, 0x9d, 0x47, 0x2b, 0x3e,
    0x9a, 0x9b, 0xd1, 0xbd, 0x9a, 0xe5, 0xdf, 0xbc, 0xc7, 0x5b,
    0x83, 0x3d, 0xb6, 0x1d, 0xd1, 0x3e, 0x0d, 0xb4, 0x25, 0xbe,
    0x19, 0xf8, 0x3e, 0x3d, 0xc1, 0xc4, 0x71, 0x3e, 0xcd, 0xd6,
    0x63, 0x3e, 0x4b, 0x50, 0xdb, 0xbd, 0xd6, 0xc6, 0x45, 0xbd,
    0x79, 0x3b, 0x33, 0x3e, 0xd3, 0xa5, 0xe2, 0x3d, 0x77, 0xc9,
    0x90, 0x3e, 0xfe, 0x15, 0x94, 0x3c, 0x1c, 0x36, 0xc2, 0x3d,
    0x3d, 0xe5, 0x96, 0x3e, 0xf5, 0x1c, 0x9d, 0xbe, 0xff, 0x95,
    0x54, 0x3d, 0xc5, 0x7c, 0x64, 0x3e, 0x75, 0x7b, 0xbc, 0x3d,
    0x19, 0x34, 0x24, 0x3e, 0x7b, 0xd6, 0x25, 0xbe, 0xf1, 0x97,
    0x46, 0xbd, 0xe6, 0xce, 0xe7, 0x3e, 0xfd, 0xd1, 0x10, 0x3e,
    0x35, 0x64, 0xb0, 0x3d, 0x2e, 0xf3, 0xe4, 0xbd, 0x75, 0xe4,
    0xb3, 0x3e, 0xfb, 0x65, 0xda, 0x3e, 0x32, 0x0c, 0x05, 0x3e,
    0x31, 0x87, 0xd7, 0xbc, 0x5c, 0xf0, 0x2b, 0xbe, 0xbe, 0x37,
    0x63, 0x3e, 0xc2, 0xba, 0x0f, 0x3d, 0x30, 0x1f, 0xfd, 0xbd,
    0xd9, 0x5d, 0x20, 0x3e, 0x91, 0xbd, 0x46, 0x3e, 0xb5, 0x63,
    0x69, 0xbd, 0x9f, 0x55, 0x05, 0xbf, 0xf8, 0x58, 0x43, 0xbe,
    0x78, 0x87, 0x39, 0xbc, 0x5a, 0x1d, 0xde, 0xbd, 0x30, 0x02,
    0x0e, 0xbf, 0xfc, 0x94, 0x5f, 0xbe, 0xa4, 0xf0, 0xde, 0xbe,
    0xb6, 0x7c, 0xd3, 0x3e, 0x9a, 0xcd, 0x92, 0xbe, 0x44, 0x92,
    0xcd, 0xbd, 0x23, 0x27, 0xd1, 0xbe, 0x31, 0xb1, 0xb5, 0x3e,
    0x44, 0xe4, 0x4b, 0x3e, 0x2b, 0x6e, 0xf1, 0x3d, 0xbf, 0x23,
    0x9e, 0x3e, 0xa6, 0x2c, 0xb4, 0xbd, 0xae, 0xad, 0xa7, 0x3c,
    0xce, 0xf6, 0x84, 0x3e, 0x6c, 0x8e, 0xfe, 0xbd, 0xd7, 0x40,
    0x13, 0x3c, 0x15, 0x8e, 0xae, 0x3e, 0x30, 0xb6, 0x8e, 0xbd,
    0x9f, 0xb4, 0xa3, 0x3d, 0xfc, 0xca, 0x49, 0xbe, 0x7f, 0xfb,
    0x9e, 0x3e, 0xd7, 0xea, 0x4e, 0x3b, 0xc7, 0x1a, 0x88, 0x3d,
    0x29, 0x53, 0xc3, 0x3e, 0x8f, 0xd2, 0x1a, 0x3f, 0xa5, 0xd1,
    0xf6, 0xbd, 0xfd, 0x45, 0x1e, 0xbe, 0xe5, 0x5b, 0x9f, 0x3e,
    0x8c, 0x2a, 0xbe, 0x3e, 0xe7, 0x9d, 0xb0, 0xbe, 0xc2, 0x45,
    0x0b, 0xbd, 0xaa, 0x93, 0x8e, 0x3c, 0x70, 0x1c, 0x4c, 0xbe,
    0x89, 0x12, 0xce, 0xbe, 0xbc, 0x31, 0x87, 0xbe, 0x6f, 0x6c,
    0xf1, 0x3e, 0x4f, 0xaf, 0xc1, 0xbe, 0xb6, 0xc1, 0x98, 0xbe,
    0xbd, 0x43, 0x52, 0xbd, 0x7b, 0x31, 0xd8, 0xbc, 0x69, 0x11,
    0x3e, 0x3d, 0xfb, 0x8c, 0x8a, 0x3d, 0xfe, 0xcf, 0xc1, 0xbd,
    0x82, 0xe3, 0x89, 0xbe, 0xb1, 0x4f, 0x04, 0x3f, 0xf7, 0xd4,
    0xcf, 0xbd, 0xe3, 0xea, 0x8c, 0x3d, 0xf5, 0x59, 0x45, 0xbe,
    0x91, 0xeb, 0x33, 0x3e, 0x8b, 0xcb, 0xf1, 0x3e, 0x6e, 0xea,
    0x0b, 0x3f, 0x45, 0x96, 0x77, 0xbe, 0xca, 0x98, 0x5b, 0x3e,
    0x52, 0xf7, 0x4c, 0x3e, 0xe6, 0x1a, 0x04, 0x3e, 0x90, 0x98,
    0x9f, 0x3e, 0x39, 0xfe, 0xd4, 0x3d, 0x40, 0xf9, 0x06, 0x3e,
    0x4c, 0xdf, 0x01, 0xbc, 0x75, 0x5e, 0xe2, 0x3c, 0x75, 0x93,
    0x99, 0x3d, 0x41, 0xe7, 0x54, 0xbd, 0xe0, 0xf8, 0x50, 0xbd,
    0xbd, 0x55, 0x20, 0xbd, 0xa8, 0x04, 0x3b, 0x3c, 0xe2, 0x52,
    0xd2, 0x3e, 0x85, 0xd1, 0xf0, 0x3d, 0x92, 0x6a, 0xca, 0x3e,
    0xcc, 0x32, 0x48, 0x3e, 0xf8, 0xff, 0x7f, 0xbe, 0x96, 0x11,
    0x7d, 0x3e, 0x9a, 0x8f, 0x11, 0x3e, 0x96, 0x88, 0xe3, 0xbe,
    0x43, 0xc3, 0x5b, 0x3e, 0x34, 0x5e, 0xcd, 0x3d, 0x95, 0x62,
    0x63, 0xbd, 0xd2, 0x84, 0xb8, 0x3e, 0x82, 0x92, 0x62, 0xbd,
    0x2c, 0x59, 0x54, 0x3e, 0xb4, 0x0c, 0x6d, 0xbe, 0x44, 0x18,
    0xce, 0xbe, 0xe1, 0x4b, 0x90, 0x3e, 0x4f, 0x2e, 0x81, 0xbe,
    0xcb, 0xfa, 0xa6, 0xbc, 0xe6, 0xe0, 0x8a, 0x3e, 0xbf, 0xba,
    0x85, 0x3e, 0x89, 0x85, 0xb2, 0xbd, 0x0e, 0x04, 0x79, 0xbe,
    0x5e, 0x27, 0x4a, 0xbd, 0x76, 0x30, 0x2d, 0xbe, 0x8c, 0x85,
    0xec, 0x3e, 0x47, 0x5f, 0xcb, 0xbd, 0x76, 0x94, 0xb1, 0xbe,
    0x32, 0x6f, 0x03, 0x3f, 0x01, 0x21, 0x97, 0xbe, 0xd9, 0x0e,
    0x22, 0x3e, 0x78, 0x72, 0x4f, 0xbe, 0xf1, 0x6b, 0xa7, 0xbe,
    0x29, 0xfd, 0x17, 0xbd, 0x4e, 0x5e, 0x56, 0xbe, 0xdd, 0x7f,
    0xfb, 0xbe, 0x6a, 0x7d, 0x94, 0xbd, 0x1d, 0xa7, 0x4e, 0x3d,
    0x01, 0x59, 0xa8, 0x3e, 0x68, 0x02, 0x05, 0xbe, 0x5d, 0x37,
    0xb3, 0x3e, 0xc6, 0xc3, 0x08, 0xbf, 0x1d, 0xca, 0x18, 0x3f,
    0xfe, 0x1f, 0x21, 0x3f, 0x30, 0xe7, 0x17, 0xbf, 0x53, 0x21,
    0x68, 0x3f, 0xe5, 0x30, 0xf7, 0xbe, 0x4a, 0xdb, 0x23, 0xbf,
    0xea, 0xd8, 0x4a, 0x3e, 0x03, 0xf3, 0x35, 0xbf, 0x93, 0x1e,
    0x89, 0x3d, 0x01, 0x43, 0x35, 0x3e, 0x9e, 0x71, 0xee, 0xbe,
    0x6d, 0x49, 0x41, 0x3e, 0x0d, 0x81, 0x29, 0xbf, 0x57, 0xa0,
    0xbd, 0x3b, 0xa2, 0x2c, 0x31, 0x3d, 0xff, 0x8c, 0xe1, 0xbe,
    0x78, 0x63, 0x5a, 0xbd, 0x74, 0x29, 0x08, 0xbd, 0xe7, 0x15,
    0x91, 0xbc, 0x59, 0xfe, 0x99, 0xbd, 0x92, 0x43, 0x95, 0xbe,
    0xfb, 0x7f, 0x53, 0xbe, 0x8d, 0xbf, 0xf5, 0xbe, 0x17, 0x54,
    0x5f, 0x3f, 0x21, 0x1c, 0x3a, 0xbd, 0xc2, 0xf2, 0x04, 0xbf,
    0x91, 0xb4, 0xed, 0x3e, 0x02, 0x04, 0x1a, 0xbf, 0xd4, 0xb4,
    0x3b, 0x3f, 0xf1, 0xd1, 0xd6, 0x3e, 0x58, 0x66, 0x16, 0xbe,
    0xd0, 0x32, 0x07, 0xbf, 0xc7, 0xa7, 0x45, 0xbe, 0x42, 0xdc,
    0xcc, 0x3e, 0x3e, 0x72, 0x06, 0xbe, 0xde, 0x0f, 0xf9, 0x3d,
    0x74, 0xd6, 0xe9, 0xbe, 0xd6, 0xef, 0x7d, 0x3d, 0xee, 0xcf,
    0xe7, 0xbd, 0x7d, 0xf4, 0x01, 0x3e, 0x4d, 0xc7, 0x8c, 0x3e,
    0xe6, 0x20, 0x81, 0x3e, 0x39, 0x60, 0x84, 0xbe, 0x20, 0x80,
    0x3a, 0x3e, 0xf4, 0x82, 0xe2, 0x3c, 0xec, 0xbb, 0xa0, 0xbc,
    0x64, 0xa6, 0x84, 0x3e, 0x5c, 0xc6, 0x7e, 0xbe, 0xf3, 0xca,
    0xf9, 0x3e, 0x75, 0xe0, 0x8f, 0x3e, 0xbb, 0x51, 0x02, 0x3d,
    0x44, 0xcb, 0xb9, 0x3e, 0x88, 0xb0, 0xdc, 0xbe, 0xd4, 0xa1,
    0xba, 0xbd, 0x86, 0x2e, 0xad, 0x3e, 0xbe, 0x42, 0xc2, 0x3e,
    0xe0, 0x48, 0x53, 0xbe, 0x07, 0x03, 0x8a, 0xbe, 0x90, 0x03,
    0x33, 0x3e, 0xe4, 0x65, 0xe8, 0x3b, 0xa4, 0x9b, 0xa1, 0x3d,
    0xa4, 0xa1, 0xe3, 0x3d, 0x12, 0xdd, 0xb3, 0xbe, 0x25, 0x5e,
    0x69, 0x3e, 0x5e, 0x11, 0x93, 0x3d, 0xa4, 0xfb, 0xa3, 0x3e,
    0x79, 0xf4, 0xa6, 0x3d, 0x5c, 0x15, 0x87, 0xbe, 0x40, 0x54,
    0x19, 0x3d, 0x35, 0x57, 0x17, 0x3e, 0xb8, 0xa9, 0xf6, 0x3e,
    0x6b, 0xfe, 0x42, 0xbe, 0x6c, 0x00, 0x31, 0x3e, 0xe8, 0x97,
    0x80, 0x3e, 0x9f, 0xb8, 0x0f, 0x3e, 0x27, 0xdd, 0x21, 0x3e,
    0xd1, 0xd5, 0xf4, 0xbc, 0xc1, 0x1f, 0x53, 0xbe, 0x92, 0xe7,
    0x7b, 0x3d, 0xf7, 0xca, 0x3e, 0xbd, 0x9a, 0xdc, 0x4a, 0x3e,
    0x68, 0x33, 0x88, 0x3d, 0xe7, 0xcc, 0x1e, 0xbe, 0xca, 0xef,
    0xb3, 0x3e, 0x7b, 0x57, 0xea, 0xbc, 0x53, 0x4d, 0xee, 0xbe,
    0xf6, 0x90, 0x0a, 0xbd, 0xeb, 0x7a, 0x7a, 0x3d, 0x9c, 0x22,
    0x5f, 0xbe, 0x24, 0xba, 0x08, 0xbe, 0x67, 0x93, 0x22, 0xbe,
    0xd0, 0x82, 0xb7, 0x3e, 0x82, 0x94, 0x6f, 0xbe, 0x08, 0x22,
    0xb3, 0xbd, 0x08, 0x02, 0x63, 0x3e, 0x42, 0x25, 0x66, 0x3e,
    0x3c, 0x86, 0x58, 0x3e, 0x6e, 0xdf, 0xba, 0xbd, 0x42, 0x48,
    0x7a, 0x3e, 0x7b, 0x8f, 0x9d, 0x3e, 0xc6, 0xb9, 0x60, 0x3e,
    0xff, 0x8e, 0xbc, 0xbd, 0xcc, 0xce, 0x8a, 0xbe, 0xe6, 0x1d,
    0xb8, 0x3e, 0x92, 0xaf, 0xa1, 0x3d, 0x50, 0xf9, 0x51, 0xbd,
    0x27, 0x34, 0xa8, 0xbc, 0x6a, 0xe1, 0xf5, 0xbe, 0x51, 0xfe,
    0x37, 0x3e, 0x31, 0xe8, 0x84, 0xbe, 0x46, 0xd2, 0x52, 0x3b,
    0xa3, 0x1d, 0xb9, 0x3e, 0xfd, 0x90, 0x9c, 0x3d, 0x81, 0x0a,
    0x34, 0x3d, 0x0d, 0xc2, 0x8d, 0xbd, 0x00, 0x89, 0x0c, 0xbf,
    0x51, 0xf6, 0x4d, 0xbd, 0xba, 0xb9, 0x84, 0x3e, 0x4e, 0x4f,
    0x01, 0x3e, 0xeb, 0x8a, 0x05, 0xbf, 0x7a, 0x76, 0xad, 0x3e,
    0x5f, 0x31, 0x26, 0x3e, 0xb4, 0xf2, 0xf5, 0xbe, 0xad, 0xf1,
    0xf7, 0x3e, 0x39, 0xf4, 0x1a, 0xbf, 0x01, 0x6e, 0xa4, 0xbe,
    0xbe, 0x07, 0x59, 0x3e, 0xb9, 0xa0, 0x9d, 0xbe, 0x96, 0xfc,
    0x0a, 0x3e, 0xee, 0xf1, 0xc4, 0x3e, 0xfc, 0x61, 0x8e, 0x3e,
    0xbf, 0x7c, 0x82, 0xbe, 0x76, 0xe4, 0xae, 0xbe, 0x09, 0xf6,
    0x94, 0x3b, 0x42, 0xcd, 0x5e, 0xbe, 0x8d, 0x97, 0xe7, 0xbd,
    0x54, 0x6b, 0xc4, 0xbc, 0xa1, 0x52, 0x7e, 0x3e, 0x0d, 0xc7,
    0x5a, 0x3e, 0xcb, 0x82, 0x18, 0x3e, 0x9f, 0x17, 0xe7, 0x3d,
    0x5c, 0x87, 0x37, 0xb8, 0xbc, 0x4a, 0xf6, 0xbc, 0x8b, 0x70,
    0x13, 0xbe, 0x64, 0x75, 0xd2, 0xbd, 0x17, 0x7d, 0x0f, 0x3e,
    0xb4, 0xc4, 0x94, 0xbd, 0x82, 0x61, 0x9c, 0x3e, 0x69, 0x92,
    0x86, 0xbe, 0xd2, 0x9a, 0x0f, 0xbf, 0x16, 0x18, 0x21, 0x3e,
    0x2d, 0xf0, 0x11, 0x3d, 0x9c, 0xce, 0x59, 0x3c, 0x3f, 0xc0,
    0xad, 0xbd, 0xf5, 0x06, 0x11, 0x3d, 0xac, 0x18, 0xb4, 0xbd,
    0x12, 0x20, 0xf1, 0x3d, 0xa3, 0x8a, 0xe5, 0x3c, 0x95, 0x9b,
    0xd9, 0xbe, 0x4b, 0x73, 0x8a, 0xbd, 0xf2, 0x4e, 0xb6, 0x3e,
    0xfb, 0xdf, 0xb3, 0xbc, 0x99, 0x2e, 0x6a, 0xbe, 0xd6, 0x05,
    0x1c, 0xbe, 0x5e, 0x47, 0x26, 0x3e, 0xfc, 0xe7, 0x37, 0x3e,
    0xbf, 0x8a, 0x4b, 0xba, 0x2f, 0xc3, 0x79, 0x3d, 0xd8, 0xf0,
    0x8c, 0x3e, 0x15, 0x33, 0xbc, 0x3e, 0xf3, 0xa1, 0x7b, 0xbe,
    0x79, 0x6e, 0x55, 0xbe, 0x63, 0x98, 0x58, 0xbe, 0x5e, 0x44,
    0x48, 0x3d, 0xd9, 0x4a, 0x65, 0x3e, 0x39, 0x15, 0x84, 0xbe,
    0xd8, 0xec, 0x3c, 0xbe, 0x69, 0x51, 0x01, 0x3c, 0xae, 0x1b,
    0xc6, 0x3e, 0x00, 0x8c, 0xc5, 0x3e, 0x24, 0x6e, 0x2d, 0xbe,
    0xb4, 0xb6, 0xde, 0xbd, 0xf8, 0xcd, 0x8d, 0xbe, 0x7d, 0x86,
    0x62, 0x3e, 0x05, 0xb9, 0x72, 0xbc, 0x16, 0x57, 0x11, 0x3e,
    0x8e, 0x55, 0xfb, 0x3d, 0xe7, 0xf3, 0x3d, 0x3e, 0x04, 0x1f,
    0x88, 0x3d, 0x53, 0x80, 0xa9, 0xbc, 0x08, 0xdc, 0x84, 0xbe,
    0xd7, 0x63, 0xa5, 0xbe, 0x23, 0x7b, 0x31, 0x3c, 0x88, 0xdd,
    0x97, 0x3c, 0x49, 0x09, 0x4c, 0xbe, 0xe4, 0xe6, 0x3e, 0x3e,
    0x0f, 0xf9, 0x9b, 0x3d, 0x1a, 0x02, 0x15, 0xbe, 0xf0, 0x7f,
    0xb0, 0x3e, 0xad, 0x34, 0x11, 0x3f, 0xbe, 0x7a, 0xcf, 0xbe,
    0x4b, 0xfb, 0xc2, 0x3e, 0x88, 0x64, 0x16, 0x3c, 0x63, 0x4a,
    0x2d, 0x3d, 0xf7, 0x48, 0x49, 0x3e, 0x7e, 0x2e, 0xc7, 0x3e,
    0x50, 0x2e, 0x49, 0x3c, 0x32, 0x35, 0xe8, 0x3e, 0x17, 0x73,
    0xd9, 0xbd, 0xfd, 0x24, 0x6a, 0xbd, 0x27, 0x4e, 0x8a, 0x3d,
    0x30, 0xb7, 0x0b, 0xbe, 0x7c, 0x05, 0x11, 0x3e, 0x66, 0x0a,
    0xb5, 0x3d, 0xbc, 0xbc, 0x0f, 0x3d, 0xe5, 0x47, 0x18, 0x3e,
    0x63, 0xf8, 0x99, 0xbd, 0x87, 0x90, 0x84, 0x3d, 0x5e, 0x4d,
    0xd5, 0xbe, 0xb3, 0x32, 0x47, 0xbe, 0x04, 0xb5, 0x57, 0xbe,
    0x3c, 0xa7, 0xff, 0x3d, 0x98, 0x66, 0x79, 0x3e, 0x32, 0x9a,
    0x8f, 0xbe, 0x04, 0x60, 0x15, 0xbb, 0xa8, 0x99, 0x9d, 0xbd,
    0xe2, 0xa4, 0x72, 0xbe, 0x0b, 0x20, 0x35, 0x3e, 0x84, 0xef,
    0x8d, 0x3c, 0x71, 0x00, 0x9f, 0xbd, 0xb1, 0x6b, 0xe6, 0x3e,
    0xbe, 0x29, 0x01, 0xbf, 0x77, 0xc9, 0xa5, 0xbc, 0x24, 0xda,
    0xd7, 0xb9, 0x34, 0x86, 0x1a, 0xbe, 0x00, 0x4d, 0xd2, 0x3d,
    0x33, 0xfc, 0x6e, 0xbe, 0x9b, 0x48, 0x20, 0x3d, 0xf5, 0x32,
    0x63, 0x3d, 0xdf, 0x5a, 0x19, 0xbe, 0xe1, 0x47, 0x36, 0x3e,
    0x48, 0xca, 0xb1, 0xbe, 0x74, 0xae, 0x9f, 0x3d, 0x8f, 0x8f,
    0x8c, 0xbe, 0xb5, 0x19, 0x0b, 0x3f, 0x59, 0xfa, 0xda, 0xbc,
    0x17, 0xf1, 0x18, 0x3e, 0xa9, 0x64, 0x2e, 0x3e, 0x50, 0x65,
    0x4d, 0xbe, 0x90, 0x90, 0x16, 0x3e, 0xa8, 0x7d, 0x59, 0xbe,
    0x3f, 0x65, 0xcc, 0x3d, 0xf3, 0x0a, 0x13, 0x3f, 0x64, 0x82,
    0x13, 0xbe, 0x24, 0x9c, 0x49, 0x3e, 0x42, 0x66, 0xe0, 0xbc,
    0xf4, 0x2e, 0x97, 0xbe, 0x77, 0x5d, 0xa6, 0x3e, 0x7a, 0x27,
    0xf9, 0x3c, 0x25, 0x84, 0x03, 0x3f, 0xe9, 0x70, 0x2d, 0xbb,
    0xea, 0xdf, 0x68, 0x3e, 0xb9, 0x77, 0x7c, 0x3e, 0x85, 0x6c,
    0x79, 0xbd, 0x5a, 0xc0, 0xb1, 0x3d, 0xb7, 0x22, 0x63, 0x3e,
    0x48, 0x8c, 0x54, 0xbd, 0x70, 0xeb, 0x43, 0xbe, 0x78, 0x3b,
    0x8e, 0x3e, 0x12, 0xd0, 0xbb, 0xbc, 0xf4, 0xcf, 0x9f, 0xbe,
    0x97, 0xcb, 0x28, 0xbf, 0x28, 0x4d, 0xf2, 0x3e, 0xeb, 0x0a,
    0x46, 0xbe, 0x86, 0x49, 0xcc, 0xbd, 0x46, 0x19, 0x7b, 0xbe,
    0x16, 0x79, 0x2b, 0xbf, 0xf3, 0xe3, 0xdf, 0xbe, 0xd0, 0xde,
    0x83, 0x3e, 0xd4, 0xe2, 0xc2, 0x3e, 0x0f, 0x62, 0x4b, 0xbe,
    0xd7, 0x25, 0x92, 0xbe, 0x80, 0x30, 0x05, 0x3f, 0xee, 0x61,
    0x7d, 0xbe, 0x7a, 0xb5, 0xf5, 0x3e, 0x7f, 0x20, 0x0f, 0xbe,
    0x61, 0x3f, 0xbc, 0x3e, 0x80, 0xd1, 0xde, 0x3e, 0xba, 0x78,
    0x1d, 0xbf, 0x82, 0x3d, 0x91, 0x3e, 0x1c, 0x5b, 0x69, 0x3d,
    0x89, 0x09, 0x7f, 0xbe, 0x38, 0xf8, 0x93, 0x3e, 0xa8, 0x9f,
    0xb9, 0xbe, 0xb1, 0x23, 0xa3, 0xbd, 0x34, 0x8e, 0x02, 0xbf,
    0xa4, 0x04, 0xed, 0x3e, 0x71, 0x9c, 0x2c, 0xbe, 0xc2, 0xf4,
    0x92, 0x3e, 0x30, 0x2a, 0xe0, 0xbe, 0xd9, 0x5f, 0xd5, 0x3d,
    0xc8, 0x32, 0x05, 0xbe, 0x9c, 0xcc, 0x94, 0x3e, 0x61, 0x53,
    0xa4, 0x3e, 0x3d, 0x23, 0xf0, 0x3d, 0xf5, 0x79, 0xb7, 0xbd,
    0x11, 0x5f, 0xd3, 0xbe, 0xed, 0x1c, 0xf5, 0x3e, 0xd5, 0xa0,
    0x8c, 0x3c, 0x48, 0x6f, 0x14, 0x3f, 0xd1, 0x4d, 0xe4, 0x3c,
    0x24, 0xeb, 0x30, 0x3e, 0x00, 0x6f, 0x59, 0xbe, 0x6e, 0x31,
    0x45, 0x3e, 0x4d, 0x55, 0x38, 0xbe, 0x12, 0xee, 0x11, 0xbd,
    0x69, 0x1d, 0x47, 0xbe, 0xcb, 0xe2, 0x07, 0x3d, 0x84, 0x9d,
    0xa0, 0xbd, 0x64, 0x3e, 0x0f, 0xbf, 0xdc, 0x52, 0x25, 0x3f,
    0xb7, 0x3c, 0x04, 0xbf, 0x95, 0x67, 0x91, 0xbe, 0x25, 0x28,
    0xbf, 0x3d, 0xc9, 0x33, 0xaf, 0xbe, 0x60, 0x77, 0x6b, 0xbe,
    0xc6, 0xfc, 0x24, 0x3d, 0x14, 0xd7, 0x4f, 0x3e, 0xd1, 0xc2,
    0x17, 0xbe, 0xcb, 0x4f, 0x5c, 0x3b, 0xce, 0x09, 0xf7, 0x3d,
    0xe9, 0x69, 0xf6, 0xbd, 0xad, 0xf1, 0x54, 0xbe, 0x90, 0xa0,
    0xc8, 0xbd, 0x52, 0x4e, 0x1d, 0x3e, 0x85, 0x02, 0x03, 0x3e,
    0x94, 0x0e, 0x12, 0xbf, 0x9c, 0x4d, 0xe5, 0xbe, 0x8e, 0x3c,
    0x00, 0x3f, 0x8f, 0x4e, 0x0b, 0xbd, 0x58, 0x31, 0x68, 0x3e,
    0xb4, 0x68, 0xd9, 0xbe, 0xe3, 0x74, 0xc9, 0xbd, 0xb9, 0xef,
    0x2f, 0x3f, 0xe0, 0x93, 0xd3, 0xbe, 0x5b, 0x1b, 0x8e, 0x3e,
    0xbb, 0x01, 0xa1, 0x3e, 0xd1, 0xff, 0xb8, 0x3c, 0x3b, 0xed,
    0xaf, 0xbc, 0x98, 0xdd, 0xfa, 0xbd, 0x24, 0x83, 0x6b, 0x3e,
    0x87, 0xee, 0x9f, 0xbc, 0x81, 0xf2, 0x14, 0x3b, 0xd7, 0x13,
    0xb8, 0xbc, 0x49, 0x3a, 0x67, 0xbd, 0xf4, 0xa4, 0xa5, 0x3d,
    0xc2, 0x4c, 0xf8, 0xbc, 0x6c, 0x4b, 0x5a, 0xbe, 0x2a, 0xea,
    0x51, 0x3e, 0x3c, 0x21, 0x4b, 0xbe, 0x4a, 0x1b, 0xf3, 0xbd,
    0x47, 0x91, 0xaf, 0xbe, 0xba, 0xd1, 0x6a, 0x3d, 0xb1, 0xe1,
    0xda, 0xbe, 0xc1, 0x3d, 0x17, 0xbd, 0xa6, 0x09, 0xa0, 0xbe,
    0x65, 0x79, 0x3b, 0xbd, 0x68, 0xbd, 0x03, 0x3e, 0xeb, 0xb3,
    0x79, 0x3d, 0xbc, 0xf2, 0xca, 0xbd, 0xd2, 0xc4, 0x71, 0x3e,
    0xa2, 0xc0, 0x27, 0xbe, 0x4b, 0xda, 0x8e, 0x3d, 0x0c, 0x07,
    0xdb, 0xbd, 0xa4, 0x35, 0xdc, 0xbd, 0x2e, 0x56, 0x8d, 0x3e,
    0x4a, 0x6a, 0xdf, 0xbc, 0xf4, 0xa8, 0x08, 0x3e, 0x59, 0x01,
    0xb6, 0xbe, 0xb1, 0xc6, 0x91, 0xbe, 0x85, 0x0a, 0x17, 0xbf,
    0xeb, 0xa3, 0xf3, 0x3e, 0x21, 0x4a, 0xeb, 0xbd, 0x5e, 0xf8,
    0x9d, 0x3d, 0x8f, 0xd9, 0x18, 0x3e, 0xea, 0x07, 0xf6, 0xbd,
    0x3f, 0x1c, 0x9e, 0x3d, 0xb4, 0xe0, 0x8c, 0xbd, 0x66, 0xc0,
    0xae, 0x3e, 0x57, 0x8b, 0x95, 0x3e, 0x7c, 0x34, 0x76, 0x3d,
    0x40, 0x87, 0xeb, 0xbd, 0x5e, 0xc5, 0x24, 0x3e, 0xa5, 0x8e,
    0x16, 0xbb, 0xdb, 0xcd, 0x56, 0xbd, 0x9e, 0x64, 0x8e, 0xbd,
    0xed, 0xf3, 0x29, 0x3e, 0x95, 0xf7, 0x05, 0xbe, 0x80, 0x67,
    0x00, 0xbf, 0x75, 0x8e, 0x78, 0x3e, 0xb2, 0x23, 0xf1, 0x3d,
    0x81, 0xf7, 0x88, 0xbe, 0xca, 0xfe, 0xe1, 0xbe, 0x5c, 0xce,
    0xb8, 0x3d, 0x15, 0xd7, 0x64, 0xbe, 0x58, 0x82, 0x0d, 0x3e,
    0x7c, 0xda, 0xe0, 0xbe, 0x7b, 0xd4, 0x8c, 0xbc, 0xe6, 0x57,
    0x6c, 0xbe, 0x50, 0x74, 0x0d, 0xbe, 0xb9, 0x56, 0xc8, 0x3e,
    0x8d, 0xd8, 0xa4, 0x3d, 0xbd, 0x90, 0xf0, 0x3b, 0x38, 0x64,
    0x95, 0x3e, 0x01, 0x63, 0xda, 0xbe, 0xbd, 0x4d, 0x24, 0xbf,
    0x37, 0x40, 0x6f, 0x3e, 0xdd, 0xa6, 0x03, 0x3d, 0xcc, 0x99,
    0x61, 0x3f, 0x78, 0x89, 0x66, 0x3e, 0x2a, 0xa8, 0x48, 0x3f,
    0x59, 0x8e, 0x84, 0xbe, 0xce, 0x72, 0xc3, 0x3d, 0xc3, 0xe5,
    0x89, 0xbe, 0x69, 0xaf, 0xdf, 0xbd, 0x42, 0xd4, 0x37, 0x3e,
    0x50, 0x08, 0xb0, 0xbd, 0x95, 0x97, 0x3e, 0xbe, 0x5b, 0xe0,
    0xaa, 0x3c, 0x19, 0x6f, 0x19, 0x3e, 0xfc, 0x06, 0x89, 0xbe,
    0xf7, 0x9f, 0xea, 0x3d, 0x59, 0x26, 0x2c, 0x3e, 0x0f, 0xb6,
    0x18, 0xbd, 0x87, 0x99, 0x76, 0xbe, 0x3b, 0xb4, 0x9d, 0xbd,
    0xd8, 0x24, 0x6e, 0xbe, 0x2b, 0x39, 0x9e, 0x3d, 0x4e, 0x8c,
    0x44, 0xbd, 0xb9, 0x73, 0xd1, 0xbe, 0x8e, 0xd4, 0xb1, 0xbe,
    0x98, 0x6f, 0x5f, 0x3e, 0x43, 0x10, 0xdb, 0xbc, 0xe2, 0xa1,
    0xe8, 0x3d, 0xb1, 0xd2, 0x0c, 0xbd, 0x59, 0xe3, 0x1e, 0xbd,
    0x0c, 0xd9, 0x7b, 0xbe, 0xa5, 0x2c, 0xae, 0xbe, 0x12, 0xb4,
    0x2d, 0xbe, 0xae, 0x31, 0x83, 0xbd, 0xa2, 0x2d, 0xe6, 0xbd,
    0x70, 0xb4, 0x25, 0xbb, 0xff, 0x40, 0x85, 0xbe, 0xf2, 0x0e,
    0x60, 0xbe, 0x1f, 0x52, 0x5e, 0xbe, 0xfc, 0x8b, 0x55, 0xbe,
    0x8f, 0x15, 0x5b, 0xbd, 0xff, 0xc6, 0xce, 0x3d, 0x94, 0x7a,
    0xc4, 0xbd, 0x68, 0xa1, 0xae, 0xbd, 0x74, 0x19, 0x41, 0x3e,
    0x65, 0xbd, 0xc6, 0x3e, 0x98, 0x23, 0xb0, 0xbc, 0xa0, 0xa9,
    0xbc, 0x3d, 0xba, 0xb8, 0x37, 0xbe, 0xbb, 0xe0, 0xbc, 0xbe,
    0xc1, 0x76, 0xa4, 0xbe, 0x43, 0xc5, 0xad, 0xbe, 0x5c, 0x43,
    0x5a, 0xbe, 0x23, 0x45, 0x2f, 0x3e, 0xc9, 0x7a, 0xbb, 0xbe,
    0x47, 0xe3, 0x87, 0x3e, 0x79, 0xf7, 0xb6, 0x3d, 0x5c, 0x20,
    0x50, 0x3d, 0x62, 0x0f, 0x51, 0xbd, 0x44, 0xaf, 0x5c, 0xbd,
    0x99, 0x10, 0x3c, 0x3e, 0x44, 0xc1, 0xeb, 0xbd, 0x0b, 0x58,
    0xe7, 0x3c, 0x8d, 0x62, 0x19, 0x3e, 0x36, 0x33, 0xa4, 0x3e,
    0x08, 0x2d, 0x96, 0xbe, 0x21, 0x63, 0xe8, 0x3c, 0xd7, 0x39,
    0x86, 0xbd, 0x2c, 0x59, 0x54, 0xbe, 0x10, 0xbe, 0xc3, 0x3c,
    0xb5, 0x63, 0x3b, 0xbe, 0xd5, 0x74, 0x4e, 0x3e, 0x5b, 0x17,
    0x4e, 0x3d, 0x00, 0xb0, 0xd1, 0xbc, 0xb3, 0x39, 0xbb, 0xbe,
    0xbb, 0xff, 0x1a, 0x3e, 0x93, 0xed, 0x46, 0x3e, 0x6a, 0xfd,
    0xa8, 0xbd, 0xa9, 0x0e, 0x59, 0xbe, 0xfd, 0x8b, 0xd2, 0xbe,
    0x2e, 0xf7, 0xe0, 0x3c, 0x79, 0x01, 0x9c, 0x3e, 0xbd, 0x29,
    0x94, 0xbe, 0xd9, 0x67, 0x8a, 0xbb, 0x38, 0xa8, 0xb1, 0xbe,
    0xb0, 0xa7, 0xb0, 0xbd, 0x66, 0x13, 0x52, 0xbd, 0x96, 0x61,
    0x58, 0xbe, 0x1d, 0x1d, 0x78, 0x3d, 0xbf, 0x96, 0x99, 0x3d,
    0x1d, 0x7c, 0x7d, 0xbe, 0xc3, 0x85, 0xb1, 0xbd, 0xce, 0x9c,
    0x6d, 0xbe, 0x2c, 0xc4, 0x74, 0xbe, 0x91, 0xbf, 0x92, 0x3e,
    0xa1, 0xfe, 0x2f, 0xbd, 0x62, 0x4d, 0x26, 0xbd, 0x1b, 0x94,
    0x7b, 0xbc, 0xa1, 0x1e, 0x49, 0xbd, 0xb5, 0xd8, 0xde, 0xbc,
    0x22, 0xc5, 0x05, 0x3e, 0xc2, 0x73, 0x91, 0x3e, 0x82, 0x23,
    0x89, 0xbd, 0xc0, 0x92, 0xc2, 0xbb, 0xcd, 0x68, 0x01, 0xbd,
    0x7e, 0xb2, 0xfd, 0x3c, 0xf1, 0xeb, 0x74, 0xbd, 0x05, 0xe9,
    0xa4, 0xbd, 0xb5, 0x91, 0x9f, 0x3e, 0x5e, 0x73, 0x59, 0xbc,
    0xc2, 0x6c, 0xbd, 0xbe, 0xed, 0x75, 0xa0, 0xbe, 0x87, 0x49,
    0xb8, 0x3e, 0x91, 0x1e, 0xc0, 0x3d, 0x19, 0xc5, 0x93, 0x3c,
    0x18, 0x3c, 0x9c, 0xbd, 0x1d, 0xc3, 0xa0, 0xbe, 0xab, 0x44,
    0x42, 0x3e, 0x1a, 0xf3, 0x54, 0xbe, 0x4d, 0x53, 0x9b, 0x3e,
    0x63, 0x75, 0x32, 0xbd, 0xb6, 0x54, 0xed, 0xbd, 0x78, 0x51,
    0xfe, 0xbd, 0x33, 0x4c, 0x68, 0x3e, 0xea, 0x2a, 0xe7, 0xbb,
    0xc2, 0x3b, 0xfd, 0x3d, 0xd9, 0xae, 0x0c, 0x3f, 0x7c, 0x96,
    0xb9, 0xbe, 0x91, 0xfc, 0x7b, 0xbd, 0xd4, 0x1d, 0xc4, 0xbd,
    0x16, 0x53, 0x0c, 0x3f, 0xba, 0xbb, 0x16, 0x3e, 0x3a, 0x47,
    0xd1, 0x3e, 0x76, 0x74, 0x47, 0xbe, 0xd2, 0x8e, 0x5d, 0x3d,
    0x2e, 0x24, 0x07, 0x3d, 0xd3, 0xbf, 0x4e, 0xbe, 0x47, 0x8b,
    0xe6, 0xbd, 0x68, 0xa0, 0xa6, 0x3d, 0xa2, 0x5a, 0x0d, 0x3b,
    0xe4, 0x36, 0x6a, 0x3d, 0x4e, 0xdc, 0xd5, 0x3c, 0xa8, 0x94,
    0xeb, 0x3d, 0x82, 0xa4, 0x2b, 0x3e, 0x2f, 0x66, 0xf3, 0x3d,
    0x06, 0xfd, 0xe7, 0xbd, 0x5d, 0x12, 0x99, 0x3e, 0xaf, 0x53,
    0x80, 0x3d, 0xac, 0xec, 0xe2, 0xbe, 0xfb, 0x61, 0x44, 0xbd,
    0xad, 0x74, 0x81, 0xbe, 0xcb, 0xc3, 0x52, 0xbe, 0xae, 0x9b,
    0x8b, 0x3b, 0x4e, 0x5e, 0x5d, 0x3c, 0x74, 0xd1, 0x94, 0x3b,
    0x22, 0x64, 0x6e, 0xbe, 0x48, 0xc5, 0xa8, 0x3e, 0x55, 0x62,
    0x98, 0xbe, 0xa3, 0x83, 0xc1, 0x3e, 0x32, 0xe7, 0x63, 0x3e,
    0xe1, 0x14, 0x31, 0x3e, 0x61, 0xcc, 0x8a, 0xbd, 0xdc, 0x6d,
    0xff, 0xbd, 0xf9, 0xc4, 0x45, 0xbe, 0x6f, 0x67, 0xa4, 0x3e,
    0xd9, 0x5d, 0x8d, 0x3e, 0x8f, 0x8f, 0x34, 0xbc, 0x4a, 0x9f,
    0x21, 0x3e, 0x2b, 0xbd, 0x89, 0xbd, 0xa3, 0x2c, 0xc8, 0xbb,
    0x94, 0x6e, 0x2d, 0xbe, 0xd4, 0xe3, 0x55, 0x3e, 0xa6, 0xd5,
    0x5e, 0xbe, 0x21, 0xcd, 0x62, 0x3e, 0xe1, 0xce, 0x4e, 0x3e,
    0x0b, 0xc9, 0x2b, 0x3e, 0xbe, 0x70, 0x69, 0x3e, 0x33, 0x0a,
    0x30, 0xbe, 0x05, 0x92, 0x77, 0xbc, 0x69, 0x7c, 0x41, 0xbe,
    0xf0, 0x20, 0x4e, 0xbe, 0xe9, 0xb6, 0x31, 0xbe, 0x78, 0x3a,
    0x8f, 0x3e, 0xb6, 0xa2, 0xa7, 0xbe, 0xf1, 0x76, 0xc2, 0xbd,
    0x94, 0x55, 0xa1, 0x3d, 0x5f, 0xfb, 0xaf, 0x3e, 0x54, 0x23,
    0x35, 0xbe, 0x55, 0xc8, 0x1e, 0x3e, 0xbc, 0xed, 0x15, 0xbe,
    0x15, 0x8f, 0x76, 0xbd, 0x06, 0x65, 0x9e, 0xbd, 0x65, 0x22,
    0xbc, 0xbd, 0x25, 0x72, 0xa7, 0xbe, 0x7d, 0xa2, 0x0e, 0xbe,
    0x54, 0xfc, 0xcd, 0xbe, 0xe7, 0x4e, 0x07, 0x3d, 0x2f, 0x19,
    0x08, 0xbe, 0x7f, 0x7a, 0xb7, 0x3d, 0x0b, 0x9e, 0x4f, 0x3d,
    0xa5, 0xa8, 0x5e, 0xbe, 0x61, 0x64, 0x83, 0x3e, 0xf3, 0x47,
    0x20, 0xbe, 0xf8, 0x18, 0x4b, 0x3d, 0x32, 0xc3, 0x2b, 0x3d,
    0xc5, 0x5b, 0xb2, 0x3e, 0xe2, 0x0e, 0xaf, 0x3e, 0x5f, 0xcb,
    0xe9, 0x3d, 0xfa, 0x2d, 0xed, 0x3d, 0x3d, 0x52, 0xa7, 0x3e,
    0xed, 0xc0, 0x7e, 0x3e, 0x25, 0x21, 0x19, 0xbd, 0x5a, 0x4b,
    0xae, 0x3d, 0xf7, 0xc2, 0x73, 0xbe, 0xd1, 0xe0, 0xd6, 0x3e,
    0xca, 0x3c, 0xaa, 0x3d, 0x67, 0x1d, 0x91, 0x3e, 0xdd, 0xd8,
    0x0f, 0x3e, 0x93, 0x52, 0x4c, 0x3e, 0x52, 0x1e, 0xbc, 0xbe,
    0xc6, 0x90, 0x1e, 0xbe, 0x7c, 0x34, 0x4c, 0xbe, 0x40, 0x43,
    0x22, 0x3d, 0x93, 0x67, 0x61, 0x3e, 0xf5, 0x57, 0x67, 0x3e,
    0x45, 0xf9, 0x96, 0xbe, 0x7e, 0x2e, 0x2b, 0xbd, 0x51, 0x81,
    0x87, 0x3e, 0xed, 0xa1, 0x5e, 0x3e, 0xa8, 0x74, 0x98, 0x3c,
    0x77, 0x0d, 0xf1, 0x3e, 0x31, 0x0a, 0x68, 0xbe, 0x15, 0xba,
    0xc2, 0x3d, 0x02, 0xd1, 0x93, 0xbe, 0x54, 0xb0, 0xae, 0x3e,
    0x14, 0x85, 0xf0, 0x3c, 0xfc, 0x8d, 0xbd, 0xbd, 0xd4, 0xb5,
    0xa3, 0xbd, 0x92, 0x7c, 0xe7, 0x3a, 0x32, 0x61, 0x31, 0x3e,
    0xb6, 0x9a, 0xef, 0x3d, 0x69, 0x14, 0x36, 0x3e, 0x20, 0x9e,
    0x98, 0xbe, 0x0d, 0xb3, 0xdf, 0xbc, 0x19, 0x12, 0x80, 0x3b,
    0x88, 0x08, 0x6d, 0xbd, 0xd9, 0xf5, 0x70, 0x3d, 0x38, 0x47,
    0xa7, 0xbd, 0x33, 0x93, 0xaf, 0xbd, 0x0a, 0x0d, 0x6b, 0x3e,
    0x98, 0xb0, 0xc1, 0xbd, 0x63, 0x98, 0xa3, 0xbe, 0x91, 0x5a,
    0x0d, 0x3e, 0xbe, 0xbb, 0x00, 0x3f, 0x60, 0x2f, 0xfc, 0xbd,
    0x25, 0xae, 0x6c, 0xbe, 0x12, 0x4c, 0x4d, 0xbe, 0x90, 0xf8,
    0x1a, 0xbe, 0xef, 0x41, 0x7d, 0x3d, 0xa4, 0x98, 0x0a, 0x3e,
    0x0d, 0x85, 0x57, 0x3d, 0x52, 0x35, 0x05, 0xbd, 0x37, 0x86,
    0x19, 0xbe, 0x74, 0x09, 0x65, 0x3b, 0xb1, 0xbd, 0x78, 0x3e,
    0x87, 0x33, 0x79, 0xbe, 0xbf, 0xf1, 0x1d, 0xbe, 0x76, 0x30,
    0x35, 0xbe, 0x87, 0x2a, 0x79, 0x3d, 0xd5, 0x36, 0x32, 0x3e,
    0xa5, 0xdc, 0x47, 0xbe, 0x2f, 0xab, 0xc9, 0x3e, 0xf2, 0x37,
    0x7a, 0xbe, 0x85, 0xba, 0x4e, 0xbe, 0xb9, 0x2f, 0x0a, 0xbe,
    0x15, 0x61, 0x4a, 0x3e, 0xb2, 0x02, 0x12, 0x3e, 0xd1, 0x3e,
    0x8e, 0x3d, 0x67, 0x16, 0x90, 0x3e, 0x67, 0x4b, 0x82, 0xbe,
    0x93, 0xa7, 0x05, 0xbd, 0x2e, 0x76, 0x0e, 0xbe, 0x25, 0xb8,
    0x23, 0x3e, 0xe7, 0x75, 0x70, 0xbe, 0xa1, 0xee, 0x53, 0xbd,
    0x09, 0x21, 0xf9, 0xbd, 0x25, 0x18, 0xa2, 0xbe, 0x4a, 0x3e,
    0x10, 0x3e, 0x80, 0x4b, 0x93, 0xbe, 0x06, 0x89, 0xbd, 0x3e,
    0x69, 0xe6, 0x71, 0xbe, 0xf0, 0x77, 0x92, 0xbd, 0xc6, 0x0f,
    0x7f, 0xbd, 0xa9, 0xcc, 0xfd, 0xbd, 0x9b, 0xdc, 0x5d, 0xbe,
    0x1d, 0x49, 0x94, 0xbd, 0x42, 0xaf, 0xbc, 0xbd, 0x63, 0xed,
    0x63, 0xbe, 0xa4, 0xf0, 0xdd, 0x3d, 0x8b, 0x98, 0x0b, 0x3d,
    0x8b, 0x9a, 0x98, 0x3e, 0xf6, 0x11, 0xbd, 0x3e, 0x12, 0xa1,
    0xeb, 0xbe, 0x98, 0x32, 0x35, 0x3e, 0xb3, 0xf9, 0x94, 0x3e,
    0xff, 0x53, 0xb1, 0x3e, 0xfe, 0x86, 0x00, 0x3e, 0xd7, 0x8a,
    0x88, 0xbe, 0xf9, 0x9a, 0x8e, 0xbe, 0x7e, 0x92, 0x18, 0x3d,
    0x32, 0x4e, 0xa1, 0x3e, 0x7e, 0x98, 0xc6, 0x3d, 0x13, 0xe4,
    0xc0, 0x3a, 0x5d, 0x09, 0xf7, 0x3d, 0x00, 0x55, 0x04, 0xbe,
    0x6b, 0x94, 0xda, 0xbd, 0x28, 0x7d, 0x7f, 0x3e, 0x39, 0xd2,
    0xb6, 0xbe, 0x0b, 0x91, 0x83, 0x3e, 0xe3, 0x9c, 0x7a, 0x3e,
    0x97, 0x64, 0x71, 0x3c, 0xfb, 0x49, 0xab, 0xbe, 0x74, 0xc7,
    0x7e, 0xbe, 0xf9, 0x2e, 0x4f, 0x3e, 0x9f, 0xe4, 0x70, 0x3e,
    0x70, 0xac, 0x74, 0x3e, 0x16, 0xd4, 0xc7, 0x3e, 0x14, 0x69,
    0xb6, 0x3d, 0x11, 0xb5, 0x92, 0x3c, 0xe0, 0x42, 0x1c, 0xbc,
    0xc8, 0x07, 0xa3, 0x3e, 0x19, 0xae, 0xbf, 0xbe, 0xd1, 0xa1,
    0x52, 0xbe, 0x92, 0xf0, 0x23, 0x3e, 0xea, 0x29, 0x73, 0x3d,
    0x38, 0x3c, 0x78, 0x3d, 0x4a, 0x09, 0xec, 0x3c, 0xce, 0xb2,
    0xe8, 0x3d, 0x86, 0x55, 0xa1, 0x3c, 0x5d, 0xb5, 0xb8, 0xbc,
    0x62, 0x58, 0x39, 0xbe, 0x0a, 0x4f, 0xdf, 0x3d, 0xed, 0xaf,
    0x3a, 0x3e, 0xb3, 0xab, 0x52, 0xbe, 0x11, 0x36, 0xfa, 0x3d,
    0xc2, 0xaa, 0x12, 0xbe, 0xd8, 0xce, 0xea, 0x3d, 0xa1, 0x9e,
    0x3d, 0xbe, 0xa8, 0xbf, 0x58, 0xbe, 0xfc, 0xbd, 0x9c, 0x3c,
    0x38, 0x97, 0x45, 0x3e, 0x81, 0x88, 0x16, 0x3e, 0xb9, 0x49,
    0x10, 0x3e, 0x83, 0xeb, 0x41, 0x3d, 0x0b, 0xc2, 0x18, 0xbd,
    0x59, 0xa4, 0x20, 0xbd, 0x92, 0x1f, 0x76, 0xbe, 0xf3, 0x27,
    0x5e, 0xbe, 0xec, 0xf7, 0x5b, 0x3e, 0x78, 0x68, 0x15, 0xbe,
    0x6f, 0x4d, 0x0e, 0xbe, 0x4a, 0xdf, 0xd7, 0x3d, 0xa6, 0x22,
    0x61, 0x3e, 0xcf, 0x74, 0xa6, 0x3d, 0x4e, 0xa8, 0x76, 0x3e,
    0xe1, 0x18, 0x98, 0x3e, 0xb8, 0xfc, 0x66, 0xbd, 0x6c, 0x3c,
    0x97, 0x3e, 0x46, 0xf6, 0x82, 0xbe, 0x08, 0x34, 0xa8, 0x3e,
    0x2e, 0xdf, 0x00, 0xbe, 0x96, 0x1b, 0x07, 0xbc, 0x19, 0x78,
    0xdb, 0xbe, 0x78, 0x54, 0x22, 0x3e, 0x1b, 0xc4, 0x75, 0x3e,
    0x8b, 0x3a, 0x48, 0x3e, 0x99, 0xf0, 0xf2, 0x3d, 0x09, 0x47,
    0xf3, 0x3e, 0x74, 0x23, 0xb4, 0x3d, 0x68, 0x32, 0xb3, 0x3c,
    0x1a, 0x29, 0xc6, 0x3d, 0x3a, 0xd4, 0x80, 0x3e, 0xe8, 0xd4,
    0xb7, 0x3e, 0x7f, 0x64, 0x8a, 0xbd, 0xd6, 0xdc, 0xa5, 0x3d,
    0xf3, 0x7a, 0x21, 0x3e, 0xf2, 0x70, 0xd3, 0xbd, 0x24, 0x81,
    0xa7, 0xbd, 0x31, 0x2a, 0xc3, 0x3d, 0x2a, 0xd5, 0x38, 0xbe,
    0xf7, 0xb1, 0x40, 0x3e, 0x47, 0xc0, 0x8d, 0xbe, 0x2c, 0x68,
    0x19, 0xbe, 0xfe, 0x2d, 0x10, 0xbe, 0x35, 0xb7, 0xc7, 0xbd,
    0x5d, 0xdb, 0xe8, 0xbd, 0x82, 0x5a, 0x40, 0x3e, 0x2e, 0xd8,
    0x82, 0xbe, 0x88, 0x96, 0x1b, 0xbd, 0x45, 0x8f, 0x33, 0x3e,
    0x9f, 0x62, 0x26, 0x3d, 0xac, 0xa2, 0xfa, 0x3d, 0x83, 0x9e,
    0x50, 0xbe, 0x6a, 0x39, 0x88, 0xbe, 0xe5, 0xfe, 0x89, 0xbe,
    0x1b, 0xc9, 0x47, 0x3e, 0xdf, 0xf4, 0xc0, 0xbd, 0x9e, 0xd8,
    0xc7, 0x3d, 0x38, 0xb1, 0x62, 0x3e, 0xd1, 0xd5, 0x13, 0x3d,
    0x0a, 0x39, 0x51, 0x3e, 0x64, 0x5f, 0xca, 0xbc, 0x54, 0xd2,
    0x8a, 0x3d, 0x11, 0x0e, 0xa0, 0xbe, 0x6e, 0xfb, 0xb7, 0xbd,
    0xcf, 0x92, 0xe9, 0xbd, 0x74, 0x53, 0xf2, 0x3d, 0x44, 0x0d,
    0x46, 0xbe, 0x18, 0xef, 0x82, 0x3e, 0x6d, 0xed, 0x1b, 0xbe,
    0x40, 0x3a, 0x6a, 0xbe, 0x6b, 0x05, 0xd7, 0x3d, 0x4f, 0x00,
    0xaa, 0x3d, 0x3a, 0x30, 0x02, 0x3e, 0x30, 0xc9, 0x62, 0x3c,
    0x7b, 0x2f, 0x6d, 0xbe, 0xed, 0x32, 0xe1, 0x3d, 0x57, 0x4c,
    0x43, 0x3e, 0xdd, 0xb5, 0xd8, 0xbc, 0x50, 0x31, 0x49, 0x3e,
    0x90, 0x53, 0x29, 0xbe, 0xd5, 0x44, 0x42, 0xbd, 0xdf, 0x57,
    0xe1, 0x3b, 0x8e, 0x62, 0x75, 0x3e, 0xb1, 0x0b, 0xc6, 0xbd,
    0xc0, 0x86, 0x7b, 0xbe, 0x11, 0xe5, 0x23, 0xbe, 0x43, 0xaf,
    0x0c, 0x3d, 0x25, 0x2e, 0x54, 0x3e, 0x1d, 0x94, 0x8b, 0xbd,
    0x21, 0x20, 0x40, 0xbe, 0xab, 0xf0, 0x2c, 0xbc, 0x80, 0xca,
    0xd0, 0xbd, 0x36, 0x38, 0x9d, 0xbd, 0x38, 0x0a, 0xe3, 0x3d,
    0xdd, 0x0b, 0x94, 0x3e, 0x18, 0x55, 0x44, 0x3e, 0x01, 0x6a,
    0x5b, 0x3e, 0xd1, 0xa0, 0x58, 0x3c, 0xb3, 0x4d, 0x9a, 0xbe,
    0x42, 0xfc, 0xf9, 0x3c, 0x85, 0x78, 0x09, 0x3e, 0x38, 0xeb,
    0xaa, 0xbe, 0xaa, 0x8d, 0x82, 0xbe, 0x26, 0x55, 0x9b, 0x3d,
    0x72, 0xe6, 0x28, 0xbd, 0x60, 0x8c, 0xe1, 0xbe, 0xcd, 0x00,
    0x74, 0x3e, 0xdf, 0x1d, 0xa8, 0x3d, 0x3c, 0x58, 0x0a, 0xbe,
    0x6f, 0x1f, 0x7a, 0x3e, 0x37, 0x1f, 0xcd, 0x3d, 0x56, 0x5d,
    0xa2, 0xbd, 0x54, 0x93, 0xbc, 0x3c, 0x6b, 0x69, 0x0b, 0x3e,
    0xb2, 0x4d, 0x14, 0x3e, 0x4d, 0x91, 0x93, 0x39, 0xc3, 0xbe,
    0xa8, 0xbe, 0x1d, 0x83, 0x9c, 0x3e, 0xb0, 0x1e, 0xae, 0xbb,
    0x1c, 0x8a, 0x4b, 0x3c, 0x60, 0x93, 0xbf, 0x3d, 0xe8, 0x59,
    0x8d, 0xbe, 0x0c, 0x94, 0x36, 0x3e, 0x73, 0xb2, 0x25, 0xbe,
    0xab, 0x80, 0x05, 0x3e, 0x85, 0x80, 0x5a, 0xbe, 0xb0, 0xef,
    0xf5, 0xbd, 0x8b, 0x41, 0xf5, 0xbc, 0x02, 0x4f, 0xb3, 0x3d,
    0x7b, 0xfb, 0xc5, 0x3c, 0xbd, 0x25, 0x32, 0xbe, 0x60, 0xa0,
    0x6e, 0xbe, 0x42, 0x58, 0x85, 0x3e, 0x69, 0x2e, 0xa0, 0xbe,
    0xf8, 0x28, 0x14, 0x3e, 0x4e, 0x35, 0x9a, 0x3e, 0x78, 0xf7,
    0x58, 0x3d, 0x2c, 0x08, 0xca, 0xbe, 0x1d, 0xd0, 0xdf, 0xbe,
    0xc7, 0x5d, 0xaa, 0x3d, 0x1c, 0x2a, 0x9f, 0x3d, 0x20, 0x96,
    0x3e, 0x3c, 0xab, 0x5a, 0x47, 0xbe, 0xeb, 0x86, 0xe8, 0x3d,
    0x59, 0xe3, 0x13, 0x3d, 0x71, 0xc0, 0x01, 0xbd, 0xbb, 0xb5,
    0xed, 0xbd, 0xcc, 0x34, 0x22, 0xbe, 0xf6, 0x34, 0x13, 0xbe,
    0xbf, 0x40, 0xbc, 0xbd, 0x93, 0xec, 0x26, 0xbe, 0x7c, 0x6b,
    0x86, 0xbe, 0x38, 0x22, 0x82, 0xbc, 0x9d, 0x8a, 0x87, 0x3e,
    0xc8, 0xbf, 0x1b, 0xbd, 0x2d, 0x61, 0x50, 0x3d, 0xfa, 0x99,
    0x72, 0x3e, 0x0a, 0x22, 0x0c, 0x3d, 0x68, 0x35, 0xa6, 0x3d,
    0x93, 0xf9, 0x2b, 0x3e, 0x12, 0xa3, 0x78, 0x3e, 0x05, 0xfc,
    0x9d, 0x3e, 0x6b, 0x3c, 0xfe, 0x3c, 0xd5, 0x51, 0x02, 0x3e,
    0x9a, 0x8d, 0xd7, 0xbd, 0x1f, 0x72, 0x98, 0xbe, 0x1d, 0x7a,
    0x82, 0xbd, 0x6f, 0xf2, 0xca, 0xbb, 0x86, 0x04, 0x3a, 0x3e,
    0x5b, 0x28, 0x08, 0xbe, 0xf6, 0x41, 0xa3, 0x3e, 0xe6, 0x3f,
    0x49, 0xbe, 0x82, 0x9c, 0x36, 0xbe, 0xd1, 0xcd, 0x7a, 0xbd,
    0xe5, 0xc2, 0x33, 0x3d, 0xd7, 0x44, 0x1c, 0x3e, 0xbd, 0xb6,
    0x5a, 0x3e, 0x81, 0xc7, 0xf4, 0xbd, 0xe0, 0x26, 0x08, 0x3d,
    0x1b, 0x44, 0x3e, 0xbd, 0x85, 0x86, 0x2d, 0xbd, 0x5a, 0x33,
    0xf5, 0x3c, 0x2f, 0x6b, 0x30, 0x3d, 0x57, 0x86, 0xa9, 0xbc,
    0x22, 0x9c, 0xed, 0x3d, 0x98, 0x87, 0x2b, 0x3c, 0xc1, 0x6a,
    0x0f, 0xbd, 0x04, 0xd2, 0x82, 0x3d, 0x65, 0xcc, 0xdd, 0x3b,
    0xc0, 0x17, 0x2b, 0xbe, 0xa4, 0x9d, 0x05, 0x3e, 0x57, 0x3a,
    0xa9, 0xbe, 0x41, 0x44, 0x5b, 0xbd, 0xc5, 0x7c, 0x79, 0x3d,
    0xb4, 0x80, 0x8c, 0x3d, 0x40, 0x70, 0xc5, 0xbd, 0xe2, 0x13,
    0xce, 0xbc, 0x02, 0x6b, 0xdc, 0x3d, 0x22, 0x0d, 0xb4, 0xbd,
    0x3e, 0xa4, 0xb5, 0x3e, 0xe6, 0x3b, 0x80, 0x3e, 0x87, 0xeb,
    0x08, 0x3d, 0x55, 0x1a, 0x7a, 0xbe, 0xf7, 0x31, 0x1e, 0xbe,
    0x0b, 0x44, 0x4c, 0xbe, 0x6c, 0xf1, 0x13, 0x3e, 0xca, 0x7f,
    0x13, 0xbd, 0x27, 0xf1, 0x84, 0xba, 0x18, 0x4d, 0xf3, 0x3d,
    0x35, 0xdd, 0x28, 0xbe, 0xd6, 0xbe, 0xa4, 0xbe, 0x44, 0xe8,
    0xbf, 0x3e, 0x58, 0x3f, 0x02, 0x3e, 0xbe, 0x93, 0x12, 0xbe,
    0x3f, 0x5d, 0x53, 0xbc, 0xe0, 0x3f, 0x2f, 0x3e, 0x94, 0xea,
    0x6f, 0x3e, 0x78, 0x96, 0x4f, 0xbe, 0x4a, 0x6b, 0x80, 0x3e,
    0x92, 0xda, 0x9e, 0x3e, 0x2a, 0xe1, 0x5f, 0xbd, 0xdf, 0xeb,
    0xf7, 0x3d, 0xd1, 0x07, 0x00, 0xbe, 0x3d, 0x7e, 0x89, 0xbd,
    0x2e, 0xc2, 0x0f, 0xbe, 0x36, 0xc5, 0x88, 0xbe, 0x13, 0x6a,
    0x00, 0x3d, 0xae, 0xb4, 0x70, 0xbe, 0x2f, 0xd2, 0x38, 0x3e,
    0x24, 0xc5, 0xf0, 0xbd, 0xf4, 0x3c, 0x4b, 0xbe, 0x1d, 0x1b,
    0x21, 0xbd, 0x7f, 0x68, 0xb0, 0x3d, 0xe7, 0x1c, 0x48, 0x3e,
    0x98, 0x0c, 0x0b, 0xbe, 0x6b, 0xf4, 0x50, 0xbe, 0xdd, 0x46,
    0xab, 0xbd, 0x72, 0x0e, 0x5d, 0xbd, 0x3a, 0xa0, 0x8a, 0x3e,
    0xd6, 0x69, 0x69, 0xbc, 0x7b, 0xf5, 0x25, 0xbe, 0x56, 0xf9,
    0x5d, 0x3d, 0x44, 0x18, 0xa0, 0xbe, 0x42, 0xc5, 0x02, 0x3d,
    0x4b, 0xcf, 0x7e, 0x3e, 0x5d, 0xf9, 0xc7, 0x3d, 0xcb, 0x3a,
    0xbf, 0xbd, 0x90, 0x85, 0x34, 0xbd, 0x97, 0x1e, 0x9f, 0xbe,
    0xfb, 0x0d, 0x82, 0x3e, 0x4d, 0x75, 0x1b, 0x3e, 0x6d, 0xf6,
    0xbb, 0xbc, 0x7a, 0x78, 0x08, 0xbe, 0xf7, 0x6d, 0x0a, 0xbe,
    0x94, 0xe0, 0xcc, 0x3c, 0x14, 0xe4, 0xb5, 0xbd, 0xfc, 0xa9,
    0x5a, 0x3e, 0x4a, 0x42, 0xcd, 0xbc, 0xbc, 0x38, 0x31, 0x3e,
    0x50, 0x4b, 0x81, 0xbd, 0x5c, 0xb2, 0x9b, 0xbe, 0xb2, 0x3a,
    0x96, 0xbd, 0xfc, 0x95, 0xad, 0x3d, 0x44, 0xf1, 0x06, 0x3e,
    0x08, 0xf3, 0x81, 0x3e, 0x18, 0xff, 0x0c, 0x3e, 0xb4, 0x48,
    0x9a, 0x3d, 0x61, 0xa0, 0x2b, 0x3e, 0x5b, 0x08, 0xcc, 0x3c,
    0xd7, 0xda, 0xa2, 0x3e, 0x95, 0xd1, 0xa1, 0xbe, 0x2f, 0x88,
    0x14, 0xbd, 0xde, 0x23, 0xdf, 0x3d, 0xbf, 0x0b, 0x14, 0x3d,
    0x54, 0x3d, 0xf4, 0x3d, 0x6b, 0x71, 0x66, 0xbe, 0x09, 0x3d,
    0x0c, 0xbe, 0x01, 0x7d, 0xd1, 0xbd, 0xae, 0x69, 0x7f, 0xbb,
    0x89, 0x54, 0xc3, 0x3c, 0x48, 0xc1, 0x48, 0x3e, 0xca, 0x72,
    0xb0, 0xbd, 0xe9, 0x1f, 0x85, 0x3e, 0x10, 0xcd, 0xae, 0x3e,
    0x01, 0xd3, 0xdb, 0x3d, 0x30, 0xbe, 0xca, 0xbc, 0xec, 0xbc,
    0x79, 0xbd, 0x7a, 0xce, 0x30, 0x3d, 0x34, 0x6b, 0xfe, 0x3c,
    0x46, 0x24, 0xaf, 0x3b, 0xfc, 0xaf, 0xa7, 0xbd, 0x60, 0xdc,
    0x96, 0xbd, 0x9d, 0x33, 0x8f, 0x3e, 0x18, 0x7b, 0x65, 0xba,
    0xd5, 0x9f, 0xc6, 0xbc, 0xdc, 0xbc, 0x55, 0xbe, 0x30, 0xa8,
    0x74, 0x3d, 0x5e, 0x25, 0x76, 0x3e, 0xa8, 0xf7, 0x71, 0xbc,
    0x21, 0xe3, 0x33, 0x3e, 0x41, 0xc2, 0xf5, 0xbd, 0x04, 0xd3,
    0x01, 0x3e, 0x49, 0xd3, 0x7d, 0xbe, 0x6e, 0x9d, 0xba, 0x3d,
    0x5c, 0xdd, 0x96, 0x3e, 0x52, 0x10, 0x56, 0xbd, 0xba, 0x0d,
    0x97, 0x3d, 0x9c, 0x67, 0xb6, 0xbc, 0x62, 0x74, 0xcf, 0xbc,
    0x29, 0x2a, 0x84, 0xbe, 0xe1, 0x3b, 0x41, 0x3e, 0xd3, 0xbd,
    0xf5, 0x3d, 0xfd, 0xe4, 0x12, 0xbe, 0x6e, 0xc1, 0x38, 0x3e,
    0x2e, 0xfd, 0x93, 0xbe, 0x39, 0x24, 0x62, 0x3e, 0x20, 0xd2,
    0x99, 0x3d, 0xdf, 0xff, 0x68, 0x3d, 0xc5, 0x2e, 0x4d, 0xbe,
    0x99, 0x3c, 0x02, 0xbb, 0x0e, 0xa6, 0x67, 0xbc, 0xa7, 0x2b,
    0x2a, 0x3d, 0x6a, 0x99, 0x98, 0x3e, 0xe7, 0x56, 0xa0, 0xbd,
    0x0d, 0x25, 0x6b, 0x3e, 0x8c, 0x03, 0x1f, 0x3d, 0x29, 0xf8,
    0x64, 0xbe, 0x59, 0x24, 0xdf, 0xbb, 0x3d, 0x1c, 0x86, 0xbc,
    0x46, 0x58, 0x23, 0xbe, 0x0f, 0x12, 0x19, 0xbe, 0x23, 0x32,
    0x30, 0xbe, 0xc8, 0xdc, 0x38, 0xbc, 0x5c, 0xdd, 0x24, 0xbe,
    0x16, 0xc4, 0xb3, 0x3e, 0xd1, 0x82, 0x06, 0x3e, 0xf8, 0xf9,
    0x1c, 0x3e, 0x02, 0xe6, 0x2f, 0x3d, 0xfd, 0x09, 0x84, 0x3e,
    0x8b, 0x9f, 0xd0, 0x3e, 0xf4, 0x63, 0x4a, 0x3e, 0x61, 0x19,
    0x36, 0xbe, 0xa4, 0x1a, 0x9b, 0xbe, 0x3d, 0x58, 0x32, 0xbe,
    0xf1, 0x5b, 0x41, 0xbe, 0xa9, 0x0c, 0xaa, 0xbd, 0x2d, 0x11,
    0x79, 0xbe, 0x52, 0xfd, 0x59, 0xbe, 0x9f, 0x36, 0x30, 0xbe,
    0x6e, 0xcd, 0x9f, 0x3d, 0x7b, 0x17, 0x89, 0x3d, 0xa8, 0x84,
    0x6e, 0xbd, 0x7c, 0x4e, 0x3e, 0xbd, 0xc5, 0xe4, 0x04, 0xba,
    0xcc, 0x1c, 0x83, 0xbe, 0x0c, 0xcc, 0xfa, 0xbd, 0x96, 0x46,
    0xc8, 0x3b, 0x3d, 0x11, 0xbe, 0xbe, 0xec, 0xba, 0x9d, 0x3e,
    0x90, 0x4c, 0x95, 0xbd, 0x6e, 0x28, 0x6d, 0x3d, 0x03, 0xd6,
    0x99, 0x3e, 0x39, 0x1f, 0x05, 0xbe, 0xf5, 0x9f, 0x17, 0xbe,
    0xdd, 0x1f, 0x29, 0xbe, 0x3a, 0x5d, 0x9a, 0xbc, 0xe4, 0x9f,
    0x16, 0xbe, 0x8f, 0x46, 0x26, 0xbd, 0x08, 0xac, 0xa8, 0x3d,
    0xc2, 0xb3, 0xb2, 0xbc, 0x84, 0x93, 0xb7, 0x3e, 0xbd, 0xd1,
    0x49, 0x3e, 0xb2, 0x5e, 0x5b, 0x3d, 0xe1, 0x96, 0xd5, 0xbd,
    0xdf, 0xd0, 0x9b, 0x3d, 0x59, 0x09, 0xce, 0x3d, 0xc3, 0xb6,
    0xe5, 0xbe, 0x89, 0x5e, 0xc6, 0x3c, 0xd1, 0xd9, 0xc6, 0x3c,
    0x02, 0x43, 0x3b, 0x3d, 0x05, 0x12, 0x6c, 0x3d, 0x22, 0xb9,
    0x46, 0x3e, 0xe8, 0x13, 0x1c, 0xbd, 0x27, 0xf4, 0xb2, 0x3d,
    0x39, 0x20, 0xe8, 0xbc, 0xf5, 0xd5, 0xe1, 0x3d, 0x8d, 0xe8,
    0xb2, 0x3d, 0x66, 0xa3, 0x6c, 0xbd, 0xf9, 0xc2, 0x26, 0x3d,
    0x24, 0x4a, 0x59, 0x3d, 0xd6, 0xb9, 0x60, 0x3d, 0x33, 0x7b,
    0x1c, 0xbe, 0x2a, 0x43, 0xb0, 0xbe, 0xe6, 0x1e, 0xd0, 0x3d,
    0xe8, 0x85, 0x71, 0xbd, 0x88, 0x33, 0xbd, 0xbc, 0x7c, 0xfb,
    0xb4, 0xbd, 0xcc, 0x21, 0xe7, 0xbd, 0xe9, 0x61, 0xd7, 0x3d,
    0xa1, 0xe4, 0x1d, 0x3d, 0x48, 0x33, 0xff, 0x3d, 0x49, 0xec,
    0xfa, 0xbd, 0xc4, 0xa7, 0x08, 0x3d, 0x5e, 0x3b, 0xe7, 0xbd,
    0xa3, 0x8a, 0xcd, 0x3e, 0xd1, 0x28, 0x61, 0x3e, 0xc3, 0x09,
    0x18, 0x3d, 0x51, 0x52, 0x18, 0x3e, 0xf5, 0xef, 0xf3, 0xbd,
    0xe7, 0xef, 0x95, 0xbe, 0x76, 0xbe, 0x85, 0xbd, 0xd0, 0xb8,
    0xd7, 0x3e, 0xb5, 0xbd, 0x84, 0x3c, 0x29, 0x50, 0x47, 0x3e,
    0x3d, 0x6c, 0x6d, 0xbe, 0xc4, 0x1d, 0x7a, 0xbe, 0xb5, 0xc7,
    0x71, 0x3e, 0xef, 0xbb, 0x04, 0x3e, 0xb5, 0x43, 0x44, 0x3e,
    0xba, 0x88, 0xa7, 0x3e, 0x6a, 0x47, 0xb9, 0x3c, 0x3e, 0xb6,
    0x93, 0xbd, 0x6a, 0xa8, 0x9a, 0xbd, 0xa8, 0xda, 0xbe, 0x3d,
    0x08, 0xdd, 0xf8, 0x3d, 0x9d, 0x11, 0x59, 0xbe, 0xf8, 0xac,
    0xfc, 0xbd, 0x5a, 0x9a, 0x8d, 0xbd, 0x8f, 0x4a, 0x58, 0x3e,
    0x68, 0x57, 0xad, 0xbe, 0x15, 0x94, 0x0c, 0xbd, 0x37, 0xec,
    0xda, 0x3d, 0xbf, 0x63, 0x9f, 0xbe, 0x1b, 0x98, 0xd9, 0xbe,
    0x70, 0x6a, 0x41, 0x3e, 0x6d, 0xcc, 0x4b, 0xbe, 0x9b, 0xd4,
    0x93, 0xbe, 0xae, 0xe6, 0x96, 0x3e, 0xd2, 0x90, 0xda, 0xbc,
    0x1a, 0xf3, 0x07, 0x3e, 0x6a, 0x67, 0x4d, 0x3e, 0x0f, 0x14,
    0x08, 0xbe, 0x37, 0x9b, 0x2a, 0x3e, 0x05, 0xbe, 0x1d, 0x3e,
    0x07, 0xbb, 0xb4, 0xbd, 0xc8, 0x32, 0x06, 0xbe, 0x91, 0xdc,
    0xe1, 0x3e, 0x3d, 0x8c, 0x24, 0x3d, 0x0d, 0xef, 0x8d, 0x3e,
    0x3a, 0x45, 0xf4, 0x3e, 0x7c, 0xfa, 0x9f, 0xbd, 0xde, 0xcb,
    0x4b, 0xbe, 0x89, 0x7d, 0x84, 0x3d, 0xb8, 0xec, 0x8c, 0x3e,
    0xc8, 0xa8, 0x4e, 0x3c, 0x8a, 0xb2, 0x06, 0x3d, 0x59, 0x5b,
    0xc0, 0xbe, 0xb6, 0x31, 0x5f, 0xbe, 0x62, 0x04, 0x08, 0xbd,
    0x0a, 0x96, 0x1b, 0xbe, 0xda, 0x92, 0xbc, 0xbd, 0xe3, 0x2f,
    0x83, 0xbd, 0x7d, 0x13, 0xbd, 0x3d, 0xcf, 0x0e, 0xdd, 0xbc,
    0x92, 0xe5, 0x4a, 0xbe, 0x0a, 0x84, 0x0f, 0x3e, 0x6d, 0xd9,
    0x90, 0x3d, 0xb2, 0x45, 0xa1, 0xbe, 0x01, 0x33, 0x31, 0x3e,
    0xbe, 0x2f, 0x5d, 0xbe, 0x24, 0x44, 0xb6, 0x3d, 0x73, 0x6f,
    0x88, 0xbc, 0x94, 0xb4, 0x50, 0xbe, 0x54, 0xa7, 0x1a, 0x3e,
    0xea, 0x82, 0x7c, 0xbd, 0xd6, 0xab, 0xea, 0x3c, 0x3f, 0x95,
    0x43, 0xbe, 0x9a, 0x45, 0x9a, 0xbd, 0x7f, 0xaf, 0x01, 0x3d,
    0xa7, 0x13, 0x7a, 0x3d, 0x19, 0x62, 0x9c, 0x3e, 0x86, 0x27,
    0x6a, 0xbe, 0x41, 0xcc, 0x13, 0x3e, 0xa0, 0x46, 0x8e, 0x3e,
    0x68, 0xe4, 0x8e, 0x3d, 0x8e, 0xce, 0x3d, 0x3e, 0xb7, 0xf6,
    0x96, 0xbe, 0xee, 0x0d, 0x0d, 0xbe, 0x5a, 0x31, 0x5c, 0x3d,
    0x92, 0xb8, 0x46, 0xbe, 0x10, 0x12, 0xd2, 0xbd, 0x39, 0xb8,
    0x49, 0x3e, 0x20, 0x96, 0x42, 0xbe, 0xe6, 0x4a, 0xfb, 0x3d,
    0x05, 0xce, 0x9f, 0xbe, 0xd7, 0x07, 0x87, 0xbe, 0x17, 0x00,
    0x2b, 0xbe, 0x61, 0xb3, 0x5e, 0x3e, 0xe8, 0x85, 0xba, 0xbd,
    0x79, 0x07, 0x18, 0xbd, 0x15, 0x30, 0x52, 0x3c, 0x63, 0xb7,
    0x20, 0x3e, 0x7e, 0x2f, 0xa8, 0x3c, 0xfa, 0xf3, 0x5c, 0x3e,
    0x8d, 0xc1, 0x06, 0x3e, 0x6a, 0xd6, 0x20, 0xbd, 0x69, 0x78,
    0xed, 0x3e, 0xab, 0x94, 0xc4, 0x3c, 0x2c, 0xb1, 0x99, 0x3d,
    0xf3, 0xb8, 0x6c, 0x3d, 0x62, 0x85, 0x77, 0x3e, 0x41, 0xed,
    0x81, 0xbb, 0x63, 0x07, 0x20, 0xbd, 0x80, 0xe1, 0xb3, 0x3d,
    0xc7, 0xe3, 0xea, 0xbc, 0xf0, 0xaa, 0x0a, 0x3d, 0xbc, 0xf0,
    0x5b, 0x3e, 0x6e, 0xad, 0x26, 0x3e, 0xd7, 0x41, 0x16, 0x3e,
    0x22, 0xec, 0xc8, 0x3c, 0x63, 0x7b, 0xac, 0xbd, 0xf4, 0x3c,
    0x7f, 0x3e, 0xd1, 0xec, 0x25, 0x3d, 0x0e, 0x6b, 0x15, 0xbd,
    0xa2, 0xc2, 0x21, 0xbe, 0xe1, 0xd4, 0x02, 0x3e, 0x60, 0x46,
    0xfe, 0xbc, 0xbf, 0xdb, 0x0c, 0xbc, 0x9d, 0x62, 0x2f, 0xbe,
    0x2e, 0x5b, 0x8e, 0x3d, 0x56, 0xa4, 0x8e, 0xbe, 0x2e, 0x84,
    0x92, 0xbe, 0x43, 0x22, 0xfc, 0x3d, 0x73, 0x17, 0xdf, 0x3c,
    0xda, 0xf2, 0xab, 0xbd, 0x3d, 0x54, 0xd3, 0x3d, 0xd1, 0x99,
    0x51, 0xbd, 0x54, 0x36, 0x30, 0xbe, 0x84, 0xc5, 0x2d, 0xbd,
    0x72, 0x78, 0x28, 0x3d, 0x32, 0x40, 0x4e, 0x3e, 0xa2, 0x9c,
    0x84, 0x3e, 0x0c, 0xc0, 0xd8, 0x3d, 0x0b, 0xc5, 0xb4, 0xbc,
    0xaf, 0xaf, 0xce, 0xbd, 0x89, 0x84, 0xa3, 0x3e, 0x61, 0x2a,
    0x2e, 0x3c, 0xba, 0x0d, 0xc0, 0x3d, 0x42, 0xa5, 0xd6, 0xbc,
    0xf6, 0x08, 0xe6, 0x3d, 0xcd, 0xc9, 0x11, 0xbe, 0x2e, 0xee,
    0x26, 0xbe, 0x38, 0x66, 0x2b, 0xbd, 0x42, 0x3e, 0x22, 0xbe,
    0xe5, 0x60, 0xb5, 0x3d, 0xf2, 0xdf, 0x2d, 0x3e, 0x8a, 0x7d,
    0x68, 0x3a, 0xae, 0xaf, 0x4b, 0xbe, 0x9f, 0x81, 0xa2, 0xbd,
    0xaa, 0xec, 0xfa, 0x3c, 0x84, 0x30, 0x5f, 0xbe, 0x5f, 0x9e,
    0x3a, 0xbe, 0x70, 0x99, 0x16, 0xbe, 0x84, 0x6f, 0x49, 0x3d,
    0xca, 0xeb, 0x7d, 0x3c, 0xb3, 0x21, 0x0d, 0xbe, 0x0a, 0xc2,
    0x1e, 0x3e, 0x76, 0xe2, 0x92, 0x3e, 0x21, 0x1d, 0x92, 0xbb,
    0x19, 0x7e, 0xc6, 0x3e, 0x9f, 0x59, 0x38, 0x3e, 0xba, 0xc9,
    0x3a, 0x3e, 0x00, 0xc1, 0xe7, 0x3d, 0xb7, 0x47, 0x44, 0x3e,
    0xe4, 0xfe, 0xaa, 0xbe, 0xc7, 0xa1, 0x6a, 0xbe, 0x0f, 0x51,
    0x11, 0xbe, 0xa5, 0xf9, 0xeb, 0x3c, 0xda, 0x38, 0x22, 0x3e,
    0x4d, 0x0c, 0xa7, 0xbe, 0x57, 0xb4, 0x99, 0x3d, 0xa3, 0xa5,
    0x22, 0xbd, 0xe0, 0x30, 0x40, 0x3e, 0x92, 0x7e, 0x12, 0x3c,
    0x3d, 0x74, 0xef, 0xba, 0x5d, 0x7b, 0xa5, 0x3c, 0xc2, 0x94,
    0x8c, 0xbd, 0xae, 0x02, 0x8a, 0xba, 0xfa, 0x2b, 0x11, 0x3d,
    0xff, 0x54, 0x33, 0xbd, 0x63, 0x14, 0xae, 0x3d, 0xac, 0xeb,
    0x48, 0x3d, 0x69, 0x91, 0x5e, 0x3e, 0x33, 0xb9, 0x09, 0x3d,
    0xca, 0xc2, 0x59, 0x3e, 0x45, 0x9e, 0xb5, 0x3e, 0x93, 0x1d,
    0x82, 0x3e, 0x5c, 0x24, 0x71, 0xbb, 0xa0, 0x58, 0x07, 0x3d,
    0x85, 0x13, 0x11, 0xbb, 0x8e, 0xa0, 0x25, 0xbe, 0xf0, 0x1c,
    0x84, 0xbc, 0x17, 0x28, 0x3e, 0x3c, 0xdb, 0xd2, 0x19, 0xbe,
    0x63, 0xd2, 0x3d, 0x3e, 0xb4, 0xb8, 0xa8, 0x3e, 0x3a, 0x47,
    0x40, 0xbd, 0x78, 0x0f, 0x1e, 0xbe, 0x2b, 0x5f, 0x14, 0x3e,
    0x33, 0xdd, 0x11, 0x3e, 0x3b, 0x0b, 0xd0, 0xbd, 0x0a, 0x11,
    0x6c, 0xbe, 0x26, 0xfe, 0xfc, 0xbd, 0x68, 0x0d, 0x49, 0xbe,
    0x4c, 0xe1, 0xba, 0xbe, 0x8d, 0x79, 0x44, 0xbd, 0xc1, 0xbb,
    0x3d, 0x3d, 0x73, 0x68, 0xba, 0x3c, 0x41, 0x2d, 0x47, 0xbd,
    0xad, 0xa6, 0x78, 0xbe, 0xdd, 0x2a, 0xa3, 0xbd, 0x3d, 0x92,
    0x55, 0xbe, 0xdf, 0xfd, 0x8b, 0xbe, 0x56, 0x15, 0xfd, 0x3d,
    0x47, 0xfb, 0xe2, 0x3d, 0x22, 0x99, 0x97, 0x3b, 0x88, 0xc4,
    0x29, 0xbc, 0x71, 0x6f, 0xce, 0x3d, 0x14, 0x4b, 0x24, 0x3e,
    0x7a, 0x4c, 0xdf, 0x3c, 0x36, 0xb0, 0xa5, 0x3c, 0x3a, 0x61,
    0x99, 0x3e, 0x2e, 0x34, 0x42, 0xbd, 0x17, 0x7e, 0x66, 0xbd,
    0x0b, 0x9c, 0x75, 0x3e, 0xcc, 0x76, 0x91, 0x3d, 0x99, 0xc9,
    0x62, 0xbe, 0xc8, 0xb5, 0x92, 0x3e, 0x9b, 0xe2, 0xb0, 0x3d,
    0xee, 0xf0, 0x09, 0x3e, 0x47, 0x8d, 0xd1, 0x3c, 0xfd, 0xa6,
    0x9a, 0x3d, 0x77, 0x69, 0xae, 0xbd, 0x89, 0xfa, 0x2d, 0x3c,
    0x96, 0xad, 0x22, 0x3e, 0x14, 0x1d, 0x34, 0x3e, 0xe4, 0x0d,
    0xe5, 0xbd, 0x1e, 0xa4, 0x78, 0x3e, 0xcb, 0xd9, 0x15, 0xbe,
    0xa1, 0xcf, 0x6f, 0x3d, 0x5b, 0x00, 0x3e, 0x3e, 0x83, 0xb0,
    0x68, 0x3d, 0x92, 0x0e, 0x97, 0x3e, 0xad, 0x3b, 0x93, 0xbd,
    0xba, 0x28, 0x39, 0x3c, 0x1c, 0x94, 0xa9, 0xbe, 0x9d, 0xaf,
    0x04, 0x3e, 0xa9, 0x14, 0xbb, 0x3e, 0xec, 0xb9, 0x24, 0xbe,
    0xff, 0xa5, 0xea, 0xbd, 0x49, 0x0d, 0x4a, 0x3e, 0x33, 0x5c,
    0xc4, 0xbe, 0x50, 0xa8, 0xe9, 0x3d, 0xf5, 0xf0, 0x43, 0xbe,
    0x93, 0x9e, 0x68, 0x3e, 0x48, 0xe4, 0xa8, 0x3d, 0x1c, 0xb4,
    0x5f, 0xbe, 0x22, 0xc2, 0x13, 0x3e, 0x65, 0x06, 0x5c, 0xbd,
    0xc2, 0xe6, 0x64, 0x3e, 0x9a, 0x44, 0x07, 0x3d, 0x38, 0x02,
    0x25, 0x3e, 0x93, 0x8a, 0x51, 0xbd, 0xf4, 0xd9, 0xe9, 0xbe,
    0xd4, 0xd0, 0xd8, 0x3d, 0x89, 0x46, 0xa2, 0x3d, 0x71, 0x60,
    0x4c, 0x3e, 0x2b, 0x59, 0x6b, 0x3d, 0xae, 0x55, 0x0d, 0x3e,
    0xae, 0xdb, 0x1a, 0xbc, 0x2e, 0x67, 0xb1, 0x3e, 0xf8, 0xba,
    0x3e, 0x3d, 0x9a, 0x4d, 0xb6, 0x3d, 0x19, 0xeb, 0x41, 0xbe,
    0xf4, 0x09, 0x1f, 0xbe, 0xfb, 0x19, 0x0b, 0xbe, 0x99, 0xef,
    0xd6, 0xbd, 0x04, 0xb3, 0x90, 0x3e, 0xe9, 0x14, 0x46, 0xbe,
    0xf6, 0x5a, 0x75, 0xbe, 0x68, 0xd0, 0x9a, 0xbd, 0x27, 0xb8,
    0x1a, 0xbb, 0xee, 0x86, 0x5d, 0xbb, 0x1e, 0x2f, 0x85, 0x3e,
    0xbb, 0x5d, 0x31, 0xbe, 0xfc, 0x0f, 0xb9, 0x3d, 0x51, 0x53,
    0xc2, 0x3d, 0xa5, 0x9a, 0x6b, 0xbe, 0xc4, 0x44, 0x42, 0x3c,
    0xca, 0x84, 0xf9, 0x3d, 0x9b, 0x62, 0xab, 0xbc, 0xe1, 0x02,
    0x81, 0x3b, 0xb6, 0xec, 0xf4, 0x3d, 0x31, 0xf6, 0xf7, 0xbd,
    0x77, 0x5e, 0xa5, 0xbd, 0x57, 0x97, 0x2b, 0x3e, 0x74, 0xbd,
    0x40, 0xbd, 0x64, 0x67, 0x65, 0xbe, 0x21, 0xdd, 0x4a, 0xbe,
    0x68, 0xd2, 0x48, 0x3e, 0xca, 0x2c, 0x3e, 0xbe, 0x54, 0x1e,
    0x52, 0x3e, 0xbc, 0xf6, 0x01, 0x3e, 0x0d, 0x16, 0x9a, 0xbe,
    0x7b, 0x31, 0xad, 0x3b, 0x05, 0x8a, 0x7f, 0x3e, 0x36, 0x73,
    0xbf, 0xbe, 0x77, 0x65, 0x0f, 0x3e, 0x08, 0x78, 0x88, 0xbd,
    0x53, 0x41, 0xb1, 0x3e, 0xf5, 0x16, 0x9b, 0xbe, 0xf1, 0xac,
    0x18, 0x3e, 0xfe, 0x7f, 0xd8, 0xbc, 0xfa, 0xb6, 0x51, 0x3e,
    0xd2, 0xe6, 0x0d, 0x3e, 0xe4, 0x4a, 0x18, 0x3d, 0xe0, 0x8a,
    0x9b, 0x3e, 0x6b, 0xa1, 0xd3, 0xbe, 0x22, 0x6d, 0xc5, 0x3e,
    0x56, 0x35, 0x35, 0x3e, 0x48, 0x41, 0x86, 0xbe, 0x00, 0x32,
    0xa8, 0xbe, 0x60, 0x91, 0x3c, 0x3e, 0x6a, 0x05, 0xd9, 0xbd,
    0x38, 0x66, 0x3a, 0x3e, 0xd5, 0x40, 0x84, 0xbe, 0x74, 0x2e,
    0x25, 0x3e, 0x5e, 0x2b, 0xc5, 0xbd, 0xda, 0x20, 0x41, 0x3d,
    0x82, 0x0f, 0x4a, 0xbd, 0x40, 0xaa, 0x9d, 0xbd, 0xfe, 0x2c,
    0x20, 0x3d, 0x18, 0x12, 0xc0, 0xbe, 0x0e, 0x4e, 0x67, 0x3c,
    0x4f, 0xdd, 0xb3, 0xbd, 0x7e, 0x03, 0x22, 0x3e, 0xee, 0x8f,
    0x01, 0xbd, 0xee, 0x01, 0xb3, 0x3a, 0xee, 0xf5, 0x6c, 0x3e,
    0x34, 0xab, 0x13, 0x3d, 0x18, 0x0a, 0x48, 0xbe, 0x21, 0x35,
    0x50, 0xbd, 0xf5, 0x54, 0x09, 0x3e, 0x7f, 0x51, 0x02, 0xbe,
    0x4b, 0xff, 0xfe, 0x3d, 0x00, 0x1b, 0x76, 0x3e, 0xe7, 0x02,
    0xd1, 0x3d, 0xa3, 0x6b, 0x52, 0x3e, 0x60, 0x4c, 0xdb, 0x3d,
    0x4c, 0x4a, 0xfb, 0xbc, 0x47, 0x3c, 0x3f, 0x3e, 0x64, 0xf0,
    0x99, 0xbd, 0xef, 0xf3, 0xa7, 0x3d, 0xb2, 0xd4, 0x9a, 0x3e,
    0xe6, 0x77, 0xd2, 0xbe, 0x91, 0x6a, 0xf7, 0xbc, 0xde, 0x42,
    0x82, 0xbd, 0x96, 0xf0, 0xb8, 0x3e, 0x1e, 0x91, 0xcb, 0xbe,
    0x0f, 0xe0, 0xd8, 0x3c, 0xe4, 0x0b, 0xbe, 0x3e, 0xe1, 0x83,
    0x18, 0xbe, 0x4b, 0x18, 0x9a, 0xbe, 0x04, 0xb4, 0x12, 0xbd,
    0xf4, 0x2b, 0x1d, 0x3e, 0x41, 0xf1, 0xa2, 0xbe, 0x0e, 0x2b,
    0x9e, 0x3d, 0xf1, 0x8c, 0x08, 0xbe, 0x78, 0x43, 0x38, 0x3e,
    0x6f, 0xd9, 0x9d, 0xbe, 0xd4, 0x81, 0x3c, 0xbe, 0xc0, 0x7c,
    0x6d, 0x3d, 0x9d, 0x55, 0xeb, 0x3d, 0xbc, 0x2e, 0xa8, 0x3c,
    0x16, 0x8e, 0x48, 0xbd, 0xb7, 0xc4, 0xb7, 0x3d, 0x07, 0x49,
    0x08, 0x3b, 0xaf, 0x15, 0xe1, 0xbc, 0xe4, 0xdc, 0xa1, 0xbb,
    0xe3, 0xf0, 0x46, 0x3c, 0xf2, 0x88, 0x86, 0x3c, 0xb6, 0x89,
    0x0d, 0x3e, 0xfd, 0x49, 0xf7, 0xbc, 0x90, 0xdc, 0xd9, 0x3e,
    0x5c, 0xbf, 0xb7, 0xbd, 0x21, 0x4b, 0x80, 0xbe, 0x9e, 0xdb,
    0x7b, 0xbc, 0x5e, 0x22, 0xe4, 0x3c, 0x26, 0x7b, 0x58, 0xbe,
    0x8c, 0xc9, 0x41, 0xbe, 0x22, 0x4a, 0xa8, 0xbe, 0xf3, 0x9a,
    0x33, 0xbe, 0xdb, 0xb9, 0x2c, 0x3d, 0x85, 0x68, 0xf5, 0x3d,
    0x5a, 0xa8, 0x0f, 0x3e, 0x4b, 0x3c, 0x4a, 0x3e, 0x9a, 0x38,
    0xde, 0xbd, 0x4d, 0x20, 0x75, 0x3c, 0xe5, 0x92, 0xb2, 0x3e,
    0xf2, 0xe2, 0x8b, 0xbe, 0xcc, 0x5d, 0x73, 0xba, 0x17, 0x5f,
    0x88, 0x3d, 0x2e, 0x09, 0x1d, 0xbe, 0x73, 0x7d, 0xb2,
    0xbe, 0xa1, 0x39, 0x8c, 0x3e, 0x8d, 0xe5, 0x0d, 0xbd
  };

  return AI_HANDLE_PTR(s_wn12_3_weights);

}

