#include "wn18_v1_data.h"

ai_handle ai_wn18_v1_data_weights_get(void)
{

  AI_ALIGNED(4)
  static const ai_u8 s_wn18_v1_weights[ 13028 ] = {
    0x5c, 0x67, 0xd0, 0x3d, 0x03, 0x3d, 0x8a, 0xbd, 0xb6, 0xd4,
    0xd4, 0xbe, 0x93, 0x43, 0xf5, 0x3d, 0x59, 0x50, 0x52, 0xbe,
    0x29, 0x20, 0x42, 0xbc, 0xf0, 0x16, 0xe7, 0xbd, 0xe6, 0xa1,
    0xf8, 0x3c, 0xb9, 0xc0, 0xbc, 0xbe, 0x79, 0x12, 0x73, 0xbe,
    0x48, 0xc7, 0xf0, 0xbe, 0xab, 0xa1, 0xcc, 0x3d, 0xcb, 0x4c,
    0x10, 0x3f, 0xf5, 0x9d, 0xff, 0x3e, 0xaf, 0x8e, 0xed, 0xbd,
    0xe2, 0x7c, 0x44, 0x3e, 0xeb, 0xa0, 0x68, 0x3e, 0xfd, 0xc9,
    0xa3, 0x3e, 0x6b, 0xdc, 0x60, 0xbe, 0x6e, 0xfb, 0x9f, 0xbe,
    0x90, 0x69, 0x54, 0xbe, 0x86, 0xa5, 0x16, 0x3e, 0x6d, 0x18,
    0x91, 0x3e, 0xcb, 0xc1, 0xdc, 0x3c, 0xe9, 0x07, 0x87, 0x3d,
    0x2d, 0x42, 0x44, 0x3b, 0x40, 0x16, 0x0b, 0xbd, 0xa0, 0xfa,
    0xcf, 0x3d, 0xad, 0xbd, 0x63, 0x3e, 0x2b, 0xc2, 0xf8, 0xbd,
    0x9d, 0xe8, 0x03, 0x3e, 0x33, 0x7c, 0xbc, 0x3d, 0x7d, 0x08,
    0xb9, 0x3c, 0x9d, 0x10, 0x30, 0x3e, 0xad, 0xf7, 0x33, 0x3d,
    0xf9, 0x96, 0xf9, 0xbd, 0xe4, 0x4b, 0x42, 0x3d, 0x34, 0x81,
    0xc2, 0xbd, 0xd8, 0x7f, 0x85, 0x3d, 0x81, 0xdc, 0x7d, 0xbc,
    0x7a, 0xd4, 0xa3, 0xbc, 0x91, 0xde, 0xda, 0x3e, 0x79, 0xa9,
    0x1a, 0xbc, 0xe6, 0x13, 0x98, 0x3e, 0x7b, 0xd9, 0x5a, 0xbe,
    0x43, 0x18, 0xac, 0xbe, 0x28, 0xab, 0x17, 0xbe, 0xd0, 0xcf,
    0x27, 0xbe, 0x58, 0x54, 0x0e, 0xbf, 0xeb, 0x06, 0x8c, 0xbd,
    0xa6, 0x57, 0x46, 0xbe, 0xf8, 0x0b, 0x0d, 0xbe, 0x16, 0x55,
    0x50, 0x3d, 0xfc, 0x22, 0x2d, 0x3e, 0xbf, 0xe5, 0xa3, 0xbe,
    0xfd, 0x5d, 0xb3, 0x3e, 0x54, 0xa3, 0x40, 0xbd, 0x62, 0x36,
    0x8c, 0xbe, 0xe9, 0x55, 0x87, 0xbe, 0xe5, 0x15, 0x80, 0x3e,
    0x75, 0x99, 0x5b, 0xbc, 0x4d, 0xca, 0x2d, 0x3e, 0xaa, 0xe4,
    0x11, 0x3e, 0x41, 0x08, 0xd0, 0x3d, 0x2d, 0x0b, 0xfe, 0x3d,
    0x6f, 0xd0, 0xff, 0x3d, 0x46, 0x72, 0x94, 0xbd, 0xfc, 0xaf,
    0x2a, 0xbf, 0x7a, 0x17, 0x3e, 0x3f, 0xd2, 0x44, 0xf5, 0x3e,
    0x68, 0x0d, 0xfb, 0xbe, 0x55, 0x7a, 0xdf, 0x3e, 0xc4, 0x64,
    0xb2, 0xbe, 0x2c, 0x2a, 0x90, 0x3e, 0x2c, 0x24, 0x11, 0xbe,
    0x96, 0x15, 0x02, 0xbd, 0xab, 0x0f, 0x0e, 0xbe, 0xd4, 0x60,
    0x8f, 0x3e, 0xbd, 0x89, 0x58, 0xbe, 0x5e, 0x59, 0x12, 0xbe,
    0x89, 0x85, 0xac, 0x3e, 0xea, 0xba, 0xec, 0xbc, 0xdf, 0xb1,
    0x05, 0xbe, 0xd1, 0xfa, 0xc4, 0x3e, 0x00, 0x56, 0x89, 0xbe,
    0x32, 0x37, 0x01, 0xbf, 0x48, 0xf8, 0x0e, 0x3f, 0xeb, 0x9b,
    0xcb, 0xbd, 0x8d, 0x24, 0x61, 0x3e, 0xf6, 0x62, 0xeb, 0x3b,
    0x75, 0x87, 0x68, 0x3e, 0xbe, 0x0a, 0x11, 0x3f, 0x47, 0xc6,
    0x90, 0x3c, 0xd5, 0x8b, 0xef, 0xbe, 0xa3, 0xde, 0x17, 0x3f,
    0xf5, 0x98, 0xb3, 0x3d, 0x40, 0x18, 0xa2, 0x3e, 0x13, 0xca,
    0xfb, 0x3d, 0x86, 0x99, 0x8e, 0x3d, 0x91, 0x80, 0x31, 0x3e,
    0x3f, 0x2f, 0x95, 0xbd, 0x62, 0xef, 0x42, 0xbe, 0xb7, 0xa0,
    0xd8, 0x3d, 0x76, 0x3e, 0x3d, 0xbb, 0x6e, 0x59, 0xa6, 0xbe,
    0x42, 0xcd, 0x38, 0xbe, 0xc3, 0xe2, 0x93, 0x3c, 0x49, 0xee,
    0x38, 0xbd, 0x0e, 0xef, 0x1b, 0x3e, 0xf9, 0x6a, 0x4f, 0x3d,
    0x40, 0xc5, 0x69, 0x3d, 0xe2, 0x8a, 0x0b, 0x3e, 0x2e, 0x6f,
    0x09, 0xbe, 0xc0, 0x78, 0x75, 0xbe, 0x81, 0x46, 0xad, 0xbd,
    0x45, 0x7a, 0x96, 0xbe, 0x77, 0x6c, 0xc0, 0x3d, 0x98, 0x64,
    0x3b, 0xbe, 0xc3, 0xa3, 0x65, 0xbe, 0x77, 0x1b, 0x26, 0xbd,
    0x95, 0x74, 0xfe, 0x3c, 0xd2, 0x7d, 0x40, 0x3e, 0x96, 0xab,
    0x1d, 0x3e, 0x75, 0x40, 0x14, 0x3e, 0xc0, 0xce, 0xf9, 0xbd,
    0x77, 0x0c, 0x4b, 0xbe, 0xcc, 0x06, 0xc5, 0x3e, 0x42, 0xa8,
    0xd4, 0xbd, 0x71, 0x1a, 0x65, 0x3e, 0x58, 0xed, 0x90, 0x3d,
    0xa2, 0x28, 0xbb, 0x3e, 0xd3, 0x90, 0xee, 0xbc, 0x1b, 0x38,
    0x5c, 0x3e, 0x9c, 0xd0, 0x9a, 0xbd, 0x71, 0x60, 0xc4, 0xbd,
    0xb5, 0xc3, 0x9c, 0x3d, 0x34, 0x52, 0xb5, 0xbe, 0x01, 0x74,
    0xf4, 0x3c, 0x20, 0x9e, 0x74, 0xbe, 0x25, 0x84, 0xe2, 0x3d,
    0xf5, 0x0b, 0x18, 0x3f, 0x7b, 0xbc, 0x77, 0x3e, 0x94, 0x27,
    0xcb, 0xbe, 0x9a, 0x10, 0x9e, 0x3e, 0x61, 0xe4, 0x6f, 0xbd,
    0x08, 0x43, 0xc9, 0xbd, 0x97, 0xbf, 0xbf, 0xbe, 0x1f, 0xcd,
    0xa0, 0x3d, 0xdf, 0x52, 0xd7, 0x3e, 0x02, 0xc9, 0x71, 0x3d,
    0x3b, 0x50, 0x08, 0xbe, 0xf9, 0x4a, 0xa2, 0x3e, 0x41, 0x5c,
    0x4f, 0xbd, 0xf2, 0xb8, 0x34, 0x3e, 0xec, 0x3b, 0x0c, 0x3e,
    0xca, 0x59, 0x32, 0xbe, 0xd0, 0xd2, 0xbd, 0x3e, 0xf1, 0x9e,
    0x3d, 0x3e, 0xa9, 0x1d, 0x52, 0x3d, 0x2f, 0x60, 0x85, 0x3e,
    0x4a, 0x6e, 0x5e, 0xbe, 0x56, 0xe2, 0x81, 0x3e, 0x65, 0x8c,
    0xa4, 0xbe, 0xd7, 0x5a, 0x3a, 0x3f, 0xaf, 0x64, 0xd8, 0xbe,
    0x59, 0x95, 0x3d, 0xbe, 0xf4, 0x66, 0x96, 0x3e, 0xf2, 0x35,
    0x70, 0xbe, 0xbb, 0x5d, 0xa0, 0xbe, 0x11, 0xb2, 0xa2, 0xbd,
    0xf4, 0xbe, 0x32, 0x3e, 0xa2, 0x67, 0x80, 0xbe, 0x93, 0x87,
    0x3b, 0xbe, 0x11, 0xac, 0x04, 0xbe, 0x79, 0xab, 0x81, 0xbe,
    0xb8, 0x53, 0xf6, 0xbd, 0xec, 0x6c, 0xbe, 0xbe, 0x08, 0xba,
    0x26, 0x3e, 0xcf, 0xf9, 0x60, 0xbd, 0xc7, 0xa3, 0xa5, 0xbe,
    0x11, 0x17, 0xc9, 0x3e, 0xc3, 0x7a, 0x25, 0x3d, 0xc8, 0x1a,
    0x22, 0xbe, 0x92, 0x69, 0xa2, 0x3e, 0x87, 0x2a, 0x73, 0x3e,
    0xfd, 0x2a, 0x99, 0xbe, 0x2d, 0xa8, 0x5c, 0xbd, 0xf4, 0x84,
    0xd4, 0xbe, 0x4d, 0x09, 0x15, 0x3f, 0x15, 0x17, 0xcc, 0x3d,
    0xcc, 0x3e, 0x19, 0x3e, 0x1f, 0x3d, 0x1e, 0xbe, 0xac, 0x00,
    0xe6, 0x3a, 0x4e, 0xf6, 0x5a, 0x3e, 0x87, 0xab, 0xc2, 0xbd,
    0x61, 0x05, 0x6d, 0x3e, 0xc5, 0xb4, 0x76, 0x3e, 0xb4, 0xf4,
    0xa6, 0xbc, 0x3a, 0x0d, 0x0b, 0xbd, 0x4c, 0x22, 0x05, 0xbd,
    0x59, 0x9a, 0xf2, 0x3e, 0x60, 0x55, 0x98, 0x3e, 0xb7, 0x72,
    0xbb, 0x3e, 0x1f, 0xcf, 0x8f, 0x3d, 0xbc, 0xe4, 0xba, 0xbd,
    0x7e, 0x5b, 0x06, 0xbe, 0xf9, 0xa6, 0xf7, 0x3e, 0xe5, 0xd5,
    0xd0, 0x3d, 0x50, 0x94, 0x27, 0x3d, 0x32, 0xd4, 0x2a, 0x3e,
    0xfe, 0xc2, 0x4c, 0x3e, 0xb4, 0x80, 0x02, 0x3f, 0x7b, 0xda,
    0x98, 0xbe, 0x9e, 0xc2, 0xd0, 0xbe, 0xbf, 0x41, 0x85, 0x3e,
    0x63, 0x8c, 0xf1, 0xbe, 0x92, 0xd5, 0xb4, 0xbe, 0xc0, 0xc0,
    0x6d, 0xbe, 0x02, 0x41, 0x38, 0xbe, 0x7b, 0x7d, 0x95, 0xbe,
    0x45, 0x2d, 0xc4, 0xbe, 0x53, 0xc0, 0x4c, 0x3e, 0x1a, 0xb7,
    0x46, 0xbe, 0xdd, 0xac, 0x4f, 0x3e, 0x82, 0xcd, 0x6e, 0x3d,
    0xe4, 0xd3, 0x64, 0xbc, 0x56, 0x2e, 0x2d, 0x3e, 0x4f, 0xdb,
    0x1f, 0xbd, 0xe6, 0x72, 0x63, 0x3e, 0x0f, 0x74, 0xa8, 0x3c,
    0xdd, 0x74, 0x0a, 0x3e, 0xd6, 0x7e, 0xcd, 0x3c, 0x24, 0xe4,
    0x34, 0x3e, 0x8f, 0xe3, 0x9e, 0x3e, 0x94, 0x51, 0x45, 0x3e,
    0x17, 0x63, 0xa2, 0x3e, 0xa4, 0x0d, 0x7d, 0x3e, 0x2f, 0x3b,
    0x50, 0xbe, 0x5b, 0x06, 0x06, 0x3f, 0xda, 0x4d, 0x96, 0xbe,
    0x45, 0x84, 0x80, 0xbe, 0xc6, 0xfd, 0x80, 0x3e, 0xd4, 0xa8,
    0xae, 0xbd, 0xc5, 0xa8, 0x5c, 0xbe, 0x83, 0x27, 0xa8, 0x3e,
    0x8c, 0x72, 0x82, 0x3e, 0x8a, 0x49, 0x4f, 0xbe, 0x69, 0x6a,
    0x4d, 0xbd, 0x5e, 0x3f, 0x4f, 0x3e, 0xc2, 0x02, 0x87, 0x3e,
    0xf2, 0x85, 0x56, 0xbe, 0x34, 0x08, 0xa5, 0xbd, 0x93, 0x4e,
    0x04, 0x3f, 0x30, 0x33, 0xc2, 0xbe, 0x74, 0x5a, 0x02, 0x3f,
    0xc9, 0x94, 0x61, 0xbe, 0x18, 0x8d, 0x1c, 0x3e, 0xdb, 0xeb,
    0xa0, 0x3d, 0x45, 0x4a, 0xc2, 0xbd, 0xb4, 0x51, 0xbb, 0x3e,
    0xe8, 0xcc, 0x9f, 0xbd, 0x19, 0x3a, 0x60, 0xbe, 0xf4, 0xed,
    0x45, 0x3e, 0x76, 0x07, 0x4c, 0xbd, 0x20, 0x83, 0xe2, 0xbe,
    0xca, 0x02, 0x53, 0x3e, 0x6c, 0x96, 0xff, 0xbc, 0x77, 0xe6,
    0x43, 0xbd, 0x18, 0xb6, 0xbc, 0x3b, 0x95, 0x68, 0x43, 0xbe,
    0x2c, 0x80, 0x65, 0xbe, 0x01, 0xdf, 0xb1, 0xbc, 0x4a, 0xe6,
    0x08, 0x3e, 0x7a, 0x65, 0x40, 0xbf, 0xe9, 0x0c, 0x3b, 0x3f,
    0x48, 0x60, 0x48, 0xbe, 0xfb, 0xf1, 0x17, 0xbf, 0x80, 0x66,
    0xb8, 0x3e, 0x84, 0x54, 0x0f, 0xbf, 0x95, 0xc4, 0xac, 0x3e,
    0x26, 0x90, 0x78, 0x3e, 0xf4, 0x34, 0x13, 0xbe, 0xd2, 0x64,
    0xad, 0x3e, 0x67, 0x7f, 0x80, 0x3c, 0xd0, 0xf9, 0xf9, 0x3c,
    0x6e, 0xe6, 0x4d, 0x3e, 0x6f, 0x8a, 0x4d, 0xbe, 0xca, 0x99,
    0xd5, 0x3e, 0x8f, 0xa4, 0x5b, 0x3b, 0x23, 0x7f, 0x1e, 0xbe,
    0x5d, 0x89, 0x85, 0x3e, 0xb3, 0xd7, 0xbc, 0xbe, 0x54, 0xa3,
    0x7d, 0xbd, 0x7f, 0x2f, 0xc5, 0xbd, 0x72, 0xb1, 0x21, 0x3d,
    0x7f, 0xd2, 0xe4, 0xbd, 0xee, 0xd1, 0x81, 0xbe, 0xf9, 0xb9,
    0x83, 0xbd, 0xd5, 0x53, 0x5d, 0x3e, 0xa9, 0x12, 0x7c, 0x3d,
    0x4e, 0x7f, 0x98, 0xbe, 0x40, 0xcf, 0xc1, 0x3a, 0x37, 0xf5,
    0xcd, 0xbe, 0xdd, 0x0a, 0x40, 0xbe, 0x6e, 0x94, 0xbf, 0xbe,
    0x48, 0x4d, 0xa8, 0x3d, 0x2f, 0xbf, 0x8c, 0xbd, 0x98, 0xf3,
    0x65, 0xbe, 0x89, 0x2f, 0xf0, 0xbd, 0x47, 0x57, 0x36, 0x3e,
    0xb9, 0x54, 0x70, 0x3d, 0x81, 0xce, 0x1a, 0x3f, 0x56, 0xb0,
    0x95, 0x3e, 0x0d, 0x7b, 0x37, 0x3e, 0x9f, 0xfe, 0x08, 0xbf,
    0x31, 0x42, 0xd8, 0xbe, 0x3b, 0x7d, 0x9c, 0x3e, 0x35, 0x05,
    0x85, 0xbe, 0x96, 0xf8, 0x35, 0x3e, 0x4d, 0x76, 0xc1, 0x3d,
    0x7d, 0xfa, 0xcb, 0xbe, 0xdc, 0x95, 0xd5, 0xbd, 0x92, 0x38,
    0x47, 0xbe, 0x9a, 0x49, 0xa3, 0x3e, 0xeb, 0x14, 0x70, 0x3e,
    0x01, 0x21, 0xe3, 0x3e, 0x61, 0xba, 0xb3, 0x3e, 0x4e, 0xe1,
    0xa0, 0xbe, 0x6d, 0x7e, 0x5e, 0xbe, 0x8b, 0x96, 0xbf, 0x3d,
    0xa6, 0xfa, 0x34, 0xbe, 0xf9, 0xc3, 0x50, 0xbd, 0xad, 0xbc,
    0x53, 0x3d, 0x60, 0x4c, 0x00, 0xbe, 0xb1, 0x98, 0x1a, 0xbb,
    0x52, 0xab, 0x9f, 0x3d, 0x8b, 0x03, 0x81, 0x3e, 0xf8, 0x9d,
    0x87, 0xbd, 0xbb, 0xe7, 0x55, 0xbe, 0xf0, 0x61, 0xce, 0xbd,
    0xd7, 0x30, 0x3e, 0xbe, 0x7c, 0x5a, 0xb5, 0x3e, 0xb0, 0x64,
    0x8b, 0xbc, 0x36, 0xc1, 0x1c, 0xbe, 0xfe, 0xe2, 0x27, 0x3e,
    0x88, 0x68, 0xdf, 0x3e, 0x99, 0x64, 0x2b, 0xbf, 0x9f, 0x73,
    0x25, 0xbc, 0x40, 0xcb, 0x9d, 0x3e, 0x8a, 0x76, 0x0f, 0xbf,
    0x57, 0x9f, 0xb3, 0x3e, 0x56, 0x8c, 0xe3, 0xbe, 0x70, 0x0a,
    0x33, 0xbe, 0x79, 0xd3, 0xa8, 0xbd, 0x94, 0xcf, 0x92, 0xbe,
    0xcf, 0xe5, 0x75, 0x3d, 0x6c, 0x88, 0x03, 0x3e, 0x7b, 0xca,
    0x18, 0xbe, 0x8f, 0x28, 0xa9, 0xbd, 0x98, 0xc3, 0x33, 0x3d,
    0xfa, 0x43, 0x2f, 0x3e, 0x6d, 0x6a, 0x25, 0x3e, 0x2f, 0x14,
    0xb9, 0xbc, 0x9e, 0xf6, 0xc6, 0xbe, 0xde, 0xcc, 0x80, 0xbe,
    0x81, 0x50, 0x32, 0x3e, 0xbb, 0xec, 0x8e, 0x3d, 0x6b, 0x7d,
    0x6d, 0x3e, 0x74, 0xfe, 0x38, 0xbe, 0x02, 0xd4, 0x75, 0xbe,
    0xf4, 0xf5, 0x0d, 0x3f, 0x2d, 0x1f, 0x36, 0x3e, 0x53, 0xab,
    0xf9, 0xbe, 0xfe, 0x35, 0x8d, 0x3d, 0x36, 0x4f, 0xad, 0xbd,
    0xa3, 0xbb, 0x69, 0xbe, 0x9b, 0x29, 0x25, 0x3e, 0x7f, 0x37,
    0xa5, 0x3d, 0xec, 0x99, 0xde, 0xbd, 0x6e, 0xed, 0xe6, 0x3c,
    0x4b, 0xf4, 0xb5, 0x3e, 0x42, 0x4f, 0xb1, 0xbc, 0x1f, 0x59,
    0x47, 0x3e, 0x5a, 0x25, 0xd1, 0xbe, 0x98, 0x01, 0x13, 0xbf,
    0x2a, 0x15, 0x7b, 0xbe, 0x6f, 0xe0, 0x80, 0x3d, 0x57, 0xa0,
    0xd2, 0x3e, 0x3a, 0xe0, 0xba, 0xbe, 0x21, 0x6b, 0x0e, 0xbe,
    0x76, 0xfe, 0x8f, 0x3e, 0x61, 0x5a, 0xcd, 0xbe, 0x89, 0xab,
    0xcd, 0x3e, 0x72, 0xd6, 0x09, 0xbf, 0x51, 0x8f, 0x98, 0x3c,
    0x9a, 0x36, 0x20, 0xbf, 0x5c, 0xed, 0xba, 0xbe, 0x89, 0x91,
    0xea, 0x3e, 0xd3, 0xa8, 0xcf, 0xbe, 0xe2, 0x70, 0x5f, 0x3f,
    0x0e, 0xca, 0xec, 0xbc, 0x38, 0x0e, 0x08, 0xbe, 0x41, 0x93,
    0x0f, 0x3f, 0xfb, 0xaf, 0xed, 0xbe, 0x2d, 0x8f, 0xc7, 0xbe,
    0x4f, 0xda, 0x2b, 0xbe, 0x04, 0xf7, 0x41, 0xbe, 0x87, 0x9e,
    0x45, 0x3e, 0xea, 0xc7, 0xcb, 0xbd, 0xac, 0x9f, 0x01, 0xbf,
    0xcc, 0xb3, 0x4f, 0x3e, 0xc7, 0xb1, 0x68, 0xbe, 0xfc, 0x5c,
    0xf0, 0xbe, 0x7b, 0x02, 0xc0, 0x3e, 0xf8, 0x12, 0x8f, 0xbe,
    0x9e, 0x6f, 0x93, 0xbc, 0xea, 0x80, 0xda, 0x3d, 0x56, 0x53,
    0x1b, 0xbf, 0x8d, 0x56, 0xcb, 0x3d, 0x6d, 0x3f, 0x1e, 0x3f,
    0xd9, 0xdd, 0xa3, 0xbd, 0x2d, 0x35, 0x68, 0x3d, 0x25, 0xc1,
    0x29, 0x3c, 0x92, 0x0c, 0x65, 0x3d, 0x2c, 0xa1, 0x49, 0x3e,
    0xc8, 0xea, 0x2e, 0x3d, 0xa1, 0x08, 0x9c, 0x3d, 0xd9, 0xdc,
    0x87, 0x3d, 0x56, 0x96, 0xfc, 0xbd, 0x94, 0x45, 0x88, 0x3d,
    0xc1, 0x86, 0xa2, 0x3d, 0x0a, 0x81, 0x72, 0xbd, 0x5d, 0xdc,
    0x05, 0x3e, 0x04, 0xa3, 0x0a, 0xbe, 0xc6, 0xca, 0x21, 0xbf,
    0xb4, 0x1c, 0xc3, 0x3c, 0xe4, 0xd3, 0x2e, 0x3f, 0xfc, 0xf0,
    0x15, 0x3d, 0x99, 0xe0, 0xaa, 0x3e, 0xfb, 0x98, 0xbd, 0xbe,
    0x00, 0xb0, 0x21, 0x3d, 0xeb, 0x61, 0x9d, 0x3e, 0xc8, 0xb6,
    0x06, 0x3e, 0xe8, 0x52, 0x57, 0xbb, 0x24, 0xe5, 0x08, 0x3d,
    0x9a, 0x78, 0x64, 0x3e, 0x6a, 0xb6, 0xd3, 0xbe, 0xe0, 0x79,
    0x0a, 0x3e, 0x00, 0x01, 0x2d, 0xb9, 0xfa, 0xea, 0xc3, 0xbe,
    0xd8, 0x8a, 0x77, 0xbd, 0xd4, 0x95, 0x83, 0x3e, 0xa7, 0x91,
    0xfb, 0x3e, 0x6f, 0x36, 0x22, 0xbf, 0xd1, 0x60, 0x48, 0xbe,
    0x3b, 0x5f, 0xc5, 0xbd, 0x68, 0x20, 0x9b, 0x3e, 0x71, 0x3d,
    0xec, 0xbd, 0xb3, 0x9e, 0x97, 0x3c, 0x97, 0x1f, 0x58, 0xbe,
    0x9f, 0xf0, 0x2b, 0x3f, 0x07, 0xfe, 0x45, 0x3d, 0x03, 0xf3,
    0xb5, 0x3e, 0xf9, 0x7b, 0x3e, 0x3d, 0x3a, 0x28, 0xfc, 0x3d,
    0x85, 0x20, 0xb6, 0xbd, 0xfe, 0xd8, 0x43, 0xbe, 0xa4, 0xb2,
    0x1c, 0x3f, 0xec, 0x3b, 0x0d, 0x3e, 0x8b, 0x08, 0x51, 0xbe,
    0x00, 0x29, 0x1a, 0xbf, 0xd7, 0xf8, 0xa6, 0x3d, 0xed, 0x2d,
    0x1a, 0xbe, 0xa6, 0xf1, 0x8d, 0x3e, 0x23, 0x78, 0x89, 0xbb,
    0x98, 0xf8, 0x46, 0xbe, 0x68, 0x61, 0xc7, 0xbd, 0x9c, 0x9c,
    0x78, 0x3e, 0x9c, 0x40, 0x11, 0x3c, 0x3c, 0xf8, 0x0c, 0x3e,
    0x1d, 0x66, 0xda, 0x3e, 0x9a, 0xe5, 0x71, 0x3d, 0x54, 0x4b,
    0xe9, 0xbe, 0xef, 0x08, 0x95, 0x3e, 0x9f, 0x54, 0xbb, 0x3d,
    0xf7, 0xa4, 0xb9, 0x3d, 0x23, 0x6f, 0xe1, 0x3d, 0xf7, 0x1f,
    0x8e, 0xbe, 0x13, 0x52, 0xc4, 0x3e, 0x9b, 0xb5, 0xc6, 0xbe,
    0xf5, 0xcc, 0x5b, 0x3e, 0x72, 0x60, 0xdb, 0x3d, 0x27, 0x9b,
    0x1d, 0xbe, 0xec, 0x53, 0xe7, 0xbd, 0xcb, 0xca, 0x96, 0xbe,
    0xdd, 0xed, 0x95, 0xbd, 0xf3, 0x52, 0x5d, 0x3e, 0xa7, 0xc3,
    0xcf, 0xbe, 0x18, 0x29, 0x2c, 0xbe, 0xd3, 0x6e, 0x9d, 0x3c,
    0x2d, 0xa2, 0x27, 0x3e, 0xd6, 0xb7, 0xd4, 0xbe, 0xd3, 0xfa,
    0x13, 0xbf, 0xf9, 0xe2, 0xae, 0x3d, 0x56, 0xde, 0xa3, 0xbd,
    0x3a, 0xdf, 0xf3, 0xbe, 0x80, 0xa3, 0xcd, 0xbd, 0x23, 0xfe,
    0xec, 0x3e, 0x61, 0x5a, 0x51, 0xbe, 0xae, 0xd8, 0x18, 0xbe,
    0xb7, 0x47, 0x0d, 0xbf, 0x97, 0xb2, 0x89, 0x3d, 0xab, 0xcf,
    0x83, 0xbe, 0x89, 0xb9, 0x85, 0x3e, 0x0b, 0x2d, 0xfe, 0x3d,
    0x1b, 0xda, 0xa7, 0xbd, 0x16, 0xad, 0xcb, 0xbe, 0x2b, 0xa2,
    0xbb, 0xbd, 0x2d, 0x52, 0x9a, 0x3c, 0xbc, 0x35, 0x3c, 0xbe,
    0x6a, 0x76, 0x17, 0xbf, 0x24, 0xd3, 0xac, 0xbe, 0xb8, 0x8e,
    0x85, 0x3e, 0x4a, 0x08, 0xc7, 0xbe, 0xe0, 0xbd, 0x05, 0xbd,
    0x01, 0xc0, 0x70, 0x3d, 0x68, 0xe8, 0xc4, 0xbd, 0xe6, 0xf1,
    0x81, 0x3e, 0x6b, 0x9a, 0xc6, 0x3e, 0x96, 0x83, 0x48, 0xbe,
    0x49, 0x26, 0xd7, 0xbe, 0x3a, 0xef, 0x4e, 0xbe, 0x03, 0xd6,
    0x78, 0x3d, 0xd3, 0x07, 0x4e, 0xbe, 0xd6, 0x0f, 0x11, 0xbd,
    0x39, 0x38, 0xe4, 0xbe, 0x59, 0xfa, 0x81, 0x3d, 0xcf, 0x80,
    0x51, 0xbd, 0x2a, 0xf7, 0x6d, 0xbe, 0x67, 0xf1, 0x63, 0x3e,
    0xb2, 0xcc, 0xe8, 0x3e, 0xad, 0x7a, 0x3f, 0xbe, 0xbb, 0xfc,
    0xf5, 0x3d, 0xf8, 0x68, 0xc5, 0x3d, 0x06, 0x12, 0xce, 0x3e,
    0x6d, 0x07, 0x26, 0xbe, 0x98, 0x71, 0xaa, 0xbd, 0x4a, 0xa0,
    0x95, 0x3e, 0xbc, 0x82, 0xdb, 0x3d, 0xbb, 0x47, 0x19, 0x3e,
    0x50, 0xfa, 0xe0, 0xbe, 0xa7, 0x42, 0x86, 0x3e, 0x8f, 0x9c,
    0x45, 0x3e, 0xad, 0x75, 0xe1, 0x3d, 0x32, 0x92, 0x19, 0xbf,
    0xa8, 0xf4, 0xab, 0xbc, 0x5b, 0x74, 0x19, 0x3e, 0x83, 0x81,
    0x61, 0xbe, 0xf4, 0x63, 0xa2, 0x3d, 0x92, 0xee, 0x24, 0xbf,
    0xca, 0x93, 0xf2, 0x3e, 0x89, 0x69, 0x3c, 0xbe, 0xea, 0x64,
    0x34, 0x3e, 0x4f, 0x7d, 0x92, 0x3e, 0x8f, 0x34, 0x7f, 0xbe,
    0xeb, 0x8b, 0x45, 0xbd, 0x33, 0x48, 0x35, 0xbd, 0x30, 0xc0,
    0xaa, 0xbd, 0x6a, 0x24, 0x7d, 0xbe, 0xf3, 0x29, 0x09, 0x3f,
    0xdb, 0x33, 0x09, 0x3f, 0x5e, 0x44, 0xf0, 0xbe, 0xa0, 0x24,
    0x11, 0xbf, 0xa5, 0x86, 0xd3, 0x3e, 0x78, 0xc5, 0x4e, 0x3f,
    0xfe, 0x96, 0x00, 0x3f, 0x75, 0x47, 0x09, 0x3f, 0xea, 0x36,
    0x83, 0xbe, 0xcc, 0x4e, 0xc1, 0xbe, 0xbf, 0xe3, 0x9c, 0x3b,
    0x4d, 0x00, 0x00, 0x3e, 0x84, 0x26, 0x87, 0xbe, 0x33, 0x49,
    0x80, 0x3e, 0x34, 0x72, 0xb1, 0xbe, 0x89, 0x27, 0x63, 0xbe,
    0xa2, 0x87, 0xa1, 0x3d, 0xd1, 0xb5, 0xb1, 0xbe, 0x18, 0xe2,
    0xc4, 0x3e, 0xa3, 0xd5, 0xb1, 0x3e, 0x99, 0x0d, 0x5f, 0xbd,
    0x0f, 0xd2, 0x34, 0xbe, 0x65, 0x57, 0x81, 0xbd, 0xd6, 0xc1,
    0x1c, 0xbf, 0x7d, 0x4b, 0xcf, 0x3e, 0x01, 0x6a, 0xfe, 0x3e,
    0x29, 0x16, 0xe7, 0xbe, 0x18, 0xa9, 0x8f, 0xbe, 0x50, 0xbb,
    0xd2, 0x3e, 0x62, 0x72, 0x05, 0x3f, 0x76, 0xca, 0x38, 0x3f,
    0xd7, 0x89, 0x51, 0xbe, 0x58, 0x96, 0x05, 0x3f, 0x74, 0x7e,
    0xe7, 0x3e, 0x15, 0x7c, 0x30, 0xbd, 0x8e, 0xa3, 0xed, 0xbe,
    0x70, 0xe0, 0x61, 0x3e, 0xb2, 0x68, 0x1c, 0x3e, 0x30, 0x05,
    0x41, 0x3f, 0x57, 0xe5, 0x63, 0x3d, 0x8f, 0x65, 0x37, 0x3e,
    0x2e, 0xad, 0x0e, 0xbd, 0xf4, 0x6c, 0x02, 0xbf, 0x49, 0x93,
    0xe7, 0x3d, 0x3b, 0xee, 0xae, 0x3d, 0xb9, 0x2b, 0xbf, 0x3e,
    0xc3, 0xad, 0xcc, 0x3e, 0x45, 0x36, 0xdd, 0x3e, 0xd0, 0x8d,
    0x4b, 0xbf, 0x25, 0x6a, 0x21, 0xbf, 0x95, 0xd8, 0x29, 0x3f,
    0x27, 0x10, 0x24, 0x3f, 0x26, 0xaa, 0xae, 0xbe, 0x0c, 0xc2,
    0x55, 0xbf, 0x99, 0xb3, 0x0a, 0xbf, 0x9e, 0xae, 0x90, 0x3c,
    0x0b, 0x8f, 0x24, 0x3e, 0xc3, 0x0b, 0x40, 0x3e, 0x4a, 0x49,
    0xc8, 0x3d, 0xb8, 0x19, 0x8c, 0xbd, 0x4a, 0xcf, 0xdf, 0xbc,
    0x4f, 0x24, 0x38, 0x3c, 0x7c, 0x88, 0x63, 0xbd, 0x4d, 0xdf,
    0xca, 0xbe, 0xbb, 0xec, 0x01, 0xbd, 0xa2, 0x79, 0x1d, 0xbe,
    0x00, 0x40, 0xb8, 0x3e, 0x84, 0x24, 0x2f, 0xbe, 0xaf, 0x7a,
    0x44, 0xbd, 0x9d, 0x7e, 0xe6, 0xbd, 0x62, 0xd6, 0x19, 0xbe,
    0xa5, 0xcc, 0x32, 0x3e, 0x78, 0xd1, 0x42, 0xbf, 0x1c, 0x7d,
    0x98, 0x3d, 0x67, 0xc1, 0x4f, 0x3e, 0x9d, 0x6f, 0x80, 0x3a,
    0xe3, 0x72, 0x62, 0xbe, 0x7a, 0xf6, 0xdc, 0xbe, 0x9e, 0x8e,
    0xf2, 0xba, 0x07, 0x6c, 0x38, 0x3e, 0x41, 0x07, 0x46, 0x3f,
    0x97, 0xb9, 0x7f, 0x3e, 0x0f, 0x22, 0x39, 0xbf, 0x3c, 0x7a,
    0x4f, 0x3f, 0x68, 0x28, 0x95, 0xbc, 0xec, 0xe4, 0x9a, 0xbc,
    0xa6, 0xae, 0xb2, 0x3e, 0x23, 0xad, 0x2a, 0x3f, 0xec, 0x52,
    0x95, 0x3e, 0xff, 0xca, 0x20, 0xbc, 0x96, 0xd0, 0xf0, 0xbd,
    0x64, 0xdb, 0xd6, 0x3e, 0x2a, 0xf8, 0x6b, 0xbe, 0x36, 0x6e,
    0x13, 0x3e, 0xb0, 0xc1, 0x0e, 0xbe, 0x03, 0xe8, 0xd9, 0x3e,
    0x98, 0x60, 0xca, 0x3d, 0x25, 0x03, 0xf1, 0x3e, 0x19, 0xc4,
    0x69, 0xbd, 0x33, 0xcb, 0xa8, 0x3c, 0x87, 0xaa, 0x06, 0x3d,
    0x6e, 0xf1, 0xf0, 0x3d, 0x82, 0x43, 0x8a, 0xbd, 0x17, 0xec,
    0xa9, 0xbe, 0xa6, 0x3d, 0x80, 0x3e, 0x36, 0xba, 0x02, 0xbf,
    0x92, 0x5e, 0xdc, 0xbc, 0x92, 0x12, 0x7c, 0xbe, 0x3a, 0x44,
    0x5b, 0x3f, 0xd5, 0x66, 0xa9, 0x3f, 0x47, 0x2b, 0x1c, 0xbf,
    0xd1, 0x68, 0x07, 0xbf, 0x9d, 0x9f, 0x9b, 0xbe, 0xd7, 0x1c,
    0x1a, 0xbf, 0x3a, 0xb2, 0x02, 0x3f, 0xeb, 0xd5, 0x9a, 0xbf,
    0x80, 0x2c, 0xbb, 0xbb, 0x59, 0xf9, 0x33, 0xbe, 0x19, 0xae,
    0xa4, 0x3e, 0x9c, 0x72, 0xdd, 0x3e, 0x41, 0xc1, 0x79, 0x3d,
    0x7e, 0x23, 0xa6, 0x3e, 0x7c, 0xa8, 0x5a, 0xbf, 0x85, 0x84,
    0xc4, 0x3e, 0x57, 0x8a, 0xff, 0xbd, 0x7a, 0x70, 0xf3, 0xbe,
    0x4f, 0xb9, 0x8f, 0x3f, 0xf6, 0x10, 0xaf, 0x3e, 0xd0, 0xa9,
    0xa1, 0x3e, 0x22, 0xe8, 0x01, 0x3e, 0x6f, 0xcb, 0x67, 0x3e,
    0xe1, 0xe5, 0x13, 0x3f, 0x31, 0x79, 0x71, 0xbe, 0x5b, 0xdd,
    0xae, 0x3e, 0x5f, 0xdb, 0xa2, 0xbe, 0x12, 0x30, 0xf4, 0x3c,
    0xfc, 0x79, 0x4c, 0xbe, 0x72, 0xbd, 0xf8, 0x3e, 0x38, 0xc0,
    0x98, 0xbe, 0x88, 0xb8, 0x8f, 0xbd, 0xeb, 0x0a, 0x70, 0xbe,
    0xb9, 0x4d, 0x7f, 0x3e, 0x8d, 0xbb, 0x17, 0xbe, 0xa3, 0x8d,
    0x3e, 0x3e, 0x0d, 0xfb, 0x88, 0x3e, 0xf0, 0xc4, 0xa3, 0x3e,
    0x28, 0x59, 0x0f, 0xbd, 0xf1, 0xe6, 0x98, 0x3e, 0xca, 0xcd,
    0x1e, 0x3f, 0x2b, 0x5e, 0xb9, 0xbd, 0xa0, 0xf9, 0x7b, 0x3e,
    0xf8, 0xdf, 0x09, 0xbf, 0x5a, 0x69, 0x43, 0x3d, 0x9b, 0x26,
    0x91, 0x3e, 0x41, 0x61, 0xf0, 0x3e, 0x45, 0x0f, 0xe1, 0xbe,
    0xdc, 0x8a, 0x2e, 0x3f, 0x24, 0x22, 0x01, 0x3f, 0x0d, 0x97,
    0x93, 0xbf, 0xb6, 0xe3, 0xb1, 0x3e, 0xf6, 0x5e, 0xb4, 0x3e,
    0x04, 0xca, 0xd5, 0x3e, 0x95, 0x5f, 0x6a, 0x3e, 0xb0, 0x3f,
    0xd9, 0x3e, 0xc5, 0x5e, 0x3e, 0x3d, 0x07, 0xf7, 0x0c, 0x3e,
    0x4d, 0x88, 0x19, 0x3e, 0xa6, 0x72, 0x9b, 0x3e, 0x34, 0xb3,
    0xba, 0xbb, 0x91, 0xcf, 0xd7, 0x3e, 0x71, 0xdf, 0x20, 0x3d,
    0x3b, 0x54, 0xb7, 0x3e, 0x33, 0x64, 0xd2, 0x3e, 0x3e, 0x80,
    0xad, 0x3e, 0x7b, 0x1f, 0xfc, 0x3d, 0xf8, 0xae, 0xc5, 0xbd,
    0x02, 0x71, 0xec, 0x38, 0x63, 0x20, 0xb5, 0xbe, 0x54, 0xcb,
    0x97, 0xbd, 0x2f, 0xa5, 0x8a, 0xbe, 0xa7, 0x0f, 0x2d, 0x3f,
    0x0c, 0x5a, 0x9e, 0x3f, 0x4b, 0x09, 0x9b, 0xbf, 0x1f, 0x53,
    0x3f, 0x3c, 0x45, 0x63, 0xb0, 0xbe, 0x68, 0x48, 0xce, 0x3e,
    0x0e, 0x85, 0x95, 0x3d, 0xba, 0x0c, 0xce, 0x3d, 0xfb, 0xae,
    0x29, 0x3e, 0xdb, 0xe4, 0x06, 0xbe, 0x27, 0xa2, 0x80, 0xbe,
    0x54, 0x2c, 0xa2, 0xbe, 0xf5, 0xd9, 0x96, 0x3e, 0xd7, 0xfd,
    0x75, 0x3d, 0xbc, 0x6c, 0xd2, 0xbe, 0x49, 0x08, 0x88, 0x3e,
    0x9b, 0xd1, 0xeb, 0xbd, 0x22, 0xfe, 0xe9, 0xbd, 0x15, 0x64,
    0x9e, 0xbe, 0xf7, 0x0a, 0x8f, 0xbe, 0x7b, 0xfc, 0xc9, 0xbe,
    0x37, 0x6e, 0xd6, 0xbe, 0x85, 0xe2, 0x67, 0x3e, 0x1e, 0x3a,
    0x83, 0xbe, 0x1d, 0x7a, 0x63, 0x3e, 0x7e, 0x8d, 0xed, 0x3e,
    0x95, 0x60, 0x89, 0xbf, 0x0c, 0x79, 0x83, 0x3e, 0x3f, 0x1d,
    0xc2, 0xbb, 0x35, 0xe6, 0xa1, 0x3e, 0x01, 0x23, 0x0b, 0xbd,
    0xb5, 0x73, 0x85, 0x3e, 0x3f, 0x31, 0xfe, 0xbb, 0x84, 0xc5,
    0xbc, 0x3d, 0x1f, 0x4d, 0x47, 0xbd, 0xf6, 0xa0, 0x16, 0xbe,
    0xbd, 0x80, 0xf8, 0x3d, 0x08, 0x2a, 0xc0, 0x3e, 0xaa, 0xbe,
    0x3f, 0xbe, 0x0d, 0xa9, 0xfd, 0x3b, 0x70, 0x7d, 0x7d, 0x3e,
    0xcb, 0x5f, 0xd9, 0xbb, 0xe9, 0x27, 0xd2, 0xbd, 0x82, 0xa4,
    0x70, 0x3e, 0x78, 0xa3, 0xe8, 0xbe, 0x25, 0xb3, 0x4c, 0x3f,
    0x2a, 0xae, 0x81, 0xbd, 0x81, 0x22, 0x60, 0xbd, 0x0b, 0xa3,
    0x88, 0x3e, 0xaf, 0xf4, 0x2f, 0xbf, 0x96, 0xcb, 0xbd, 0xbc,
    0xa0, 0x35, 0x12, 0xbf, 0xfb, 0x3c, 0xec, 0xbe, 0x41, 0x7c,
    0xe4, 0xbe, 0x9b, 0xcf, 0xe5, 0x3d, 0xad, 0x58, 0x81, 0xbd,
    0x91, 0x59, 0x5e, 0x3d, 0xed, 0x05, 0x27, 0xbe, 0x09, 0x4f,
    0x3a, 0xbe, 0xe3, 0x78, 0x23, 0xbf, 0x90, 0x8b, 0xd6, 0x3d,
    0x84, 0x11, 0x87, 0xbe, 0xbb, 0x05, 0xcb, 0x3d, 0x51, 0x8e,
    0xb6, 0xbd, 0x25, 0xa5, 0x04, 0x3e, 0x94, 0x38, 0xcc, 0xbc,
    0x4a, 0x2c, 0xa1, 0xbe, 0x35, 0xd8, 0x2f, 0x3e, 0x18, 0x04,
    0xbb, 0x3c, 0x44, 0x9d, 0x1d, 0xbe, 0xa9, 0x80, 0x59, 0x3e,
    0x39, 0x0f, 0x78, 0x3e, 0xda, 0xc9, 0x9a, 0x3e, 0x60, 0xa0,
    0x30, 0xbe, 0x43, 0x91, 0xef, 0xbe, 0xeb, 0xa9, 0x60, 0xbd,
    0xc5, 0xe5, 0x6c, 0xbd, 0x5e, 0xe8, 0x93, 0xbc, 0x20, 0x60,
    0x1d, 0x3d, 0xf0, 0x11, 0x77, 0x3d, 0x7d, 0xd9, 0x2c, 0xbe,
    0xa5, 0xd2, 0x06, 0xbe, 0xc3, 0x89, 0x96, 0x3d, 0xf7, 0xb6,
    0x08, 0xbd, 0xec, 0xae, 0x92, 0x3e, 0xd2, 0x2f, 0xa1, 0x3d,
    0x95, 0xb4, 0x87, 0xbe, 0x5d, 0xf4, 0xbf, 0x3d, 0xe8, 0x59,
    0x22, 0xbd, 0x22, 0x1e, 0x7e, 0x3d, 0x26, 0xd3, 0x48, 0xbe,
    0xd9, 0xa0, 0xc1, 0x3e, 0xb4, 0x9e, 0x34, 0x3f, 0xb9, 0x33,
    0xb8, 0x3d, 0xa7, 0x1a, 0xab, 0xbd, 0x8f, 0x9d, 0xfc, 0x3e,
    0x36, 0x3e, 0xc7, 0xbe, 0x34, 0x24, 0xe2, 0xbd, 0xb7, 0x86,
    0x0b, 0xbf, 0xaf, 0xac, 0x04, 0xbf, 0xe1, 0x7d, 0xd9, 0xbe,
    0x21, 0xe1, 0x36, 0xbf, 0xaf, 0xfd, 0x83, 0x3d, 0x05, 0x1d,
    0xb0, 0xbd, 0x14, 0xeb, 0x74, 0x3d, 0xf4, 0x60, 0x2b, 0xbe,
    0xa7, 0x8e, 0x3b, 0xbe, 0xb1, 0x06, 0x88, 0x3d, 0xf4, 0x1c,
    0x84, 0xbd, 0x8e, 0x24, 0x72, 0x3e, 0xcd, 0xea, 0x3c, 0xbd,
    0x35, 0x24, 0x1e, 0xbe, 0xc2, 0xaa, 0x75, 0x3e, 0xfc, 0xc8,
    0x6a, 0x3a, 0xc2, 0xc6, 0xc9, 0x3e, 0x68, 0xa5, 0x1f, 0xbd,
    0xd9, 0xf6, 0xbf, 0xbe, 0x6c, 0xf9, 0x9b, 0x3e, 0xc5, 0x39,
    0x00, 0xbf, 0x96, 0x1c, 0x32, 0xbf, 0xb6, 0xa7, 0x22, 0xbf,
    0x10, 0xde, 0x81, 0xbe, 0xb5, 0x4d, 0x44, 0x3d, 0xd6, 0x25,
    0x34, 0xbf, 0xe5, 0x34, 0x9d, 0xbd, 0x7b, 0x4c, 0x15, 0x3f,
    0x9e, 0x5d, 0xce, 0xbb, 0x46, 0xc6, 0xfc, 0x3d, 0xe8, 0xe2,
    0x8c, 0xbe, 0x98, 0xbe, 0x48, 0xbe, 0x49, 0xba, 0x8d, 0xbd,
    0x55, 0xdb, 0xf1, 0xbe, 0x84, 0x2f, 0x93, 0xbd, 0xb2, 0x70,
    0xc6, 0xbd, 0xbf, 0xea, 0x59, 0xbe, 0xf3, 0x46, 0x30, 0xbd,
    0x13, 0x44, 0x21, 0xbe, 0xbc, 0x56, 0xba, 0xbe, 0xeb, 0x52,
    0x53, 0x3d, 0x8f, 0x3f, 0x54, 0x3d, 0xcc, 0x11, 0x22, 0x3d,
    0xd0, 0xd2, 0xf0, 0xbe, 0x4b, 0x5a, 0x07, 0xbe, 0xf8, 0x9e,
    0xe1, 0x3e, 0xb3, 0xcd, 0xaa, 0x3b, 0xea, 0x2d, 0xfa, 0xbd,
    0x07, 0x02, 0x27, 0xbe, 0xa2, 0xd5, 0x86, 0x3e, 0x92, 0xe9,
    0xa8, 0x3d, 0x88, 0x9f, 0x27, 0xbf, 0xf3, 0x0a, 0x9e, 0xbe,
    0x7a, 0x12, 0xd6, 0xbd, 0x41, 0x20, 0x20, 0x3e, 0x8a, 0xb4,
    0xa0, 0xbd, 0x5d, 0x8d, 0x02, 0xbf, 0xce, 0x1d, 0x84, 0x3e,
    0xf2, 0xc1, 0xdc, 0x3c, 0x84, 0x6f, 0xc5, 0x3e, 0x5a, 0xd0,
    0x25, 0x3c, 0x07, 0x36, 0xd0, 0x3d, 0x5a, 0xc2, 0x76, 0xbe,
    0xbb, 0x6f, 0x03, 0x3f, 0xe9, 0x73, 0xbe, 0xbe, 0x2d, 0xae,
    0x96, 0x3e, 0x52, 0x38, 0x42, 0xbe, 0xac, 0xb8, 0xe2, 0x3e,
    0xd6, 0x3b, 0xd2, 0x3c, 0x8f, 0x3d, 0x9c, 0xbe, 0x99, 0x1d,
    0x21, 0x3e, 0x46, 0xc0, 0xcf, 0x3d, 0xc6, 0x9a, 0x2e, 0xbe,
    0xc7, 0x25, 0xb9, 0x3e, 0xa1, 0x74, 0x96, 0x3e, 0xf9, 0x68,
    0x5f, 0x3e, 0xb4, 0xe9, 0xbf, 0xbd, 0x25, 0xbe, 0xa6, 0xbe,
    0x1d, 0x4e, 0x7a, 0xbe, 0xf3, 0xcb, 0x15, 0xbf, 0x34, 0x86,
    0x94, 0xbd, 0xf5, 0xd2, 0x42, 0x3e, 0x3f, 0x73, 0xaa, 0xbe,
    0x4b, 0xee, 0xb3, 0x3d, 0x49, 0x2b, 0x77, 0x3e, 0xba, 0x42,
    0x56, 0xbb, 0xa7, 0xf2, 0x4e, 0x3e, 0x3a, 0x1c, 0xa1, 0x3e,
    0xa7, 0x66, 0xaf, 0xbe, 0x96, 0xe4, 0xbd, 0x3d, 0x6c, 0x07,
    0x80, 0xbe, 0x2d, 0xac, 0x3f, 0x3e, 0x6d, 0xa3, 0x42, 0x3e,
    0xdc, 0xdd, 0x96, 0xbd, 0xe0, 0x28, 0x99, 0xbd, 0xa9, 0xc1,
    0xae, 0x3e, 0x1e, 0x44, 0xec, 0xbe, 0xa5, 0x49, 0x18, 0xbe,
    0x8d, 0x95, 0x35, 0x3f, 0xa2, 0x95, 0x8c, 0x3e, 0x55, 0x87,
    0xd8, 0x3e, 0x81, 0xc8, 0xa2, 0x3f, 0x86, 0xbb, 0x37, 0x3f,
    0xb6, 0x74, 0x29, 0xbf, 0x78, 0x72, 0xe2, 0xbd, 0xa1, 0x1e,
    0x3f, 0xbe, 0xf2, 0xdf, 0x97, 0xbe, 0x5f, 0xbe, 0x29, 0xbe,
    0x4e, 0xf7, 0x70, 0x3c, 0x20, 0xb4, 0xe8, 0x3d, 0x12, 0xe8,
    0x69, 0x3e, 0x83, 0xb7, 0xb6, 0xbe, 0x47, 0x22, 0x0e, 0x3e,
    0x34, 0xda, 0x1a, 0xbe, 0x42, 0xea, 0xbe, 0xbd, 0x51, 0xc4,
    0x5a, 0xbe, 0x4a, 0xc3, 0x2d, 0xbe, 0xeb, 0x03, 0x70, 0x3e,
    0x8b, 0x57, 0xd3, 0x3c, 0x7b, 0xa3, 0x03, 0xbf, 0xc6, 0x97,
    0xa9, 0x3e, 0x4c, 0x0b, 0x13, 0x3e, 0xdc, 0xad, 0x1b, 0xbf,
    0x64, 0x5a, 0xd0, 0xbd, 0xa1, 0x9e, 0xa7, 0xbf, 0xc6, 0x90,
    0x9a, 0xbf, 0xf5, 0x8b, 0xfa, 0xbe, 0xed, 0x3a, 0xb5, 0x3b,
    0xd6, 0x51, 0x97, 0xbe, 0xb5, 0xa2, 0xdf, 0x3d, 0x8b, 0x6c,
    0xd3, 0xbe, 0xa2, 0xdd, 0x5d, 0xbd, 0xb1, 0x42, 0xb4, 0x3e,
    0x02, 0x84, 0x55, 0x3e, 0xc7, 0x6c, 0xa7, 0x3e, 0x3a, 0x31,
    0x88, 0xbe, 0xf8, 0xeb, 0x54, 0xbe, 0xce, 0x23, 0xa6, 0xbe,
    0x6b, 0x97, 0x2c, 0xbd, 0xe0, 0x1e, 0x46, 0x3e, 0x08, 0x03,
    0x88, 0x3e, 0x44, 0x42, 0x75, 0xbe, 0x8f, 0x4f, 0x8e, 0xbe,
    0x1d, 0xb4, 0x32, 0xbe, 0xda, 0xfc, 0x8b, 0x3e, 0x7a, 0xcc,
    0x46, 0xbf, 0x3e, 0xbb, 0xa9, 0xbd, 0x82, 0xa7, 0x9e, 0x3d,
    0x3d, 0x34, 0xa0, 0x3d, 0x28, 0x2c, 0x89, 0xbd, 0xb3, 0x66,
    0x0d, 0xbd, 0xc7, 0x9c, 0x11, 0xbf, 0xcf, 0x54, 0x11, 0x3e,
    0x9b, 0xd2, 0x1a, 0x3d, 0xf7, 0x4c, 0xc4, 0x3e, 0x18, 0x28,
    0x65, 0xbe, 0xc1, 0x3c, 0xd7, 0x3d, 0xc6, 0xd6, 0x53, 0xbe,
    0x01, 0x00, 0x25, 0xbe, 0x62, 0x0c, 0x28, 0xbb, 0x45, 0x26,
    0x28, 0xbf, 0xf3, 0x7d, 0xea, 0xbe, 0x80, 0xec, 0xbd, 0xbe,
    0xef, 0x8f, 0x67, 0xbf, 0x34, 0xf9, 0x0e, 0xbf, 0x6e, 0x76,
    0x17, 0x3f, 0xae, 0x61, 0x15, 0x3e, 0x5c, 0xf2, 0x7b, 0x3e,
    0x22, 0x5b, 0x64, 0x39, 0xbb, 0xfc, 0xd5, 0x3e, 0x25, 0xf5,
    0xe2, 0x3d, 0xdf, 0x98, 0x03, 0xbe, 0xc5, 0x4b, 0x29, 0xbd,
    0x28, 0xa7, 0x21, 0xbe, 0xaf, 0xa0, 0xa2, 0x3d, 0xac, 0x56,
    0x95, 0xbc, 0xd7, 0x44, 0xc7, 0x3d, 0x20, 0xcc, 0x22, 0x3e,
    0x81, 0x00, 0xc5, 0x3c, 0x77, 0x60, 0xbd, 0x3d, 0x3a, 0x8b,
    0x1e, 0xbd, 0xd3, 0x4e, 0xae, 0xbe, 0xdc, 0x94, 0xba, 0xbc,
    0x57, 0xd3, 0x76, 0xbc, 0x19, 0x7f, 0xe8, 0x3b, 0x88, 0x10,
    0x90, 0xbe, 0x20, 0xb1, 0x36, 0x3e, 0xc4, 0x8e, 0x8d, 0x3d,
    0x55, 0x78, 0x85, 0x3d, 0xa4, 0x3e, 0x86, 0xbe, 0x71, 0x57,
    0x3e, 0xbe, 0x0e, 0xda, 0xc6, 0xbe, 0x63, 0x58, 0x16, 0xbe,
    0x60, 0xff, 0xe0, 0xbd, 0x34, 0xcb, 0xea, 0x3d, 0x3e, 0xa5,
    0xea, 0xbe, 0xa4, 0xa0, 0x23, 0xbd, 0x26, 0x84, 0x7a, 0xbd,
    0xbd, 0x51, 0xba, 0xbd, 0x95, 0x4d, 0xed, 0x3d, 0x8b, 0x8d,
    0x38, 0xbe, 0xc4, 0x2c, 0x8f, 0xbd, 0x80, 0x9b, 0x5e, 0x3e,
    0xd4, 0x03, 0x35, 0xbb, 0xec, 0x33, 0xa5, 0xbe, 0xf8, 0x5a,
    0x1f, 0x3f, 0x84, 0x98, 0x59, 0xbf, 0x12, 0x61, 0xd2, 0xbd,
    0x35, 0x57, 0xca, 0xbc, 0x96, 0xfd, 0x7c, 0x3e, 0xdb, 0xd1,
    0x6a, 0x3e, 0x23, 0x02, 0x0e, 0xbe, 0xeb, 0x81, 0x69, 0x3e,
    0x43, 0xce, 0xc1, 0xbd, 0x19, 0x4a, 0xde, 0x3c, 0xcb, 0xb4,
    0xbd, 0xbe, 0xde, 0x84, 0x52, 0xbe, 0x43, 0x8e, 0x26, 0x3d,
    0xc0, 0xd1, 0xe7, 0x3e, 0xaa, 0x88, 0xd2, 0xbe, 0x70, 0x1b,
    0x8a, 0x3d, 0x0d, 0xb0, 0x45, 0xbe, 0x50, 0x38, 0x9a, 0x3e,
    0xd6, 0xc2, 0x19, 0xbe, 0xdb, 0x66, 0x55, 0xbe, 0xd1, 0x5c,
    0x2d, 0x3a, 0xa0, 0x25, 0xc6, 0x3e, 0xc9, 0x57, 0x08, 0xbf,
    0x9d, 0x21, 0x0e, 0xbf, 0x60, 0x15, 0x6a, 0x3f, 0xe1, 0x3d,
    0x39, 0xbf, 0xbb, 0x8b, 0x0b, 0x3e, 0xca, 0xbe, 0x3e, 0xbd,
    0x2c, 0xa6, 0x12, 0xbe, 0xfe, 0x3e, 0xcd, 0xbd, 0xbc, 0x59,
    0x1e, 0x3e, 0xe6, 0x4e, 0x59, 0xbe, 0x0a, 0xa5, 0xea, 0xbd,
    0xf1, 0x6b, 0x1a, 0xbe, 0x4b, 0x6f, 0xf4, 0x3e, 0xdc, 0xed,
    0x16, 0xbe, 0x29, 0xae, 0x17, 0x3e, 0xfa, 0xd4, 0x0c, 0x3e,
    0xcc, 0xd7, 0x0d, 0x3e, 0x91, 0xe8, 0x26, 0xbe, 0x5e, 0x4d,
    0xfe, 0xbd, 0x8b, 0xfd, 0x64, 0xbe, 0x3b, 0xb2, 0x77, 0xbe,
    0xf2, 0xc0, 0x9d, 0x3e, 0x49, 0x7f, 0x43, 0x3e, 0xe5, 0x85,
    0x1d, 0x3c, 0x95, 0x48, 0xc0, 0xbe, 0x70, 0x59, 0xde, 0x3e,
    0x58, 0xd3, 0x45, 0xbf, 0x3a, 0x19, 0x2c, 0x3f, 0x83, 0xd5,
    0xc4, 0xbe, 0xf1, 0x95, 0xa1, 0xbe, 0x17, 0x60, 0x54, 0xbe,
    0xe4, 0x3a, 0x85, 0xbd, 0xd0, 0x0f, 0x82, 0x3e, 0x83, 0x5f,
    0x62, 0xbe, 0x42, 0xc0, 0xbc, 0xbd, 0x20, 0x18, 0xc0, 0xbd,
    0x46, 0xfb, 0x7b, 0x3e, 0x3e, 0x23, 0x62, 0xbd, 0x5f, 0x67,
    0xa4, 0x3e, 0x30, 0x0d, 0x56, 0x3d, 0xff, 0x19, 0x49, 0x3e,
    0x51, 0xc9, 0x52, 0x3d, 0x52, 0xab, 0x93, 0x3d, 0x2d, 0x03,
    0x8c, 0x3e, 0xc3, 0x57, 0x7d, 0x3e, 0x50, 0x14, 0xae, 0xbd,
    0x05, 0x4b, 0x7a, 0x3d, 0x23, 0xc5, 0x94, 0x3e, 0x70, 0xe3,
    0x71, 0xbe, 0x01, 0xa2, 0x56, 0xbe, 0x8e, 0x13, 0x1b, 0x3f,
    0xcc, 0x20, 0x50, 0xbf, 0xed, 0xc8, 0xb7, 0xbd, 0x77, 0x13,
    0x46, 0xbf, 0x36, 0xde, 0xab, 0xbe, 0x0a, 0x9a, 0x29, 0x3e,
    0x63, 0x01, 0xed, 0x3d, 0x19, 0x09, 0x46, 0x3f, 0xab, 0x2e,
    0x00, 0xbe, 0xee, 0x3c, 0xd4, 0x3d, 0x9f, 0xc0, 0x9f, 0xbe,
    0x17, 0xb5, 0xc7, 0xbe, 0xec, 0x07, 0x0e, 0xbe, 0xf8, 0xe1,
    0x0d, 0x3f, 0xd6, 0x20, 0x40, 0xbe, 0x17, 0xb3, 0x14, 0x3f,
    0x4c, 0x62, 0x50, 0xbd, 0x6d, 0x1d, 0xec, 0x3e, 0x00, 0xef,
    0x6b, 0x3d, 0x73, 0x6b, 0x40, 0xbf, 0xeb, 0x2e, 0x89, 0x3e,
    0xdd, 0x19, 0xf1, 0x3e, 0x88, 0x58, 0x82, 0xbe, 0x23, 0xf0,
    0x70, 0x3e, 0x0a, 0x33, 0x45, 0x3e, 0xb8, 0x50, 0x0c, 0x3f,
    0x91, 0x93, 0xd7, 0x3e, 0xf9, 0xc4, 0x8f, 0xbe, 0x84, 0xa7,
    0xe4, 0x3c, 0xc5, 0x9e, 0xea, 0xbc, 0x4d, 0x6c, 0xc7, 0xbd,
    0xac, 0x74, 0x4e, 0x3c, 0x1c, 0x07, 0x83, 0x3c, 0x8d, 0xc4,
    0x8c, 0xbc, 0xee, 0x0a, 0x39, 0xbe, 0x38, 0x11, 0x3f, 0x3d,
    0xc5, 0x79, 0xea, 0x3e, 0x82, 0x5f, 0x18, 0xbe, 0x83, 0xa3,
    0xad, 0xbc, 0x89, 0xf7, 0x0e, 0xbe, 0x94, 0x91, 0xcc, 0xbc,
    0x6c, 0x31, 0x4d, 0xbe, 0x70, 0xb1, 0x04, 0xbd, 0x02, 0xc3,
    0xec, 0x3d, 0x14, 0x7a, 0xb3, 0x3e, 0x7a, 0x33, 0x3f, 0xbd,
    0x6c, 0xe2, 0x03, 0xbe, 0xbb, 0x0f, 0x97, 0x3c, 0x57, 0xbf,
    0x98, 0xbf, 0x5e, 0x42, 0x66, 0x3f, 0x47, 0xc1, 0x95, 0xbc,
    0xd0, 0x9d, 0xa9, 0x3d, 0xb9, 0x80, 0xc9, 0x3e, 0x24, 0x75,
    0x25, 0x3e, 0xa4, 0x16, 0x14, 0x3a, 0xe0, 0x2a, 0x03, 0xbe,
    0x77, 0x82, 0x33, 0xbd, 0xd0, 0xd7, 0x13, 0xbe, 0x1d, 0xa6,
    0xd2, 0x3d, 0x7e, 0x04, 0xcd, 0x3d, 0x46, 0xd1, 0x8f, 0x3e,
    0xef, 0xee, 0x2d, 0x3d, 0x09, 0xdf, 0x66, 0xbc, 0xb1, 0x36,
    0x21, 0xbf, 0x44, 0x91, 0x5a, 0x3e, 0xf3, 0x96, 0x06, 0x3e,
    0xb1, 0x7f, 0x1e, 0xbd, 0x69, 0x88, 0x8a, 0x3e, 0x8b, 0x1d,
    0x29, 0x3e, 0xb8, 0x72, 0x19, 0xbd, 0x20, 0x08, 0x7e, 0x3d,
    0x66, 0xab, 0x1c, 0x3e, 0x70, 0x71, 0x83, 0xbf, 0xf4, 0x00,
    0x4d, 0x3f, 0x54, 0xf3, 0x6f, 0x3d, 0x4b, 0x79, 0xa5, 0x3e,
    0xa0, 0xf7, 0x17, 0xbd, 0xc8, 0xe7, 0xfc, 0xbd, 0xf7, 0xfc,
    0x5e, 0x3e, 0x56, 0xd1, 0xb7, 0x3d, 0xf9, 0x5f, 0x25, 0xbd,
    0x40, 0x38, 0x7a, 0xbe, 0x9d, 0x53, 0xf9, 0x3e, 0xd4, 0x22,
    0xec, 0x3d, 0xa4, 0x03, 0xa5, 0x3e, 0xa2, 0x44, 0x7a, 0xbe,
    0x00, 0xab, 0xf1, 0x3e, 0x56, 0x55, 0xd8, 0xbe, 0xa4, 0x53,
    0x92, 0x3e, 0x16, 0xb0, 0xcd, 0xbe, 0x63, 0x1a, 0xcf, 0x3c,
    0x0f, 0xb9, 0xb7, 0x3e, 0x3c, 0xeb, 0x97, 0x3e, 0x8f, 0xb6,
    0xf1, 0xbd, 0x8d, 0x3d, 0xf4, 0x3e, 0xcf, 0x2c, 0x31, 0xbe,
    0x2c, 0x90, 0x53, 0x3e, 0xe1, 0xc0, 0x64, 0xbd, 0x61, 0xae,
    0x42, 0xbf, 0x78, 0xb1, 0xb9, 0x3e, 0x2f, 0x43, 0x8f, 0x3d,
    0x3e, 0x1f, 0x12, 0x3e, 0x12, 0xcf, 0x8e, 0xbd, 0x25, 0x3d,
    0x7e, 0x3d, 0xc4, 0x72, 0x30, 0x3d, 0x8c, 0x38, 0x04, 0xbd,
    0xa8, 0x99, 0x0f, 0x3d, 0x64, 0xa5, 0xd8, 0x3c, 0xfb, 0xad,
    0x97, 0x3d, 0x3d, 0x7f, 0xe5, 0x3d, 0x39, 0x99, 0x90, 0x3e,
    0x9c, 0x74, 0x14, 0xbd, 0x93, 0x27, 0xbc, 0x3d, 0xae, 0x91,
    0x4b, 0x3e, 0x0e, 0x0f, 0x8e, 0xbe, 0x28, 0xe7, 0xfa, 0xbe,
    0xb2, 0x7e, 0x10, 0x3d, 0x7d, 0x74, 0xd7, 0xbd, 0x0f, 0xd6,
    0x94, 0x3e, 0x06, 0x96, 0x0d, 0x3e, 0x94, 0xba, 0x67, 0xbe,
    0xc5, 0x1f, 0x9c, 0x3b, 0x3c, 0x6d, 0x89, 0xbd, 0x46, 0xf6,
    0x38, 0xbe, 0xc7, 0x58, 0xb8, 0x3d, 0x45, 0x31, 0x66, 0x3e,
    0x24, 0x1f, 0x55, 0xbe, 0x03, 0x59, 0x8d, 0xbd, 0x1e, 0x0b,
    0xe2, 0x3e, 0x3d, 0x60, 0x9b, 0x3e, 0xea, 0xc0, 0x85, 0x3e,
    0x73, 0x8a, 0x8b, 0xbe, 0x4d, 0x22, 0x26, 0xbe, 0x2c, 0x77,
    0x23, 0x3d, 0x2e, 0x53, 0x4e, 0xbc, 0xbf, 0x74, 0xc0, 0x3d,
    0x01, 0x31, 0xd1, 0xbe, 0x06, 0xe8, 0x01, 0xbe, 0x33, 0xa9,
    0x50, 0x3e, 0xbd, 0x6e, 0x1a, 0x3e, 0x34, 0xd8, 0x0c, 0x3d,
    0x6b, 0xcd, 0x53, 0xbd, 0xec, 0x4c, 0x22, 0xbd, 0x03, 0x2d,
    0x5b, 0xbc, 0x6b, 0xed, 0xa1, 0xbe, 0x86, 0x60, 0xb9, 0x3c,
    0xa6, 0x66, 0x12, 0xbd, 0xa4, 0x74, 0x9a, 0x3e, 0xda, 0x27,
    0x7b, 0xbe, 0xea, 0x6a, 0x47, 0xbf, 0xb4, 0x32, 0x58, 0x3e,
    0x61, 0x9c, 0x8c, 0xbe, 0x42, 0xa6, 0x46, 0x3c, 0x44, 0x8e,
    0x1a, 0x3f, 0xdc, 0xa1, 0x17, 0x3f, 0xf1, 0xf6, 0xbb, 0xbe,
    0x14, 0x76, 0x2b, 0xbe, 0x3e, 0x89, 0x8b, 0x3e, 0x6b, 0x76,
    0x2c, 0xbe, 0x05, 0x67, 0xf7, 0xbd, 0xaf, 0xa2, 0x2d, 0xbd,
    0xcc, 0xc7, 0x0c, 0x3e, 0x92, 0xbb, 0x6d, 0x3e, 0xdf, 0xe4,
    0x90, 0xbe, 0x5b, 0xaa, 0xed, 0xbd, 0x75, 0x64, 0xe8, 0x3c,
    0x33, 0x19, 0x5d, 0x3e, 0xf4, 0x7a, 0x30, 0xbd, 0xe0, 0xe6,
    0xae, 0x3e, 0xbe, 0xe9, 0x1f, 0x3d, 0xba, 0x81, 0x28, 0xbe,
    0xa3, 0xf4, 0xc8, 0xbe, 0xd2, 0xa1, 0xfa, 0x3e, 0x25, 0x03,
    0x23, 0x3f, 0x23, 0x1a, 0xd5, 0xbe, 0xd9, 0xd9, 0xce, 0x3e,
    0x8c, 0x73, 0x7a, 0x3d, 0xd5, 0x91, 0x45, 0xbf, 0x8c, 0x91,
    0x0e, 0xbf, 0x61, 0x77, 0x79, 0x3d, 0x37, 0x6a, 0xa0, 0xbe,
    0x44, 0x27, 0x5f, 0xbe, 0x4a, 0x10, 0x7a, 0x3c, 0x4a, 0x72,
    0xb7, 0x3c, 0xbd, 0x98, 0x5c, 0xbe, 0x8a, 0xc1, 0x82, 0xbe,
    0xd7, 0x22, 0x6b, 0xbe, 0x10, 0xa8, 0xf6, 0x3e, 0xa5, 0x42,
    0x6f, 0xbe, 0xad, 0x8a, 0xd7, 0xbd, 0x66, 0xeb, 0x15, 0x3e,
    0x26, 0xec, 0x76, 0x3e, 0xe0, 0x2d, 0x12, 0xbe, 0xc4, 0xd1,
    0xfc, 0xbd, 0x85, 0x65, 0x76, 0xbe, 0x62, 0x56, 0x7e, 0x3f,
    0x33, 0xc1, 0x8b, 0xbe, 0x95, 0x68, 0x49, 0xbe, 0x4a, 0x7a,
    0x85, 0xbe, 0xe6, 0xa6, 0x9e, 0xbd, 0xde, 0xf8, 0x16, 0xbe,
    0x7a, 0x8d, 0x59, 0xbe, 0xf2, 0x0e, 0x94, 0xbd, 0x14, 0x94,
    0x1c, 0x3f, 0x64, 0x03, 0x20, 0xbe, 0xa6, 0xae, 0xb4, 0x3d,
    0x31, 0xc0, 0xc4, 0xbc, 0x58, 0x24, 0x9b, 0xbd, 0x3b, 0x28,
    0x96, 0x3d, 0x14, 0x2d, 0xcb, 0x3d, 0xd3, 0x5c, 0x9d, 0xbd,
    0x13, 0xdc, 0x74, 0xbe, 0x49, 0x25, 0xfa, 0xbd, 0xca, 0xf2,
    0x41, 0x3e, 0x0f, 0xd0, 0x48, 0x3e, 0xec, 0x07, 0x0a, 0x3d,
    0x11, 0x20, 0x14, 0xbf, 0x2f, 0xb7, 0x23, 0x3e, 0xf0, 0x14,
    0xc8, 0xbe, 0x10, 0xe8, 0xdf, 0x3e, 0x30, 0xe1, 0x2d, 0xbe,
    0x52, 0x94, 0xe0, 0xbe, 0x9b, 0xc5, 0x6b, 0x3e, 0x72, 0x04,
    0x06, 0xbf, 0xbd, 0xba, 0x1d, 0xbc, 0x98, 0xf2, 0x12, 0x3f,
    0x8b, 0x7f, 0x3b, 0x3f, 0xa1, 0x68, 0x0b, 0xbe, 0xfe, 0x19,
    0x62, 0xbe, 0xef, 0xa9, 0x09, 0x3e, 0x40, 0xda, 0x95, 0xbe,
    0xbf, 0xc7, 0xc6, 0xbd, 0xad, 0x7a, 0x2e, 0x3f, 0x03, 0x07,
    0x47, 0x3d, 0xa8, 0x7e, 0xa0, 0x3d, 0x5d, 0x5b, 0xf5, 0xbd,
    0x21, 0x21, 0x41, 0xbd, 0xee, 0x2b, 0xf1, 0x3d, 0xce, 0xbd,
    0x1e, 0xbe, 0xcd, 0x3a, 0x97, 0xbd, 0xed, 0xc0, 0x76, 0x3f,
    0x5d, 0x66, 0xbe, 0x3c, 0xce, 0xe6, 0x2c, 0x3e, 0xcb, 0x0d,
    0x0e, 0xbf, 0x43, 0x42, 0x45, 0xbe, 0xd2, 0xa5, 0xda, 0x3d,
    0x8f, 0x15, 0x26, 0x3e, 0xd6, 0x47, 0x0a, 0x3e, 0x90, 0x17,
    0x53, 0x3f, 0xbc, 0x6c, 0x99, 0xbe, 0x60, 0xd6, 0xa4, 0xbb,
    0xe5, 0xfc, 0x24, 0xbf, 0x9c, 0xd2, 0x7c, 0xbe, 0xe6, 0x97,
    0xa7, 0x3d, 0x67, 0xf4, 0xd3, 0xbd, 0xf9, 0xb4, 0x30, 0xbd,
    0x9b, 0x19, 0x82, 0xbd, 0x78, 0x5d, 0xd8, 0x3c, 0x87, 0xda,
    0x1a, 0xbe, 0x2d, 0x03, 0xa8, 0x3e, 0x0c, 0xda, 0x0c, 0xbe,
    0x49, 0xe2, 0x74, 0x3d, 0xe2, 0xd3, 0x94, 0x3d, 0xb4, 0xdc,
    0xf1, 0x3d, 0xf1, 0x57, 0xaa, 0x3e, 0x14, 0x5a, 0xf4, 0x3d,
    0x51, 0x16, 0x63, 0xbd, 0xe0, 0x19, 0x9e, 0x3d, 0x79, 0x25,
    0xf0, 0xbc, 0x6b, 0x33, 0xb2, 0x3e, 0x39, 0xac, 0xa2, 0x3d,
    0x7b, 0x0d, 0xf0, 0x3c, 0x43, 0xd9, 0x3e, 0x3f, 0x77, 0x98,
    0x07, 0x3e, 0xc1, 0x97, 0xf2, 0x3d, 0x27, 0x6d, 0x70, 0xbf,
    0x2a, 0xb3, 0x51, 0xbe, 0xc2, 0x17, 0x8d, 0x3e, 0x4d, 0x50,
    0xe3, 0xbd, 0x21, 0xe8, 0x1a, 0x3e, 0x4a, 0xfb, 0x61, 0x3e,
    0xf9, 0x34, 0x2c, 0x3e, 0x12, 0x5a, 0x03, 0x3e, 0xf8, 0x09,
    0x63, 0xbd, 0x0d, 0x40, 0x11, 0xbd, 0xba, 0xf4, 0x80, 0xbd,
    0x48, 0x15, 0x80, 0xbe, 0x0c, 0xfe, 0xc1, 0x3c, 0xd3, 0xee,
    0xcc, 0xbc, 0xae, 0x89, 0xe3, 0x3d, 0x96, 0x3c, 0x23, 0x3d,
    0x2d, 0xa2, 0x64, 0xbe, 0x9c, 0x9f, 0xe0, 0x3e, 0x53, 0x5e,
    0xbc, 0x3e, 0x3b, 0x32, 0x96, 0xbe, 0x94, 0x1a, 0xe5, 0x3e,
    0x3d, 0xc9, 0xe6, 0x3e, 0x0c, 0x5e, 0x28, 0xbf, 0x4e, 0xb9,
    0x16, 0x3c, 0x1f, 0x7d, 0x00, 0xbf, 0xef, 0x27, 0xfb, 0xbe,
    0x84, 0x38, 0x2a, 0xbe, 0x87, 0x32, 0xa5, 0xbc, 0x32, 0x10,
    0x0f, 0xbf, 0x44, 0xc9, 0xf4, 0xbd, 0x63, 0x3b, 0x8a, 0xbe,
    0x48, 0xf2, 0x3b, 0x3f, 0xbd, 0xea, 0x89, 0x3e, 0xd6, 0x96,
    0xaa, 0x3d, 0x2c, 0xbb, 0x88, 0xbd, 0x8c, 0xf1, 0x6e, 0x3e,
    0x1c, 0x49, 0x2d, 0xbe, 0xbb, 0xd8, 0x81, 0x3e, 0x4d, 0x71,
    0x3e, 0x3b, 0xec, 0x3b, 0xad, 0x3d, 0x08, 0x2c, 0x02, 0xbe,
    0x63, 0x9c, 0x91, 0x3b, 0x2e, 0x36, 0x18, 0xbe, 0x6c, 0x6a,
    0xcf, 0xbd, 0xda, 0x37, 0x59, 0xbd, 0xd3, 0xcc, 0x59, 0x3d,
    0x90, 0x85, 0x0f, 0x3f, 0xbb, 0xc0, 0xf3, 0xbd, 0x0d, 0xfc,
    0xae, 0xbc, 0x0f, 0x90, 0x09, 0xbd, 0x76, 0x24, 0x27, 0xbf,
    0xab, 0x63, 0x4e, 0x3f, 0x4c, 0xa9, 0xbc, 0x3e, 0x9a, 0xd6,
    0x64, 0xbf, 0x8c, 0x27, 0x86, 0x3e, 0xa3, 0x6d, 0xaf, 0xbe,
    0x18, 0xe6, 0x16, 0x3f, 0x90, 0x10, 0x8d, 0xbe, 0xa6, 0x21,
    0x96, 0xbd, 0x3d, 0x6c, 0x2e, 0x3d, 0xc2, 0x8c, 0xa6, 0xbe,
    0x89, 0xe0, 0x7e, 0x3e, 0x63, 0xd5, 0x57, 0x3d, 0x30, 0x86,
    0xdb, 0x3d, 0x27, 0x06, 0xf4, 0x3d, 0x2c, 0x5e, 0x63, 0xbe,
    0x31, 0xd0, 0x1c, 0x3e, 0x5f, 0x22, 0xf9, 0xbd, 0xae, 0xf5,
    0xae, 0xbe, 0xb5, 0x02, 0xdd, 0xbd, 0xc7, 0x0b, 0x35, 0x3e,
    0xf2, 0x66, 0xd8, 0x3e, 0xd7, 0x51, 0x0a, 0x3b, 0x71, 0x13,
    0xe8, 0xbe, 0xf6, 0x50, 0x8b, 0xbf, 0x23, 0xb8, 0x97, 0x3f,
    0x04, 0xd3, 0x14, 0xbe, 0x9f, 0x9a, 0x6f, 0xbf, 0x39, 0xd8,
    0x03, 0xbf, 0x24, 0x65, 0xb3, 0x3e, 0xc8, 0x77, 0x12, 0x3f,
    0x04, 0xbd, 0x18, 0x3e, 0xbd, 0x88, 0xb7, 0xbd, 0x81, 0x83,
    0x9b, 0x3d, 0x9a, 0x8a, 0xdc, 0xbe, 0x31, 0xed, 0x87, 0x3d,
    0x64, 0xf9, 0x07, 0x3e, 0x8b, 0xc9, 0xf5, 0x3d, 0x04, 0x05,
    0x1f, 0xbe, 0x14, 0x2e, 0x7a, 0xbc, 0x7a, 0x96, 0x28, 0xbe,
    0x27, 0xc8, 0x69, 0x3d, 0x08, 0x59, 0xbf, 0xbe, 0x40, 0xa6,
    0x2d, 0x3e, 0xab, 0x4e, 0x06, 0x3e, 0xe2, 0xb2, 0x47, 0x3e,
    0x49, 0xa3, 0x09, 0xbe, 0x60, 0x9b, 0x92, 0xbe, 0xb2, 0xc3,
    0xa4, 0xbe, 0x40, 0x50, 0xcb, 0x3e, 0x4a, 0xf5, 0x0a, 0x3f,
    0x15, 0xb5, 0x6f, 0xbc, 0xb9, 0x25, 0xa0, 0xbe, 0x84, 0x1f,
    0x97, 0xbe, 0xb5, 0x7c, 0x90, 0xbc, 0x8a, 0x7f, 0x08, 0x3e,
    0x55, 0x0e, 0x52, 0xbe, 0x6e, 0x07, 0x56, 0xbd, 0x7b, 0x39,
    0xe9, 0x3d, 0x9b, 0x7f, 0xf9, 0x3d, 0xee, 0x7e, 0x9b, 0x3e,
    0xd0, 0xd8, 0x16, 0xbd, 0x53, 0x61, 0x80, 0xbd, 0x84, 0xa4,
    0x8c, 0x3e, 0xdb, 0x0d, 0xce, 0xbc, 0xc9, 0xc4, 0x14, 0x3d,
    0x3e, 0x02, 0x86, 0x3d, 0x24, 0x1c, 0x3f, 0xbd, 0xd8, 0xfe,
    0xb4, 0x3e, 0x2c, 0x8d, 0xef, 0xbd, 0x3d, 0xbd, 0x8a, 0xbd,
    0xc5, 0x34, 0xf9, 0x3d, 0xb9, 0xc2, 0x92, 0xbf, 0x09, 0x14,
    0x9b, 0x3f, 0xef, 0x25, 0xa7, 0x3e, 0xf6, 0x23, 0x05, 0xbf,
    0x52, 0x2b, 0x29, 0x3e, 0x40, 0x31, 0x03, 0xbf, 0x5f, 0x0c,
    0x32, 0x3f, 0xe7, 0xd3, 0xe9, 0xbe, 0x0f, 0x46, 0xbb, 0xbd,
    0x9d, 0x13, 0x99, 0xbd, 0xe5, 0x05, 0xc3, 0x3c, 0xf0, 0xe3,
    0x28, 0xbd, 0x65, 0x10, 0x2b, 0xbd, 0xa7, 0x64, 0x95, 0x3e,
    0x84, 0xe7, 0x2e, 0xbe, 0xb3, 0x82, 0x31, 0x3e, 0x86, 0x87,
    0xb6, 0x3c, 0x1c, 0xe0, 0x8b, 0xbd, 0xdc, 0xb0, 0x8a, 0xbe,
    0x81, 0xbb, 0x9e, 0xbc, 0x1e, 0x09, 0x42, 0x3e, 0x74, 0xa8,
    0xbd, 0x3e, 0x47, 0x02, 0xd0, 0xbd, 0xfc, 0x1f, 0xd3, 0x3c,
    0x8b, 0x8e, 0xa0, 0x3e, 0x96, 0xf0, 0x52, 0xbe, 0x77, 0x74,
    0xce, 0xbe, 0x77, 0xa6, 0x5c, 0xbc, 0x02, 0x5c, 0xd8, 0x3e,
    0xfd, 0x13, 0x8a, 0x3f, 0x0e, 0x33, 0x07, 0x3f, 0x87, 0xbf,
    0x7b, 0xbd, 0xd4, 0x13, 0x03, 0xbe, 0x58, 0x96, 0xe4, 0x3d,
    0xb0, 0xd5, 0x26, 0xbe, 0x68, 0x83, 0xca, 0x3e, 0xb5, 0xe5,
    0x4d, 0xbe, 0x64, 0xea, 0x98, 0x3c, 0x3d, 0x9d, 0x55, 0x3e,
    0x3a, 0xfd, 0x21, 0x3d, 0xcb, 0x78, 0x0b, 0x3e, 0xbd, 0x90,
    0x85, 0x3e, 0x9e, 0x57, 0x9b, 0x3e, 0x5d, 0xd2, 0x55, 0x3e,
    0x88, 0x8f, 0x0f, 0xbf, 0x28, 0x18, 0xf5, 0xbd, 0xc4, 0x36,
    0x3f, 0x3e, 0x69, 0x4e, 0xcb, 0xbe, 0x79, 0x40, 0x34, 0x3e,
    0x49, 0x47, 0xda, 0xbe, 0x72, 0xc0, 0xb5, 0x3e, 0xf4, 0x26,
    0x35, 0x3e, 0xad, 0xb2, 0xf5, 0xbe, 0xf4, 0x9d, 0x5b, 0xbf,
    0xc4, 0x04, 0x50, 0xbe, 0xd7, 0x9c, 0x81, 0xbe, 0xd9, 0xc8,
    0x1d, 0x3e, 0x95, 0xf0, 0x53, 0xbe, 0x87, 0xf9, 0xf1, 0x3e,
    0x82, 0x7d, 0xbe, 0xbe, 0xcc, 0xb2, 0x16, 0xbd, 0x7e, 0x49,
    0x90, 0x3d, 0x13, 0xa8, 0x2b, 0xbd, 0xf0, 0xc5, 0xf5, 0x3c,
    0x00, 0x81, 0x8f, 0xbc, 0x33, 0x41, 0x0f, 0xbc, 0x94, 0xad,
    0x7e, 0x3e, 0x69, 0x33, 0x95, 0xbd, 0xd7, 0xef, 0x46, 0x3d,
    0xc7, 0xf7, 0x4d, 0xbe, 0x86, 0x44, 0x0f, 0xbe, 0xe3, 0x5d,
    0x06, 0x3e, 0x9c, 0x25, 0x80, 0xbe, 0xb0, 0xb2, 0x02, 0x3e,
    0xd7, 0x80, 0x2a, 0x3f, 0xea, 0x66, 0x9d, 0x3d, 0x30, 0x8c,
    0x51, 0xbf, 0x0c, 0x4c, 0x1f, 0xbf, 0xc5, 0x37, 0xa3, 0xbe,
    0x2a, 0x5e, 0x8d, 0xbd, 0x86, 0xc0, 0x1e, 0xbe, 0x3a, 0xc6,
    0xd9, 0x3c, 0xb2, 0xdb, 0x58, 0xbd, 0x39, 0xe6, 0x98, 0x3c,
    0x14, 0x55, 0x98, 0xbe, 0xee, 0x5a, 0x06, 0x3e, 0x76, 0xf1,
    0x06, 0xbe, 0xbb, 0x0e, 0x4d, 0x3e, 0x19, 0x26, 0xc8, 0xbd,
    0x0e, 0x1d, 0xe5, 0x3c, 0xfa, 0x6b, 0x1e, 0x3e, 0x89, 0x2b,
    0x9c, 0x3b, 0xab, 0x52, 0xe4, 0xbe, 0x9f, 0xf2, 0x40, 0x3e,
    0x45, 0x07, 0x68, 0xbc, 0x75, 0x55, 0x65, 0xbe, 0xde, 0x92,
    0xbe, 0xbe, 0x48, 0x0a, 0x45, 0x3e, 0xfd, 0x4d, 0x39, 0x3f,
    0x4c, 0x20, 0x46, 0x3e, 0xbd, 0xc8, 0x2b, 0xbf, 0xbc, 0xb9,
    0x1f, 0xbf, 0x2e, 0x2d, 0x09, 0xbe, 0xfe, 0xb0, 0x9e, 0xbd,
    0xf5, 0x30, 0xe6, 0x3e, 0x4d, 0x5e, 0xba, 0xbd, 0xe0, 0x30,
    0xee, 0xbe, 0x59, 0x8c, 0x89, 0x3e, 0xf4, 0xa5, 0x75, 0x3d,
    0xee, 0x2e, 0xab, 0x3d, 0x00, 0xc3, 0x8f, 0xbb, 0x0d, 0x3c,
    0x99, 0xbe, 0xd3, 0xdd, 0x3c, 0x3e, 0xe3, 0x25, 0xc5, 0xbe,
    0x42, 0x91, 0x0e, 0xbe, 0x1a, 0x58, 0x52, 0x3e, 0xbe, 0xb5,
    0x3f, 0xbe, 0x81, 0x83, 0x09, 0xbe, 0x8c, 0x4f, 0x80, 0xbe,
    0x30, 0x78, 0x53, 0x3e, 0xcc, 0x8c, 0xeb, 0x3e, 0x77, 0xeb,
    0xf9, 0xbd, 0x83, 0x8c, 0xf6, 0x3d, 0x40, 0xeb, 0xe3, 0x3d,
    0xd0, 0x3e, 0x2d, 0xbe, 0x6e, 0x22, 0xa7, 0x3e, 0x12, 0xfc,
    0xbd, 0x3d, 0xbe, 0xce, 0xe3, 0x3e, 0xb6, 0xba, 0x22, 0x3f,
    0x00, 0x1f, 0x40, 0x3e, 0xfb, 0x11, 0x78, 0xbe, 0x1c, 0x4a,
    0x03, 0xbf, 0x74, 0xad, 0x93, 0xbe, 0x7b, 0xed, 0xc3, 0xbd,
    0x72, 0x01, 0xf7, 0x3d, 0x32, 0x14, 0x1b, 0x3e, 0x6a, 0xcc,
    0x68, 0x3e, 0x46, 0xef, 0xcf, 0x3d, 0xc0, 0x7b, 0x79, 0x3c,
    0x6d, 0x32, 0xbd, 0xbe, 0x39, 0x91, 0x8c, 0x3e, 0x54, 0x97,
    0x56, 0x3f, 0xbf, 0xd8, 0x25, 0x3f, 0xf0, 0x00, 0x8b, 0xbd,
    0x2a, 0x06, 0xda, 0x3e, 0xd0, 0xd9, 0x5e, 0x3e, 0xe5, 0xeb,
    0x16, 0x3d, 0x10, 0xa0, 0x67, 0xbe, 0xb9, 0xf5, 0xf2, 0xbd,
    0x14, 0x47, 0x7b, 0x3d, 0x84, 0x9d, 0x13, 0x3e, 0x33, 0x17,
    0x39, 0xbe, 0xf3, 0x61, 0xa5, 0xbe, 0x85, 0x73, 0xfd, 0xbe,
    0x74, 0x68, 0x9b, 0xbe, 0x4c, 0x3e, 0xb0, 0x3e, 0xf1, 0x66,
    0xa6, 0xbd, 0x4c, 0xda, 0x07, 0xbf, 0x29, 0xe9, 0x21, 0xbf,
    0xb4, 0xe5, 0x3e, 0xbe, 0xe7, 0xd0, 0x75, 0xbd, 0xc7, 0xcc,
    0x84, 0x3e, 0x97, 0xbb, 0x57, 0x3e, 0x26, 0x2c, 0x92, 0xbe,
    0x51, 0x28, 0xee, 0x3d, 0x6e, 0xc0, 0x3e, 0x3b, 0x09, 0xd8,
    0x9e, 0x3d, 0x1f, 0x0a, 0x51, 0xbe, 0x34, 0x32, 0xba, 0x3e,
    0xb4, 0x6d, 0x7f, 0x3e, 0x94, 0x93, 0x06, 0x3e, 0x81, 0x57,
    0x93, 0xbe, 0x5c, 0x4c, 0x5f, 0xbd, 0x8a, 0x69, 0x49, 0xbe,
    0xf6, 0x63, 0xad, 0x3d, 0x76, 0xe3, 0x29, 0xbe, 0xdd, 0x26,
    0x3d, 0xbe, 0x72, 0x00, 0x39, 0x3e, 0x26, 0x0a, 0x3b, 0xbc,
    0xf8, 0xd0, 0x4a, 0xbe, 0x0f, 0xa4, 0x93, 0x3e, 0x5c, 0x81,
    0x5a, 0x3e, 0x2d, 0x53, 0x8b, 0x3e, 0x19, 0x59, 0x52, 0x3e,
    0xf8, 0xb4, 0xec, 0xbe, 0x0b, 0xc6, 0x19, 0x3e, 0x04, 0xff,
    0xbc, 0xbe, 0x7f, 0xf6, 0x13, 0x3f, 0x7e, 0xc0, 0xed, 0xbd,
    0xfb, 0x7b, 0x03, 0xbf, 0x38, 0xae, 0x9d, 0xbe, 0x28, 0xf6,
    0x8a, 0xbe, 0x1a, 0xa9, 0x6d, 0xbe, 0x7f, 0x85, 0xd5, 0xbe,
    0x0e, 0xa6, 0xf9, 0xbe, 0xd3, 0x53, 0x98, 0x3e, 0x76, 0x58,
    0x65, 0xbd, 0xce, 0x61, 0x4f, 0xbd, 0xa3, 0xff, 0xaf, 0xbe,
    0xeb, 0x64, 0x6c, 0x3e, 0x9f, 0x9d, 0x89, 0x3e, 0x5c, 0x18,
    0xea, 0x3d, 0x8f, 0x57, 0x02, 0x3d, 0x8e, 0x32, 0xf8, 0xbe,
    0x24, 0xf9, 0xe1, 0x3e, 0xe4, 0xbe, 0x78, 0x3f, 0xac, 0x5f,
    0x4a, 0x3f, 0x2c, 0x7f, 0xfc, 0x3d, 0xbe, 0x84, 0xd0, 0xbc,
    0x60, 0x99, 0x0c, 0xbe, 0x23, 0x06, 0x80, 0xbd, 0x03, 0x07,
    0xad, 0x3e, 0xf8, 0x91, 0x9c, 0xbc, 0x39, 0x55, 0xda, 0xbe,
    0xdd, 0x67, 0xff, 0xbe, 0xd7, 0xd2, 0x65, 0x3e, 0x08, 0x07,
    0x3f, 0x3f, 0x5c, 0xbb, 0xed, 0x3e, 0xb4, 0x7f, 0x2e, 0x3f,
    0x91, 0x84, 0xf0, 0xbe, 0x83, 0x39, 0x60, 0xbd, 0xfa, 0x44,
    0x28, 0x3e, 0x9b, 0xb2, 0x88, 0x3e, 0xfc, 0xbb, 0x98, 0x3d,
    0x14, 0x41, 0xca, 0x3e, 0x8f, 0x7b, 0xcf, 0xbd, 0xc0, 0x1a,
    0x2f, 0xbe, 0x23, 0xec, 0x80, 0x3e, 0x43, 0x21, 0x17, 0xbd,
    0x17, 0x44, 0x95, 0x3e, 0x2b, 0xb9, 0x1f, 0xbe, 0x40, 0xfc,
    0x35, 0xbe, 0x89, 0x63, 0x91, 0xbd, 0xbc, 0x23, 0x06, 0xbf,
    0xb5, 0xfa, 0x06, 0xbd, 0x89, 0x66, 0x2b, 0x3e, 0x3f, 0xae,
    0xc0, 0xbe, 0x1b, 0x5c, 0xe1, 0xbd, 0xba, 0xb6, 0xc2, 0xbd,
    0xde, 0x84, 0x37, 0x3e, 0x31, 0x67, 0x0a, 0x3e, 0x6e, 0x72,
    0xa4, 0x3e, 0x8a, 0xce, 0xcb, 0x3e, 0x39, 0x02, 0x04, 0xbe,
    0x89, 0x4d, 0x2a, 0xbe, 0x43, 0x77, 0x5a, 0x3e, 0xb8, 0xe8,
    0x90, 0x3e, 0xb1, 0xb7, 0x15, 0x3f, 0xc9, 0x56, 0xe9, 0x3e,
    0x97, 0xfa, 0x8d, 0x3e, 0x56, 0x87, 0x1d, 0x3f, 0xcb, 0x47,
    0x10, 0xbb, 0x55, 0xb1, 0xcf, 0xbe, 0xf3, 0x55, 0xa2, 0xbd,
    0xf6, 0x17, 0x0b, 0x3e, 0x81, 0x23, 0x40, 0xbf, 0xa6, 0xa4,
    0x5f, 0xbf, 0xa2, 0xc9, 0x91, 0xbe, 0x97, 0x7f, 0xe4, 0xbe,
    0x93, 0x8d, 0xc2, 0x3d, 0xf8, 0x84, 0x8d, 0x3e, 0xa7, 0x4f,
    0xe1, 0xbd, 0xec, 0x01, 0x1e, 0xbe, 0xe9, 0x22, 0x04, 0x3d,
    0xd9, 0xc1, 0xcb, 0xbd, 0x7e, 0xb2, 0x75, 0xbc, 0xb8, 0x1b,
    0x11, 0x3e, 0x2d, 0x54, 0xd6, 0x3d, 0xfd, 0x52, 0x8e, 0xbd,
    0x41, 0xa1, 0x85, 0xbe, 0x03, 0x88, 0xe7, 0x3c, 0x9b, 0xfb,
    0x3b, 0xbe, 0x8d, 0x31, 0x8b, 0xbe, 0xfc, 0xb0, 0x81, 0x3d,
    0xcd, 0x17, 0x6d, 0x3e, 0xe4, 0xe4, 0xb7, 0xbe, 0xe5, 0xee,
    0x0c, 0x3e, 0x61, 0x80, 0x89, 0x3e, 0xd0, 0x36, 0xa7, 0x3e,
    0xb9, 0x6e, 0xc1, 0x3d, 0xd3, 0x9b, 0xa0, 0x3d, 0x91, 0x27,
    0x3a, 0x3c, 0xf4, 0xfc, 0x55, 0x3e, 0x01, 0x77, 0xa3, 0xbd,
    0x6d, 0xcf, 0x14, 0x3e, 0xc9, 0xdb, 0x30, 0x3f, 0xd1, 0x3d,
    0x37, 0x3e, 0x92, 0xff, 0x3b, 0xbe, 0x2b, 0xea, 0x9a, 0x3e,
    0xe9, 0x3e, 0x67, 0x3e, 0xde, 0xa8, 0xfd, 0x3d, 0x90, 0x61,
    0x60, 0x3d, 0x3e, 0xeb, 0x3b, 0xbc, 0xab, 0x22, 0x0d, 0x3d,
    0x4d, 0xf2, 0x55, 0x3e, 0x7a, 0x6e, 0x74, 0x3d, 0x8c, 0x24,
    0xf4, 0xbe, 0xbc, 0xd9, 0x00, 0xbe, 0xe6, 0x9f, 0xc4, 0xbe,
    0x73, 0xb4, 0x1c, 0x3f, 0x98, 0x92, 0x90, 0xbe, 0x0e, 0x14,
    0x02, 0xbf, 0xb4, 0x9a, 0xbc, 0xbe, 0xfe, 0x5b, 0x4d, 0x3e,
    0x43, 0xa8, 0x50, 0x3d, 0x90, 0x0c, 0xc5, 0x3d, 0xca, 0x21,
    0x04, 0xbe, 0x75, 0x9e, 0x27, 0x3b, 0x27, 0xf2, 0x8a, 0xbe,
    0xa6, 0xb8, 0xe8, 0xbd, 0xec, 0xa4, 0xce, 0xbd, 0xfa, 0x1d,
    0x99, 0xbe, 0x21, 0x78, 0x39, 0xbe, 0xb4, 0x05, 0xde, 0xbd,
    0x72, 0xe1, 0x37, 0x3f, 0x31, 0x3c, 0xd8, 0xbd, 0x54, 0xfd,
    0xc4, 0x3e, 0x8f, 0xe9, 0x19, 0x3f, 0xe7, 0x32, 0x31, 0x3e,
    0x5a, 0x5a, 0xe8, 0x3b, 0xc3, 0xc3, 0x46, 0xbe, 0xb2, 0xf5,
    0xed, 0xbd, 0xaa, 0xd8, 0xa5, 0xbe, 0x46, 0x41, 0x04, 0xbf,
    0x19, 0x16, 0x32, 0x3d, 0xc9, 0x5c, 0x09, 0xbf, 0x60, 0x5e,
    0xdf, 0x3d, 0xdf, 0x7e, 0x57, 0xbe, 0x7c, 0xdb, 0x63, 0xbe,
    0x69, 0x8e, 0x88, 0x3e, 0x9b, 0x63, 0x96, 0x3e, 0x46, 0xe8,
    0x20, 0xbe, 0x73, 0xea, 0xd5, 0x3c, 0xc6, 0x20, 0x68, 0x3e,
    0x34, 0xfc, 0xaf, 0xbe, 0x17, 0xba, 0x10, 0x3f, 0xbf, 0xa9,
    0xe1, 0xbe, 0x64, 0x09, 0x32, 0xbc, 0xd8, 0x12, 0x41, 0x3f,
    0x25, 0x6b, 0xff, 0x3c, 0x4e, 0xe3, 0x7a, 0x3e, 0x96, 0x3c,
    0x86, 0xbe, 0x68, 0xd2, 0x0c, 0xbf, 0xd7, 0x04, 0x58, 0xbc,
    0x27, 0xfb, 0x04, 0x3f, 0xd4, 0x3d, 0x47, 0x3e, 0x45, 0x0c,
    0x62, 0xbf, 0x87, 0x76, 0x08, 0x3f, 0xdf, 0x3e, 0xe5, 0x3b,
    0xcf, 0x0e, 0x91, 0xbe, 0x40, 0x2d, 0xa0, 0xbd, 0x6a, 0x97,
    0x87, 0x3e, 0xce, 0x58, 0x49, 0x3e, 0xe8, 0x94, 0x10, 0xbf,
    0xfc, 0x1f, 0x81, 0x3d, 0xe0, 0x07, 0x43, 0x3e, 0xf5, 0x69,
    0x3f, 0x3d, 0x0b, 0xb7, 0x97, 0x3e, 0x03, 0x77, 0x29, 0x3f,
    0x8a, 0x22, 0x92, 0xbd, 0xad, 0xf3, 0x9d, 0x3e, 0x1b, 0x67,
    0x8c, 0xbe, 0xe6, 0x5f, 0x72, 0xbd, 0xb3, 0x80, 0xaa, 0x3d,
    0x5b, 0x0e, 0xad, 0xbd, 0x9f, 0x45, 0x9e, 0xbd, 0xdb, 0x87,
    0xe5, 0xbb, 0xd1, 0xc8, 0x14, 0xbf, 0x2d, 0x2d, 0x44, 0xbe,
    0x41, 0xd2, 0x95, 0xbe, 0x34, 0xa1, 0x53, 0x3e, 0x2d, 0x2b,
    0xc5, 0xbe, 0x5f, 0x7f, 0x9c, 0xbe, 0x8b, 0x9c, 0x94, 0xbe,
    0xc6, 0xeb, 0x94, 0x3e, 0x07, 0xea, 0x1e, 0x3e, 0xa6, 0xce,
    0xc7, 0x3d, 0xae, 0x53, 0x2e, 0xbc, 0x14, 0x74, 0x24, 0x3e,
    0xf0, 0xa9, 0xd9, 0x3e, 0xc8, 0x18, 0x39, 0xbd, 0xb9, 0x85,
    0x03, 0xbe, 0xd3, 0x92, 0xe9, 0xbd, 0x74, 0x9f, 0x14, 0xbc,
    0xc2, 0x3e, 0x23, 0x3f, 0x21, 0x67, 0x8f, 0x3e, 0x75, 0x9e,
    0xe9, 0xbe, 0x49, 0xa0, 0x25, 0x3d, 0x81, 0x2d, 0x98, 0xbd,
    0xc5, 0xb8, 0x82, 0xbd, 0xb1, 0xe2, 0xbc, 0xbd, 0x11, 0x18,
    0x9a, 0xbe, 0x7d, 0x4c, 0x32, 0x3d, 0xfc, 0x50, 0x06, 0x3e,
    0x13, 0x61, 0x86, 0xbe, 0xa2, 0x11, 0x7f, 0xbe, 0x4b, 0x6f,
    0x9f, 0xbe, 0x03, 0xf7, 0x8d, 0x3d, 0x1c, 0xff, 0x07, 0x3f,
    0x9f, 0x08, 0xd6, 0xbe, 0xf9, 0xb6, 0x17, 0xbd, 0xdf, 0xa0,
    0x95, 0xbe, 0xf7, 0x5a, 0x1f, 0x3f, 0x76, 0xc2, 0x8f, 0xbe,
    0x4b, 0x3e, 0xd6, 0xbe, 0xb8, 0x7f, 0x69, 0xbe, 0x44, 0x8e,
    0x2e, 0xbe, 0x4a, 0xf4, 0x27, 0xba, 0x64, 0x35, 0x4a, 0xbf,
    0x8c, 0x03, 0x2a, 0xbf, 0xfc, 0x57, 0x99, 0x3e, 0x51, 0x07,
    0xab, 0x3e, 0x3c, 0x0d, 0xd1, 0xbe, 0x31, 0x4f, 0xc8, 0xbd,
    0xf4, 0xb9, 0xd0, 0xbd, 0xf2, 0x3f, 0xac, 0x3e, 0x5d, 0xf4,
    0x6a, 0x3d, 0x0e, 0x3b, 0xc4, 0x3d, 0x67, 0xfe, 0x1f, 0x3e,
    0x2c, 0x70, 0x4a, 0x3e, 0x38, 0x11, 0x19, 0x3f, 0xc2, 0xac,
    0x06, 0xbe, 0x5b, 0xe0, 0x32, 0xbe, 0x5a, 0xe5, 0x61, 0xbd,
    0x9d, 0x8c, 0xb4, 0x3e, 0x42, 0x9d, 0x77, 0x3e, 0xf1, 0x55,
    0x8c, 0xbe, 0xf3, 0x55, 0x93, 0xbd, 0x14, 0xee, 0x06, 0x3d,
    0x2a, 0xc3, 0xfc, 0xbe, 0x87, 0xb4, 0x86, 0x3e, 0x9e, 0x1e,
    0xc5, 0x3d, 0xd7, 0xe5, 0xa2, 0x3c, 0x37, 0x66, 0x67, 0x3e,
    0xf2, 0x3c, 0xcd, 0x3c, 0xbe, 0x6f, 0xcc, 0x3e, 0xd0, 0x04,
    0xd1, 0x3e, 0x7d, 0x23, 0x37, 0x3d, 0x0a, 0x8a, 0x0f, 0xbb,
    0xec, 0xff, 0xe1, 0xbd, 0xcf, 0xc1, 0xa7, 0x3e, 0x2b, 0xb9,
    0x8b, 0x3e, 0x6f, 0xba, 0xa2, 0xbb, 0x1a, 0x67, 0x2b, 0xbf,
    0x40, 0x30, 0xd2, 0x3b, 0x3f, 0xc0, 0xa2, 0xbe, 0x10, 0xdd,
    0xd1, 0x3d, 0x61, 0xe3, 0xcf, 0xbc, 0xa2, 0xf2, 0x81, 0xbd,
    0x39, 0x79, 0x50, 0xbf, 0xe6, 0xa6, 0x36, 0xbf, 0x65, 0x88,
    0x44, 0xbe, 0xb1, 0x34, 0x3c, 0xbb, 0x8d, 0xfe, 0xd4, 0xbe,
    0x86, 0xed, 0x38, 0x3d, 0xef, 0xb1, 0x19, 0xbe, 0x8b, 0x0d,
    0x14, 0x3f, 0xc7, 0xee, 0x33, 0x3f, 0x1d, 0xfa, 0xe9, 0xbd,
    0xdf, 0xdf, 0x18, 0x3e, 0xdb, 0x9b, 0x80, 0xbe, 0x59, 0x89,
    0x62, 0x3e, 0x58, 0xeb, 0x96, 0xbe, 0x9b, 0x48, 0x43, 0x3c,
    0x18, 0x95, 0x56, 0x3e, 0xb0, 0x3b, 0x3a, 0x3d, 0x4f, 0x3b,
    0xa2, 0xbd, 0xfd, 0xb5, 0x3a, 0x3d, 0xa5, 0xfb, 0x36, 0xbc,
    0x39, 0x60, 0x6f, 0xbe, 0xbd, 0x9a, 0x4f, 0x3d, 0xdc, 0x83,
    0xd2, 0xbd, 0xce, 0xf8, 0x90, 0xbe, 0x1a, 0xd3, 0x7e, 0xbe,
    0xcc, 0xad, 0x05, 0xbc, 0xa8, 0xa0, 0xe1, 0xbe, 0x57, 0xcd,
    0x0d, 0xbf, 0x2d, 0xc5, 0xf1, 0xbe, 0x42, 0x90, 0x87, 0xbe,
    0x43, 0x3f, 0xfc, 0xbe, 0x8a, 0x32, 0xde, 0x3d, 0x6e, 0xfd,
    0x3f, 0x3e, 0x8d, 0x90, 0x1d, 0xbe, 0x9b, 0x66, 0x5c, 0xbd,
    0xf4, 0x04, 0xb1, 0x3d, 0xf3, 0xff, 0x3f, 0xbe, 0x10, 0x65,
    0xce, 0xbd, 0xd6, 0x31, 0xbe, 0xbd, 0x0b, 0xb4, 0x0f, 0x3f,
    0xa0, 0xdb, 0x5f, 0xbd, 0xb0, 0xfb, 0x29, 0x3e, 0x7b, 0xf7,
    0x9b, 0x3e, 0x7a, 0x24, 0x9d, 0x3e, 0xa2, 0xa2, 0xf9, 0x3e,
    0x3e, 0x25, 0xb5, 0x3e, 0xb4, 0x2c, 0xbe, 0xbe, 0x31, 0x01,
    0x81, 0x3c, 0x05, 0x28, 0x4c, 0x3d, 0x7b, 0x0b, 0xd0, 0x3e,
    0x76, 0x89, 0x07, 0x3f, 0x8d, 0xcb, 0x3f, 0x3e, 0x6e, 0x6c,
    0x53, 0xbe, 0x7c, 0x38, 0x22, 0xbc, 0xc6, 0xf8, 0x68, 0xbc,
    0xd8, 0x3c, 0xc3, 0xbc, 0x5c, 0x3a, 0x4b, 0xbd, 0x8d, 0x7f,
    0xe7, 0xbc, 0xac, 0x46, 0x6c, 0xbc, 0x0b, 0xb6, 0xf8, 0x3b,
    0xbd, 0x37, 0x7a, 0xbd, 0xfb, 0xcb, 0xb3, 0x3d, 0x75, 0xc3,
    0x0c, 0x3e, 0x46, 0x46, 0x67, 0x3d, 0x07, 0xdd, 0xd4, 0x3e,
    0xba, 0x08, 0x03, 0xbe, 0x24, 0x4f, 0x96, 0xbc, 0x3c, 0x17,
    0xa2, 0xbe, 0x8c, 0x82, 0x90, 0xbe, 0x84, 0x2e, 0x28, 0x3e,
    0x7f, 0xdf, 0xc9, 0xbe, 0x6c, 0x13, 0x23, 0x3b, 0xa6, 0xba,
    0x5a, 0x3d, 0xc0, 0x53, 0x13, 0xbf, 0x2e, 0x26, 0x5b, 0x3d,
    0x6e, 0x44, 0x1c, 0xbe, 0xc1, 0x7a, 0x8b, 0xbd, 0x9d, 0xb6,
    0x72, 0xbd, 0x13, 0x8f, 0x34, 0xbf, 0x79, 0xc1, 0xd5, 0x3e,
    0x2b, 0x0b, 0xb4, 0xbd, 0x85, 0x4b, 0x85, 0x3e, 0x0f, 0x4a,
    0x84, 0xbe, 0x55, 0x18, 0xe0, 0x3e, 0x6e, 0x1c, 0x34, 0x3e,
    0x88, 0x6b, 0x8f, 0x3d, 0x25, 0x00, 0x22, 0x3e, 0x90, 0x4c,
    0x83, 0xbd, 0x6c, 0x83, 0xaf, 0x3e, 0x48, 0x70, 0x56, 0xbd,
    0xa7, 0x9b, 0x78, 0x3e, 0x38, 0x0a, 0xab, 0xbd, 0x7d, 0x8f,
    0xa9, 0xbd, 0x90, 0xb7, 0x17, 0xbe, 0x2d, 0x8e, 0x41, 0xbe,
    0x4e, 0x57, 0x93, 0xbc, 0x6b, 0x0f, 0x3b, 0x3e, 0xeb, 0x86,
    0x0d, 0xbe, 0xb2, 0x20, 0xf3, 0x3e, 0x54, 0x57, 0x21, 0xbe,
    0xea, 0xa9, 0x84, 0xbe, 0x8b, 0x21, 0x9b, 0x3e, 0x22, 0xd9,
    0xf9, 0x3d, 0x16, 0x0c, 0x95, 0x3e, 0xa1, 0xe5, 0x74, 0xbe,
    0x1f, 0x89, 0xf1, 0xbe, 0x62, 0x69, 0x46, 0x3e, 0xbe, 0x78,
    0x3d, 0x3e, 0xad, 0x65, 0x58, 0x3e, 0xee, 0xae, 0xa4, 0x3e,
    0x17, 0x31, 0xb4, 0xbe, 0x9c, 0x91, 0x60, 0x3e, 0x83, 0x74,
    0x02, 0x3f, 0x8a, 0x3c, 0x45, 0xbf, 0x30, 0x33, 0x30, 0x3e,
    0x26, 0xa6, 0xb5, 0xbe, 0x39, 0xc3, 0xd7, 0xbe, 0x9c, 0xb7,
    0x20, 0xbe, 0x32, 0xbf, 0x19, 0xbe, 0xe1, 0x80, 0x51, 0x3f,
    0xd7, 0x6d, 0x43, 0xbf, 0xf5, 0xc9, 0xa7, 0x3e, 0x32, 0x49,
    0xed, 0xbe, 0x0d, 0x32, 0x6f, 0x3f, 0x7b, 0x8f, 0xcf, 0x3d,
    0xe9, 0x6b, 0xa3, 0xbe, 0x52, 0x62, 0xce, 0xbe, 0x32, 0x5b,
    0x8e, 0x3e, 0x32, 0x82, 0x09, 0x3e, 0x77, 0x40, 0x2a, 0xbd,
    0xe4, 0x15, 0x82, 0xbe, 0xdf, 0x98, 0x1d, 0x3f, 0x1d, 0xf7,
    0x17, 0x3e, 0x98, 0x26, 0xc7, 0x3d, 0x13, 0xc9, 0xef, 0xbd,
    0xd3, 0x2d, 0x77, 0x3d, 0xcd, 0xe6, 0x5d, 0x3e, 0x8e, 0x6e,
    0x0f, 0x3d, 0x9d, 0x9d, 0xcb, 0xbe, 0x96, 0x61, 0x9e, 0xbc,
    0x41, 0x57, 0x8e, 0x3e, 0x74, 0x6f, 0x8b, 0x3e, 0x94, 0x96,
    0x86, 0x3e, 0x2f, 0x52, 0x89, 0xbe, 0x35, 0xa5, 0x59, 0x3f,
    0x6a, 0x49, 0xd6, 0x3e, 0x56, 0x33, 0x81, 0xbe, 0xe9, 0x2b,
    0x5b, 0xbc, 0xc4, 0xba, 0x8d, 0x3e, 0xdf, 0xac, 0x90, 0xbe,
    0x91, 0xbc, 0x2f, 0x3e, 0xa7, 0x8b, 0xed, 0x3c, 0xab, 0xbe,
    0x6a, 0xbe, 0x1c, 0xe0, 0x56, 0xbe, 0xe3, 0x07, 0xa6, 0xbd,
    0x81, 0x6c, 0x23, 0xbf, 0x7a, 0xf4, 0xc1, 0x3d, 0xa3, 0x91,
    0xdc, 0xbc, 0x18, 0x9e, 0x05, 0x3e, 0x76, 0xa1, 0x9e, 0xbd,
    0xd8, 0xcc, 0xed, 0x3c, 0xdd, 0x27, 0x6e, 0x3e, 0x1e, 0xbd,
    0xca, 0x3e, 0xc0, 0xac, 0xac, 0xbe, 0xab, 0x89, 0x1f, 0xbd,
    0x09, 0xa3, 0x2f, 0xbe, 0x4d, 0x7d, 0xd9, 0x3d, 0xca, 0x2c,
    0x97, 0xbe, 0xb0, 0xe4, 0xdf, 0xbe, 0xba, 0x00, 0x6e, 0x3d,
    0x1f, 0x51, 0x01, 0x3f, 0xe7, 0x65, 0xcd, 0x3e, 0x85, 0xcf,
    0xd9, 0x3e, 0x00, 0xcd, 0x9c, 0xbe, 0x95, 0x37, 0x6a, 0x3e,
    0xaf, 0xcc, 0xe8, 0x3e, 0x3e, 0x9e, 0x0d, 0x3d, 0xa2, 0x73,
    0x9c, 0xbd, 0x80, 0xff, 0xd4, 0xbe, 0x4c, 0xfa, 0x6b, 0x3a,
    0x09, 0xaa, 0xd2, 0xbe, 0xef, 0x03, 0xce, 0xbd, 0x51, 0x04,
    0x5c, 0x3e, 0xbe, 0xaa, 0x74, 0xbe, 0xab, 0x94, 0x55, 0x3e,
    0xd3, 0x41, 0xb6, 0x3d, 0xb3, 0x9b, 0xe9, 0x3e, 0x68, 0x6a,
    0xf1, 0x3e, 0x92, 0xa4, 0x1b, 0x3e, 0x3f, 0x36, 0x7f, 0xbe,
    0xc1, 0xee, 0x3d, 0x3e, 0x8e, 0x64, 0x49, 0x3f, 0x3c, 0x45,
    0xab, 0x3e, 0x73, 0x90, 0xad, 0xbe, 0xaf, 0x68, 0x24, 0xbf,
    0x3b, 0xbc, 0xa2, 0xbe, 0x4e, 0xb3, 0xd0, 0xbe, 0x82, 0x18,
    0x75, 0x3e, 0xab, 0xf9, 0x52, 0xbe, 0xa5, 0x63, 0xa4, 0xbe,
    0x4f, 0x3d, 0x98, 0x3e, 0x30, 0xe8, 0x43, 0x3e, 0x74, 0xb6,
    0x66, 0x3e, 0x41, 0x9b, 0x83, 0x3e, 0xca, 0xe1, 0x06, 0x3e,
    0x52, 0x85, 0x1e, 0x3e, 0x2c, 0xa6, 0x8f, 0xbe, 0x6b, 0x21,
    0xb2, 0x3e, 0xf3, 0x63, 0x34, 0xbe, 0x38, 0x26, 0xd8, 0xbe,
    0x60, 0xbc, 0x1d, 0xbf, 0x0a, 0x05, 0x8f, 0xbe, 0xdf, 0x27,
    0xbe, 0xbe, 0x4d, 0xbc, 0xab, 0x3e, 0x27, 0x44, 0xdc, 0x3e,
    0xc0, 0xb7, 0x12, 0x3e, 0x5d, 0x55, 0x29, 0x3e, 0x01, 0x94,
    0xcd, 0x3e, 0x29, 0xb5, 0xd4, 0x3d, 0xe7, 0x96, 0x80, 0x3e,
    0xff, 0xeb, 0x90, 0xbe, 0xf5, 0x19, 0x46, 0xbe, 0xd2, 0xa7,
    0xcb, 0x3e, 0x5f, 0x50, 0x40, 0xbe, 0xc8, 0xa5, 0x88, 0xbd,
    0xcc, 0x66, 0x21, 0xbe, 0x85, 0xfb, 0x9e, 0x3c, 0x06, 0x16,
    0xc3, 0x3d, 0xaf, 0xeb, 0x96, 0xbe, 0x09, 0x00, 0x91, 0x3e,
    0x22, 0xc0, 0xac, 0x3d, 0xca, 0x9b, 0x46, 0xbf, 0xd9, 0x9e,
    0xed, 0xbc, 0x8c, 0x79, 0x3b, 0xbe, 0x99, 0xe3, 0x52, 0x3f,
    0x58, 0x09, 0x2c, 0x3e, 0x41, 0xee, 0x6b, 0x3e, 0x71, 0x77,
    0x67, 0x3e, 0x5a, 0x15, 0x9e, 0xbe, 0xe7, 0x4d, 0x19, 0xbf,
    0x08, 0xf8, 0x8e, 0x3c, 0x94, 0x13, 0x9e, 0xbe, 0xe9, 0x35,
    0xa7, 0xbe, 0x97, 0x35, 0xc1, 0x3e, 0x89, 0xc0, 0x4c, 0xbc,
    0x9f, 0x84, 0x49, 0x3e, 0xdc, 0x95, 0x08, 0x3f, 0xf4, 0xca,
    0xf4, 0x3c, 0x3a, 0x42, 0x64, 0x3e, 0xf6, 0xc2, 0xc9, 0xbc,
    0xe7, 0xae, 0xe5, 0x3d, 0x28, 0x58, 0x2b, 0xbd, 0x89, 0x2d,
    0x6b, 0xbe, 0x84, 0xeb, 0x57, 0xbd, 0x29, 0xda, 0xa6, 0xbb,
    0xaf, 0xd1, 0x87, 0x3c, 0xc3, 0x93, 0x37, 0xbd, 0x37, 0x8b,
    0xe8, 0x3d, 0x23, 0xcc, 0xf8, 0x3c, 0x88, 0x3c, 0x93, 0xbc,
    0x3d, 0x5b, 0x59, 0x3c, 0xb1, 0xae, 0x49, 0xbd, 0xd9, 0x5c,
    0x34, 0xbd, 0xe2, 0xe5, 0x2b, 0x3e, 0x64, 0x84, 0x52, 0xbd,
    0xc1, 0xa5, 0x7a, 0xbd, 0x97, 0x21, 0x70, 0x3b, 0xd2, 0x17,
    0x19, 0x3d, 0x11, 0xa9, 0x39, 0x3e, 0x77, 0x3d, 0xe6, 0xbc,
    0xa6, 0x1c, 0x48, 0x3e, 0x6c, 0x24, 0x00, 0xbd, 0x2b, 0xe0,
    0x1c, 0xbe, 0xa7, 0xaa, 0x0c, 0xbe, 0xf3, 0x4d, 0x51, 0x3c,
    0x8d, 0x29, 0xa7, 0x3e, 0xf8, 0x2d, 0x05, 0x3e, 0xcc, 0x2b,
    0xa6, 0x3d, 0x92, 0x4f, 0x2c, 0x3e, 0x41, 0xf9, 0x91, 0x3d,
    0x2c, 0xac, 0x28, 0xbf, 0xc9, 0xc6, 0x42, 0xbf, 0x37, 0xeb,
    0x6b, 0x3d, 0xf3, 0x08, 0x19, 0xbd, 0xd6, 0xd5, 0x4c, 0xbd,
    0xf9, 0xcf, 0x16, 0x3f, 0xe1, 0xb1, 0x8f, 0xbd, 0x57, 0xd1,
    0x69, 0x3c, 0xbf, 0x2e, 0xff, 0xbd, 0x07, 0xee, 0x76, 0xbe,
    0x00, 0x7f, 0x1b, 0xbc, 0xb4, 0xb7, 0x43, 0xbe, 0x52, 0xd5,
    0x29, 0xbd, 0xf8, 0xe4, 0x69, 0x3d, 0x1e, 0x8b, 0x16, 0x3d,
    0x13, 0x9b, 0x6a, 0xbe, 0x5f, 0xc2, 0xa8, 0x3c, 0x82, 0x4a,
    0x3b, 0x3e, 0xd3, 0x64, 0x7b, 0x3d, 0x27, 0xf7, 0x9c, 0x3e,
    0x31, 0x00, 0x22, 0xbe, 0x3b, 0x3d, 0xde, 0xbd, 0x80, 0xa7,
    0x28, 0xbe, 0x40, 0xd4, 0x46, 0xbe, 0x75, 0xd8, 0xcc, 0xbe,
    0x77, 0x1a, 0x0f, 0xbd, 0x9c, 0x58, 0x37, 0xbd, 0x00, 0xb3,
    0x85, 0xbe, 0x89, 0x09, 0xb4, 0xbe, 0x62, 0xf5, 0x98, 0x3d,
    0xc6, 0xb2, 0x21, 0x3c, 0xa3, 0xd7, 0xd8, 0x3c, 0x19, 0xe9,
    0x23, 0x3e, 0x2a, 0x55, 0x6e, 0xbe, 0x1c, 0xe8, 0xdc, 0xbe,
    0xf7, 0x88, 0xec, 0xbe, 0xae, 0xc4, 0x08, 0xbe, 0xd2, 0x86,
    0x5b, 0xbd, 0x59, 0x56, 0x68, 0x3e, 0xc0, 0xe6, 0x93, 0xbe,
    0x43, 0xcb, 0x49, 0x3d, 0x14, 0x64, 0x5d, 0x3e, 0x6c, 0x7b,
    0xf9, 0xbb, 0x8f, 0xbc, 0xa4, 0xbe, 0xb7, 0x99, 0x3d, 0x3e,
    0x8b, 0x9c, 0x85, 0xbe, 0x66, 0x97, 0xb5, 0xbd, 0xae, 0xa1,
    0x13, 0x3e, 0xf2, 0xe8, 0xc3, 0xbe, 0xc2, 0xa2, 0xd9, 0xbe,
    0xb7, 0xf9, 0x32, 0x3e, 0x1d, 0xf8, 0x99, 0x3d, 0x41, 0x51,
    0x8b, 0xbd, 0x72, 0x37, 0xae, 0x3e, 0xaa, 0xb8, 0x87, 0x3d,
    0x34, 0xac, 0x1a, 0x3e, 0x50, 0x3c, 0x2d, 0xbe, 0x28, 0x5a,
    0xe2, 0xbd, 0x1b, 0xbc, 0x1a, 0x3e, 0x9e, 0x63, 0x7c, 0xbd,
    0x98, 0x36, 0x14, 0x3e, 0x23, 0x45, 0x03, 0xbe, 0xe5, 0xff,
    0xda, 0xbd, 0xbd, 0x2e, 0x04, 0xbd, 0x56, 0x23, 0x81, 0xbb,
    0x2f, 0x0a, 0x64, 0x3e, 0x9e, 0x6c, 0x57, 0x3d, 0x84, 0xea,
    0x89, 0x3e, 0x5d, 0x17, 0x92, 0x3e, 0x0c, 0xab, 0x06, 0x3e,
    0xce, 0x16, 0xe2, 0xbe, 0x9a, 0xd0, 0xf9, 0xbe, 0xcd, 0xc6,
    0xb7, 0x3e, 0x14, 0xa5, 0x07, 0x3e, 0xf9, 0xa0, 0xa4, 0xbd,
    0xcd, 0x91, 0x35, 0xbe, 0x4a, 0xd1, 0x20, 0x3e, 0xc3, 0xa8,
    0x96, 0xbe, 0x8f, 0x31, 0x09, 0x3c, 0xbb, 0x06, 0xcd, 0xbc,
    0xe2, 0x20, 0xd1, 0x3d, 0x93, 0x2a, 0x88, 0xbd, 0x4c, 0x4c,
    0xb4, 0xbe, 0x54, 0x2c, 0xe9, 0xbd, 0xb8, 0x21, 0x8c, 0xbd,
    0xad, 0x09, 0x96, 0x3c, 0xf3, 0x37, 0x24, 0x3e, 0x49, 0xf0,
    0x5a, 0xbe, 0x49, 0xfb, 0x0d, 0xbe, 0x43, 0x01, 0xd8, 0xbd,
    0x5b, 0xd7, 0x30, 0x3d, 0xe8, 0x3f, 0x89, 0x3c, 0x8b, 0xb7,
    0x9c, 0xbc, 0x93, 0x8c, 0x3b, 0x3d, 0x69, 0x2b, 0x15, 0xbf,
    0xca, 0x32, 0xa1, 0xbe, 0x97, 0x6c, 0xe1, 0xbe, 0xb3, 0xfd,
    0x02, 0x3f, 0x2e, 0xc6, 0x07, 0xbe, 0xc4, 0xae, 0xb0, 0x3e,
    0xfb, 0xe6, 0x9b, 0x3e, 0x56, 0x7c, 0x1a, 0x3f, 0x8e, 0x44,
    0xe1, 0xbd, 0xf6, 0x4c, 0x9d, 0x3d, 0x40, 0xbb, 0x03, 0x3e,
    0xbb, 0x8f, 0x2e, 0x3e, 0x40, 0x17, 0x5c, 0x3e, 0x19, 0x99,
    0xc6, 0xbe, 0x63, 0xb5, 0x13, 0xbe, 0x65, 0x87, 0x25, 0xbe,
    0xf8, 0xa3, 0x50, 0x3e, 0xec, 0xa5, 0x72, 0x3d, 0xff, 0x45,
    0x1f, 0x3d, 0x03, 0xd4, 0x60, 0x3e, 0x42, 0x09, 0xe1, 0xbd,
    0x0c, 0xef, 0x48, 0x3e, 0xe3, 0x9e, 0x0d, 0x3d, 0x0b, 0xd2,
    0xf0, 0xbd, 0xce, 0x6f, 0x03, 0xbe, 0x1e, 0x90, 0x58, 0x3d,
    0x34, 0x6b, 0xec, 0xbd, 0xde, 0x89, 0xeb, 0xbd, 0x22, 0x76,
    0xc8, 0x3e, 0xe1, 0xf1, 0x91, 0x3d, 0x4c, 0xdf, 0x77, 0x3e,
    0x35, 0xaa, 0x9c, 0x3e, 0x72, 0x92, 0xc5, 0xbd, 0x15, 0x09,
    0x56, 0xbe, 0x45, 0x84, 0x96, 0x3c, 0x02, 0x2a, 0x46, 0x3d,
    0x68, 0xec, 0xee, 0x3d, 0x58, 0x41, 0x22, 0x3d, 0xa0, 0x8a,
    0xa4, 0x3b, 0x6d, 0x6b, 0x17, 0xbe, 0x66, 0x07, 0xb8, 0xbd,
    0x81, 0xd5, 0x1c, 0xba, 0x72, 0xf9, 0xa1, 0xbe, 0x8a, 0xac,
    0x10, 0x3e, 0xd3, 0x60, 0x4e, 0x3e, 0xfc, 0x4a, 0x1e, 0xbf,
    0x01, 0xe8, 0xda, 0x3e, 0x6c, 0xc0, 0x05, 0xbe, 0x07, 0xe3,
    0x11, 0x3e, 0xc6, 0x96, 0xf5, 0xbd, 0x82, 0xa3, 0x06, 0x3f,
    0xf7, 0xee, 0x23, 0x3f, 0x64, 0x73, 0x85, 0x3d, 0x4d, 0x22,
    0x33, 0xbd, 0xcd, 0x49, 0xaf, 0x3d, 0x9b, 0x55, 0x01, 0x3e,
    0x9e, 0x4c, 0x0b, 0x3e, 0x5e, 0x1d, 0x34, 0xbe, 0x9a, 0x56,
    0x2a, 0xbe, 0x8d, 0xf0, 0xba, 0xbd, 0x5c, 0xc2, 0x83, 0x3d,
    0x1a, 0x78, 0x6e, 0xbc, 0x73, 0x6f, 0xf8, 0x3d, 0x88, 0xeb,
    0xb5, 0x3c, 0x1d, 0x55, 0x87, 0xbd, 0x59, 0x2f, 0x04, 0xbf,
    0x9a, 0x03, 0xf1, 0xbd, 0xaa, 0x0e, 0x6b, 0x3d, 0x86, 0x29,
    0x66, 0xbc, 0x5b, 0x26, 0x1d, 0x3e, 0xb7, 0xa4, 0x85, 0xbe,
    0x03, 0x74, 0x1c, 0xbd, 0xf7, 0xba, 0x39, 0x3e, 0x73, 0x43,
    0x7d, 0xbd, 0x60, 0x34, 0xb2, 0xbe, 0xa1, 0xe2, 0x8d, 0xbe,
    0x95, 0x73, 0x27, 0xbe, 0x8c, 0x15, 0x59, 0x3e, 0x79, 0x97,
    0x4c, 0xbd, 0xbc, 0x47, 0x19, 0x3e, 0xbf, 0xd6, 0x4b, 0xbb,
    0x70, 0x37, 0xb3, 0x3d, 0xff, 0x8a, 0x19, 0xbc, 0xcf, 0x2e,
    0x32, 0xbd, 0x38, 0x93, 0x12, 0xbd, 0x4f, 0x8e, 0x3b, 0x3c,
    0x19, 0x86, 0x12, 0xbc, 0xf4, 0xc3, 0x89, 0x3c, 0x0d, 0xda,
    0xe7, 0x3d, 0x9e, 0x17, 0x4e, 0xbd, 0x04, 0x07, 0x81, 0x3e,
    0x42, 0xaa, 0x27, 0xbe, 0x10, 0x56, 0x26, 0xbe, 0xc1, 0x0e,
    0x06, 0xbe, 0x58, 0xd0, 0x16, 0xbd, 0x80, 0x13, 0x86, 0xbd,
    0xc6, 0xbc, 0x88, 0x3d, 0xf7, 0xb6, 0xef, 0xbd, 0x1f, 0x2a,
    0xac, 0x3d, 0x42, 0xec, 0x59, 0xbd, 0x75, 0x5f, 0x28, 0xbe,
    0xad, 0x62, 0x6a, 0xbc, 0x32, 0x76, 0x89, 0x3d, 0x00, 0x50,
    0xb8, 0xbb, 0xf1, 0xc9, 0x27, 0x3e, 0x8c, 0x38, 0x1c, 0x3d,
    0x09, 0xa3, 0xa7, 0xbe, 0xf5, 0x8f, 0x24, 0xbd, 0xa9, 0x45,
    0x60, 0xbd, 0x22, 0xde, 0x31, 0x3d, 0xdb, 0x72, 0x3f, 0x3e,
    0x03, 0x9d, 0xb8, 0x3c, 0x4c, 0x96, 0xc9, 0x3d, 0x46, 0x96,
    0xee, 0xbb, 0x60, 0xde, 0x18, 0x3e, 0x74, 0xef, 0xba, 0xbc,
    0x8a, 0xbc, 0x6a, 0x3d, 0xbc, 0xf4, 0xbd, 0xbd, 0x56, 0x81,
    0xec, 0x3c, 0x23, 0x3a, 0x43, 0xbe, 0x3e, 0xc8, 0x0b, 0xbe,
    0x73, 0xde, 0x82, 0xbe, 0xe5, 0x05, 0x90, 0x3d, 0xc6, 0x61,
    0x54, 0xbe, 0x6b, 0x2f, 0x23, 0x3e, 0x77, 0xc4, 0x0f, 0x3d,
    0x64, 0x97, 0xf7, 0xbd, 0xc0, 0x1f, 0x5a, 0xbd, 0x56, 0x22,
    0xcd, 0xbe, 0x05, 0x9e, 0xc5, 0x3e, 0x76, 0xf1, 0x5f, 0xbd,
    0x23, 0x89, 0x14, 0x3f, 0xce, 0x8d, 0x25, 0x3f, 0x70, 0x41,
    0xbd, 0x3e, 0x48, 0x84, 0x37, 0xbd, 0x25, 0x1d, 0x0d, 0xbe,
    0xf5, 0xb0, 0x51, 0xbe, 0x09, 0x4d, 0xd8, 0xbd, 0x40, 0x56,
    0x7a, 0xbd, 0xe3, 0xa4, 0x51, 0xbd, 0x51, 0x4f, 0x2a, 0x3d,
    0x0f, 0xa8, 0xf2, 0x3d, 0xd9, 0xbc, 0x16, 0x3d, 0x8b, 0x2a,
    0x8c, 0x3d, 0x3a, 0x7a, 0x86, 0x3e, 0x63, 0xfd, 0x88, 0xbe,
    0xf6, 0x77, 0x3a, 0x3e, 0xc6, 0x6b, 0x0b, 0x3d, 0xdd, 0xa9,
    0x78, 0xbe, 0xab, 0x4a, 0xbf, 0xbb, 0xe9, 0xbb, 0x67, 0xbb,
    0x4a, 0x5a, 0x3c, 0x3e, 0xc9, 0x1c, 0x93, 0xbe, 0x49, 0x7c,
    0x62, 0xbf, 0xcf, 0xa2, 0xc3, 0xbe, 0x66, 0x5b, 0x94, 0xbe,
    0x24, 0x19, 0xdf, 0xbc, 0xad, 0x42, 0xfb, 0x3c, 0x0a, 0x28,
    0x15, 0x3f, 0x9f, 0x07, 0x67, 0xbe, 0x89, 0xb7, 0x4f, 0x3d,
    0x36, 0x49, 0x0f, 0xbe, 0x04, 0xf8, 0x98, 0xbc, 0x5b, 0xbe,
    0x81, 0x3d, 0xa6, 0xda, 0x55, 0xba, 0xd9, 0xfe, 0xfb, 0x3b,
    0xdc, 0x12, 0x93, 0xbd, 0x27, 0x55, 0x3b, 0x3e, 0x5b, 0xde,
    0xf5, 0x3c, 0xff, 0xa8, 0xa5, 0x3e, 0x6e, 0x2c, 0xe5, 0xbc,
    0x7b, 0xd8, 0x16, 0x3e, 0x22, 0xd0, 0x6f, 0x3c, 0x9d, 0x7c,
    0xee, 0x3d, 0xd0, 0x10, 0xff, 0x3d, 0xa2, 0xe2, 0x1b, 0xbd,
    0xae, 0xd9, 0xa1, 0xbe, 0x19, 0xc7, 0x6e, 0xbe, 0x9f, 0x84,
    0x2e, 0xbe, 0xef, 0x1e, 0x96, 0x3e, 0x0e, 0xea, 0xe1, 0x3e,
    0xf3, 0xed, 0x83, 0xbd, 0xa4, 0xfd, 0xbe, 0x3e, 0x7e, 0xba,
    0xe8, 0xbd, 0x69, 0x6c, 0x1a, 0x3d, 0x4c, 0xd2, 0x46, 0xbe,
    0x89, 0x13, 0xbf, 0x3d, 0xe6, 0x2b, 0xa8, 0x3e, 0x94, 0x62,
    0x48, 0x3e, 0xb5, 0x92, 0x4f, 0xbe, 0x1e, 0xd2, 0xc7, 0xbd,
    0xd0, 0xb9, 0x9c, 0xbe, 0xe6, 0x1b, 0x52, 0x3e, 0x0e, 0x12,
    0x12, 0xbe, 0x80, 0x6e, 0x7e, 0xbd, 0x5e, 0xe4, 0xd7, 0xbc,
    0xe2, 0x74, 0x6b, 0x3e, 0xc4, 0x88, 0xa7, 0xbd, 0x50, 0xdd,
    0x2a, 0xbe, 0x84, 0x4c, 0xfe, 0xbe, 0x86, 0xea, 0x6b, 0xbd,
    0x2e, 0x25, 0xa7, 0xbd, 0x72, 0xab, 0xfd, 0xbd, 0x72, 0x58,
    0x84, 0xbe, 0x60, 0xd2, 0x16, 0x3e, 0x06, 0x48, 0x1c, 0x3d,
    0x42, 0x71, 0x3c, 0xbd, 0x5b, 0xf7, 0xa1, 0xbd, 0x0f, 0x91,
    0xc1, 0xbb, 0xf5, 0xf3, 0xae, 0x3d, 0x18, 0x37, 0x01, 0xbd,
    0x29, 0x19, 0x5b, 0xbc, 0xda, 0x4a, 0x4a, 0xbd, 0xd6, 0x2a,
    0x65, 0xbc, 0x93, 0x03, 0xa6, 0x3d, 0x97, 0x8f, 0x1c, 0xbc,
    0x38, 0x0b, 0x63, 0x3d, 0x5d, 0x20, 0xca, 0xbd, 0x29, 0xe1,
    0x03, 0x3d, 0x88, 0x73, 0x73, 0xbc, 0x63, 0x71, 0xfe, 0xbd,
    0x95, 0x94, 0xb6, 0xbd, 0x50, 0xf1, 0xbe, 0x3d, 0x95, 0xe0,
    0x27, 0x3e, 0x04, 0xcc, 0x03, 0xbf, 0x22, 0x30, 0xdf, 0x3c,
    0x92, 0x5e, 0x26, 0xbe, 0xaf, 0x89, 0x4b, 0x3e, 0xad, 0xb7,
    0x21, 0x3f, 0xb3, 0x26, 0xaf, 0xbe, 0x4c, 0xdb, 0x87, 0x3e,
    0x7f, 0xf0, 0xb3, 0xbd, 0x02, 0x29, 0xff, 0xbd, 0x28, 0xfa,
    0xec, 0xbc, 0x0a, 0x69, 0x5f, 0x3e, 0x56, 0xfe, 0x00, 0x3e,
    0x99, 0x7d, 0x92, 0x3c, 0x04, 0x00, 0xd8, 0xbd, 0x6b, 0x66,
    0xce, 0xbd, 0x83, 0xfb, 0x94, 0xbe, 0xe4, 0xfe, 0x8d, 0xbe,
    0xfa, 0x46, 0xab, 0xbd, 0x15, 0xe4, 0x1d, 0x3e, 0x29, 0xda,
    0x90, 0xbe, 0xb8, 0xec, 0x71, 0x3b, 0x70, 0x0d, 0xa0, 0xbd,
    0x4a, 0xc7, 0x2d, 0xbe, 0xdd, 0x3c, 0x8e, 0xbe, 0x38, 0xb3,
    0xdb, 0xbe, 0xc9, 0xf2, 0x27, 0x3d, 0x8f, 0xc8, 0x3a, 0xbe,
    0xe8, 0x0b, 0xb6, 0xbe, 0x10, 0x57, 0xa9, 0x3d, 0x16, 0xae,
    0xa5, 0x3d, 0x3e, 0x70, 0x28, 0x3d, 0x6c, 0x58, 0xfb, 0xbd,
    0x26, 0x0c, 0x03, 0x3d, 0xae, 0x20, 0xe8, 0xbd, 0x84, 0xe3,
    0xe6, 0x3c, 0xe2, 0x1e, 0x8d, 0xbd, 0x0d, 0x9f, 0xc1, 0x3d,
    0xc6, 0x40, 0x86, 0xbd, 0x78, 0x44, 0xd3, 0xbb, 0xb5, 0x49,
    0xbf, 0xbd, 0x86, 0xd1, 0x82, 0xbd, 0xfc, 0xc0, 0x3f, 0xbe,
    0x5e, 0x13, 0xec, 0xbd, 0x7f, 0x31, 0xe8, 0xbd, 0x1b, 0xc8,
    0x84, 0xbe, 0x3f, 0x29, 0x7d, 0x3e, 0xf6, 0x77, 0x21, 0xbe,
    0xc1, 0x85, 0x28, 0xbe, 0x1c, 0x14, 0x4c, 0x3e, 0x65, 0x19,
    0x52, 0x3e, 0x6a, 0x5e, 0xe1, 0x3c, 0x86, 0xe6, 0x2e, 0x3e,
    0x3e, 0x76, 0x62, 0xbd, 0x44, 0x37, 0xaa, 0x3d, 0x17, 0x8b,
    0xbb, 0xbe, 0xea, 0xcd, 0x11, 0xbd, 0x42, 0x80, 0x29, 0xbd,
    0x19, 0x97, 0xef, 0x3c, 0xaf, 0x76, 0x85, 0x3b, 0x55, 0x99,
    0x9e, 0x3b, 0x01, 0xfb, 0x23, 0x3d, 0x68, 0xda, 0x90, 0x3d,
    0xee, 0x84, 0xfe, 0x3c, 0x69, 0xeb, 0xff, 0x3c, 0xfb, 0x10,
    0xc4, 0xbe, 0x56, 0x99, 0x22, 0xbe, 0xe0, 0xee, 0x96, 0xbd,
    0xd7, 0xdf, 0x17, 0x3d, 0x53, 0xe3, 0xa3, 0xbe, 0xf3, 0xce,
    0xc3, 0x3d, 0xe9, 0x6d, 0x61, 0xbd, 0x0d, 0xb2, 0xea, 0xbc,
    0x60, 0x4f, 0xa4, 0xbe, 0x81, 0x8b, 0x4f, 0xbe, 0x43, 0x51,
    0x3a, 0xbe, 0x4f, 0x2c, 0x72, 0x3e, 0xb1, 0xb4, 0xec, 0xbe,
    0x16, 0x05, 0x89, 0x3e, 0x34, 0x31, 0xaf, 0x3d, 0xb0, 0x07,
    0x9e, 0xbe, 0x81, 0x3f, 0x07, 0x3e, 0xc7, 0x8a, 0x73, 0xbe,
    0x33, 0x08, 0xc2, 0xbe, 0xd8, 0xa7, 0x56, 0x3e, 0xc7, 0x40,
    0x27, 0xbe, 0x5d, 0x8b, 0xba, 0x3d, 0x4b, 0x69, 0x27, 0x3e,
    0x59, 0xc8, 0x0e, 0xbd, 0x2d, 0xc8, 0xfe, 0xbd, 0x02, 0xc9,
    0xa5, 0xbd, 0xe3, 0x6d, 0x49, 0x3d, 0x87, 0x7b, 0xaf, 0xbd,
    0xa6, 0xba, 0x95, 0xbd, 0x5c, 0xff, 0xeb, 0x3d, 0x41, 0xde,
    0xb7, 0xbd, 0xba, 0xd0, 0x6e, 0xbd, 0x01, 0x82, 0x29, 0xbd,
    0x9d, 0x9b, 0x35, 0xbe, 0x07, 0x55, 0x68, 0x3b, 0x43, 0xc6,
    0x02, 0xbe, 0x8e, 0xf7, 0x20, 0x3d, 0x8f, 0xd4, 0x22, 0x3e,
    0x64, 0x6b, 0x32, 0xbe, 0x12, 0xad, 0x2d, 0xbd, 0x41, 0xdb,
    0xcb, 0x3d, 0xdc, 0x36, 0x2d, 0xbf, 0x6a, 0xfb, 0x16, 0x3e,
    0x68, 0xd8, 0x08, 0xbf, 0xfc, 0x3e, 0xce, 0x3d, 0x1f, 0xb2,
    0xe6, 0xbe, 0x9e, 0xf0, 0x63, 0xbd, 0x6c, 0x51, 0x99, 0x3d,
    0xaa, 0xd2, 0x89, 0xbc, 0xba, 0xc7, 0x3f, 0x3d, 0x5f, 0x78,
    0x53, 0xbd, 0x18, 0x4e, 0xe4, 0x3d, 0x93, 0xd2, 0x11, 0xbe,
    0xb5, 0xaf, 0x90, 0xbe, 0xea, 0x2d, 0x28, 0x3e, 0xc9, 0xa9,
    0xb9, 0x3d, 0x08, 0x15, 0xa3, 0x3d, 0xe2, 0x00, 0xb9, 0x3d,
    0x2f, 0x54, 0x8e, 0x3d, 0x04, 0x99, 0xb7, 0xbc, 0x2f, 0xbd,
    0xa8, 0xbd, 0xc0, 0x64, 0xa3, 0xbe, 0xa4, 0xdb, 0x61, 0x3e,
    0x92, 0xed, 0x1d, 0x3d, 0x4d, 0x83, 0x80, 0xbe, 0x58, 0x29,
    0xe2, 0xbe, 0xd1, 0x03, 0x13, 0xbf, 0x31, 0x6a, 0xde, 0xbe,
    0xc1, 0x66, 0x4a, 0xbd, 0xf7, 0x72, 0xb3, 0xbd, 0x67, 0x3f,
    0x95, 0x3e, 0xda, 0xbf, 0xf1, 0x3e, 0xc1, 0xcd, 0x01, 0xbe,
    0xab, 0x9c, 0x0d, 0x3e, 0x46, 0xd9, 0xc2, 0x3c, 0xa3, 0x49,
    0xbd, 0x3d, 0xe2, 0xf4, 0xfa, 0xbd, 0xbb, 0x44, 0xb6, 0x3d,
    0x2b, 0xeb, 0xa5, 0xbd, 0x65, 0x74, 0xa9, 0xbd, 0xbe, 0xc6,
    0x84, 0x3e, 0xd8, 0x85, 0xef, 0x3d, 0xe9, 0x48, 0x36, 0xbe,
    0x32, 0x67, 0x1c, 0x3d, 0x23, 0x8a, 0xce, 0xbd, 0x0a, 0x65,
    0x4c, 0x3d, 0xcf, 0xb5, 0xef, 0xbd, 0x54, 0x8c, 0x60, 0xbe,
    0xc5, 0x74, 0x83, 0x3e, 0xdb, 0x09, 0x18, 0x3e, 0xbc, 0x3f,
    0xc2, 0x3e, 0x5c, 0x69, 0xcc, 0x3d, 0x4c, 0x70, 0xcb, 0xbd,
    0x2d, 0x0b, 0xdf, 0x3e, 0x07, 0xfd, 0x5e, 0xbd, 0x94, 0x90,
    0x10, 0xbf, 0xe7, 0xa1, 0x81, 0x3e, 0xd9, 0x15, 0xeb, 0xbc,
    0x86, 0x1a, 0xb8, 0x3d, 0x9d, 0xc8, 0xb3, 0x3d, 0xac, 0x5d,
    0xcd, 0x3d, 0x57, 0xcd, 0xff, 0xbc, 0x06, 0x67, 0x0b, 0x3e,
    0xc3, 0x30, 0xf0, 0x3d, 0x8a, 0x9d, 0x9f, 0x3d, 0x6d, 0x2d,
    0xb7, 0xbd, 0xaf, 0xa1, 0x3d, 0x3e, 0xe4, 0xf7, 0x90, 0xbe,
    0x20, 0xd2, 0x8c, 0x3e, 0xfd, 0xd7, 0x9f, 0xbd, 0x16, 0xe7,
    0x39, 0x3e, 0x22, 0xae, 0x90, 0x3e, 0x6b, 0xd4, 0xf0, 0xbe,
    0xeb, 0x76, 0xf4, 0xbb, 0x8f, 0x32, 0xbe, 0x3e, 0xa7, 0xcc,
    0x8b, 0xbe, 0xb7, 0xd5, 0x01, 0x3e, 0x3f, 0x8c, 0xa7, 0x3d,
    0xc2, 0x24, 0xbd, 0xbe, 0xe8, 0xa5, 0x3d, 0x3e, 0xfe, 0x37,
    0x93, 0x3d, 0xba, 0x45, 0xef, 0xbc, 0xeb, 0x48, 0x9e, 0xbd,
    0xf3, 0x66, 0xaa, 0x3c, 0xc8, 0x6e, 0x2a, 0x3d, 0x8b, 0xc0,
    0x9c, 0xbd, 0xa3, 0x44, 0x7c, 0x3e, 0xce, 0x86, 0xce, 0x3d,
    0x39, 0x18, 0xa2, 0xbe, 0xca, 0x24, 0xee, 0x3c, 0x09, 0x08,
    0xfb, 0x3c, 0x92, 0xc4, 0xe0, 0xbd, 0x08, 0x83, 0x87, 0xbc,
    0xd9, 0xb9, 0xa7, 0x3d, 0x1b, 0xba, 0xd9, 0x3d, 0xc8, 0x15,
    0x92, 0x3c, 0x1b, 0x94, 0x5f, 0xbe, 0x61, 0xd7, 0x1e, 0x3f,
    0x94, 0x38, 0xd2, 0xbc, 0xf8, 0xa6, 0x04, 0x3f, 0xf9, 0x2f,
    0xe4, 0xbd, 0x5a, 0xb6, 0x0b, 0x3f, 0xde, 0xe9, 0xa3, 0x3e,
    0xef, 0x97, 0x9c, 0xbd, 0xb6, 0x25, 0x72, 0x3e, 0x8e, 0x42,
    0x1a, 0x3d, 0xe4, 0x87, 0x30, 0xbc, 0x74, 0xaa, 0x01, 0xbe,
    0xaa, 0xb9, 0x0d, 0x3e, 0x4f, 0xc5, 0x8e, 0x3b, 0x48, 0x6f,
    0x90, 0x3e, 0xc0, 0x7d, 0x4b, 0xbd, 0xb6, 0x0a, 0x43, 0xbb,
    0xbe, 0xc0, 0x73, 0xbd, 0x1a, 0xca, 0x9f, 0xbd, 0x22, 0xdd,
    0x78, 0x3d, 0x1f, 0x37, 0x23, 0x3d, 0x6a, 0x8c, 0x67, 0xbd,
    0xe7, 0xf5, 0x99, 0x3e, 0x25, 0xc3, 0x94, 0x3e, 0x37, 0xbb,
    0xb1, 0x3d, 0xd9, 0x57, 0x8b, 0x3d, 0xcd, 0x43, 0x15, 0x3f,
    0xbe, 0x38, 0x12, 0x3e, 0x5b, 0x77, 0x16, 0x3d, 0xd9, 0xf9,
    0x49, 0xbc, 0x42, 0x2a, 0x82, 0x3e, 0xaa, 0xaf, 0xb1, 0xbe,
    0xb4, 0x04, 0x95, 0xbe, 0xf3, 0x3a, 0x3d, 0x3d, 0x7c, 0x91,
    0x7b, 0x3d, 0x4f, 0x87, 0x17, 0xbe, 0xbc, 0xaa, 0x17, 0xbd,
    0x73, 0xc9, 0x1e, 0x3e, 0x92, 0x6b, 0x88, 0xbe, 0x87, 0xec,
    0x44, 0xbe, 0x8e, 0x83, 0x9f, 0xbe, 0x50, 0x76, 0x1b, 0x3e,
    0x34, 0xf7, 0x9a, 0x3c, 0xad, 0x56, 0x9f, 0x3d, 0x8d, 0xfc,
    0x9e, 0xbe, 0xbd, 0x08, 0xa8, 0xbd, 0x5f, 0xa1, 0xaf, 0xbd,
    0xa0, 0xcb, 0x54, 0xbe, 0x6e, 0x37, 0x15, 0xbd, 0xc0, 0x1f,
    0xbd, 0xbe, 0x98, 0x54, 0x4d, 0xbe, 0xa1, 0x35, 0xf9, 0xbd,
    0x5b, 0xb6, 0x03, 0xbe, 0xd8, 0xc9, 0xe8, 0xbe, 0x6e, 0x41,
    0x7e, 0x3d, 0x13, 0x8f, 0xa2, 0x3d, 0x3f, 0x8f, 0xfe, 0x3e,
    0xb4, 0xec, 0x22, 0x3e, 0x59, 0x6f, 0x08, 0x3f, 0xed, 0x8c,
    0x4a, 0x3e, 0xab, 0x4b, 0x0c, 0x3e, 0x7f, 0x7b, 0x15, 0x3e,
    0x48, 0x06, 0x85, 0x3c, 0x10, 0xe5, 0xef, 0xbd, 0xc0, 0xf5,
    0x26, 0x3e, 0xfa, 0x79, 0x0e, 0x3e, 0xb8, 0xdb, 0xae, 0xbe,
    0x13, 0x7e, 0x6a, 0x3e, 0x10, 0x61, 0x3b, 0xbe, 0x99, 0x51,
    0xb1, 0x3c, 0x46, 0x09, 0x14, 0xbe, 0x72, 0x60, 0x0c, 0x3e,
    0xd6, 0xd4, 0xe8, 0x3e, 0xc5, 0x4e, 0x18, 0xbe, 0xca, 0xd5,
    0x86, 0xbe, 0x70, 0xa2, 0xb6, 0x3e, 0xf6, 0x44, 0x1b, 0xbf,
    0x26, 0xcc, 0x19, 0xbe, 0x79, 0x0a, 0x9f, 0xbd, 0xb4, 0x71,
    0x72, 0x3e, 0xd1, 0xf8, 0x8a, 0xbd, 0x70, 0xfa, 0xad, 0x3c,
    0x08, 0xa4, 0xa7, 0xbe, 0x35, 0xef, 0x8c, 0x3d, 0x5d, 0xe3,
    0x09, 0xbd, 0xa8, 0x51, 0x15, 0xbe, 0x8a, 0xd3, 0x6f, 0xbe,
    0x8b, 0x24, 0x04, 0x3e, 0xcc, 0xc2, 0x82, 0x3e, 0x9c, 0xa5,
    0xcd, 0x3d, 0x8a, 0x22, 0x33, 0x3e, 0xad, 0xdd, 0x81, 0x3e,
    0x19, 0x09, 0x97, 0xbe, 0x82, 0x72, 0xe7, 0x3c, 0xbe, 0xeb,
    0xb5, 0x3c, 0x24, 0xa9, 0x05, 0x3e, 0x40, 0x30, 0xec, 0x3e,
    0x18, 0xe1, 0x4d, 0x3d, 0x41, 0x7b, 0x98, 0xbd, 0x27, 0x6a,
    0x2b, 0x3e, 0x77, 0x1a, 0x13, 0xbf, 0x29, 0x89, 0x8f, 0x3e,
    0x7e, 0x75, 0x04, 0x3e, 0x33, 0xc2, 0x61, 0x3e, 0xde, 0xc6,
    0xec, 0x3e, 0xb3, 0x36, 0xa4, 0x3e, 0x1d, 0x8e, 0x49, 0x3f,
    0xd5, 0x86, 0x84, 0xbd, 0x18, 0x9f, 0xd7, 0xbd, 0x14, 0x81,
    0x77, 0xbe, 0xa6, 0x5f, 0x8d, 0xbe, 0x98, 0xc1, 0x5c, 0x3e,
    0x37, 0x1e, 0x98, 0x3e, 0x26, 0x29, 0xdb, 0x3d, 0x56, 0x54,
    0x11, 0xbe, 0xa1, 0xea, 0xe7, 0x3d, 0x58, 0xc5, 0x2f, 0x3d,
    0x78, 0x56, 0x4b, 0xbd, 0xb1, 0x50, 0xd8, 0xbd, 0xec, 0xd0,
    0x2f, 0xbd, 0xa8, 0x69, 0x95, 0x3c, 0x32, 0x13, 0x5d, 0xbe,
    0x28, 0x43, 0x38, 0xbe, 0x08, 0xd6, 0x71, 0x3e, 0xc8, 0x9b,
    0x33, 0xbe, 0xbf, 0x93, 0x18, 0xbe, 0xcf, 0x6b, 0x09, 0xbe,
    0xcf, 0x98, 0x50, 0x3e, 0x3f, 0x83, 0x4e, 0x3e, 0xd0, 0xbc,
    0x17, 0x3f, 0x90, 0xe0, 0x00, 0x3f, 0xc6, 0xc9, 0x50, 0xbe,
    0x4f, 0xe1, 0x6b, 0xbe, 0xa0, 0x75, 0x75, 0xbe, 0x5b, 0x11,
    0x9a, 0xbc, 0xde, 0x36, 0x9d, 0x3e, 0xf8, 0xb7, 0x87, 0x3d,
    0x3a, 0x7e, 0x0f, 0x3d, 0xa2, 0xd1, 0xcf, 0x3d, 0xb2, 0xc8,
    0x86, 0x3c, 0xc4, 0xa1, 0x0a, 0xbe, 0x26, 0xbe, 0x1a, 0x3e,
    0x83, 0x08, 0x0d, 0x3e, 0xcb, 0xb7, 0x27, 0x3e, 0x4b, 0x66,
    0xe1, 0x3e, 0x12, 0x66, 0xab, 0x3d, 0xed, 0x43, 0x1b, 0x3e,
    0x9c, 0xe2, 0x18, 0x3e, 0xde, 0xdf, 0xb6, 0xbc, 0x36, 0x5a,
    0x7d, 0x3d, 0x82, 0xbe, 0x45, 0xbd, 0xe3, 0xc9, 0xd9, 0xbd,
    0xa5, 0x2b, 0x07, 0x3e, 0x20, 0x9e, 0x58, 0x3f, 0x82, 0x8c,
    0x0c, 0x3f, 0xb2, 0xd9, 0xa3, 0xbe, 0xa6, 0x01, 0xd7, 0x3d,
    0x7b, 0x5a, 0x09, 0xbf, 0xe7, 0x9a, 0x1f, 0xbe, 0x9e, 0xf9,
    0x02, 0x3f, 0xbc, 0xb9, 0xd1, 0x3d, 0x2d, 0xc3, 0x34, 0xbd,
    0xcd, 0x08, 0x01, 0xbe, 0x46, 0x0a, 0x3f, 0x3e, 0xa2, 0x14,
    0x75, 0xbe, 0x26, 0x1e, 0xb4, 0x3a, 0x7b, 0x46, 0x21, 0xbb,
    0x9a, 0xe6, 0xac, 0x3e, 0xed, 0xa3, 0x38, 0x3f, 0x1a, 0xcb,
    0x03, 0x3a, 0x5e, 0xca, 0x92, 0xbe, 0x07, 0x82, 0xb2, 0x3e,
    0xd5, 0x6a, 0x87, 0xbe, 0xdb, 0x94, 0x8c, 0xbc, 0xde, 0x90,
    0x7e, 0xbe, 0x8e, 0xa7, 0xb8, 0x3d, 0x2a, 0x97, 0xd4, 0x3e,
    0xeb, 0x22, 0x58, 0x3e, 0x63, 0x47, 0xbd, 0xbd, 0x12, 0xfc,
    0x8a, 0xbe, 0x80, 0xe3, 0xe0, 0xbd, 0xd5, 0xf0, 0xce, 0x3d,
    0x57, 0x45, 0x4b, 0xbe, 0x7f, 0x0e, 0x49, 0xbc, 0x6c, 0x96,
    0x2c, 0xbe, 0x72, 0x30, 0x1a, 0xbc, 0x46, 0x71, 0x99, 0xbe,
    0x48, 0x70, 0x02, 0x3e, 0xb7, 0x94, 0x1e, 0xbe, 0xfe, 0x09,
    0x87, 0xbd, 0x24, 0xe6, 0x81, 0xbe, 0x07, 0x7c, 0xa9, 0x3c,
    0x83, 0x23, 0x0d, 0xbe, 0x57, 0x67, 0x40, 0x3e, 0xb3, 0xf0,
    0x95, 0xbe, 0xc9, 0x49, 0x7d, 0x3d, 0x3e, 0xda, 0x03, 0xbe,
    0xfe, 0x34, 0x2c, 0x3e, 0x7f, 0xd6, 0x90, 0xbe, 0x29, 0x20,
    0x5c, 0x3d, 0x64, 0x63, 0x73, 0xbe, 0xe7, 0xa9, 0x39, 0x3f,
    0x77, 0xb6, 0x73, 0x3d, 0xed, 0x4f, 0x0d, 0xbf, 0x53, 0x21,
    0x0d, 0xbe, 0xd9, 0x9b, 0x36, 0xbf, 0xdc, 0x48, 0x44, 0xbf,
    0x59, 0x89, 0x03, 0x3f, 0x7d, 0xe5, 0x63, 0x3e, 0x9c, 0x4a,
    0x95, 0x3c, 0x5e, 0x30, 0x73, 0xbe, 0x3d, 0x1c, 0x6b, 0x3e,
    0x92, 0xf6, 0xcd, 0xbc, 0x75, 0xe1, 0x57, 0xbc, 0x50, 0xe4,
    0xe3, 0xbe, 0x46, 0x4d, 0x03, 0xbd, 0x00, 0x1c, 0xbe, 0xbd,
    0x6d, 0xc9, 0xcb, 0x3e, 0x51, 0x2d, 0xce, 0xbd, 0xe1, 0x9b,
    0x99, 0xbd, 0xf3, 0x57, 0x13, 0x3f, 0x90, 0xb5, 0x08, 0x3e,
    0xc0, 0xb9, 0x91, 0xbe, 0x18, 0x1c, 0x2a, 0x3d, 0xf6, 0xe3,
    0x3d, 0xbe, 0x99, 0x7c, 0xb9, 0xbd, 0x41, 0x36, 0x1f, 0xbe,
    0xde, 0x80, 0xc7, 0x3e, 0xcc, 0xe3, 0xb3, 0x3a, 0xff, 0x78,
    0x94, 0x3e, 0xd2, 0x00, 0x06, 0x3e, 0xbe, 0x60, 0xe1, 0x3e,
    0xd0, 0xb6, 0x05, 0xbe, 0xdb, 0x7a, 0xe3, 0x3b, 0x64, 0x2c,
    0x89, 0x3e, 0x39, 0xd7, 0x7b, 0xbe, 0xfa, 0x19, 0xb8, 0x3d,
    0x39, 0xdc, 0x9c, 0x3d, 0x11, 0xd9, 0x4d, 0x3d, 0x25, 0x09,
    0xdc, 0xbd, 0xae, 0xc6, 0x88, 0xbe, 0x68, 0x0f, 0x97, 0xbd,
    0x21, 0x68, 0xce, 0x3d, 0x4b, 0x0f, 0x01, 0x3e, 0xce, 0xda,
    0x8b, 0x3c, 0x3a, 0x09, 0x60, 0xbc, 0xd2, 0x4f, 0x20, 0x3d,
    0xd2, 0xd0, 0xa2, 0xbd, 0xc1, 0x51, 0x9c, 0x3d, 0xeb, 0xf1,
    0x21, 0xbe, 0xa8, 0x97, 0x9c, 0xbe, 0x90, 0x3f, 0xea, 0xbe,
    0x90, 0x39, 0x81, 0xbe, 0xf3, 0xb4, 0x29, 0x3f, 0xe8, 0x5b,
    0xdb, 0xbe, 0x00, 0x7a, 0x0a, 0xbf, 0xea, 0x68, 0x78, 0xbe,
    0x69, 0x10, 0xaa, 0x3e, 0x4e, 0x95, 0x24, 0x3e, 0xb3, 0xea,
    0x7f, 0x3e, 0x6b, 0xdc, 0x71, 0xbd, 0x94, 0x21, 0x04, 0xbf,
    0xc2, 0x04, 0xc4, 0x3d, 0xa4, 0x15, 0x26, 0x3d, 0xea, 0xb5,
    0x89, 0x3d, 0xc4, 0x2e, 0x23, 0xbe, 0xd7, 0x64, 0x26, 0x3e,
    0xd7, 0x49, 0x88, 0x3e, 0x93, 0x3e, 0xcd, 0xbe, 0x4b, 0x66,
    0x99, 0x3d, 0xef, 0x7b, 0x2b, 0xbd, 0x19, 0xae, 0xa3, 0x3e,
    0x35, 0xfb, 0x85, 0xbe, 0xa7, 0x3c, 0xae, 0xbe, 0xb3, 0x7d,
    0x20, 0x3e, 0xce, 0xdc, 0x89, 0xbd, 0x77, 0xcf, 0x8d, 0xbd,
    0xa6, 0x5d, 0x09, 0xbe, 0x67, 0x0f, 0x8e, 0xbe, 0x06, 0xeb,
    0x62, 0xbc, 0x5e, 0x1f, 0x70, 0xbd, 0x2d, 0x63, 0x16, 0xbe,
    0xe6, 0x73, 0xa8, 0x3e, 0x1b, 0x99, 0xb7, 0xbd, 0x97, 0xb2,
    0xe2, 0x3d, 0xbf, 0x42, 0xda, 0xbe, 0x65, 0x3c, 0x02, 0xbd,
    0x26, 0x5c, 0xdb, 0x3d, 0xfc, 0x94, 0x29, 0xbe, 0xf6, 0xec,
    0x69, 0xbd, 0xfc, 0xc8, 0x12, 0xbe, 0x23, 0x08, 0x37, 0xbd,
    0x14, 0x90, 0x71, 0xbc, 0x87, 0x2f, 0x96, 0x3d, 0x6e, 0x71,
    0xde, 0xbd, 0x41, 0x1e, 0x87, 0xbd, 0xdc, 0x49, 0xae, 0x3d,
    0xa3, 0x83, 0xb9, 0x3d, 0x47, 0xf2, 0xed, 0xbc, 0x07, 0xce,
    0x54, 0x3d, 0xd8, 0xe5, 0xd4, 0x3d, 0xd9, 0x37, 0xfa, 0xbd,
    0xfe, 0x39, 0x8e, 0x3b, 0xd9, 0x78, 0xa1, 0x3d, 0x51, 0xaf,
    0x10, 0x3f, 0x7a, 0x28, 0x92, 0xbd, 0x30, 0xfd, 0x55, 0xbb,
    0xaa, 0x5f, 0x05, 0x3d, 0xd8, 0x8c, 0xd9, 0x3e, 0x59, 0xf5,
    0x89, 0x3f, 0xee, 0xfb, 0x27, 0xbe, 0x31, 0x4b, 0x94, 0xbe,
    0x6f, 0x4b, 0x9d, 0x3d, 0x5b, 0x72, 0x42, 0xbe, 0x37, 0xb3,
    0x1d, 0x3d, 0xbb, 0x19, 0x06, 0x3d, 0xb3, 0x1b, 0xdf, 0xbc,
    0x48, 0x7e, 0x16, 0x3e, 0x50, 0xfe, 0x8c, 0x3d, 0xa9, 0x66,
    0x6c, 0xbd, 0x14, 0xb4, 0x0d, 0xbf, 0x2b, 0xf6, 0xa3, 0xbe,
    0xaf, 0x30, 0x51, 0x3e, 0xcd, 0x32, 0xf7, 0x3d, 0x94, 0x1e,
    0x7f, 0xbe, 0x74, 0x2a, 0x14, 0x3e, 0xe5, 0xae, 0xc0, 0x3d,
    0x19, 0x96, 0xc1, 0x3c, 0xf7, 0x7b, 0xdb, 0x3d, 0x95, 0x27,
    0x65, 0xbf, 0x01, 0xb0, 0x65, 0xbd, 0x54, 0x5e, 0xdf, 0xbe,
    0x7c, 0x5b, 0xf1, 0xbc, 0x6b, 0xc4, 0x4d, 0x3e, 0xee, 0x62,
    0xa1, 0xbc, 0xd5, 0x88, 0x3f, 0x3e, 0xce, 0x94, 0x8c, 0x3d,
    0xcc, 0xc0, 0xc5, 0xbd, 0xfd, 0x9f, 0x7c, 0x3c, 0x65, 0xc0,
    0x2b, 0xbd, 0x58, 0xfb, 0x8c, 0x3e, 0x4f, 0xa8, 0x98, 0x3d,
    0xdf, 0x2b, 0x58, 0x3e, 0x47, 0x71, 0x0d, 0xbe, 0xd9, 0x14,
    0xfb, 0x3c, 0x9a, 0x1d, 0x70, 0xbd, 0xf6, 0xb6, 0x5a, 0xbd,
    0x6d, 0x78, 0x5b, 0x3e, 0xc2, 0x99, 0x08, 0xbe, 0xc9, 0x18,
    0x9b, 0x3d, 0xe2, 0xb5, 0x87, 0x3e, 0x20, 0xa6, 0x1f, 0x3c,
    0x85, 0xa1, 0xe7, 0xbc, 0x20, 0x00, 0x0f, 0xbf, 0x92, 0xab,
    0x2e, 0xbf, 0xb2, 0x12, 0x69, 0xbf, 0xb6, 0x66, 0x46, 0xbd,
    0x40, 0x26, 0x65, 0x3e, 0x0a, 0xf9, 0xca, 0x3c, 0x09, 0x6e,
    0xef, 0x3e, 0x51, 0x0f, 0x58, 0x3e, 0xf4, 0xb1, 0x70, 0x3e,
    0x66, 0x6d, 0x82, 0xbe, 0xc9, 0x65, 0x1f, 0x3e, 0x07, 0x1c,
    0x35, 0x3e, 0x92, 0x7e, 0x99, 0xbd, 0x81, 0x80, 0x95, 0x3d,
    0x06, 0xec, 0x96, 0x3d, 0xbf, 0x2d, 0xc9, 0x3e, 0xcd, 0x03,
    0xd1, 0xbd, 0xe6, 0x98, 0xd6, 0xbd, 0x01, 0x29, 0xd5, 0xbd,
    0x48, 0x12, 0x47, 0x3f, 0x28, 0xd8, 0x06, 0xbe, 0x8e, 0x8e,
    0x1a, 0xbd, 0x97, 0x28, 0xfa, 0xbd, 0xce, 0x18, 0x4f, 0xbe,
    0x08, 0xeb, 0x0e, 0xbd, 0xac, 0xec, 0x04, 0xbe, 0x74, 0x1c,
    0xde, 0xbe, 0x1f, 0x4b, 0x6d, 0x3d, 0x00, 0x2b, 0x01, 0xbf,
    0x30, 0xee, 0xaa, 0xbe, 0x89, 0xea, 0xd6, 0xbd, 0x2c, 0x8b,
    0xc9, 0xbe, 0x52, 0x41, 0x22, 0x3e, 0x6f, 0xaa, 0x85, 0xbe,
    0xda, 0x7b, 0x64, 0x3a, 0x88, 0xeb, 0x05, 0xbe, 0x4e, 0xdd,
    0xf3, 0x3d, 0x7f, 0x47, 0xcf, 0xbc, 0x8f, 0xa7, 0x8a, 0xbe,
    0xdb, 0x97, 0x70, 0x3d, 0x72, 0x62, 0x07, 0x3e, 0x87, 0x3f,
    0xce, 0xbe, 0x8a, 0x4f, 0x8a, 0x3e, 0xe4, 0x0f, 0x91, 0xbe,
    0xe0, 0x55, 0x3f, 0x3e, 0x68, 0x10, 0x39, 0x3d, 0x92, 0x24,
    0x78, 0x3e, 0xcf, 0xc0, 0x53, 0xbe, 0x0f, 0x3c, 0x19, 0x3f,
    0x64, 0x43, 0xc0, 0x3e, 0xc7, 0x13, 0x37, 0x3f, 0x78, 0x67,
    0xaf, 0x3e, 0x5e, 0xfa, 0xfb, 0xbb, 0xe3, 0xab, 0xaf, 0x3d,
    0xbd, 0x66, 0x16, 0xbe, 0x2b, 0xf3, 0x4f, 0x3e, 0x0d, 0x97,
    0x1f, 0x3d, 0x21, 0xaa, 0x85, 0x3c, 0xcb, 0x44, 0x0d, 0x3c,
    0xb8, 0x4c, 0x81, 0xbc, 0xad, 0x52, 0x07, 0xbe, 0x1e, 0x02,
    0x0e, 0x3e, 0x02, 0x6a, 0x56, 0xbd, 0x20, 0x50, 0x3b, 0x3f,
    0x66, 0xe4, 0x77, 0x3e, 0xa4, 0x75, 0x80, 0x3c, 0xa7, 0x05,
    0x3c, 0x3e, 0x3f, 0xa2, 0x6a, 0xbe, 0x5a, 0x2e, 0x3e, 0xbe,
    0x1c, 0x17, 0x91, 0x3e, 0x51, 0x52, 0x23, 0x3d, 0x9a, 0xa2,
    0x81, 0xbd, 0x35, 0x61, 0x27, 0x3e, 0x9b, 0xa3, 0xee, 0xbe,
    0xf5, 0xa7, 0x00, 0x3e, 0x69, 0xc9, 0x8e, 0xbe, 0x58, 0x5a,
    0xf4, 0x3e, 0x42, 0x5e, 0x27, 0xbe, 0x32, 0x83, 0x5c, 0xbd,
    0x37, 0xa8, 0xb1, 0xbd, 0xa6, 0x67, 0x09, 0xbe, 0x60, 0xf5,
    0x9c, 0x3c, 0x60, 0xd1, 0x4f, 0x3d, 0xaa, 0x00, 0xd3, 0xbd,
    0x87, 0xe4, 0x14, 0xbd, 0x6e, 0x6d, 0xd3, 0xbd, 0x46, 0xaf,
    0xc0, 0x3d, 0x9d, 0xb6, 0xd7, 0xbd, 0x53, 0x86, 0x3c, 0x3e,
    0x6f, 0x96, 0x7c, 0x3d, 0x22, 0x1f, 0xd9, 0xbd, 0xd8, 0x37,
    0x14, 0x3e, 0xfb, 0x90, 0xec, 0xbc, 0x0a, 0x61, 0x9c, 0xbd,
    0x6c, 0x5b, 0xba, 0x3d, 0xaf, 0x89, 0xd3, 0x3e, 0x33, 0x48,
    0x49, 0xbe, 0xa9, 0x56, 0xf1, 0x3e, 0xf4, 0xc8, 0xf4, 0x3d,
    0x70, 0x1a, 0xa7, 0x3e, 0xda, 0x00, 0x87, 0x3f, 0xfa, 0xb5,
    0x5e, 0xbe, 0xc1, 0xd0, 0x28, 0xbf, 0x0e, 0x5e, 0x15, 0xbe,
    0xba, 0x8f, 0x80, 0xbe, 0x7f, 0xce, 0x75, 0xbe, 0x22, 0x06,
    0x4d, 0xbe, 0xb1, 0xf7, 0xdb, 0x3c, 0x32, 0x2a, 0x20, 0x3e,
    0x37, 0xf3, 0x39, 0x3e, 0x4f, 0x34, 0x8e, 0xbe, 0x1d, 0x72,
    0x9b, 0xbc, 0x3f, 0xfa, 0x0f, 0xbe, 0x26, 0x7c, 0x37, 0x3e,
    0x01, 0x0b, 0x6f, 0xbd, 0x9b, 0x14, 0xb7, 0xbc, 0x85, 0x6e,
    0xfa, 0xbb, 0xf0, 0x9c, 0xc6, 0x3c, 0xf4, 0x07, 0x48, 0x3d,
    0x46, 0x64, 0x77, 0x3d, 0x2c, 0x11, 0x54, 0x3d, 0xf6, 0x1c,
    0x9e, 0x3e, 0xdd, 0xde, 0x01, 0xbd, 0x49, 0x4a, 0xad, 0xbd,
    0xbb, 0xac, 0x4a, 0x3d, 0xb7, 0x3f, 0x8a, 0xbd, 0xb4, 0x1c,
    0x00, 0xbd, 0x96, 0x98, 0x09, 0xbd, 0xea, 0xdc, 0x2a, 0x3f,
    0xd3, 0x67, 0xfe, 0xbe, 0xad, 0xd8, 0x16, 0xbf, 0xae, 0x2a,
    0xc2, 0xbc, 0xda, 0xa3, 0xba, 0x3e, 0x99, 0x3d, 0x2b,
    0x3d, 0x33, 0xbc, 0x0b, 0x3f, 0x6d, 0x2a, 0x24, 0xbd
  };

  return AI_HANDLE_PTR(s_wn18_v1_weights);

}

