#include "wn_12_4_tfl_6_data.h"

ai_handle ai_wn_12_4_tfl_6_data_weights_get(void)
{

  AI_ALIGNED(4)
  static const ai_u8 s_wn_12_4_tfl_6_weights[ 2196 ] = {
    0xb9, 0xf4, 0x49, 0xbf, 0x19, 0x52, 0x14, 0x3f, 0x6f, 0x8a,
    0xc8, 0x3f, 0xdd, 0x14, 0xa5, 0xc0, 0xb8, 0x09, 0x86, 0xc0,
    0x51, 0x05, 0x8a, 0xc0, 0xcd, 0x99, 0xa1, 0x40, 0xa4, 0x03,
    0x85, 0x40, 0x29, 0x95, 0x8c, 0x40, 0x66, 0x9d, 0xa7, 0xc0,
    0x2f, 0x54, 0x63, 0xc0, 0x34, 0x1f, 0x93, 0xc0, 0x33, 0x45,
    0x91, 0x3c, 0xef, 0x71, 0xbf, 0x3a, 0x80, 0x48, 0x0d, 0xbb,
    0xc5, 0x46, 0x1e, 0xbb, 0x09, 0xfa, 0xc2, 0xbd, 0x66, 0x79,
    0x5a, 0x3e, 0x79, 0x8e, 0xbe, 0x3e, 0x93, 0xf9, 0x3a, 0x3d,
    0xc4, 0xc8, 0x56, 0xbe, 0xe6, 0x48, 0x18, 0xbe, 0xa8, 0x8e,
    0xcc, 0x3d, 0xe3, 0x5b, 0x8b, 0xbe, 0x3c, 0xe4, 0x4c, 0x3d,
    0x99, 0x96, 0x86, 0xbd, 0x6a, 0xa9, 0x7c, 0x3e, 0xc2, 0x00,
    0x0b, 0xbd, 0x2d, 0xf4, 0x61, 0x3d, 0x93, 0x23, 0xd1, 0x3e,
    0xe2, 0x49, 0xcc, 0xbe, 0x9a, 0xfb, 0xe5, 0x3e, 0x1a, 0x55,
    0x13, 0x3e, 0x86, 0x7d, 0x9e, 0xbe, 0xcb, 0xcb, 0x27, 0x3f,
    0xbd, 0xa3, 0xb7, 0xbd, 0x39, 0x9e, 0xf6, 0xbd, 0x62, 0xe5,
    0x1d, 0x3e, 0x1e, 0xba, 0xfd, 0xbc, 0xf5, 0x9f, 0x0a, 0xbe,
    0x00, 0xb4, 0xb0, 0x3e, 0xe4, 0x7b, 0x29, 0x3f, 0x50, 0x13,
    0x4d, 0xbe, 0x75, 0x07, 0x66, 0x3f, 0xc2, 0x6d, 0x2e, 0xbc,
    0x31, 0xf1, 0xeb, 0x3e, 0xca, 0xe9, 0x5c, 0x3d, 0xc1, 0x86,
    0x41, 0x3e, 0xe5, 0x42, 0xea, 0xbe, 0x1e, 0x47, 0x8c, 0xbe,
    0xc6, 0xf8, 0x91, 0xbd, 0xca, 0x0c, 0x36, 0xbf, 0x72, 0x52,
    0xd1, 0xbd, 0x29, 0x81, 0xda, 0x3e, 0x32, 0x4a, 0x2a, 0x3f,
    0x7d, 0x01, 0x4e, 0xbe, 0xd5, 0x09, 0x27, 0x3d, 0x7f, 0xc2,
    0x26, 0xbe, 0x2a, 0xe9, 0x5c, 0x3d, 0x5c, 0xd7, 0x04, 0xbf,
    0x0d, 0x6f, 0x64, 0x3e, 0xea, 0x05, 0x00, 0xbf, 0x40, 0xc9,
    0xc8, 0xbd, 0x3b, 0x22, 0xc5, 0xbe, 0xef, 0x08, 0x92, 0xba,
    0x71, 0x29, 0xc5, 0x3b, 0xf4, 0x1e, 0x4c, 0x3c, 0x51, 0x72,
    0x2f, 0xbd, 0xa0, 0x7e, 0xf0, 0x3e, 0xdb, 0xf2, 0xd6, 0x3e,
    0x25, 0x84, 0x26, 0x3e, 0x9d, 0xd9, 0xf9, 0x3d, 0xfc, 0x7c,
    0x89, 0x3e, 0xfc, 0x7c, 0x8f, 0xbd, 0xa5, 0x10, 0x62, 0x3e,
    0x48, 0x1d, 0xc9, 0x3d, 0xb9, 0x9e, 0x0b, 0xbf, 0x07, 0x09,
    0xd7, 0xbe, 0x57, 0x30, 0x5a, 0x3e, 0x3e, 0x72, 0xde, 0x3e,
    0xef, 0xe6, 0xb9, 0x3e, 0x44, 0x27, 0xb9, 0x3e, 0x11, 0x0a,
    0x84, 0xbe, 0x00, 0x14, 0x0f, 0x3f, 0x5d, 0x4a, 0x6f, 0xbe,
    0xc7, 0x57, 0x00, 0xbf, 0xd2, 0x44, 0xc8, 0xbd, 0x5b, 0x2e,
    0x88, 0x3d, 0xce, 0xac, 0x97, 0xbd, 0x25, 0xff, 0xa0, 0x3e,
    0x9a, 0xe8, 0x5b, 0x3e, 0xe0, 0x0a, 0xba, 0xbe, 0x23, 0x78,
    0x99, 0xbe, 0x95, 0xac, 0x8c, 0xbe, 0xa5, 0x89, 0x1b, 0xbf,
    0x19, 0xc9, 0x6b, 0x3e, 0x27, 0x02, 0x83, 0xbd, 0xe3, 0x6e,
    0x20, 0xbe, 0xfc, 0x38, 0x98, 0xbe, 0x65, 0x0c, 0x8d, 0x3e,
    0xcd, 0x05, 0x1b, 0x3f, 0xb6, 0x33, 0xab, 0x3e, 0xec, 0x71,
    0x9a, 0x3d, 0xee, 0xf3, 0x60, 0xbe, 0xc2, 0xf0, 0xa1, 0x3d,
    0xb6, 0x0c, 0x27, 0x3d, 0x50, 0x1d, 0x17, 0xbe, 0x20, 0x80,
    0x8b, 0xbe, 0x49, 0x1f, 0xa4, 0xbb, 0xea, 0x1a, 0x78, 0xbe,
    0x28, 0xb6, 0x31, 0xbd, 0xc1, 0xef, 0x63, 0xbe, 0x4b, 0xff,
    0xbe, 0x3d, 0xeb, 0xb3, 0x0d, 0x3d, 0x09, 0x91, 0x7d, 0x3e,
    0x98, 0x74, 0x96, 0xbe, 0x9c, 0x15, 0x86, 0x3c, 0x9c, 0xc2,
    0xd4, 0x3b, 0xd5, 0xe6, 0x3d, 0xbd, 0x3d, 0x40, 0x4c, 0x3c,
    0x3c, 0x8c, 0x99, 0xbe, 0xc2, 0x9b, 0xfe, 0x3e, 0x1b, 0xd5,
    0x08, 0x3e, 0x84, 0xf1, 0xbf, 0xbe, 0xad, 0xb0, 0xa7, 0x3e,
    0x28, 0xd5, 0xf3, 0xbe, 0x38, 0x2a, 0x81, 0xbe, 0x3c, 0x9a,
    0x41, 0x3e, 0xc0, 0xd1, 0x63, 0xbe, 0xaa, 0xce, 0x6c, 0x3e,
    0x9c, 0xc0, 0x2f, 0x3e, 0x57, 0x3a, 0x4b, 0xbe, 0x58, 0x88,
    0xac, 0xbe, 0x89, 0x1e, 0x4e, 0xbe, 0x57, 0x2f, 0xd5, 0x3e,
    0x90, 0xfa, 0x79, 0xbe, 0x82, 0x23, 0xe4, 0x3d, 0xac, 0x22,
    0xe9, 0x3e, 0x63, 0x83, 0xcd, 0xbe, 0x1c, 0x80, 0x5e, 0x3e,
    0xb4, 0x40, 0xac, 0x3e, 0x8b, 0x36, 0x8b, 0x3e, 0x37, 0xd1,
    0x52, 0x3e, 0x9d, 0x8c, 0x94, 0x3e, 0x58, 0x64, 0x07, 0x3f,
    0x48, 0x8e, 0xc2, 0x3d, 0x46, 0x3b, 0x27, 0x3f, 0x2c, 0x1f,
    0x98, 0x3d, 0xc8, 0xe8, 0x5a, 0x3e, 0x79, 0xd9, 0x25, 0x3e,
    0x6b, 0x9a, 0x64, 0x3e, 0x95, 0x7c, 0x05, 0xbf, 0x45, 0x47,
    0xe5, 0xbe, 0xc8, 0xa1, 0x8f, 0x3d, 0x0a, 0xfc, 0x80, 0xbd,
    0x4f, 0x16, 0x30, 0xbd, 0x69, 0xbe, 0x9e, 0x3d, 0x7f, 0x51,
    0xa3, 0xbe, 0x05, 0x4f, 0x2d, 0xbf, 0x08, 0x5a, 0x9a, 0xbd,
    0x34, 0xf4, 0x89, 0x3e, 0x1b, 0xdf, 0x18, 0xbd, 0x01, 0x2b,
    0xd0, 0x3d, 0x9b, 0xe7, 0x38, 0x3d, 0x96, 0x2a, 0x1d, 0xbe,
    0x07, 0xe5, 0xa3, 0x3e, 0x1d, 0xc8, 0xda, 0x3e, 0xd4, 0xcd,
    0x03, 0xbd, 0x79, 0xac, 0x78, 0xbb, 0xe9, 0x1f, 0xbb, 0x3c,
    0x2c, 0x7c, 0x0c, 0xbd, 0x6f, 0x5b, 0x14, 0xbd, 0x7c, 0x04,
    0x24, 0x3d, 0x72, 0xa0, 0x54, 0xbe, 0x93, 0xcf, 0x4c, 0x3d,
    0xb9, 0x92, 0xb9, 0xbe, 0x41, 0x6a, 0xd2, 0x3c, 0x93, 0x20,
    0xf7, 0xbe, 0x47, 0x89, 0x15, 0x3e, 0x27, 0x0d, 0x62, 0x3e,
    0x6e, 0x71, 0x39, 0xbd, 0x9f, 0x66, 0x18, 0x3e, 0x63, 0x31,
    0x96, 0xbb, 0x95, 0x01, 0xed, 0xbe, 0x07, 0xce, 0x01, 0x3e,
    0x90, 0xe1, 0x1f, 0xbe, 0x3f, 0xf5, 0xa1, 0x3e, 0x73, 0x36,
    0x6f, 0xbe, 0x04, 0x96, 0x30, 0xbc, 0x92, 0x8d, 0x24, 0xbd,
    0x1e, 0x27, 0x41, 0x3e, 0x3f, 0xe3, 0xa4, 0xbe, 0x99, 0xb7,
    0x01, 0xbe, 0x68, 0xe2, 0xaf, 0x3d, 0xe1, 0xd3, 0x10, 0xbd,
    0x13, 0xed, 0xec, 0x3d, 0x0a, 0xcc, 0xd1, 0x3d, 0xf2, 0x59,
    0x01, 0xbf, 0x10, 0xc4, 0x9f, 0xbe, 0xaf, 0x93, 0x29, 0xbd,
    0x52, 0xee, 0x16, 0xbf, 0xf7, 0x49, 0x87, 0xbe, 0xba, 0xaf,
    0x9c, 0xbe, 0x21, 0x1a, 0x71, 0xbd, 0x43, 0x02, 0x64, 0x3e,
    0xe5, 0xdb, 0x47, 0x3e, 0xd3, 0xd4, 0x78, 0x3e, 0xcf, 0x40,
    0x1c, 0x3e, 0x6f, 0x89, 0xcb, 0xbe, 0xe2, 0x0a, 0x40, 0x3d,
    0xfe, 0x4e, 0xf4, 0xbe, 0x7d, 0x85, 0x8a, 0x3c, 0x64, 0x5e,
    0x71, 0x3d, 0xa4, 0x2d, 0x8d, 0x3e, 0x50, 0x6c, 0x8e, 0x3e,
    0x8c, 0xa7, 0x6b, 0x3e, 0xfe, 0xe3, 0xd0, 0x3e, 0x78, 0xe9,
    0x23, 0xbe, 0x05, 0xac, 0xd3, 0xbe, 0x49, 0xbd, 0x69, 0x3d,
    0xb4, 0x60, 0x02, 0xbc, 0x33, 0x6b, 0x24, 0x3d, 0x03, 0xbe,
    0xf0, 0x3a, 0x13, 0xa8, 0x83, 0x3c, 0x78, 0x47, 0x9e, 0x3d,
    0x5c, 0x4b, 0x50, 0x3e, 0xb7, 0x81, 0x19, 0xbe, 0x12, 0xb7,
    0x14, 0x3f, 0x42, 0x96, 0x8d, 0x3e, 0x35, 0x1e, 0xb8, 0xbd,
    0xe2, 0xa0, 0xef, 0x3e, 0x16, 0xff, 0xff, 0xbe, 0x9e, 0x1f,
    0xe9, 0xbe, 0xf9, 0xa5, 0xf0, 0xbd, 0x25, 0xf6, 0x37, 0xbe,
    0x97, 0x06, 0xaf, 0x3e, 0xdd, 0x9d, 0x9e, 0xbe, 0xef, 0xfe,
    0x09, 0xbe, 0x57, 0x07, 0xe3, 0x3e, 0xdc, 0x01, 0x85, 0xbe,
    0x01, 0xbe, 0x99, 0x3e, 0x51, 0xb6, 0x5b, 0x3c, 0xf1, 0x49,
    0x3c, 0xbe, 0x25, 0xb1, 0xf8, 0x3c, 0xea, 0xbd, 0x21, 0x3e,
    0x7d, 0x53, 0x2a, 0x3d, 0x53, 0x70, 0x4c, 0xbe, 0x9f, 0x4f,
    0x61, 0x3e, 0x14, 0x79, 0xed, 0x3e, 0xc6, 0x9f, 0xf3, 0xbd,
    0x58, 0x6b, 0xf9, 0xbd, 0xa6, 0xee, 0x0a, 0xbd, 0x8c, 0xc4,
    0xd2, 0xbe, 0x98, 0x7b, 0x1e, 0xbf, 0xc3, 0x57, 0x9c, 0x3e,
    0xdd, 0xa6, 0x52, 0x3e, 0xe3, 0xbd, 0x6d, 0xbc, 0x8f, 0xed,
    0x4a, 0x3d, 0x02, 0x5c, 0x92, 0x3d, 0x87, 0x35, 0x79, 0x3c,
    0xb7, 0x97, 0x94, 0xbd, 0x4d, 0xa6, 0x81, 0xbd, 0x49, 0xf2,
    0x96, 0x3e, 0x56, 0x0f, 0xac, 0x3e, 0x2d, 0xdd, 0xfc, 0x3d,
    0x44, 0x9f, 0x87, 0x3d, 0xdc, 0x43, 0xe9, 0xbc, 0x65, 0x4a,
    0x92, 0xbd, 0xe2, 0x0a, 0x4f, 0x3e, 0xc4, 0x17, 0xca, 0xbe,
    0x24, 0x84, 0xa2, 0xbe, 0x5b, 0xbb, 0x7a, 0xbe, 0xbf, 0xf0,
    0x1f, 0xbd, 0xd1, 0xaa, 0xfe, 0xbc, 0x00, 0x49, 0x6e, 0x3c,
    0x87, 0x7e, 0x67, 0xbc, 0xa5, 0x51, 0xbe, 0x3d, 0xba, 0xd2,
    0x84, 0xbe, 0xad, 0xd7, 0x31, 0x3d, 0xf1, 0xdf, 0x14, 0x3e,
    0xc4, 0x10, 0x83, 0x3d, 0x9a, 0x85, 0x9e, 0x3e, 0x28, 0x57,
    0x66, 0xbd, 0x24, 0x61, 0x80, 0xbe, 0x49, 0xbb, 0xcb, 0xbe,
    0xf4, 0xc2, 0x84, 0x3e, 0x1e, 0xa4, 0xe0, 0x3d, 0x35, 0xca,
    0x7a, 0x3e, 0x2a, 0x26, 0x39, 0xbe, 0xdf, 0xe7, 0x3c, 0xbe,
    0xb8, 0xbb, 0x80, 0xbe, 0x23, 0xe4, 0xbb, 0xbe, 0x65, 0xce,
    0xf4, 0x3d, 0xeb, 0xf2, 0x4b, 0x3d, 0x92, 0xea, 0x94, 0xbe,
    0x93, 0x86, 0x03, 0xbe, 0xb3, 0x49, 0xc5, 0xbe, 0xf4, 0xcc,
    0xcb, 0x3c, 0xfd, 0xe9, 0xfa, 0x3e, 0xc0, 0x91, 0x8e, 0x3e,
    0x74, 0x68, 0xf0, 0xbd, 0x6f, 0x1f, 0x52, 0x3e, 0xdb, 0x7b,
    0x55, 0x3e, 0x7b, 0x96, 0x76, 0xbe, 0xdd, 0xd6, 0x06, 0xbd,
    0x8e, 0xf3, 0x72, 0x3d, 0x29, 0x6d, 0xb3, 0xbd, 0x78, 0xd4,
    0x3a, 0xbe, 0x24, 0xe5, 0x77, 0x3e, 0x4f, 0xbf, 0x95, 0x3c,
    0xa5, 0xc6, 0x6a, 0x3d, 0xf3, 0x8f, 0xca, 0x3c, 0x2d, 0x02,
    0xc3, 0x3e, 0xba, 0xe8, 0x4a, 0xbd, 0x68, 0x18, 0x35, 0x3e,
    0x99, 0xbe, 0x75, 0x3d, 0x95, 0x8d, 0xcf, 0xbe, 0x84, 0x8d,
    0xc6, 0x3d, 0xee, 0x40, 0xfc, 0x3e, 0x6a, 0x1c, 0x40, 0x3e,
    0x60, 0x0b, 0x10, 0x3e, 0xb3, 0x8e, 0x87, 0xbd, 0xd0, 0xff,
    0x31, 0xbd, 0xaa, 0xa7, 0x89, 0xbe, 0xa8, 0xa4, 0x05, 0x3d,
    0xa3, 0xbd, 0xec, 0xbb, 0x98, 0xca, 0x86, 0x3c, 0xa7, 0xae,
    0xa9, 0x3c, 0x94, 0x56, 0xd1, 0x3c, 0x23, 0xba, 0x01, 0x3e,
    0x52, 0xd5, 0x12, 0x3d, 0x51, 0x80, 0xdb, 0xbe, 0xec, 0x3a,
    0xd6, 0x3d, 0xed, 0xbd, 0x0a, 0xbf, 0x03, 0x54, 0x10, 0x3e,
    0x3c, 0xcf, 0x98, 0xbe, 0xf8, 0xdb, 0x8b, 0xbe, 0xfc, 0x03,
    0x14, 0x3e, 0x75, 0xbb, 0xab, 0xbe, 0x34, 0x02, 0xd2, 0x3e,
    0xda, 0x59, 0xae, 0xbe, 0x1d, 0xe9, 0x48, 0xbd, 0x70, 0xbb,
    0xa0, 0xbe, 0xf0, 0xe3, 0x81, 0x3e, 0x9c, 0xac, 0x0e, 0x3e,
    0x16, 0xcc, 0x0e, 0xbe, 0x87, 0x7c, 0x18, 0x3d, 0x14, 0x8c,
    0x62, 0x3e, 0xf6, 0x6d, 0xa5, 0x3d, 0x59, 0xe8, 0x4a, 0xbe,
    0x8c, 0x5e, 0xda, 0x3e, 0x10, 0x67, 0x27, 0xbd, 0x8c, 0xd2,
    0xbd, 0xbe, 0x42, 0x6d, 0xbb, 0xbd, 0xe2, 0xe1, 0xc5, 0x3d,
    0x72, 0xc3, 0xe1, 0xbb, 0xa9, 0xa6, 0x1b, 0x3c, 0xa4, 0xf4,
    0xb0, 0x3d, 0xd2, 0xa0, 0xaf, 0xbe, 0x2a, 0xa9, 0x2c, 0x3e,
    0xa1, 0xec, 0x1a, 0x3e, 0x9b, 0x75, 0x79, 0xbd, 0x5b, 0x0c,
    0xcf, 0x3e, 0xac, 0x7f, 0x39, 0xbe, 0xa3, 0xd2, 0x8a, 0xbe,
    0xfd, 0x5d, 0x09, 0x3f, 0xfd, 0xf2, 0xd7, 0x3e, 0xc1, 0xc4,
    0x77, 0x3e, 0x59, 0xe8, 0x60, 0x3d, 0x41, 0xe6, 0x05, 0x3e,
    0x19, 0x03, 0x5f, 0xbe, 0xa7, 0x28, 0x04, 0xbe, 0xb0, 0xac,
    0x72, 0x3d, 0x96, 0xc6, 0xe9, 0xbe, 0x42, 0x17, 0x6d, 0xbe,
    0x3d, 0x1e, 0x0e, 0xbf, 0xf3, 0x97, 0x03, 0x3c, 0x04, 0x50,
    0x97, 0x3c, 0xad, 0x6c, 0x43, 0x3d, 0x01, 0x4a, 0x6c, 0x3a,
    0x69, 0x86, 0xd4, 0x3c, 0x28, 0x99, 0x7e, 0xbd, 0xc4, 0x4e,
    0x2d, 0x3e, 0x88, 0x2c, 0x05, 0xbf, 0x06, 0x94, 0x0a, 0xb9,
    0x7d, 0x76, 0xb6, 0x3e, 0x06, 0x64, 0xe8, 0xbd, 0x26, 0xc7,
    0x5b, 0x3e, 0x8e, 0x7c, 0x1d, 0x3c, 0xc5, 0x2c, 0x6a, 0xbe,
    0xa6, 0x6c, 0x69, 0xbe, 0x65, 0x04, 0x6d, 0x3e, 0xc0, 0x33,
    0x92, 0x3e, 0xf6, 0xd9, 0x0b, 0x3d, 0xab, 0x89, 0x37, 0xbd,
    0xbc, 0x4d, 0x28, 0x3e, 0xfa, 0x57, 0xd8, 0xbc, 0x93, 0x00,
    0x0c, 0xbf, 0x4b, 0xab, 0xbd, 0xbd, 0xca, 0x80, 0x89, 0x3e,
    0x5b, 0x66, 0x89, 0xbe, 0x9b, 0xf5, 0x75, 0x3e, 0x40, 0xa3,
    0x3e, 0x3c, 0x5b, 0xe8, 0xcf, 0xbe, 0x7a, 0x34, 0x59, 0x3d,
    0x71, 0x9e, 0x6e, 0x3a, 0x4b, 0x00, 0xee, 0xbe, 0x7a, 0xe7,
    0x87, 0x3e, 0xa3, 0xc8, 0xd0, 0xbd, 0xa5, 0xde, 0xbb, 0xbd,
    0x76, 0x8a, 0xf0, 0x3e, 0x6a, 0x32, 0x46, 0x3d, 0xd3, 0x44,
    0xb9, 0x3d, 0x26, 0xc2, 0x01, 0xbe, 0x9a, 0x33, 0x25, 0xbe,
    0xb5, 0xd7, 0x25, 0xbe, 0xc1, 0xfb, 0x1b, 0xba, 0x45, 0x30,
    0x5d, 0x3e, 0x3d, 0x4d, 0x2f, 0xbe, 0xbf, 0x4b, 0x20, 0x3e,
    0xbc, 0xc2, 0xab, 0x3c, 0x17, 0x33, 0x04, 0xbf, 0xe2, 0x97,
    0xac, 0x3d, 0xc0, 0x09, 0x88, 0x3d, 0x87, 0x89, 0x6b, 0xbe,
    0xf3, 0x19, 0x60, 0x3e, 0x6f, 0x97, 0x5a, 0x3e, 0xb9, 0x0a,
    0xc2, 0xbd, 0x59, 0x60, 0x27, 0x3c, 0x58, 0x99, 0xe2, 0x3c,
    0x0d, 0x98, 0xd6, 0x3b, 0x1e, 0x2a, 0xdc, 0xbc, 0x45, 0xb4,
    0xc5, 0xbd, 0xea, 0xa7, 0x84, 0x3e, 0x0f, 0xd0, 0xdd, 0x3b,
    0x45, 0x9e, 0x7f, 0x3d, 0x65, 0x48, 0x07, 0xbe, 0x33, 0xd9,
    0xa2, 0xbc, 0x2a, 0x3b, 0x85, 0xbd, 0xa4, 0xb7, 0x7a, 0xbe,
    0xd0, 0xd2, 0xc2, 0x3d, 0xd0, 0x3d, 0xca, 0xbe, 0xfb, 0xea,
    0xe8, 0xbd, 0xfc, 0x07, 0xc3, 0x3d, 0xe8, 0x69, 0x4d, 0xbe,
    0x57, 0x89, 0x50, 0x3a, 0x1f, 0xa7, 0x80, 0x3e, 0xd5, 0x94,
    0xdd, 0xbd, 0x1f, 0x70, 0xec, 0xbd, 0xf9, 0x3e, 0x5c, 0x3c,
    0x91, 0x9e, 0x4f, 0xbe, 0xc1, 0x0f, 0xa0, 0x3e, 0x1a, 0x2e,
    0x34, 0x3d, 0x78, 0xff, 0x3c, 0xbe, 0x9f, 0xbc, 0x48, 0x3d,
    0x7d, 0x3c, 0x49, 0xbe, 0x75, 0x79, 0xc0, 0x3c, 0x63, 0x53,
    0x03, 0xbe, 0x5c, 0x28, 0x6c, 0xbe, 0x95, 0x3e, 0x95, 0x3d,
    0xc2, 0xe5, 0x59, 0xbe, 0xd2, 0x18, 0x57, 0xbd, 0x36, 0x79,
    0x32, 0xbd, 0x8f, 0xc8, 0xb0, 0xbe, 0x39, 0xde, 0x7c, 0x3e,
    0xcf, 0x9e, 0xe7, 0x3c, 0x4e, 0x61, 0x9c, 0x3e, 0x87, 0x8c,
    0x2f, 0x3e, 0xd1, 0xdb, 0x6f, 0x3e, 0xcf, 0x50, 0xc8, 0x3d,
    0x7c, 0x51, 0x94, 0x3d, 0x20, 0x25, 0x22, 0xbe, 0xba, 0xe2,
    0x3d, 0x3e, 0xd5, 0x03, 0x68, 0x3d, 0xd7, 0xf7, 0xa7, 0x3d,
    0x32, 0xfa, 0xb6, 0x3d, 0x4e, 0x02, 0x55, 0xbe, 0x61, 0x2f,
    0x90, 0xbd, 0xc8, 0x37, 0x1b, 0xbe, 0xe6, 0xb3, 0xa8, 0x3e,
    0xec, 0x6a, 0x81, 0x3c, 0x93, 0x9a, 0x3e, 0xbc, 0x9a, 0x43,
    0xd6, 0x3c, 0x3f, 0xd0, 0x1f, 0xbc, 0xa7, 0x34, 0x6c, 0x3e,
    0xd8, 0x20, 0xd6, 0xbe, 0xe1, 0xb2, 0x21, 0x3e, 0x8f, 0xc9,
    0x54, 0xbe, 0x47, 0xd4, 0xae, 0x3c, 0x0f, 0x22, 0x5f, 0x3e,
    0xa2, 0x79, 0x39, 0x3d, 0xa6, 0xb8, 0x72, 0x3e, 0xbd, 0xf6,
    0xc2, 0xbe, 0x53, 0x1b, 0x6b, 0x3e, 0x08, 0x9e, 0x34, 0xbe,
    0x03, 0xde, 0xc1, 0xbd, 0x04, 0x5e, 0xa0, 0x3e, 0x90, 0x26,
    0xdc, 0x3d, 0xbf, 0x0a, 0xdc, 0x3d, 0x8c, 0x75, 0x0f, 0x3e,
    0xcb, 0x7e, 0x00, 0xbf, 0x60, 0xe1, 0xe4, 0x3c, 0x36, 0x87,
    0x7d, 0x3e, 0x59, 0x62, 0x45, 0xbe, 0x8b, 0x86, 0x29, 0x3e,
    0x4c, 0x64, 0x31, 0xbd, 0x29, 0x44, 0xcd, 0xbe, 0xce, 0xa5,
    0x3a, 0x3e, 0x10, 0xcf, 0x1b, 0x3e, 0x45, 0xa7, 0xc3, 0x3d,
    0xcf, 0xb1, 0x5a, 0xbe, 0x7a, 0xf6, 0xbe, 0x3e, 0xd4, 0x66,
    0x2e, 0xbe, 0x31, 0x87, 0x9c, 0x3e, 0x86, 0xec, 0xf9, 0xbd,
    0x2d, 0x75, 0x6c, 0xbe, 0xba, 0x1b, 0xf1, 0x3d, 0xf0, 0x0e,
    0xe6, 0xbe, 0xe8, 0xa6, 0xbc, 0x3e, 0x2f, 0xee, 0x8e, 0xbe,
    0x98, 0x95, 0x77, 0xbe, 0xad, 0x2b, 0x1c, 0xbe, 0x60, 0x34,
    0x97, 0xbd, 0x4e, 0x1d, 0x00, 0x3e, 0xe1, 0x1c, 0x78, 0x3e,
    0x1b, 0x1d, 0xa2, 0x3e, 0x26, 0xc7, 0x88, 0xbe, 0x9c, 0xf6,
    0x34, 0x3e, 0x4c, 0xf4, 0x4a, 0xbe, 0x5a, 0x9b, 0x14, 0xbe,
    0x8d, 0xd9, 0x7f, 0x3e, 0xaf, 0xcb, 0x9b, 0xbe, 0x2f, 0x01,
    0x50, 0x3c, 0xcd, 0x38, 0x1d, 0xbd, 0x3d, 0x0f, 0x17, 0x3c,
    0x92, 0x4a, 0x7f, 0xbc, 0x6b, 0x47, 0x9a, 0xbe, 0x7c, 0x31,
    0x55, 0x3e, 0x46, 0xfd, 0x3d, 0xbe, 0x48, 0x55, 0x9f, 0x3e,
    0xd8, 0x27, 0x03, 0x3f, 0xe0, 0x9a, 0x1e, 0x3e, 0x67,
    0x57, 0x6a, 0xbe, 0xc8, 0x30, 0x0a, 0x3e, 0xe5, 0x99,
    0x3c, 0xbe, 0xc0, 0x5c, 0xd9, 0xbe, 0xb5, 0xe6, 0xd9,
    0x3e, 0x31, 0x53, 0xf4, 0xbe, 0x3a, 0x74, 0xeb, 0x3a
  };

  return AI_HANDLE_PTR(s_wn_12_4_tfl_6_weights);

}

