#include "wn_12_4_tfl_int8_6_data.h"

ai_handle ai_wn_12_4_tfl_int8_6_data_weights_get(void)
{

  AI_ALIGNED(4)
  static const ai_u8 s_wn_12_4_tfl_int8_6_weights[ 684 ] = {
    0xc0, 0x2f, 0x7f, 0x81, 0x99, 0x96, 0x7f, 0x69, 0x6e, 0x81,
    0xaa, 0x91, 0xba, 0x01, 0x00, 0x00, 0x0b, 0x00, 0x00, 0x00,
    0xef, 0xff, 0xff, 0xff, 0xee, 0xff, 0xff, 0xff, 0xe0, 0x49,
    0x7f, 0x10, 0xb8, 0xcd, 0x22, 0xa3, 0x11, 0xea, 0x54, 0xf4,
    0x0b, 0x4f, 0xb3, 0x57, 0x1c, 0xc4, 0x7f, 0xef, 0xe9, 0x1e,
    0xfa, 0xe6, 0x31, 0x5e, 0xe4, 0x7f, 0xfe, 0x41, 0x08, 0x1b,
    0xbf, 0xd9, 0xf6, 0x9b, 0xec, 0x51, 0x7f, 0xda, 0x08, 0xe1,
    0x0a, 0x9d, 0x2b, 0xa1, 0xed, 0xb6, 0xcf, 0xff, 0xff, 0xff,
    0x95, 0x00, 0x00, 0x00, 0xe1, 0x00, 0x00, 0x00, 0xe9, 0xfb,
    0xff, 0xff, 0x6d, 0x62, 0x26, 0x1c, 0x3f, 0xf0, 0x33, 0x17,
    0x81, 0x9e, 0x32, 0x65, 0x53, 0x52, 0xc5, 0x7f, 0xcb, 0x8e,
    0xea, 0x0f, 0xef, 0x47, 0x31, 0xad, 0xc1, 0xc7, 0x81, 0x30,
    0xf3, 0xdf, 0xc2, 0x3a, 0x7f, 0x46, 0x10, 0xd2, 0x22, 0x12,
    0xc0, 0x8a, 0xfe, 0x97, 0xed, 0xa0, 0x28, 0x0f, 0x6b, 0x81,
    0xe8, 0x01, 0x00, 0x00, 0xbd, 0x00, 0x00, 0x00, 0x28, 0xfb,
    0xff, 0xff, 0xb2, 0x02, 0x00, 0x00, 0xb3, 0x7f, 0x22, 0xa0,
    0x54, 0x86, 0xc0, 0x30, 0xc7, 0x3b, 0x2c, 0xcd, 0xa2, 0xc8,
    0x74, 0xbc, 0x1f, 0x7f, 0x90, 0x3d, 0x5e, 0x4c, 0x39, 0x51,
    0x67, 0x12, 0x7f, 0x0e, 0x2a, 0x1f, 0x2b, 0x9b, 0xa9, 0x0e,
    0xf4, 0xf8, 0x0f, 0xc4, 0x81, 0xf2, 0x33, 0xf9, 0x13, 0x08,
    0xe3, 0x3c, 0x50, 0xfa, 0x84, 0xff, 0xff, 0xff, 0x2f, 0x03,
    0x00, 0x00, 0xaa, 0xfc, 0xff, 0xff, 0x9a, 0xfc, 0xff, 0xff,
    0x0b, 0xc9, 0x0d, 0xa1, 0x07, 0x81, 0x26, 0x3a, 0xf4, 0x27,
    0xff, 0x86, 0x32, 0xc2, 0x7d, 0xa4, 0xfc, 0xf0, 0x4a, 0x81,
    0xce, 0x22, 0xf2, 0x2e, 0x16, 0x93, 0xbd, 0xf7, 0x81, 0xc7,
    0xbe, 0xf3, 0x30, 0x2a, 0x34, 0x21, 0x96, 0x0c, 0x81, 0x05,
    0x10, 0x49, 0x4a, 0x3d, 0x6d, 0xd5, 0x92, 0x0f, 0xf4, 0xfe,
    0xff, 0xff, 0xea, 0x07, 0x00, 0x00, 0x33, 0x00, 0x00, 0x00,
    0x24, 0x02, 0x00, 0x00, 0x11, 0x2c, 0xdf, 0x7f, 0x3c, 0xec,
    0x66, 0x93, 0x9c, 0xe6, 0xd9, 0x4b, 0xa7, 0xd9, 0x7f, 0xb6,
    0x56, 0x04, 0xcb, 0x09, 0x2d, 0x0c, 0xc7, 0x3f, 0x5f, 0xe8,
    0xe7, 0xf9, 0xac, 0x81, 0x3f, 0x2a, 0xfd, 0x0a, 0x0f, 0x03,
    0xe9, 0xec, 0x5f, 0x6c, 0x28, 0x15, 0xf7, 0xe9, 0x41, 0x81,
    0x9a, 0xb1, 0xbb, 0xfb, 0xff, 0xff, 0x8c, 0xfb, 0xff, 0xff,
    0x7e, 0x01, 0x00, 0x00, 0xba, 0xfd, 0xff, 0xff, 0x1e, 0xad,
    0x0e, 0x2e, 0x14, 0x63, 0xee, 0xb0, 0x81, 0x53, 0x23, 0x4e,
    0xd1, 0xd0, 0xbf, 0xa1, 0x1f, 0x0d, 0xb5, 0xdf, 0x9c, 0x06,
    0x7f, 0x48, 0xc2, 0x6c, 0x6d, 0x82, 0xef, 0x1f, 0xd2, 0xa0,
    0x7f, 0x0a, 0x1e, 0x0d, 0x62, 0xf3, 0x2e, 0x0f, 0x98, 0x19,
    0x7f, 0x30, 0x24, 0xef, 0xf5, 0xbb, 0x35, 0x05, 0x00, 0x00,
    0x10, 0xff, 0xff, 0xff, 0x51, 0x04, 0x00, 0x00, 0xab, 0x02,
    0x00, 0x00, 0x06, 0x1e, 0x08, 0x9c, 0x19, 0x81, 0x21, 0xba,
    0xc0, 0x22, 0xb1, 0x60, 0x9b, 0xf1, 0xa3, 0x4c, 0x29, 0xd6,
    0x0b, 0x42, 0x18, 0xc5, 0x7f, 0xf4, 0x8c, 0xe3, 0x1e, 0xfe,
    0x03, 0x1b, 0x94, 0x35, 0x30, 0xed, 0x7f, 0xc7, 0xc2, 0x7b,
    0x60, 0x37, 0x0d, 0x1e, 0xce, 0xe2, 0x0e, 0x98, 0xcb, 0x81,
    0xf1, 0x00, 0x00, 0x00, 0xc0, 0x02, 0x00, 0x00, 0x7e, 0x07,
    0x00, 0x00, 0x1a, 0x00, 0x00, 0x00, 0x06, 0xf1, 0x29, 0x81,
    0x00, 0x57, 0xe4, 0x34, 0x02, 0xc8, 0xc8, 0x39, 0x42, 0x08,
    0xf6, 0x26, 0xfa, 0x81, 0xea, 0x3e, 0xc2, 0x38, 0x03, 0xa2,
    0x0e, 0x00, 0x82, 0x48, 0xe4, 0xe7, 0x7f, 0x0d, 0x18, 0xde,
    0xd4, 0xd4, 0x00, 0x35, 0xd6, 0x26, 0x05, 0x81, 0x15, 0x10,
    0xc7, 0x36, 0x34, 0xe9, 0x3f, 0x01, 0x00, 0x00, 0x36, 0x03,
    0x00, 0x00, 0xe3, 0x00, 0x00, 0x00, 0xb2, 0xfc, 0xff, 0xff,
    0xe1, 0x53, 0x02, 0x14, 0xd6, 0xfa, 0xeb, 0xb1, 0x1f, 0x81,
    0xdb, 0x1f, 0xaf, 0x00, 0x66, 0xd4, 0xd1, 0x05, 0xae, 0x7f,
    0x12, 0xb5, 0x14, 0xb0, 0x09, 0xd1, 0xab, 0x1b, 0xb2, 0xed,
    0xf0, 0x81, 0x5b, 0x0a, 0x70, 0x3f, 0x5a, 0x26, 0x1c, 0xc3,
    0x47, 0x16, 0x20, 0x22, 0xb0, 0xe5, 0xc6, 0x7f, 0x8a, 0x02,
    0x00, 0x00, 0xa3, 0xfd, 0xff, 0xff, 0xcf, 0x04, 0x00, 0x00,
    0x1f, 0xfe, 0xff, 0xff, 0x46, 0x81, 0x30, 0xc1, 0x06, 0x42,
    0x0e, 0x48, 0x8c, 0x46, 0xca, 0xe3, 0x4f, 0x1b, 0x1b, 0x23,
    0x81, 0x07, 0x3f, 0xcf, 0x2a, 0xf5, 0x9b, 0x2e, 0x2b, 0x1b,
    0xc4, 0x69, 0xd0, 0x56, 0xde, 0xbf, 0x21, 0x81, 0x68,
    0xb1, 0x9f, 0xc3, 0xe2, 0x32, 0x61, 0x7f, 0x95, 0x47,
    0xb1, 0xc6, 0x64, 0x86, 0xed, 0x01, 0x00, 0x00, 0x25,
    0xfb, 0xff, 0xff, 0x4e, 0x01, 0x00, 0x00, 0xe0, 0xfc,
    0xff, 0xff, 0xb5, 0x34, 0xd2, 0x4d, 0x7f, 0x26, 0xc7,
    0x21, 0xd2, 0x97, 0x69, 0x8a, 0x39, 0x00, 0x00, 0x00
  };

  return AI_HANDLE_PTR(s_wn_12_4_tfl_int8_6_weights);

}

