#include "wn_12_4_tfl_float16_data.h"

ai_handle ai_wn_12_4_tfl_float16_data_weights_get(void)
{

  AI_ALIGNED(4)
  static const ai_u8 s_wn_12_4_tfl_float16_weights[ 2196 ] = {
    0x55, 0x47, 0xce, 0xbf, 0x17, 0xe8, 0xc2, 0xbf, 0x43, 0xed,
    0x81, 0xbf, 0xd8, 0x12, 0x60, 0x3f, 0x8d, 0xf5, 0x63, 0x3f,
    0x75, 0xaf, 0xa3, 0x3f, 0x95, 0xbb, 0xfa, 0xbf, 0x24, 0x0e,
    0xf3, 0xbf, 0x2c, 0x02, 0xb5, 0xbf, 0xd9, 0x89, 0xb9, 0xbf,
    0x67, 0xc7, 0xe0, 0xbf, 0xf1, 0x1e, 0xe4, 0xbf, 0x72, 0x89,
    0x95, 0xbc, 0xcc, 0xb4, 0xb9, 0x3c, 0xd8, 0x15, 0x4d, 0xbc,
    0xf6, 0xe9, 0x0e, 0xbd, 0x9c, 0xac, 0x44, 0x3e, 0x8b, 0x46,
    0xe7, 0xbd, 0xa8, 0xf4, 0x1b, 0x3f, 0xd2, 0x16, 0x49, 0x3e,
    0xf2, 0x9c, 0x9b, 0x3e, 0x06, 0xa6, 0x70, 0xbe, 0x76, 0x87,
    0x0b, 0x3f, 0xbf, 0x1a, 0xdd, 0xbd, 0xd5, 0x43, 0x93, 0xbe,
    0x72, 0x71, 0x9d, 0x3e, 0xcc, 0x85, 0xfd, 0xbd, 0x22, 0x9b,
    0xd8, 0x3e, 0xb3, 0x2e, 0x25, 0x3f, 0x81, 0x0c, 0x70, 0xbe,
    0x91, 0x4a, 0x4b, 0x3c, 0x0e, 0xcf, 0x86, 0x3d, 0x76, 0xc1,
    0xa8, 0xbd, 0xb9, 0xde, 0x8d, 0xbe, 0xbe, 0x51, 0x06, 0x3f,
    0x6f, 0xca, 0x1f, 0x3e, 0xc2, 0x16, 0x82, 0x3d, 0xad, 0x8d,
    0x43, 0x3e, 0xe7, 0xb7, 0xb0, 0x3d, 0x17, 0x05, 0x65, 0xbe,
    0xbb, 0x1a, 0xf3, 0x3e, 0xae, 0x77, 0x43, 0x3e, 0x88, 0xf1,
    0x0f, 0x3d, 0x74, 0xfa, 0xf6, 0xbe, 0x22, 0x78, 0x8f, 0xbe,
    0xff, 0xfe, 0xe7, 0xbe, 0xf4, 0x3e, 0x74, 0xbe, 0xb1, 0x1a,
    0x88, 0xbe, 0xe6, 0x32, 0xc3, 0xbe, 0xa2, 0x3f, 0xdd, 0x3e,
    0x8e, 0xf6, 0xad, 0xbd, 0xb9, 0xcc, 0x99, 0xbe, 0xa9, 0xbb,
    0xed, 0xbe, 0xcd, 0x91, 0xce, 0x3d, 0xab, 0x87, 0x2f, 0xbf,
    0x5e, 0xe8, 0x1f, 0xbf, 0x69, 0x57, 0x7b, 0x3d, 0xb4, 0x5a,
    0x68, 0x3d, 0xc5, 0x12, 0x03, 0x3f, 0xdd, 0xf8, 0x70, 0xbe,
    0x6a, 0xc3, 0x2e, 0xbc, 0x08, 0x35, 0x81, 0xbe, 0x40, 0x64,
    0x8c, 0x3e, 0xa8, 0x0c, 0x64, 0xbe, 0x04, 0x71, 0xa3, 0xbc,
    0x0b, 0xb0, 0xdd, 0x3c, 0x6f, 0x56, 0x82, 0x3d, 0xd2, 0xd1,
    0xd3, 0x3c, 0xa1, 0x4b, 0x1d, 0xbf, 0x05, 0xbd, 0x0c, 0xbf,
    0x76, 0xe1, 0x19, 0x3f, 0x18, 0x27, 0xbb, 0x3e, 0xac, 0xf6,
    0x70, 0xbe, 0x21, 0x50, 0x9d, 0x3d, 0xf8, 0x40, 0x7a, 0xbe,
    0xe6, 0x07, 0xa2, 0x3e, 0x4b, 0x83, 0xd9, 0x3e, 0xa8, 0x35,
    0x4a, 0x3f, 0xd8, 0x33, 0xeb, 0xbe, 0x34, 0x6c, 0x57, 0xbf,
    0xff, 0x44, 0x02, 0xbe, 0x75, 0xba, 0xc7, 0xbe, 0x98, 0xc2,
    0x71, 0x3e, 0x61, 0x95, 0xda, 0x3d, 0x81, 0x35, 0xea, 0x3d,
    0x1f, 0x32, 0x36, 0xbe, 0xc5, 0x4b, 0xd4, 0x3e, 0x90, 0xef,
    0x2c, 0x3e, 0x1c, 0x34, 0xdb, 0xbb, 0x1c, 0x7c, 0xc7, 0x3d,
    0x9f, 0x73, 0xd7, 0x3c, 0x78, 0x17, 0xba, 0xbb, 0xee, 0x03,
    0xf7, 0x3e, 0x7c, 0xd1, 0xb1, 0x3e, 0xf9, 0xcc, 0x00, 0xbf,
    0x83, 0xc8, 0x49, 0xbf, 0x9b, 0x76, 0x01, 0xbf, 0x76, 0x6a,
    0x9e, 0xbd, 0xe0, 0x37, 0x46, 0x3e, 0xd7, 0x8a, 0x93, 0x3d,
    0xc1, 0x1b, 0x6a, 0xbf, 0xff, 0xae, 0x43, 0xbf, 0xe8, 0xdf,
    0xd0, 0x3e, 0x51, 0x3b, 0xf7, 0x3e, 0xee, 0x14, 0xe3, 0xbd,
    0xa7, 0x58, 0x16, 0xbe, 0x70, 0xb8, 0x33, 0x3e, 0xc5, 0xd1,
    0x20, 0x3f, 0xc4, 0x4b, 0x8b, 0x3e, 0x12, 0xbf, 0x01, 0x3f,
    0x4f, 0x7b, 0xe9, 0x3e, 0xdf, 0xa4, 0x13, 0x3f, 0x0f, 0x19,
    0xce, 0xbd, 0x18, 0xb9, 0x4d, 0xbe, 0xec, 0x7d, 0x9a, 0xbb,
    0xb0, 0xc8, 0xfc, 0xbd, 0x0e, 0x9a, 0x2e, 0x3b, 0x11, 0x80,
    0xf7, 0x3c, 0xd5, 0x53, 0xda, 0xbd, 0xa3, 0xc8, 0xaf, 0xbc,
    0xaa, 0x08, 0xc0, 0xbe, 0x95, 0x04, 0x8f, 0xbe, 0xdd, 0x09,
    0x0e, 0x3f, 0x1c, 0x7e, 0xb8, 0xbe, 0x46, 0x48, 0xdb, 0xbd,
    0x3f, 0xa0, 0xf1, 0xbe, 0xd7, 0xbe, 0x3f, 0x3e, 0x15, 0x84,
    0xfe, 0x3d, 0x30, 0x9e, 0x17, 0x3f, 0x02, 0xca, 0x0f, 0xbf,
    0xfa, 0x3b, 0x82, 0xbe, 0x92, 0xac, 0x8e, 0xbf, 0x3e, 0x88,
    0x26, 0x3e, 0x38, 0x61, 0x52, 0x3f, 0x57, 0x44, 0xbb, 0x3e,
    0x63, 0x66, 0x40, 0x3f, 0x4b, 0x99, 0xe8, 0xbe, 0x9d, 0x3c,
    0x78, 0x3d, 0xf3, 0x2c, 0xc0, 0x3e, 0x41, 0xe3, 0x05, 0x3f,
    0x38, 0xf2, 0x98, 0xbd, 0xa4, 0x49, 0xae, 0xbe, 0x59, 0xcb,
    0x27, 0x3d, 0x54, 0xb7, 0xb6, 0xbe, 0xaa, 0x23, 0xfe, 0x3e,
    0x3c, 0x10, 0x8f, 0x3e, 0xf5, 0xd1, 0xfd, 0x3d, 0x3c, 0xdc,
    0x6e, 0x3f, 0x79, 0xfd, 0xe4, 0x3e, 0x5b, 0xb1, 0x00, 0x3f,
    0x51, 0x34, 0x3c, 0xbe, 0xfe, 0xe5, 0x4a, 0xbd, 0x88, 0x72,
    0x80, 0x3f, 0x54, 0x86, 0xf9, 0xbe, 0xc0, 0xf7, 0x93, 0xbf,
    0x60, 0x0f, 0x61, 0xbf, 0xda, 0x25, 0xae, 0x3e, 0xed, 0xb3,
    0x56, 0x3e, 0xdb, 0xdf, 0x15, 0xbf, 0x8d, 0x16, 0x7d, 0x3d,
    0xf7, 0x24, 0x06, 0xbf, 0x90, 0x93, 0x71, 0xbc, 0x32, 0x57,
    0x1f, 0xbe, 0x06, 0x20, 0x89, 0xbe, 0x5b, 0x95, 0x42, 0x3f,
    0x5f, 0x62, 0x27, 0xbf, 0x32, 0xb7, 0x79, 0x3d, 0x1c, 0x49,
    0x43, 0xbf, 0x36, 0x19, 0x52, 0x3b, 0xf9, 0x30, 0x41, 0x3c,
    0xd4, 0x3b, 0x95, 0x3d, 0x9c, 0x72, 0x65, 0xbe, 0x98, 0x88,
    0xa9, 0xbd, 0x59, 0x00, 0x03, 0x3f, 0x59, 0xf3, 0x8a, 0xbe,
    0xbb, 0x4c, 0xd1, 0xbe, 0x8d, 0x7e, 0xf6, 0xbe, 0x4f, 0xdc,
    0x1b, 0x3e, 0x57, 0x94, 0x02, 0xbf, 0x0b, 0xa2, 0xfb, 0xbd,
    0xbc, 0x0c, 0x25, 0x3f, 0x2f, 0x71, 0x4a, 0xbe, 0x38, 0xc8,
    0x9b, 0x3f, 0x90, 0xc4, 0x38, 0x3f, 0x9e, 0x98, 0x94, 0x3d,
    0x6c, 0x9d, 0x3f, 0x3f, 0x82, 0x7e, 0xd2, 0xbe, 0xba, 0x23,
    0xb8, 0xbb, 0x29, 0x0a, 0xda, 0x3e, 0x34, 0x84, 0x72, 0xbd,
    0xf2, 0x12, 0xf0, 0xbe, 0xfb, 0xe6, 0xa1, 0xbe, 0x01, 0xb4,
    0x8f, 0xbd, 0x44, 0x6f, 0x66, 0x3d, 0x38, 0x25, 0xb5, 0xbe,
    0x11, 0xdb, 0x42, 0x3e, 0x6a, 0xbc, 0xf9, 0x3e, 0xd9, 0xe5,
    0x15, 0xbe, 0xfd, 0xd8, 0x39, 0xbe, 0x1c, 0xe6, 0x89, 0x3d,
    0x6f, 0x97, 0x39, 0x3e, 0x88, 0x49, 0x07, 0xbf, 0xc9, 0x87,
    0xe6, 0xbe, 0x0b, 0xb5, 0x66, 0x3e, 0x6a, 0xcd, 0xd0, 0xbe,
    0x1f, 0xec, 0xa4, 0xbe, 0x37, 0xb7, 0x99, 0xbf, 0x46, 0x4a,
    0x69, 0x3e, 0xbb, 0x22, 0x64, 0xbe, 0xe5, 0xe8, 0xa8, 0x3e,
    0x0e, 0xd0, 0xab, 0xbb, 0x03, 0x50, 0x5b, 0x3e, 0x0e, 0x79,
    0xe1, 0x3e, 0x7a, 0x7a, 0x24, 0x3e, 0xa9, 0x83, 0x9d, 0x3c,
    0xa3, 0xc4, 0xc8, 0xbe, 0x0a, 0x46, 0x19, 0x3f, 0xb3, 0x5a,
    0xfe, 0xbd, 0x20, 0x4b, 0x03, 0x3c, 0x49, 0x1c, 0xfa, 0x3e,
    0x89, 0x27, 0x86, 0xbb, 0x5d, 0x2a, 0xe2, 0x3e, 0x27, 0x68,
    0xa5, 0x3c, 0xd1, 0x99, 0x1b, 0xbb, 0xdd, 0x1c, 0x2c, 0xc0,
    0x47, 0xd0, 0x7c, 0xbe, 0xa6, 0x5e, 0x42, 0x3f, 0xa0, 0x98,
    0x2d, 0xbf, 0x2a, 0xff, 0x3e, 0xbe, 0x16, 0x6c, 0x22, 0x3e,
    0x4d, 0x26, 0x10, 0xbe, 0x05, 0xab, 0x7f, 0x3e, 0x08, 0x75,
    0x0b, 0xbe, 0x95, 0x28, 0x9b, 0xbe, 0x23, 0x9d, 0xa6, 0xbe,
    0xae, 0x2f, 0x8d, 0xbd, 0x3b, 0xf9, 0x2f, 0xbd, 0x20, 0x67,
    0xfd, 0x3e, 0xa8, 0xf2, 0xbe, 0x3d, 0x3e, 0xcc, 0x6c, 0xbe,
    0xd1, 0x18, 0x3c, 0xbd, 0x79, 0x4d, 0x01, 0x3e, 0x23, 0x17,
    0xea, 0x3e, 0xfd, 0xd6, 0x66, 0xbe, 0xea, 0x12, 0x9b, 0x3f,
    0x4a, 0xce, 0x72, 0xbf, 0x0e, 0x16, 0xd1, 0xbe, 0x42, 0x42,
    0x1c, 0x3e, 0x4d, 0xcc, 0xd5, 0xbd, 0xe6, 0xe1, 0x49, 0xbe,
    0x4d, 0xd7, 0x26, 0xbe, 0x01, 0x3f, 0xa1, 0x3e, 0xe0, 0x4f,
    0xcf, 0xbc, 0xa6, 0xdb, 0x32, 0x3e, 0x2a, 0xf1, 0x26, 0xbe,
    0x14, 0xb1, 0x8d, 0xbb, 0x87, 0xb0, 0x83, 0xbf, 0xdc, 0xd4,
    0x39, 0x3e, 0x20, 0x39, 0xc7, 0x3e, 0xab, 0x3c, 0x01, 0xbd,
    0xc6, 0x00, 0xd5, 0x3e, 0xbb, 0x86, 0x23, 0x3e, 0xbb, 0x24,
    0xf5, 0x3e, 0x5d, 0x1f, 0x3f, 0x3e, 0x09, 0x67, 0x4c, 0x3d,
    0x7e, 0x47, 0xce, 0x3d, 0x8a, 0xcc, 0x6c, 0x3e, 0xf8, 0x50,
    0x02, 0x3e, 0xfd, 0x38, 0xfb, 0x3e, 0x88, 0xa1, 0xc8, 0x3d,
    0x06, 0x4b, 0x8f, 0x3e, 0xdf, 0xb7, 0x2e, 0x3e, 0x43, 0x69,
    0xa4, 0xbd, 0x73, 0x49, 0x5c, 0x3d, 0x99, 0x9a, 0x0b, 0xbd,
    0xb5, 0x74, 0xa1, 0x3e, 0xba, 0x89, 0x37, 0x3e, 0x3d, 0xbe,
    0x08, 0x3f, 0xfd, 0xb5, 0x3f, 0x3c, 0xa3, 0x00, 0x20, 0xbe,
    0x24, 0xbf, 0x65, 0xbe, 0x64, 0x43, 0x26, 0xbf, 0x6f, 0x27,
    0xe7, 0xbd, 0x48, 0x9d, 0xf5, 0x3e, 0x24, 0xd0, 0xa0, 0x3e,
    0x3e, 0x48, 0xbe, 0x3e, 0xa9, 0x88, 0x12, 0xbf, 0x42, 0x46,
    0x68, 0x3e, 0x64, 0x80, 0xa9, 0x3d, 0xb2, 0x21, 0x06, 0x3f,
    0x63, 0xba, 0x0b, 0xbf, 0xd4, 0x90, 0x38, 0x3f, 0xf2, 0xcd,
    0xfd, 0x3b, 0x67, 0x00, 0xf3, 0x3d, 0x83, 0x32, 0xf7, 0x3d,
    0xb5, 0xe8, 0x3c, 0x3e, 0x4a, 0xc1, 0x3c, 0x3e, 0xb9, 0x39,
    0x17, 0x3f, 0x2c, 0x4c, 0x13, 0xbe, 0xa4, 0xab, 0x29, 0xbe,
    0x2e, 0x36, 0x7d, 0xbe, 0x69, 0xa7, 0x2e, 0xbe, 0x54, 0x8d,
    0x64, 0x3d, 0xc2, 0x3d, 0xec, 0xbe, 0x9b, 0x27, 0x99, 0xbd,
    0xf5, 0xc0, 0xe0, 0xbd, 0x93, 0x19, 0x96, 0xbe, 0x35, 0x62,
    0x80, 0xbe, 0x47, 0x48, 0x37, 0xbe, 0xe0, 0x3f, 0x13, 0x3e,
    0x04, 0xdb, 0x24, 0x3e, 0xcc, 0xca, 0x32, 0x3d, 0x90, 0x98,
    0xf3, 0xbd, 0x13, 0x76, 0xf9, 0xbc, 0x37, 0x5e, 0xad, 0x3e,
    0x58, 0xc1, 0xb9, 0xbe, 0x35, 0xf5, 0x5c, 0xbc, 0x4c, 0x3a,
    0x77, 0xbe, 0x9a, 0x62, 0x8b, 0x3e, 0x0d, 0xea, 0x1a, 0xbe,
    0xc0, 0x59, 0xbb, 0x3c, 0xc8, 0x4e, 0x3a, 0xbe, 0xb8, 0x2e,
    0xdb, 0x3e, 0x3c, 0x35, 0x84, 0x3e, 0xad, 0xe1, 0xce, 0x3d,
    0xdb, 0x9a, 0x5c, 0x3d, 0x80, 0xe5, 0xca, 0xbd, 0x8f, 0xbc,
    0x49, 0xbe, 0xe1, 0x31, 0x01, 0xbf, 0x5a, 0x04, 0xb2, 0xbe,
    0x79, 0x99, 0x0b, 0x3e, 0x24, 0xf4, 0x89, 0x3e, 0x9b, 0xfa,
    0xcf, 0xbb, 0x79, 0x00, 0x04, 0x3e, 0xb3, 0x91, 0xfd, 0xbe,
    0x0e, 0x03, 0x39, 0x3d, 0x33, 0xd6, 0x33, 0x3d, 0x8c, 0xed,
    0xa7, 0xbe, 0x35, 0x0b, 0x95, 0x3e, 0xb8, 0x3f, 0x84, 0xbd,
    0xd4, 0xf6, 0x57, 0x3e, 0x0b, 0xa2, 0x39, 0xbe, 0xf5, 0x3f,
    0x18, 0x3e, 0x8b, 0x50, 0x5d, 0x3e, 0xbf, 0x45, 0xf3, 0x3d,
    0xa0, 0xdf, 0x98, 0x3e, 0x42, 0x51, 0x2b, 0x3e, 0x17, 0xd5,
    0x87, 0x3e, 0x1a, 0xcf, 0x78, 0xbe, 0x96, 0xad, 0x0e, 0x3c,
    0xef, 0xc0, 0x12, 0xbd, 0x11, 0x99, 0x14, 0x3e, 0x59, 0x78,
    0xac, 0x3e, 0x10, 0x99, 0xd2, 0xbe, 0x28, 0xb4, 0x01, 0xbf,
    0xa0, 0x19, 0xe8, 0x3e, 0xee, 0x05, 0xe2, 0x3d, 0x7e, 0x5e,
    0x01, 0x3e, 0x03, 0xdb, 0x03, 0xbe, 0x1f, 0x72, 0x3f, 0x3e,
    0x9f, 0x6c, 0x3b, 0xbd, 0x96, 0x98, 0x2e, 0xbd, 0x90, 0x3a,
    0x09, 0xbc, 0x4e, 0xf5, 0x23, 0xbe, 0x9a, 0x8d, 0x68, 0xbe,
    0xc0, 0xb9, 0x16, 0x3e, 0xc9, 0xd7, 0xd9, 0x3e, 0xb7, 0xd4,
    0x6d, 0xbe, 0xf7, 0x88, 0xec, 0xbd, 0x24, 0x6b, 0x4b, 0x3e,
    0xb4, 0xf8, 0xde, 0xbe, 0x12, 0xcf, 0x84, 0xbe, 0x13, 0xc2,
    0x81, 0xbe, 0x62, 0x4f, 0x71, 0xbe, 0x28, 0xd3, 0xa0, 0xbe,
    0x22, 0x37, 0x97, 0x3e, 0xde, 0x8a, 0x3a, 0xbd, 0x45, 0x8a,
    0x4d, 0xbd, 0x5a, 0xe6, 0xe9, 0xbd, 0xdc, 0x59, 0x1d, 0xbd,
    0x41, 0xcd, 0x73, 0xbd, 0x26, 0x3f, 0x03, 0x3e, 0x75, 0xcc,
    0x16, 0xbe, 0xd0, 0x77, 0xed, 0x3d, 0x9f, 0x32, 0xca, 0x3d,
    0xec, 0xc3, 0x93, 0xbe, 0xb6, 0xbc, 0x11, 0x3e, 0xeb, 0xf3,
    0x1c, 0xbd, 0xd3, 0x49, 0x01, 0xbf, 0x70, 0x55, 0x0a, 0x3d,
    0x42, 0x93, 0xb4, 0xbe, 0x73, 0xa7, 0x2c, 0x3e, 0x55, 0x9a,
    0xb2, 0x3d, 0x26, 0xa9, 0xd1, 0x3d, 0xa8, 0x80, 0xb3, 0x3e,
    0xff, 0xd7, 0x69, 0xbc, 0xe5, 0x6b, 0x27, 0x3d, 0x20, 0x0e,
    0xec, 0xbc, 0x6c, 0x14, 0xcd, 0x3e, 0x3e, 0x46, 0x97, 0xbe,
    0x80, 0x66, 0x1b, 0xba, 0x61, 0xfd, 0x96, 0x3b, 0xa0, 0x58,
    0xf1, 0xbe, 0xb0, 0x5c, 0x82, 0x3e, 0x3e, 0x90, 0x00, 0xbd,
    0x5d, 0x52, 0x94, 0xbe, 0xcf, 0x4a, 0xb2, 0xbc, 0x7a, 0xc1,
    0x02, 0xbe, 0xb1, 0x5f, 0x23, 0xbe, 0x35, 0x4e, 0xbd, 0x3e,
    0xa0, 0xbb, 0x29, 0xbc, 0xa1, 0x7f, 0x16, 0x3e, 0x8c, 0xfb,
    0x0c, 0xbe, 0x9c, 0x17, 0x78, 0xbe, 0xb0, 0xf0, 0x13, 0x3f,
    0xd9, 0x39, 0xfe, 0xbb, 0x16, 0xde, 0x44, 0xbe, 0x51, 0x20,
    0xc1, 0xbc, 0xa2, 0x80, 0x65, 0x3e, 0xf1, 0x74, 0x4b, 0xbe,
    0x6a, 0xdd, 0x3c, 0x3e, 0xfc, 0x0a, 0x4c, 0xbe, 0x49, 0xd6,
    0xcf, 0xbd, 0x41, 0x7d, 0x9f, 0xbe, 0x0e, 0x53, 0x17, 0xbe,
    0x93, 0xf0, 0x6b, 0xbe, 0x9c, 0x2a, 0x8f, 0xbe, 0x99, 0xa8,
    0x50, 0xbe, 0x3d, 0xa6, 0x05, 0x3d, 0xb3, 0xaf, 0x86, 0x3c,
    0x71, 0x7a, 0x4d, 0xbc, 0xfc, 0xa6, 0x92, 0xbd, 0x85, 0xae,
    0xc2, 0x3e, 0xe5, 0x41, 0x7a, 0xbd, 0x12, 0xf6, 0x20, 0x3d,
    0x08, 0xa1, 0xa2, 0x3d, 0xcd, 0x7d, 0xb8, 0xbb, 0x57, 0xa1,
    0x92, 0x3e, 0xfc, 0x03, 0xd5, 0xbd, 0x71, 0x14, 0x8a, 0x3d,
    0x4b, 0x50, 0x0a, 0xbf, 0xa8, 0x28, 0xd9, 0x3d, 0x8c, 0xcb,
    0xe1, 0x3d, 0x1f, 0xa6, 0xba, 0xbe, 0xcf, 0x47, 0x95, 0xbe,
    0x1b, 0xf4, 0x97, 0xbe, 0xed, 0x68, 0x4e, 0x3e, 0x44, 0x6a,
    0x8c, 0x3d, 0x97, 0xa6, 0x81, 0x3e, 0xb0, 0xb1, 0x32, 0x3e,
    0x15, 0x3c, 0x5d, 0xbe, 0xe8, 0xf1, 0xb1, 0x3c, 0xc7, 0x3e,
    0x9f, 0xbe, 0xcc, 0x01, 0x86, 0x3d, 0x9c, 0x66, 0xd2, 0x3e,
    0x93, 0x86, 0x7d, 0xbe, 0xd1, 0x1c, 0x41, 0x3e, 0x26, 0xac,
    0x1c, 0xbf, 0xf0, 0x45, 0x36, 0x3e, 0xe6, 0xf6, 0x3e, 0x3e,
    0x93, 0x17, 0x36, 0x3e, 0x8d, 0x7b, 0x99, 0x3e, 0x2c, 0x25,
    0xeb, 0xbe, 0x36, 0x13, 0xfc, 0x3d, 0x58, 0xe2, 0x75, 0xbc,
    0x29, 0xd5, 0x82, 0xbe, 0x2f, 0xad, 0xa5, 0xbd, 0x7d, 0xec,
    0xa8, 0xbb, 0xa4, 0x37, 0xa3, 0xbe, 0x92, 0x3f, 0xb4, 0x3d,
    0xb7, 0xf9, 0xb1, 0x3e, 0xf3, 0x57, 0x03, 0x3d, 0x44, 0x4c,
    0xd4, 0xbd, 0x6e, 0xaa, 0xa8, 0x3e, 0x37, 0x64, 0xa7, 0xbe,
    0x95, 0x96, 0x0d, 0xbe, 0x53, 0x2a, 0xe0, 0x3e, 0xbb, 0xab,
    0x50, 0xbc, 0x14, 0x1b, 0xad, 0xbe, 0x44, 0x22, 0xd3, 0x3c,
    0x1b, 0xfc, 0xb9, 0xbc, 0x40, 0x06, 0x15, 0xbd, 0xa6, 0x5a,
    0x82, 0xbc, 0xe8, 0x69, 0x41, 0xbc, 0x10, 0xa6, 0x2d, 0xbd,
    0x52, 0x0b, 0x25, 0xbd, 0xd0, 0x1f, 0x54, 0x3e, 0x0c, 0x57,
    0xa8, 0xbe, 0x20, 0x98, 0xb2, 0xbe, 0x64, 0x4b, 0x0d, 0xbe,
    0xe1, 0xc2, 0x4f, 0x3e, 0x8c, 0x85, 0x73, 0x3e, 0xf5, 0x12,
    0xb4, 0xbd, 0x41, 0x8d, 0xa9, 0x3e, 0xd4, 0x57, 0x93, 0x3e,
    0x2a, 0x98, 0xc1, 0x3d, 0xc5, 0xae, 0x7a, 0x3d, 0x24, 0x60,
    0x0d, 0xbe, 0xd5, 0xa2, 0x73, 0x3e, 0xed, 0x43, 0xfc, 0x3c,
    0xad, 0x5d, 0xe8, 0x3e, 0xc4, 0x22, 0xd8, 0xbe, 0x5f, 0x2e,
    0xcb, 0x3d, 0x90, 0x64, 0xf0, 0xbd, 0xb6, 0x13, 0x7e, 0x3e,
    0x93, 0x9b, 0x13, 0xbe, 0x1c, 0x5d, 0xf5, 0xbc, 0xd1, 0x1b,
    0x21, 0xbe, 0xc2, 0x57, 0xf2, 0x3d, 0x1f, 0x0c, 0xb3, 0x3e,
    0x44, 0x8f, 0x82, 0xbe, 0x12, 0x80, 0x91, 0x3d, 0x43, 0x53,
    0x16, 0x3e, 0x93, 0x53, 0x50, 0x3e, 0x10, 0x2b, 0xb4, 0xbd,
    0x94, 0xf7, 0xdd, 0xbd, 0x8f, 0xcd, 0xe0, 0x3e, 0x7f, 0x76,
    0xe8, 0x3e, 0x35, 0xe0, 0x00, 0xbf, 0xe9, 0xde, 0x9c, 0xbd,
    0x60, 0x63, 0x0b, 0x3e, 0xf0, 0x7e, 0xe3, 0xbd, 0x11, 0xd7,
    0x4f, 0x3e, 0x85, 0xe0, 0x12, 0xbf, 0xa0, 0xc3, 0x85, 0xbe,
    0xc2, 0xd9, 0x10, 0xbe, 0xfa, 0xd2, 0x1b, 0x3e, 0xfe, 0x02,
    0xbc, 0x3e, 0x31, 0x3f, 0x14, 0x3f, 0xc0, 0x58, 0xf5, 0x3e,
    0xea, 0xc5, 0x0e, 0xbe, 0x7f, 0x0b, 0x49, 0x3e, 0xa4, 0xae,
    0x4c, 0xbd, 0xfa, 0x4d, 0x15, 0xbc, 0xc0, 0xad, 0xea, 0xbc,
    0x2d, 0x0d, 0x8e, 0xbc, 0xf5, 0xab, 0xdf, 0xbe, 0xfa, 0x08,
    0x06, 0xbe, 0xce, 0x1c, 0xdc, 0x3e, 0x20, 0x65, 0x3b, 0x3e,
    0x09, 0x02, 0x96, 0x3e, 0xe4, 0x99, 0xf2, 0x3e, 0x3f,
    0x90, 0xc4, 0x3d, 0x09, 0xd0, 0x99, 0xbc, 0x9f, 0x82,
    0x55, 0x3c, 0x14, 0xf7, 0x9f, 0xbe, 0x55, 0x7f, 0xe7,
    0xbe, 0x24, 0x19, 0xa6, 0xbe, 0xcf, 0xbb, 0xc0, 0x3c
  };

  return AI_HANDLE_PTR(s_wn_12_4_tfl_float16_weights);

}

