#include "wn_10_1_data.h"

ai_handle ai_wn_10_1_data_weights_get(void)
{

  AI_ALIGNED(4)
  static const ai_u8 s_wn_10_1_weights[ 6628 ] = {
    0xfe, 0x99, 0xe6, 0x3f, 0x3b, 0x2c, 0xf9, 0x3e, 0xf0, 0x37,
    0xaa, 0xbe, 0x34, 0xf2, 0x45, 0x3f, 0xac, 0x27, 0x1c, 0xbe,
    0xd3, 0x71, 0x02, 0xbf, 0x40, 0xcc, 0xda, 0xbf, 0xb6, 0xfe,
    0x76, 0xbf, 0xcb, 0x9c, 0xec, 0xbc, 0x55, 0x15, 0x0a, 0xc0,
    0x30, 0x8f, 0x9f, 0xbd, 0xe9, 0x05, 0xa2, 0x3d, 0xa7, 0x4f,
    0x59, 0x3f, 0x14, 0xf2, 0x09, 0x3e, 0x81, 0x43, 0x9b, 0x3d,
    0xe6, 0x42, 0x53, 0x3f, 0xf4, 0x98, 0xce, 0x3e, 0xc8, 0x85,
    0x84, 0x3e, 0xc9, 0x43, 0x31, 0xbe, 0xfc, 0x7b, 0x17, 0xbf,
    0x69, 0x65, 0x04, 0x3d, 0x7f, 0x53, 0x9c, 0x3f, 0xa8, 0x39,
    0x35, 0x3e, 0xc1, 0xe8, 0x09, 0x3e, 0x2b, 0x63, 0x83, 0x3c,
    0xf1, 0xca, 0x3f, 0x3c, 0x7c, 0x9d, 0x0d, 0x3d, 0x86, 0xe2,
    0x42, 0xbc, 0x64, 0x9a, 0x6d, 0xbc, 0x86, 0x93, 0x8c, 0x3c,
    0x93, 0x87, 0xf8, 0x3b, 0x18, 0xbe, 0xb4, 0x3b, 0xeb, 0xab,
    0xbf, 0xbe, 0x37, 0xd1, 0xaf, 0xbd, 0xf0, 0xba, 0x18, 0x3f,
    0x5b, 0x7b, 0xfb, 0xbc, 0x4a, 0x3f, 0xc2, 0xbe, 0x9a, 0xe0,
    0xe1, 0xbd, 0x08, 0x2e, 0x94, 0x3e, 0x97, 0x0d, 0xbc, 0x3d,
    0x41, 0x1c, 0x69, 0x3e, 0xfa, 0x83, 0x19, 0x3e, 0xb2, 0x1b,
    0xc4, 0x3e, 0xcb, 0x43, 0x6c, 0x3e, 0x1f, 0xaa, 0x0e, 0xbe,
    0x28, 0x39, 0x2a, 0xbe, 0x1e, 0xc8, 0xd2, 0x3d, 0x60, 0x5d,
    0xbe, 0xbe, 0x67, 0xdc, 0x68, 0x3e, 0xee, 0xb8, 0x89, 0x3c,
    0x39, 0xd5, 0x1c, 0xbd, 0xf2, 0xd7, 0x58, 0x3e, 0x56, 0xae,
    0x41, 0x3e, 0xd8, 0x05, 0xd9, 0x3d, 0xa9, 0x91, 0x21, 0x3e,
    0xbb, 0xa6, 0x6c, 0x3e, 0x08, 0xb7, 0x71, 0xbb, 0x17, 0x2f,
    0xd1, 0x3c, 0x87, 0xe4, 0xca, 0x3b, 0xf2, 0xc9, 0x27, 0x3b,
    0xc8, 0xd5, 0x10, 0xbc, 0xed, 0xd1, 0x6a, 0xbe, 0x7b, 0x84,
    0x4a, 0xbe, 0x94, 0x80, 0x56, 0x3e, 0x14, 0x71, 0x8e, 0xbe,
    0x40, 0xe5, 0x85, 0x3e, 0x0e, 0xc7, 0x67, 0x3c, 0xd7, 0x6d,
    0x73, 0xbe, 0xd8, 0xa6, 0x37, 0x3e, 0x18, 0x4c, 0x03, 0xbf,
    0x47, 0xf4, 0x35, 0x3c, 0x01, 0x82, 0xa2, 0xbe, 0x12, 0x62,
    0xe3, 0xbe, 0x8e, 0x38, 0x64, 0xbe, 0xc0, 0x68, 0x8d, 0xbd,
    0xd9, 0x3c, 0x47, 0x3e, 0xb0, 0xec, 0x2e, 0xbe, 0x7e, 0x11,
    0x07, 0xbf, 0x21, 0xff, 0x4f, 0x3e, 0x59, 0x04, 0x2e, 0xbd,
    0x86, 0xc9, 0x31, 0xbf, 0x6d, 0x71, 0x09, 0xbe, 0x09, 0x87,
    0x5b, 0xbd, 0x54, 0xc5, 0x7a, 0x3e, 0x8b, 0xb0, 0xf0, 0xbe,
    0x4d, 0x77, 0x07, 0xbe, 0x94, 0x64, 0x53, 0x3e, 0xb2, 0x60,
    0x57, 0xbe, 0xf7, 0xa6, 0xbb, 0x3e, 0x31, 0x6f, 0x2e, 0x3e,
    0x2b, 0xbb, 0x63, 0xbd, 0xcb, 0xa9, 0x25, 0x3e, 0xda, 0xde,
    0xf3, 0x3d, 0xa3, 0xca, 0xec, 0xbd, 0xdd, 0x9c, 0x8c, 0xbe,
    0xb8, 0x15, 0x5f, 0xbd, 0x7a, 0x7a, 0xad, 0xbe, 0xdf, 0xe8,
    0x9a, 0xbe, 0x8b, 0x9c, 0xd2, 0xbd, 0x47, 0x76, 0x59, 0xbd,
    0xbf, 0x09, 0x05, 0xbd, 0x49, 0x52, 0x24, 0xbe, 0x5f, 0x63,
    0x8c, 0x3e, 0x0e, 0x2b, 0x3f, 0xbe, 0xd2, 0x25, 0xb9, 0xbf,
    0x14, 0x5e, 0x52, 0xbf, 0x57, 0xd2, 0xb3, 0x3f, 0x42, 0xb7,
    0xda, 0x3f, 0x77, 0xa6, 0x19, 0xbf, 0x08, 0x7e, 0x7a, 0xbf,
    0xdb, 0x28, 0x88, 0x3e, 0x0e, 0x40, 0x88, 0xbf, 0xfd, 0x38,
    0x3c, 0xbe, 0x24, 0x9f, 0x1e, 0x3f, 0x0d, 0x53, 0x67, 0x3e,
    0x5b, 0x37, 0xbf, 0xba, 0x26, 0x41, 0x94, 0xbd, 0xdf, 0xf9,
    0xd5, 0x3c, 0xb4, 0x0e, 0x92, 0xbd, 0x7f, 0xf1, 0x35, 0x3e,
    0x52, 0x60, 0x90, 0xbd, 0x0d, 0x1a, 0xe5, 0x3d, 0xe3, 0x49,
    0xa4, 0x3e, 0x3b, 0x2b, 0x81, 0xbe, 0xc3, 0x6a, 0xe3, 0x3e,
    0x26, 0x2b, 0x8f, 0x3e, 0xf3, 0x4d, 0xcd, 0xbe, 0xc2, 0x59,
    0x90, 0x3e, 0xd6, 0xeb, 0x9e, 0x3f, 0x1f, 0x0a, 0xa0, 0x3f,
    0x74, 0x50, 0x5b, 0xbf, 0x39, 0xe7, 0x88, 0xbf, 0xaa, 0x70,
    0x20, 0x3f, 0x77, 0xee, 0xf3, 0x3e, 0xb0, 0x45, 0xbd, 0xbe,
    0x5e, 0xcb, 0x4e, 0x3f, 0x70, 0x17, 0x31, 0xbb, 0xe7, 0x6f,
    0x1d, 0xbf, 0x5f, 0x0b, 0xa7, 0x3e, 0x79, 0x89, 0x98, 0x3e,
    0xd0, 0x42, 0xf2, 0x3d, 0xf8, 0x36, 0xe6, 0x3c, 0x5e, 0x78,
    0x14, 0xbe, 0x38, 0x5d, 0xa3, 0xbe, 0x70, 0x41, 0x84, 0xbe,
    0x62, 0xef, 0xde, 0xbe, 0xa5, 0xf2, 0x4f, 0x3f, 0x86, 0x16,
    0xb9, 0x3e, 0xd8, 0xb1, 0xaa, 0xbe, 0xaa, 0x68, 0x16, 0xbf,
    0xc7, 0x2e, 0xd9, 0x3d, 0xc2, 0xa6, 0x2f, 0xbf, 0x29, 0x1a,
    0x89, 0x3e, 0x22, 0x92, 0x78, 0x3e, 0x7b, 0xaf, 0x71, 0x3e,
    0x65, 0xb0, 0x3d, 0xbd, 0xd2, 0xc4, 0x91, 0xbe, 0xf0, 0x82,
    0x9b, 0xbd, 0x29, 0x5c, 0x6f, 0x3e, 0x12, 0x4c, 0x06, 0xbe,
    0xd8, 0x39, 0x25, 0xbe, 0xb1, 0x57, 0x24, 0xbe, 0xb5, 0x8d,
    0x74, 0xbe, 0x1e, 0x43, 0x42, 0xbe, 0x91, 0x34, 0x8c, 0xbe,
    0x0a, 0x79, 0xeb, 0xbd, 0x3a, 0xb7, 0x27, 0x3e, 0xc6, 0xd6,
    0x4a, 0xbe, 0xf8, 0x47, 0x12, 0xbf, 0x9f, 0xd7, 0x7e, 0xbe,
    0x9b, 0xde, 0x87, 0x3e, 0xf8, 0xfd, 0xf9, 0x3e, 0xfd, 0xa8,
    0x28, 0xbe, 0xe0, 0xf7, 0x0e, 0x3e, 0xaf, 0xc2, 0x65, 0xbc,
    0x55, 0x30, 0xc6, 0x3d, 0x4e, 0x3c, 0xe1, 0x3d, 0xdc, 0xbe,
    0x1f, 0x3e, 0x01, 0x82, 0x50, 0x3e, 0xe9, 0xc8, 0xba, 0x3e,
    0x47, 0xde, 0xfd, 0xbd, 0x19, 0x9c, 0x98, 0xbe, 0xce, 0x66,
    0x9d, 0xbe, 0xae, 0x06, 0x6a, 0xbe, 0x12, 0x78, 0x0d, 0xbd,
    0xf1, 0xc2, 0x72, 0x3e, 0xbd, 0x7b, 0xa9, 0x3c, 0xb0, 0xba,
    0xa3, 0x3e, 0x3b, 0xf2, 0xa2, 0x3e, 0x55, 0xe6, 0xcf, 0x3e,
    0x30, 0x0e, 0x8d, 0x3e, 0x18, 0x87, 0xd8, 0xbd, 0xc7, 0xee,
    0x23, 0xbf, 0x48, 0xf4, 0x1b, 0xbe, 0xcb, 0xe8, 0x0d, 0x3d,
    0x66, 0x38, 0x3e, 0x3e, 0xc9, 0x00, 0x0d, 0xbe, 0x78, 0x98,
    0x95, 0xbe, 0x9f, 0xed, 0x94, 0xbe, 0xcb, 0x33, 0x31, 0xbc,
    0xb7, 0x5b, 0x95, 0x3f, 0x5f, 0x8c, 0x26, 0x3f, 0x81, 0xea,
    0x50, 0xbf, 0xaf, 0x20, 0xa2, 0xbf, 0x5b, 0x9f, 0xa5, 0x3e,
    0xe4, 0xb0, 0xc5, 0x3e, 0xde, 0xbf, 0xad, 0xbd, 0xbc, 0xaa,
    0x20, 0x3f, 0xb2, 0xee, 0x12, 0xbf, 0x78, 0xe7, 0x07, 0xbf,
    0xfa, 0x71, 0xaf, 0x3e, 0x29, 0x1f, 0x96, 0x3e, 0xfe, 0x9b,
    0xca, 0xbe, 0x96, 0xd3, 0x0a, 0xbf, 0x9f, 0xa8, 0xa1, 0x3e,
    0x06, 0xe9, 0xa1, 0xbe, 0xbe, 0x3c, 0x07, 0xbe, 0x9a, 0x56,
    0x06, 0xbe, 0xb8, 0x8e, 0x85, 0x3e, 0x94, 0x27, 0xda, 0x3e,
    0xed, 0xf3, 0x7c, 0xbe, 0xed, 0x52, 0x3f, 0x3d, 0x39, 0x5b,
    0x16, 0xbd, 0x8a, 0x8e, 0x9c, 0xbe, 0x70, 0xf9, 0x16, 0x3e,
    0x00, 0xdf, 0xb2, 0xbe, 0x59, 0xb7, 0xac, 0xbc, 0xb3, 0x12,
    0x7b, 0x3d, 0xae, 0x88, 0x14, 0xbb, 0xc1, 0xe6, 0x48, 0x3e,
    0x89, 0x45, 0x11, 0xbd, 0xe0, 0xf1, 0x3e, 0x3b, 0x61, 0xfb,
    0xee, 0x3e, 0xc7, 0x61, 0x66, 0x3e, 0x0e, 0xbd, 0xe0, 0x3e,
    0x94, 0xba, 0x80, 0x3f, 0x4f, 0x22, 0x2a, 0xbf, 0xc2, 0xfc,
    0x11, 0x3e, 0x07, 0x0f, 0x44, 0x3e, 0x69, 0xa2, 0x75, 0xbf,
    0x4a, 0x5b, 0xb6, 0x3e, 0x17, 0x66, 0x80, 0x3e, 0xa1, 0x0c,
    0xa1, 0xbe, 0x9e, 0x6a, 0xc6, 0xbe, 0xc6, 0x7b, 0x6b, 0x3f,
    0xb4, 0xb3, 0x56, 0x3e, 0x60, 0xcb, 0xda, 0xbd, 0xfd, 0x19,
    0x4f, 0x3f, 0x2d, 0x7a, 0xf4, 0x3d, 0x7d, 0xbc, 0xb1, 0x3e,
    0x63, 0x62, 0xbf, 0x3d, 0x15, 0x8d, 0x18, 0xbd, 0x19, 0xa1,
    0x72, 0x3e, 0x47, 0xd5, 0x16, 0xbe, 0xc1, 0xab, 0xb6, 0xbd,
    0x5e, 0xaf, 0x11, 0x3f, 0x3b, 0x97, 0xae, 0x3d, 0xb7, 0x94,
    0xf0, 0x3c, 0x23, 0x79, 0xac, 0xbd, 0x38, 0x98, 0x8a, 0x3e,
    0xda, 0xd0, 0x1a, 0x3e, 0x97, 0xc2, 0x23, 0x3e, 0xc2, 0xf9,
    0xb9, 0xbe, 0xbf, 0x87, 0x6d, 0x3d, 0x22, 0x0e, 0xa7, 0xbe,
    0x78, 0xff, 0x84, 0xbe, 0x9d, 0x9c, 0xdd, 0xbd, 0x82, 0x59,
    0x1b, 0x3e, 0x24, 0xe3, 0x90, 0xbb, 0x59, 0xb0, 0x2a, 0xbe,
    0x26, 0xe3, 0xa7, 0xbe, 0xe6, 0xcc, 0xce, 0x3e, 0x30, 0x6e,
    0x25, 0xbe, 0x11, 0x94, 0x16, 0xbf, 0x29, 0xd4, 0xf4, 0xbe,
    0x2c, 0x3e, 0xfb, 0xbb, 0xfb, 0xf1, 0xb4, 0x3e, 0x31, 0x4c,
    0xdd, 0xbe, 0x26, 0x94, 0xf4, 0xbe, 0x3f, 0x96, 0xbf, 0xbc,
    0x82, 0x0c, 0x2d, 0xbe, 0x0d, 0xc1, 0xfc, 0xbe, 0x45, 0x6e,
    0xd2, 0xbd, 0x84, 0xea, 0xa9, 0xbe, 0xb1, 0x36, 0xd2, 0x3e,
    0xd5, 0x46, 0x6d, 0xbe, 0x82, 0x28, 0x4d, 0xbc, 0xe7, 0xac,
    0xfa, 0x3e, 0x77, 0xc0, 0x03, 0x3f, 0xfd, 0x6b, 0xff, 0x3c,
    0xf3, 0x74, 0x28, 0x3a, 0x72, 0x73, 0x43, 0x3e, 0xd2, 0x00,
    0xcb, 0xbd, 0xce, 0xeb, 0x40, 0x3f, 0x15, 0xb7, 0x23, 0xbc,
    0x02, 0x07, 0x80, 0x3e, 0x91, 0x98, 0x5e, 0x3f, 0xc5, 0x09,
    0x85, 0x3e, 0xd7, 0xd1, 0xdd, 0x3e, 0xc3, 0x11, 0x1f, 0xbe,
    0xb1, 0x2f, 0x0d, 0xbf, 0x26, 0xcf, 0x39, 0x3f, 0x4c, 0x4e,
    0x33, 0x3f, 0x38, 0x86, 0x12, 0xbf, 0x70, 0xea, 0x19, 0x3f,
    0xf1, 0x8e, 0x45, 0xbe, 0xdc, 0xa8, 0x2e, 0x3e, 0x29, 0x70,
    0x37, 0x3f, 0x4d, 0x20, 0x66, 0xbf, 0x29, 0xad, 0xc8, 0x3e,
    0x35, 0xfe, 0x99, 0x3e, 0x0d, 0xfb, 0x1b, 0xbf, 0x7f, 0xca,
    0x21, 0x3e, 0xe8, 0x94, 0x6c, 0xbe, 0x9b, 0x6c, 0xfe, 0xbd,
    0xf5, 0x74, 0x87, 0xbe, 0xb1, 0x55, 0x0d, 0x3f, 0xaf, 0xac,
    0xef, 0x3e, 0xd3, 0xb7, 0x37, 0x3e, 0x08, 0xee, 0x22, 0x3e,
    0xd6, 0xe0, 0x5a, 0x3e, 0x49, 0xe0, 0x93, 0x3e, 0xde, 0x41,
    0xee, 0xbd, 0x3a, 0x62, 0x69, 0xbe, 0x17, 0x2f, 0xab, 0x3d,
    0x9d, 0xc3, 0x73, 0x3e, 0xeb, 0xae, 0x55, 0xbe, 0x65, 0x77,
    0x7a, 0xbc, 0x10, 0xcc, 0xc1, 0xbc, 0xbd, 0x7e, 0xc9, 0xbe,
    0x1a, 0x84, 0xde, 0xbd, 0x76, 0x46, 0x38, 0xbf, 0x1e, 0xb1,
    0x2d, 0x3f, 0x26, 0x67, 0xe4, 0xbd, 0x14, 0xea, 0x00, 0xbf,
    0x7b, 0x33, 0x16, 0x3f, 0x9d, 0xb6, 0xa3, 0xbe, 0x90, 0xa8,
    0xd7, 0xbe, 0xd1, 0x4b, 0x85, 0xbe, 0x76, 0x6f, 0x24, 0xbe,
    0x19, 0xf1, 0x10, 0xbf, 0x3d, 0x8e, 0x03, 0xbe, 0xdf, 0x72,
    0xd2, 0x3c, 0x00, 0xe9, 0x1b, 0xbe, 0x4a, 0x5e, 0xf1, 0xbe,
    0x5b, 0x5e, 0x7f, 0xbd, 0xa7, 0x4e, 0x09, 0xbe, 0xc2, 0xaf,
    0xb2, 0xbe, 0xd3, 0x17, 0x0b, 0x3e, 0xe0, 0x3e, 0xab, 0xbd,
    0x3d, 0xcf, 0x11, 0xbf, 0x8e, 0x1a, 0x2c, 0xbe, 0x64, 0xe3,
    0x70, 0x3d, 0x63, 0xfd, 0xc8, 0xbd, 0xcf, 0x80, 0xd8, 0x3d,
    0x0f, 0x9b, 0x10, 0x3f, 0x22, 0x61, 0xfc, 0xbe, 0x41, 0xf6,
    0xfc, 0x3e, 0x1c, 0x8b, 0xf8, 0x3e, 0x10, 0x42, 0xaf, 0xbe,
    0x71, 0xc6, 0xc4, 0xbe, 0x15, 0xf6, 0xf8, 0x3d, 0xa7, 0x9b,
    0xa9, 0xbb, 0xe2, 0x85, 0x1c, 0xbd, 0xae, 0x6a, 0x67, 0x3d,
    0xba, 0x2c, 0x76, 0xbe, 0xd1, 0x63, 0xb6, 0xbe, 0x42, 0xc3,
    0x0a, 0xbd, 0xc9, 0xb9, 0x80, 0xbe, 0xd6, 0x2c, 0x01, 0xbf,
    0x0e, 0xf3, 0x24, 0xbf, 0xb9, 0x54, 0x10, 0xbf, 0xc2, 0x12,
    0xca, 0x3e, 0xaa, 0x6a, 0x23, 0xbf, 0xa1, 0x98, 0x3d, 0xbf,
    0x0b, 0xee, 0x9b, 0x3e, 0xe8, 0x7f, 0xff, 0xbe, 0x2e, 0x68,
    0x9c, 0xbd, 0x5c, 0x7f, 0x29, 0xbf, 0x39, 0x24, 0x07, 0xbf,
    0xbd, 0x1e, 0x61, 0x3f, 0xd0, 0x44, 0x60, 0xbe, 0x3e, 0x5b,
    0x2b, 0xbe, 0xf3, 0x48, 0xed, 0x3e, 0x29, 0x97, 0x59, 0xbc,
    0x50, 0xfa, 0xc4, 0x3e, 0x52, 0xea, 0x5e, 0x3e, 0xc1, 0xd9,
    0xf1, 0xbd, 0xbb, 0x4f, 0x87, 0xbd, 0x26, 0x2b, 0x3d, 0x3e,
    0x05, 0x8c, 0xf7, 0xbd, 0xeb, 0x29, 0xdc, 0x3d, 0xde, 0x97,
    0x18, 0x3f, 0x26, 0xe6, 0xf0, 0x3d, 0x6c, 0xec, 0xf1, 0x3e,
    0x53, 0xa8, 0x18, 0x3f, 0x80, 0x86, 0x2d, 0xbf, 0xbe, 0x0a,
    0x02, 0x3e, 0x1f, 0x7b, 0x62, 0x3e, 0x06, 0xd2, 0x26, 0xbf,
    0x79, 0xe8, 0xd1, 0xbd, 0xb5, 0x17, 0x06, 0xbf, 0x75, 0x3e,
    0xfc, 0xbe, 0x0d, 0x34, 0x7b, 0x3e, 0x06, 0x91, 0x6c, 0x3e,
    0x50, 0x03, 0xa5, 0xbd, 0x59, 0x4c, 0x30, 0xbe, 0xdb, 0x5b,
    0x65, 0x3e, 0x23, 0xdb, 0xe2, 0xbe, 0x40, 0xd6, 0x4c, 0xbf,
    0x67, 0xc8, 0x20, 0xbd, 0x42, 0x01, 0x1f, 0x3e, 0x55, 0x74,
    0xe6, 0xbd, 0xb6, 0x0e, 0xe9, 0xbe, 0x92, 0x79, 0x12, 0xbf,
    0x96, 0xfa, 0x1f, 0x3e, 0x48, 0xc2, 0x97, 0xbe, 0x9a, 0x5e,
    0x3e, 0xbf, 0x57, 0x95, 0x02, 0xbf, 0x78, 0x7f, 0x31, 0x3f,
    0xd1, 0x03, 0x47, 0x3e, 0x8f, 0xb3, 0x7b, 0x3d, 0xd4, 0x46,
    0xb7, 0xbe, 0xa7, 0xa1, 0x6a, 0xbd, 0x6a, 0xc5, 0x78, 0xbb,
    0x6c, 0x5c, 0x30, 0xbd, 0xd1, 0x30, 0x77, 0x3e, 0xda, 0x91,
    0x9c, 0x3d, 0xc1, 0xfb, 0xea, 0xbc, 0x58, 0x37, 0x93, 0xba,
    0xff, 0xc6, 0x0e, 0x3d, 0xc8, 0xfa, 0x02, 0x3e, 0x6c, 0x06,
    0x05, 0xbd, 0x8e, 0xa7, 0xe3, 0x3e, 0x9a, 0x04, 0x13, 0x3e,
    0xe1, 0xbc, 0xfd, 0xbd, 0x1d, 0xe8, 0xe2, 0x3e, 0x7c, 0x15,
    0x00, 0xbe, 0xfa, 0x11, 0x0b, 0x3e, 0x07, 0x09, 0x6b, 0x3f,
    0x09, 0xbd, 0x80, 0x3c, 0xf2, 0xee, 0x93, 0xbc, 0x8e, 0x6d,
    0xc8, 0x3e, 0xf8, 0x33, 0x79, 0xbd, 0xc1, 0x3c, 0xba, 0xbe,
    0x96, 0xaf, 0x7c, 0xbd, 0x97, 0xd7, 0xaf, 0x3d, 0x3d, 0x00,
    0x3d, 0x3e, 0x14, 0x60, 0x77, 0x3e, 0x66, 0xcc, 0xb0, 0xbd,
    0xf3, 0x5e, 0x13, 0x3f, 0x32, 0x14, 0x08, 0x3f, 0xb9, 0x55,
    0x7f, 0x3d, 0x8f, 0xd7, 0x3f, 0xbf, 0x0a, 0xeb, 0x17, 0x3f,
    0xd9, 0x1b, 0xf1, 0xbd, 0x08, 0x2b, 0x8e, 0xbf, 0xfa, 0x54,
    0x07, 0x3e, 0x61, 0xa3, 0xb0, 0xbd, 0x7c, 0x02, 0x33, 0xbf,
    0x36, 0x78, 0x0f, 0x3f, 0x6c, 0xba, 0x71, 0x3c, 0xf8, 0x33,
    0x93, 0x3f, 0x3b, 0x22, 0xca, 0xbe, 0x48, 0x95, 0x88, 0x3e,
    0x8b, 0x34, 0xcc, 0xbe, 0x0c, 0xf6, 0x9e, 0x3e, 0x72, 0x42,
    0x19, 0xbd, 0xaf, 0x57, 0x56, 0x3e, 0x7e, 0x0d, 0xfe, 0xbe,
    0xf8, 0x67, 0xca, 0xbe, 0x14, 0x78, 0x39, 0xbe, 0xbb, 0x01,
    0xdd, 0xbe, 0x98, 0xcc, 0x86, 0xbd, 0xcf, 0x1d, 0x25, 0x3f,
    0xb6, 0xfc, 0xf0, 0x3d, 0xed, 0x04, 0x23, 0x3f, 0xf5, 0x3c,
    0x17, 0x3d, 0xe9, 0x93, 0x4f, 0xbe, 0x93, 0x4e, 0xd0, 0x3e,
    0xcf, 0xa3, 0xe4, 0xbe, 0x66, 0x5b, 0x8f, 0x3d, 0x04, 0xa0,
    0x85, 0xbd, 0x1b, 0x97, 0xf1, 0xbe, 0xee, 0x9f, 0x33, 0x3f,
    0x50, 0x31, 0xd7, 0x3e, 0xc5, 0x54, 0x36, 0x3c, 0x7b, 0x0a,
    0xd0, 0x3d, 0x26, 0x9f, 0x9e, 0x3d, 0x6a, 0xcf, 0x3e, 0x3d,
    0x4b, 0xb5, 0xf9, 0x3d, 0xe1, 0x87, 0x84, 0xbe, 0x98, 0x1b,
    0x6d, 0x3d, 0xdf, 0x63, 0x2f, 0x3e, 0x4f, 0x26, 0xa0, 0xbd,
    0x9c, 0x85, 0x4c, 0xbd, 0x14, 0x43, 0xd0, 0x3e, 0xa3, 0x79,
    0x15, 0xbf, 0xa4, 0x10, 0x2b, 0x3f, 0x78, 0x2e, 0x17, 0x3f,
    0xda, 0x05, 0x5f, 0xbd, 0x2a, 0xaf, 0x84, 0xbe, 0x1e, 0x27,
    0x02, 0x3f, 0x95, 0x04, 0x40, 0xbf, 0xca, 0x45, 0x1e, 0x3f,
    0x56, 0xce, 0xc3, 0x3c, 0x24, 0x5c, 0x60, 0x3e, 0xe3, 0x7c,
    0x86, 0x3e, 0x2b, 0xde, 0xa5, 0xbd, 0xfd, 0xcc, 0x33, 0x3f,
    0x2b, 0xd2, 0x04, 0xbf, 0xb6, 0x4b, 0x69, 0xbf, 0xe7, 0xd8,
    0x79, 0xbe, 0x0f, 0xb3, 0x0c, 0xbe, 0x40, 0x4b, 0x44, 0x3d,
    0x13, 0xdf, 0x64, 0x3e, 0xec, 0xad, 0x98, 0x3c, 0x9f, 0xb5,
    0x9a, 0xbd, 0x83, 0x82, 0xe5, 0x3d, 0x51, 0xd5, 0xf0, 0xbe,
    0xc7, 0x40, 0xbc, 0x3d, 0x98, 0xdb, 0x5c, 0xbe, 0x6f, 0x14,
    0xb3, 0x3e, 0xa8, 0x19, 0xbb, 0xbe, 0xdb, 0xdc, 0x11, 0x3f,
    0x18, 0xc4, 0x28, 0xbf, 0xfd, 0xc1, 0x21, 0x3e, 0xe1, 0x99,
    0x14, 0xbf, 0xd0, 0x14, 0x19, 0x3f, 0xf3, 0xd2, 0x54, 0xbe,
    0xb6, 0x32, 0x0e, 0xbe, 0x04, 0xbb, 0x43, 0x3f, 0x7d, 0x0f,
    0x25, 0xbf, 0xeb, 0x6f, 0xaf, 0xbe, 0x15, 0xae, 0x85, 0xbe,
    0xcd, 0xac, 0x92, 0xbd, 0x5f, 0x80, 0x95, 0x3d, 0xc8, 0x1c,
    0xba, 0x3d, 0x25, 0xc7, 0xa5, 0x3e, 0xee, 0x45, 0x5e, 0x3e,
    0x34, 0xaf, 0x63, 0xbe, 0x9e, 0x7e, 0x4f, 0x3e, 0xe0, 0xfa,
    0x6c, 0x3e, 0x11, 0x14, 0xb1, 0x3d, 0x43, 0x9a, 0x78, 0x3d,
    0x20, 0x13, 0x39, 0xbe, 0x3e, 0x84, 0xb8, 0x3d, 0x30, 0x00,
    0xb7, 0x3e, 0xd7, 0xa2, 0x25, 0x3e, 0x87, 0xf0, 0xec, 0xbe,
    0xc1, 0xbf, 0xd2, 0x3e, 0xf9, 0x2f, 0x96, 0xbd, 0xda, 0x98,
    0x4e, 0xbf, 0x27, 0x5e, 0x0f, 0x3c, 0xd3, 0x4b, 0xc0, 0xbe,
    0x90, 0x8d, 0xee, 0xbe, 0x56, 0xfa, 0xc5, 0x3e, 0xa4, 0xdc,
    0xd3, 0xbe, 0x88, 0xa4, 0x0e, 0x3f, 0x37, 0x3d, 0x0d, 0x3f,
    0x96, 0x82, 0xe9, 0x3e, 0xa3, 0xc1, 0x88, 0x3e, 0x06, 0xc8,
    0x7d, 0xbb, 0xf8, 0x98, 0x1d, 0x3e, 0x2c, 0xc3, 0x43, 0x3e,
    0x9e, 0x1c, 0x00, 0xbe, 0x1b, 0x79, 0xbf, 0x3d, 0x03, 0x13,
    0xf1, 0x3e, 0xaa, 0xa5, 0xbf, 0x3e, 0xcd, 0x0e, 0x2d, 0xbf,
    0xc8, 0xdb, 0x7b, 0x3e, 0x4a, 0xce, 0x28, 0x3e, 0xcc, 0x2c,
    0x3d, 0xbf, 0xe3, 0xb9, 0x44, 0xbf, 0xbc, 0x0a, 0xc9, 0x3e,
    0x1e, 0xa8, 0xb9, 0xbe, 0xb3, 0x3b, 0xac, 0xbe, 0x67, 0xe3,
    0x16, 0x3f, 0xfa, 0x54, 0x9b, 0xbe, 0x05, 0x2a, 0x82, 0xbe,
    0x61, 0x22, 0x0d, 0x3f, 0xba, 0x38, 0xc4, 0x3d, 0x3b, 0x8f,
    0xae, 0x3e, 0xf1, 0x53, 0x20, 0x3f, 0xe2, 0xb1, 0x8f, 0xbe,
    0xc5, 0x27, 0x99, 0x3e, 0xa1, 0xb7, 0xd5, 0xbd, 0xf6, 0xc4,
    0xd8, 0xbe, 0x92, 0xa9, 0x9b, 0xbd, 0xc8, 0x21, 0xf1, 0x3d,
    0x66, 0x32, 0x57, 0x3e, 0x1a, 0x32, 0x3f, 0x3e, 0x71, 0x7e,
    0xc7, 0xbd, 0x81, 0xcd, 0x7e, 0xbf, 0x0e, 0xf0, 0x76, 0x3f,
    0x46, 0xce, 0xe2, 0x3e, 0x76, 0xee, 0x1e, 0xbf, 0x89, 0x29,
    0x62, 0xbf, 0x38, 0xf2, 0x1a, 0x3f, 0x1f, 0x36, 0x47, 0xbf,
    0x9c, 0x33, 0xba, 0x3d, 0x34, 0x0f, 0x0a, 0xbe, 0xd5, 0x72,
    0x98, 0x3e, 0x94, 0x68, 0xc6, 0x3e, 0x5d, 0x66, 0xb6, 0xbd,
    0x82, 0x38, 0x07, 0xbf, 0x6f, 0xbd, 0x3e, 0xbe, 0x5b, 0x25,
    0x5a, 0xbe, 0x68, 0xca, 0x1c, 0x3e, 0x32, 0xe9, 0xab, 0xbd,
    0x7c, 0x4a, 0x8e, 0x3e, 0x1d, 0x25, 0xd7, 0x3e, 0xa3, 0xb9,
    0x0d, 0xbe, 0x25, 0x50, 0xc9, 0xbd, 0xbd, 0x81, 0x7c, 0xbe,
    0x31, 0xc2, 0xf1, 0xbe, 0x11, 0xb5, 0xaf, 0xbe, 0x8f, 0xb0,
    0xcc, 0xbe, 0x0a, 0x2b, 0xad, 0x3d, 0x6e, 0x4d, 0xb7, 0xbb,
    0xe9, 0x7d, 0x9b, 0x3e, 0x1a, 0xfa, 0xd5, 0xbe, 0x42, 0xf9,
    0xd4, 0x3e, 0x6b, 0xf3, 0x0b, 0xbe, 0x36, 0xc2, 0x70, 0xbe,
    0x6a, 0xa9, 0x20, 0x3b, 0x30, 0x6d, 0x64, 0x3d, 0x8d, 0x18,
    0x09, 0x3f, 0x48, 0xda, 0x12, 0xbe, 0x52, 0x62, 0x48, 0xbd,
    0xa6, 0x4f, 0x8f, 0x3d, 0x49, 0x6f, 0x19, 0xbd, 0x7e, 0xaa,
    0xa3, 0xbe, 0x09, 0xa6, 0xba, 0x3d, 0x7c, 0xfd, 0xce, 0xbe,
    0x12, 0x9a, 0x48, 0x3f, 0x77, 0x7b, 0x0a, 0x3e, 0x22, 0xaf,
    0xad, 0xbe, 0xd1, 0x29, 0x6c, 0xbe, 0xe2, 0x56, 0x88, 0x3e,
    0xc1, 0x10, 0xd9, 0x3d, 0x69, 0xf9, 0x56, 0xbd, 0x52, 0x5b,
    0xf0, 0x3e, 0xb9, 0x9e, 0x02, 0xbf, 0x0d, 0x13, 0xac, 0x3d,
    0xb5, 0x7f, 0xcf, 0x3d, 0x2d, 0x16, 0x53, 0x3b, 0x54, 0x7e,
    0xc7, 0xbe, 0x8d, 0x7a, 0x65, 0x3e, 0xa5, 0x32, 0x31, 0xbd,
    0xd2, 0x18, 0xa5, 0x3e, 0x90, 0xc0, 0x3b, 0xbe, 0xbd, 0x1e,
    0xa2, 0xbd, 0xe5, 0x04, 0xf0, 0x3e, 0xad, 0xb9, 0x90, 0x3f,
    0xeb, 0x7f, 0x00, 0x3f, 0x3c, 0x88, 0x24, 0x3e, 0xe9, 0x8d,
    0x60, 0x3f, 0x3c, 0x24, 0x3b, 0x3e, 0x40, 0xd9, 0x27, 0xbe,
    0x7d, 0x0d, 0xd0, 0xbe, 0x69, 0xa6, 0x45, 0xbf, 0xcb, 0x03,
    0x24, 0xbf, 0x47, 0x18, 0xa5, 0xbe, 0x26, 0xc5, 0x74, 0x3e,
    0x54, 0x19, 0x8f, 0x3d, 0x88, 0x1e, 0x57, 0xbe, 0x75, 0x58,
    0xf2, 0xbe, 0xde, 0x59, 0xd8, 0x3d, 0x40, 0x63, 0xb0, 0x3d,
    0x55, 0x29, 0x04, 0xbf, 0x58, 0x78, 0xa7, 0x3e, 0x00, 0x0f,
    0x3f, 0x3f, 0x65, 0x00, 0x96, 0xbe, 0x10, 0xab, 0x9e, 0x3e,
    0x5d, 0x39, 0x6e, 0xba, 0xca, 0x6e, 0x90, 0x3e, 0x41, 0xbd,
    0x41, 0xbe, 0xf2, 0xcd, 0x9a, 0x3d, 0x77, 0x8e, 0x7e, 0x3c,
    0x58, 0xad, 0xd4, 0x3c, 0x57, 0x68, 0xdb, 0xbd, 0x89, 0x28,
    0x90, 0xbe, 0xfb, 0xa6, 0x84, 0xbe, 0xca, 0x1c, 0xc9, 0x3e,
    0x4d, 0xa5, 0x84, 0x3e, 0x43, 0x6d, 0x4a, 0x3f, 0x04, 0xf2,
    0x9c, 0xbe, 0xee, 0x03, 0xd0, 0x3e, 0xa0, 0xe6, 0x1a, 0x3f,
    0xa7, 0x37, 0x8c, 0xbe, 0x92, 0x5a, 0x3f, 0xbe, 0x69, 0x8e,
    0x88, 0xbe, 0x23, 0x4f, 0xf8, 0x3e, 0xf4, 0xd7, 0xdf, 0x3e,
    0x6a, 0xd8, 0x31, 0xbe, 0x85, 0x4a, 0xa1, 0xbe, 0x9b, 0x8c,
    0xfd, 0x3e, 0xa2, 0xce, 0x92, 0xbe, 0x7e, 0xb0, 0x03, 0xbf,
    0x9d, 0x36, 0x2f, 0x3e, 0xd6, 0x55, 0x06, 0xbf, 0x02, 0xa0,
    0x64, 0xbf, 0x12, 0x31, 0xcd, 0xbc, 0x2d, 0x09, 0x42, 0xbd,
    0x2b, 0xfc, 0x72, 0xbe, 0x3c, 0xd6, 0x1a, 0xbd, 0x93, 0x35,
    0x1f, 0xbe, 0xdd, 0x15, 0x3e, 0xbe, 0x27, 0x5c, 0x4d, 0x3e,
    0x57, 0x44, 0x3c, 0x3e, 0x45, 0xf1, 0x30, 0xbf, 0x67, 0x98,
    0x2a, 0xbe, 0x19, 0xbd, 0x87, 0x3e, 0xa6, 0x37, 0xba, 0x3e,
    0xb3, 0xd4, 0x88, 0xbe, 0x2f, 0x00, 0x08, 0xbf, 0x57, 0xc8,
    0x0f, 0x3c, 0xec, 0x95, 0x14, 0x3d, 0x9b, 0x1a, 0xfd, 0xbe,
    0x59, 0xec, 0xad, 0x3c, 0xd0, 0x56, 0x9c, 0xbe, 0x61, 0x54,
    0x19, 0x3f, 0x01, 0x8e, 0x53, 0x3f, 0x7b, 0xe7, 0xc2, 0x3d,
    0x7f, 0xd4, 0x50, 0x3f, 0x40, 0xcd, 0x7b, 0x3f, 0x30, 0x7a,
    0xcb, 0x3e, 0x34, 0x79, 0xf4, 0xbc, 0x1e, 0x2f, 0x79, 0xbd,
    0x66, 0xe3, 0xda, 0x3e, 0x6d, 0x9c, 0x9b, 0xbf, 0xff, 0xd7,
    0x1d, 0xbf, 0xf0, 0x9f, 0xab, 0x3e, 0xdb, 0xd3, 0x7a, 0x3e,
    0x7a, 0x8a, 0x4d, 0xbf, 0x14, 0xdb, 0xe3, 0x3e, 0x6f, 0x09,
    0x8c, 0x3e, 0x0a, 0x11, 0x8a, 0x3f, 0x25, 0x5f, 0xc4, 0x3e,
    0xce, 0xa3, 0xf7, 0xbd, 0x3f, 0x97, 0x14, 0x3f, 0xd0, 0x2c,
    0x5e, 0x3f, 0x51, 0x06, 0x9d, 0xbe, 0x1f, 0xb2, 0x71, 0x3d,
    0xcf, 0x67, 0xde, 0xbd, 0x57, 0xed, 0x10, 0xbf, 0x05, 0xe5,
    0x97, 0x3f, 0xfe, 0xb8, 0xed, 0x3e, 0x79, 0x5b, 0x31, 0xbe,
    0x3a, 0x87, 0xed, 0xbe, 0xd4, 0x18, 0xe2, 0x3e, 0xe4, 0xcc,
    0x04, 0xbf, 0x9c, 0x78, 0x5a, 0x3f, 0x86, 0xc6, 0xe3, 0x3e,
    0xe9, 0xc6, 0x5f, 0xbe, 0xe4, 0x58, 0x0d, 0xbf, 0xec, 0x84,
    0x5a, 0x3e, 0x18, 0x2e, 0xfd, 0xbe, 0xa5, 0x91, 0xac, 0xbd,
    0x3e, 0x61, 0x90, 0x3b, 0xb9, 0x73, 0xbd, 0x3d, 0x4a, 0x21,
    0x94, 0xbe, 0x39, 0x7c, 0xc6, 0x3e, 0xa7, 0x9c, 0x9b, 0xbe,
    0x2b, 0xe1, 0x08, 0x3f, 0xc2, 0xe9, 0xd6, 0xbe, 0x51, 0xaa,
    0x0f, 0x3e, 0x04, 0xb0, 0x15, 0xbd, 0xfd, 0xb4, 0xa3, 0xbe,
    0xc6, 0x9b, 0x58, 0xbe, 0xdc, 0x03, 0xc3, 0x3c, 0x4e, 0xfa,
    0x80, 0xbe, 0x34, 0x47, 0xc6, 0x3e, 0xfa, 0x85, 0xc8, 0xbe,
    0x9c, 0xce, 0x87, 0x3c, 0xef, 0x80, 0xde, 0xbd, 0x79, 0x00,
    0xa7, 0xbe, 0xb7, 0x0f, 0x37, 0xbf, 0xca, 0x7b, 0xc6, 0x3f,
    0x56, 0xe1, 0x07, 0x3e, 0x22, 0x60, 0x8e, 0xbf, 0xc3, 0x2c,
    0xe4, 0xbe, 0x9a, 0x35, 0xe4, 0xbe, 0x5f, 0xee, 0x87, 0xbe,
    0x3c, 0x2a, 0xeb, 0x3e, 0x34, 0xe4, 0x74, 0x3e, 0x1a, 0x60,
    0x7b, 0xbf, 0x92, 0xd7, 0x0f, 0xbd, 0xb5, 0x05, 0xf3, 0x3e,
    0x24, 0xcb, 0xf5, 0x3e, 0xc7, 0xc9, 0x11, 0xbf, 0x2a, 0x1b,
    0x8d, 0x3d, 0x7a, 0x3d, 0x15, 0xbf, 0x11, 0x63, 0x73, 0xbe,
    0x91, 0x51, 0xa1, 0x3e, 0x3e, 0x08, 0x8a, 0xbd, 0x47, 0xc2,
    0x1c, 0x3e, 0x83, 0x9b, 0x3f, 0x3e, 0xa7, 0xd7, 0xaa, 0x3e,
    0x02, 0x37, 0x68, 0xbe, 0x48, 0x18, 0x78, 0x3d, 0x5e, 0xe9,
    0xf1, 0xbc, 0xec, 0xf8, 0x17, 0x3f, 0x21, 0x0c, 0xb7, 0x3d,
    0x40, 0x51, 0x9f, 0xbd, 0x22, 0x81, 0xd5, 0xbd, 0x81, 0x36,
    0x2b, 0x3f, 0xf8, 0x43, 0xf5, 0xbd, 0xf3, 0x80, 0x4b, 0xbe,
    0xc1, 0x42, 0xd0, 0xbd, 0xea, 0xe7, 0x60, 0x3e, 0x75, 0xc0,
    0x43, 0x3e, 0x4f, 0xa4, 0xbd, 0xbe, 0x9d, 0xae, 0x70, 0x3d,
    0x2f, 0xcf, 0x30, 0x3f, 0xb7, 0x76, 0x04, 0xbf, 0xc7, 0xfa,
    0x95, 0xbc, 0x4b, 0x75, 0x29, 0xbf, 0x13, 0xa0, 0x60, 0xbe,
    0xd0, 0x35, 0x7d, 0xbe, 0xc7, 0x34, 0x05, 0xbf, 0x68, 0xab,
    0x86, 0xbf, 0x44, 0x8d, 0x03, 0xbd, 0xad, 0xdc, 0x1c, 0xbd,
    0x99, 0x83, 0x2d, 0x3e, 0xf0, 0xbc, 0xf1, 0xbd, 0x59, 0x11,
    0x15, 0xbd, 0xfd, 0x98, 0xbe, 0xbd, 0x43, 0x0c, 0x33, 0xbe,
    0x66, 0x4a, 0xea, 0x3c, 0xac, 0x64, 0x9d, 0x3d, 0x29, 0xc3,
    0xbb, 0xbe, 0x44, 0x39, 0x81, 0x3e, 0xb4, 0x24, 0x06, 0xbe,
    0xa1, 0xb4, 0xb5, 0xbe, 0x17, 0x8e, 0xa1, 0x3e, 0x55, 0xda,
    0x03, 0xbf, 0xc5, 0x35, 0x45, 0xbe, 0x34, 0xba, 0x53, 0xbf,
    0xc1, 0xed, 0x55, 0x3e, 0x7a, 0xb8, 0x9e, 0x3e, 0xe8, 0x30,
    0x9d, 0x3d, 0x77, 0x2a, 0x22, 0xbe, 0xa6, 0x6d, 0xd2, 0x3c,
    0xa4, 0xb8, 0x2d, 0xbf, 0x1f, 0x4c, 0xc9, 0x3b, 0x9a, 0x79,
    0x67, 0xbf, 0xa9, 0x9d, 0xec, 0x3e, 0x4b, 0xff, 0xb0, 0x3e,
    0x1d, 0x2f, 0x1f, 0x3e, 0xf5, 0xde, 0x6a, 0x3e, 0xf7, 0x65,
    0x53, 0x3d, 0x27, 0xba, 0x02, 0xbf, 0x6c, 0x6b, 0x3b, 0xbd,
    0x3c, 0xc9, 0x85, 0xbf, 0xe5, 0xc4, 0x19, 0xbe, 0x83, 0xa8,
    0x03, 0x3e, 0xe6, 0xb1, 0xb7, 0xbd, 0x5e, 0xde, 0xa7, 0x3e,
    0x4c, 0x07, 0x08, 0x3f, 0xe4, 0xb0, 0xa1, 0xbe, 0x53, 0x78,
    0x00, 0xbf, 0x7d, 0xd5, 0xcf, 0xbe, 0xa3, 0x33, 0xbf, 0xbe,
    0xf5, 0x8a, 0xee, 0x3e, 0x16, 0xeb, 0x11, 0x3e, 0x90, 0x06,
    0x9a, 0xbe, 0x03, 0xab, 0x4d, 0xbe, 0x37, 0xa2, 0x7e, 0x3e,
    0xf8, 0xba, 0x0f, 0x3f, 0xc9, 0xe1, 0xdb, 0x3c, 0x06, 0x02,
    0x9c, 0x3d, 0xb3, 0x18, 0x05, 0x3e, 0x16, 0xab, 0x2a, 0xbe,
    0x05, 0x48, 0xa1, 0xbd, 0xfc, 0xfc, 0xd3, 0xbe, 0x95, 0x20,
    0x95, 0x3e, 0xde, 0xc5, 0xd3, 0x3e, 0xc6, 0x76, 0xa7, 0x3e,
    0xf7, 0x38, 0x2d, 0xbf, 0x46, 0x6d, 0xb3, 0xbe, 0x0d, 0x2f,
    0xcc, 0x3e, 0x38, 0x2d, 0x84, 0x3e, 0x4b, 0xf5, 0x3c, 0x3f,
    0x67, 0x17, 0xf1, 0xbe, 0x2f, 0x57, 0x43, 0xbf, 0x5c, 0xf3,
    0x8b, 0xbe, 0x8b, 0x1e, 0xc3, 0xbd, 0x7c, 0x0c, 0x4d, 0xbe,
    0xa9, 0xf4, 0x05, 0x3f, 0xba, 0x78, 0x64, 0x3e, 0xe5, 0x91,
    0xf4, 0x3e, 0x2e, 0xe5, 0xe1, 0x3d, 0x38, 0x92, 0x08, 0x3f,
    0xf0, 0xe2, 0x60, 0xbe, 0x64, 0x62, 0x0f, 0xbf, 0x9f, 0xe8,
    0x6d, 0x3e, 0x8a, 0x4b, 0xae, 0xbe, 0x5a, 0x4c, 0x8e, 0xbe,
    0x2c, 0x38, 0x93, 0x3e, 0xc4, 0x6d, 0xb8, 0xbe, 0x5d, 0x69,
    0xf9, 0x3e, 0xa2, 0x2c, 0x04, 0x3d, 0xad, 0x9b, 0x1e, 0x3e,
    0xef, 0x2c, 0x4a, 0xbe, 0x21, 0x0f, 0x5c, 0x3e, 0x76, 0xe6,
    0x1c, 0xbf, 0xba, 0x32, 0x4c, 0xbe, 0x74, 0xac, 0x09, 0xbf,
    0x82, 0xad, 0xc0, 0xbe, 0x49, 0x46, 0x31, 0x3d, 0x99, 0x09,
    0x3b, 0x3e, 0x4e, 0x61, 0xc7, 0xbe, 0xc5, 0x69, 0xbf, 0x3e,
    0x41, 0x5f, 0x16, 0xbf, 0xea, 0x91, 0xd3, 0x3e, 0xe6, 0x4e,
    0x97, 0xbe, 0x99, 0x2d, 0x66, 0xbe, 0x95, 0xe1, 0xb9, 0xbc,
    0x1b, 0x01, 0x81, 0xbe, 0x65, 0x32, 0x48, 0xbe, 0x78, 0x5a,
    0x1e, 0x3f, 0xac, 0xfb, 0x8d, 0xbe, 0x92, 0x4b, 0x3c, 0x3e,
    0xe7, 0x72, 0x45, 0xbe, 0x5f, 0x5e, 0x65, 0x3e, 0xbf, 0x7a,
    0x45, 0x3e, 0x48, 0xfe, 0x56, 0xbd, 0x8f, 0x39, 0x39, 0xbf,
    0x00, 0xc1, 0x24, 0x3e, 0x43, 0x3e, 0x1e, 0x3e, 0xc1, 0x0a,
    0x0d, 0xbe, 0xf6, 0x3e, 0x62, 0xbf, 0x69, 0x40, 0x5a, 0xbe,
    0x6e, 0x03, 0x23, 0xbc, 0x3e, 0x3d, 0x9e, 0xbd, 0x0f, 0x20,
    0x13, 0xbf, 0xe9, 0x86, 0xb4, 0xbe, 0x30, 0x6c, 0x45, 0x3e,
    0x5d, 0x58, 0xd3, 0x3d, 0x97, 0x19, 0x01, 0xbf, 0xdb, 0xc9,
    0x83, 0x3e, 0xdd, 0xa2, 0xa1, 0xbe, 0xf1, 0xce, 0xe6, 0x3e,
    0x5a, 0x8f, 0x8a, 0xbe, 0x91, 0x7b, 0x18, 0x3c, 0x3c, 0xc8,
    0xdc, 0xbd, 0xd9, 0x1b, 0xdb, 0x3e, 0x73, 0x9e, 0x10, 0xbe,
    0xb1, 0x88, 0x43, 0x3e, 0x94, 0x54, 0xbb, 0x3e, 0x4e, 0xf2,
    0x5b, 0xbf, 0x1b, 0x0d, 0xd8, 0xbd, 0x1a, 0xd8, 0xec, 0xbe,
    0x00, 0xd9, 0x3c, 0x3f, 0xd8, 0xb3, 0x1f, 0x3f, 0x16, 0x52,
    0x84, 0x3d, 0x81, 0x9a, 0xe8, 0xbf, 0x2c, 0x7b, 0xb8, 0xbe,
    0x24, 0x83, 0x22, 0xbf, 0x2c, 0xc3, 0x64, 0xbe, 0xf0, 0xc9,
    0x5d, 0xbf, 0xf8, 0xb7, 0x81, 0x3e, 0x08, 0x35, 0xee, 0xbd,
    0xc2, 0xc5, 0x8b, 0x3d, 0xba, 0xb0, 0xac, 0xbe, 0xba, 0xe3,
    0x04, 0x3d, 0x8d, 0x19, 0xa9, 0xbd, 0xc6, 0x21, 0x27, 0x3e,
    0x95, 0x2d, 0x7b, 0xbf, 0x7d, 0x76, 0xf1, 0x3d, 0xd4, 0x50,
    0x93, 0xbe, 0xa5, 0x29, 0x9c, 0xbd, 0xe8, 0x66, 0xc4, 0xbe,
    0x66, 0xa9, 0x73, 0x3e, 0x77, 0x31, 0x05, 0xbe, 0x72, 0x25,
    0x75, 0x3e, 0x04, 0x26, 0xb2, 0x3e, 0xf5, 0xa9, 0xd0, 0xbc,
    0xf7, 0xe9, 0x7f, 0xbe, 0xbb, 0xd9, 0x1b, 0x3e, 0x9e, 0x0b,
    0x7a, 0xbd, 0xe4, 0x7c, 0xdf, 0x3e, 0xf6, 0xd2, 0xa5, 0xbd,
    0xa7, 0x23, 0xca, 0xbe, 0xaa, 0xbf, 0x15, 0xbe, 0x97, 0x5b,
    0x96, 0x3d, 0xbe, 0x12, 0xbf, 0xbd, 0xd6, 0xf0, 0x97, 0xbe,
    0xcb, 0x76, 0xe9, 0x3d, 0x8b, 0x95, 0x19, 0x3f, 0x89, 0x2b,
    0xfa, 0xbe, 0x51, 0x11, 0xa7, 0xbd, 0x00, 0x08, 0x8b, 0xbd,
    0x36, 0x3f, 0xed, 0xbe, 0x95, 0xf1, 0x89, 0x3e, 0x81, 0xda,
    0x9e, 0xbc, 0x65, 0xf8, 0x8a, 0xbe, 0xa3, 0x8a, 0xe3, 0x3e,
    0xe4, 0x9f, 0x90, 0x3d, 0xb6, 0x3f, 0x21, 0xbf, 0x3c, 0x91,
    0xd6, 0xbd, 0x24, 0xb9, 0x03, 0x3f, 0xe1, 0x84, 0xfb, 0x3e,
    0xc0, 0x1b, 0xb1, 0xbe, 0x77, 0xdf, 0x55, 0x3d, 0x83, 0xe8,
    0xcc, 0x3e, 0x6c, 0xca, 0x1d, 0x3e, 0x95, 0x4a, 0x9a, 0xbe,
    0xa7, 0x60, 0xf7, 0xbe, 0x49, 0x38, 0xdf, 0x3e, 0x99, 0x79,
    0x17, 0xba, 0xa4, 0xed, 0x48, 0xbc, 0xde, 0x42, 0x55, 0xbe,
    0xd0, 0x0a, 0xb7, 0x3e, 0xab, 0x38, 0x50, 0xbe, 0xfe, 0xfb,
    0xcf, 0x3e, 0x66, 0xb4, 0x26, 0xbc, 0x48, 0x50, 0x51, 0x3e,
    0x35, 0x86, 0xc8, 0x3d, 0x3b, 0xdd, 0x8c, 0x3d, 0xe6, 0xbe,
    0x78, 0xbc, 0x7b, 0xc9, 0x88, 0xbd, 0x9a, 0xcd, 0xaf, 0x3e,
    0x56, 0x27, 0x15, 0xbe, 0x1e, 0xfe, 0x17, 0xbe, 0xa0, 0x32,
    0x34, 0xbe, 0xa5, 0x00, 0xa8, 0xbd, 0xc7, 0xf5, 0x33, 0x3e,
    0xae, 0x40, 0x90, 0x3e, 0xa2, 0x04, 0xa3, 0xbd, 0x87, 0x08,
    0xbd, 0x3e, 0x3b, 0xbb, 0xf0, 0x3e, 0xeb, 0xeb, 0xec, 0x3e,
    0xaf, 0x0e, 0x98, 0x3e, 0xf3, 0x2d, 0x80, 0x3f, 0x38, 0xf2,
    0xaf, 0x3e, 0x1e, 0xf0, 0xa9, 0xbe, 0x06, 0xfe, 0x96, 0x3d,
    0xf7, 0xc9, 0xa6, 0xbc, 0x30, 0x4c, 0x0b, 0xbe, 0x8a, 0xe6,
    0xfb, 0xbd, 0x3c, 0x95, 0xcf, 0x3d, 0xc7, 0x16, 0xaa, 0xbd,
    0x04, 0x8a, 0x61, 0xbe, 0x60, 0xca, 0xa8, 0xbe, 0x1e, 0x66,
    0x7d, 0xbe, 0x07, 0xf0, 0xf4, 0x3d, 0x0a, 0xe3, 0x40, 0x3e,
    0x7b, 0x48, 0x33, 0xbe, 0x94, 0x38, 0x18, 0xbb, 0x3f, 0x69,
    0x33, 0x3e, 0x81, 0x2d, 0x70, 0xbe, 0x76, 0xf2, 0x68, 0x3d,
    0xa3, 0x19, 0xc5, 0x3d, 0xab, 0x2b, 0x63, 0xbd, 0x55, 0x2e,
    0xb8, 0xbd, 0x41, 0x68, 0x04, 0x3f, 0x5a, 0x32, 0x93, 0xbe,
    0x28, 0x35, 0x29, 0x3e, 0x9f, 0xc2, 0xf5, 0x3e, 0x9c, 0x4c,
    0x33, 0xbe, 0x4e, 0x7d, 0x09, 0x3e, 0x9a, 0x8e, 0x54, 0x3e,
    0xfe, 0xe5, 0xb6, 0xbe, 0x11, 0x6a, 0x23, 0x3e, 0x23, 0x83,
    0x3e, 0xbe, 0x8b, 0x68, 0x13, 0x3e, 0xba, 0x31, 0xf9, 0xbd,
    0x48, 0x5f, 0xb8, 0xbe, 0xec, 0x18, 0x3b, 0x3d, 0x2c, 0xb5,
    0x5e, 0x3c, 0x37, 0xb9, 0x97, 0x3e, 0x2f, 0x04, 0xc7, 0x3d,
    0x0a, 0x36, 0xb3, 0xbe, 0xc4, 0xa4, 0x91, 0xbe, 0x4a, 0x37,
    0xf3, 0xbc, 0x75, 0xee, 0x11, 0xbf, 0xcc, 0x0d, 0x90, 0xbe,
    0xb0, 0x29, 0x3d, 0xbe, 0x53, 0x40, 0x98, 0x3e, 0xc4, 0xa6,
    0xc2, 0xbc, 0xf9, 0x3b, 0xd7, 0xbe, 0x3a, 0x59, 0x4b, 0xbf,
    0xb3, 0xdc, 0xfd, 0xbc, 0x79, 0xb7, 0x0d, 0xbe, 0xf2, 0x49,
    0x87, 0x3e, 0x2c, 0x31, 0xb4, 0xbe, 0x42, 0xae, 0x91, 0x3e,
    0xfb, 0x86, 0x07, 0x3e, 0x6f, 0x2c, 0x7f, 0x3e, 0x4e, 0xe9,
    0x09, 0xbe, 0xfc, 0x75, 0x3a, 0xbe, 0xb0, 0x13, 0xe2, 0xbc,
    0x02, 0x06, 0x42, 0x3b, 0x39, 0x34, 0xaa, 0xbe, 0x80, 0x1e,
    0xfd, 0x3d, 0x13, 0xe0, 0x02, 0xbf, 0xee, 0xae, 0x6b, 0xbe,
    0x9d, 0x9e, 0x86, 0xbc, 0x0a, 0x96, 0x2f, 0x3e, 0x04, 0x82,
    0xdd, 0x3b, 0xbe, 0x44, 0x06, 0x3f, 0x56, 0x10, 0x36, 0xbe,
    0x6f, 0x99, 0xa7, 0x3e, 0xe6, 0xa3, 0xb2, 0x3e, 0xd4, 0x43,
    0x47, 0x3e, 0x1a, 0x40, 0x07, 0x3f, 0x8b, 0x6f, 0xbb, 0x3e,
    0x2c, 0x65, 0x1c, 0xbe, 0x87, 0x0c, 0x8d, 0xbe, 0xde, 0xc1,
    0xaf, 0xbe, 0xf6, 0x43, 0x4b, 0xbd, 0xe9, 0x42, 0xed, 0x3d,
    0xd0, 0x81, 0xb1, 0x3e, 0x94, 0x75, 0xd7, 0xbe, 0x2e, 0x8a,
    0xc4, 0x3d, 0xa2, 0x82, 0xd2, 0x3e, 0x1a, 0x71, 0xca, 0xbd,
    0xcf, 0xe9, 0x9e, 0xbe, 0x8f, 0x6b, 0xa9, 0x3d, 0xeb, 0x09,
    0xa8, 0x3d, 0x58, 0xeb, 0x50, 0x3d, 0xe0, 0x52, 0x54, 0x3e,
    0x42, 0xa5, 0xf7, 0x3d, 0x53, 0xae, 0xf2, 0xbe, 0x9b, 0xda,
    0x94, 0xbe, 0xf8, 0xbf, 0xce, 0xbe, 0xc1, 0x70, 0xe3, 0xbe,
    0xc9, 0x40, 0x82, 0xbf, 0x3a, 0x6f, 0xcc, 0x3d, 0x0d, 0x46,
    0x3b, 0x3e, 0xbe, 0x5b, 0x75, 0xbf, 0x7f, 0x19, 0xb0, 0x3c,
    0xef, 0xe2, 0xbc, 0xbe, 0x4a, 0x7a, 0x3c, 0x3c, 0xbb, 0x9b,
    0xdd, 0x3e, 0x2c, 0xe8, 0xab, 0xbe, 0xbf, 0x46, 0x13, 0xbe,
    0x82, 0x73, 0xd2, 0x3e, 0x4b, 0xbe, 0xc2, 0xbe, 0xae, 0x8b,
    0xa5, 0xbe, 0x1c, 0x93, 0xd7, 0x3e, 0xdb, 0x21, 0xa9, 0x3e,
    0xc9, 0x39, 0x8a, 0x3e, 0x44, 0x6b, 0x9c, 0xbc, 0x11, 0x1a,
    0x1a, 0x3e, 0x38, 0x5b, 0xbc, 0xbe, 0x62, 0x6c, 0xd9, 0xbe,
    0x15, 0xc5, 0xd0, 0xbe, 0x1b, 0xbd, 0x91, 0xbe, 0xab, 0x7f,
    0xb3, 0x3e, 0x32, 0x64, 0xf6, 0xbe, 0xa1, 0x57, 0xa9, 0x3e,
    0x75, 0x60, 0xb9, 0x3e, 0xa3, 0xb3, 0x1c, 0xbd, 0x04, 0xe3,
    0x84, 0x3d, 0xf1, 0x8d, 0xb6, 0xbd, 0x4d, 0x72, 0xab, 0x3e,
    0x23, 0x08, 0xdd, 0xbe, 0xd6, 0x11, 0x5a, 0xbe, 0x2e, 0xd2,
    0x0c, 0xbe, 0x99, 0xd8, 0x2f, 0x3e, 0xc6, 0x55, 0xb4, 0xba,
    0xbc, 0x57, 0x66, 0xbd, 0x24, 0xbf, 0x98, 0x3e, 0x9b, 0xc1,
    0x51, 0x3e, 0xe5, 0xb8, 0xa7, 0xbe, 0xfa, 0xec, 0x16, 0x3f,
    0x17, 0x17, 0x93, 0x3d, 0xa6, 0xd2, 0x3c, 0x3f, 0x0e, 0x48,
    0xba, 0xbe, 0xc6, 0x0c, 0x89, 0xbe, 0xc9, 0x05, 0x20, 0x3f,
    0xfe, 0xe5, 0x7b, 0xbe, 0xf2, 0xb7, 0xdd, 0xbe, 0x24, 0x93,
    0x37, 0xbe, 0xc8, 0xe4, 0x5d, 0xbd, 0xde, 0x83, 0x69, 0x3e,
    0xc6, 0xf6, 0xb6, 0x3d, 0xb4, 0xfc, 0x15, 0x3e, 0x48, 0xe0,
    0x7a, 0x3e, 0xa5, 0xdd, 0xb7, 0x3d, 0x19, 0x06, 0xd7, 0xbe,
    0x56, 0x57, 0x59, 0x3e, 0x9f, 0x4e, 0x2b, 0x3e, 0x4f, 0xad,
    0x63, 0x3e, 0x4d, 0x01, 0x8a, 0xbe, 0xa1, 0xe9, 0x2c, 0xbe,
    0x40, 0x6d, 0xd0, 0x3e, 0xab, 0x25, 0x8c, 0xbe, 0xab, 0x3b,
    0x01, 0xbf, 0xb6, 0x4b, 0x0a, 0xbe, 0x98, 0xbc, 0x39, 0x3e,
    0xbd, 0x7d, 0x47, 0xbe, 0xcc, 0x60, 0x82, 0xbd, 0xa8, 0x01,
    0x2c, 0xbc, 0x10, 0xa2, 0x4d, 0x3f, 0x23, 0xdb, 0x04, 0xbe,
    0xab, 0xbc, 0xbf, 0xbd, 0x60, 0x1c, 0x23, 0x3e, 0x78, 0x94,
    0x79, 0x3d, 0x69, 0x13, 0x15, 0x3d, 0x35, 0x5f, 0x65, 0x3f,
    0x45, 0xee, 0x08, 0x3f, 0x61, 0x2f, 0x92, 0xbe, 0xdb, 0xc2,
    0x1f, 0x3f, 0xe0, 0x3d, 0x0d, 0xbf, 0x23, 0x8b, 0x53, 0x3d,
    0xfa, 0x4f, 0xd2, 0x3d, 0xe2, 0x6d, 0xd3, 0xbd, 0x06, 0xe6,
    0xc4, 0x3e, 0x6c, 0xb0, 0x7b, 0x3e, 0x66, 0x76, 0xaa, 0xbe,
    0xbb, 0xa7, 0xdb, 0x3e, 0xc9, 0x4d, 0xf3, 0xbd, 0x49, 0x40,
    0x71, 0x3d, 0xff, 0x86, 0xe4, 0xbd, 0xfb, 0xfe, 0xcc, 0x3b,
    0xd5, 0x8a, 0x6f, 0x3e, 0x7b, 0x33, 0x8c, 0x3e, 0x7e, 0x3f,
    0x9a, 0xbd, 0x4c, 0x8f, 0x1f, 0x3f, 0x2d, 0x82, 0x6f, 0xbe,
    0x95, 0x21, 0xc3, 0x3b, 0xd7, 0x34, 0x23, 0xbd, 0x0b, 0x8c,
    0x16, 0x3e, 0xcf, 0xdb, 0x04, 0xbd, 0x97, 0xfe, 0xe5, 0x3b,
    0x9e, 0xdd, 0x12, 0x3d, 0xbc, 0x5d, 0xd1, 0xbd, 0x74, 0x14,
    0xa8, 0x3e, 0x76, 0xb0, 0x36, 0xbd, 0x64, 0x3c, 0x72, 0x3d,
    0xdb, 0xbe, 0x81, 0x3e, 0x31, 0x3a, 0xb2, 0xbc, 0x33, 0xb4,
    0x45, 0x3e, 0xce, 0x29, 0xcd, 0xbd, 0x82, 0x65, 0x54, 0x3e,
    0xba, 0x22, 0x8e, 0xbc, 0x43, 0xd1, 0xce, 0x3d, 0x47, 0x04,
    0x8f, 0xbe, 0xf5, 0x2e, 0x71, 0x3e, 0xab, 0xa0, 0x87, 0x3d,
    0x92, 0xb6, 0x9b, 0xbd, 0x4e, 0x51, 0xd2, 0xbe, 0xb3, 0xb7,
    0x45, 0xbe, 0x03, 0x9a, 0xb7, 0xbd, 0xea, 0xff, 0x48, 0xbe,
    0x1a, 0xcd, 0x41, 0x3e, 0x95, 0xa1, 0x40, 0x3e, 0x85, 0x91,
    0xd8, 0x3d, 0xad, 0x0f, 0xbc, 0x3e, 0x2e, 0xef, 0x31, 0x3f,
    0x04, 0x52, 0x46, 0x3e, 0x2a, 0xd8, 0x3d, 0x3d, 0x8c, 0x4e,
    0x3b, 0xbe, 0x71, 0x76, 0x8d, 0xbb, 0xf1, 0x61, 0x19, 0xbe,
    0xe9, 0x6f, 0xf3, 0x3c, 0x8b, 0x28, 0xb8, 0x3d, 0x62, 0xea,
    0x84, 0x3c, 0xc7, 0x39, 0x39, 0x3f, 0x97, 0xd2, 0x10, 0x3d,
    0x74, 0xcd, 0x4d, 0x3e, 0xf6, 0xe6, 0x90, 0xbe, 0xbc, 0x6a,
    0x61, 0xbd, 0x92, 0xdc, 0x80, 0xbd, 0xb8, 0x7a, 0xe9, 0x3d,
    0x3f, 0x29, 0x20, 0x3c, 0x5a, 0x08, 0xc7, 0x3e, 0x67, 0x25,
    0xef, 0xbe, 0x62, 0x8f, 0xc3, 0xbe, 0x5e, 0x1c, 0x35, 0x3d,
    0xa5, 0x37, 0x68, 0x3e, 0xa3, 0xff, 0xf1, 0x3d, 0x10, 0xfe,
    0x22, 0x3f, 0x78, 0xaa, 0xa0, 0x3e, 0x66, 0xe7, 0x9a, 0x3e,
    0x08, 0x3c, 0xe7, 0xbc, 0x6d, 0xfd, 0x26, 0xbf, 0x86, 0x41,
    0x8a, 0xbe, 0x2c, 0x98, 0xa2, 0xbe, 0xe4, 0xad, 0x47, 0x3e,
    0x4f, 0x1e, 0x1e, 0xbe, 0x50, 0xa7, 0x12, 0x3f, 0x3e, 0xd5,
    0xe6, 0x3c, 0x4f, 0x5d, 0x46, 0x3e, 0xe2, 0x6b, 0xdb, 0x3d,
    0x7c, 0xc9, 0x04, 0x3e, 0x68, 0x24, 0x33, 0x3e, 0x4e, 0x2b,
    0xf0, 0xbd, 0xf6, 0xa2, 0x7a, 0xbe, 0x2e, 0x06, 0xbc, 0xbe,
    0x6f, 0xe8, 0x59, 0x3e, 0x56, 0x93, 0x6d, 0x3e, 0x8f, 0x23,
    0xa3, 0xbe, 0x1e, 0x69, 0x2a, 0xbe, 0xd1, 0x5b, 0x8a, 0x3c,
    0x83, 0xae, 0xbb, 0xbc, 0xe4, 0xbf, 0x61, 0x3e, 0x79, 0xbb,
    0xa3, 0xbe, 0x37, 0xfa, 0x56, 0x3e, 0x9a, 0xce, 0x59, 0x3f,
    0x05, 0x4d, 0x11, 0x3e, 0xfc, 0xba, 0xba, 0xbe, 0x9b, 0xa6,
    0x2d, 0x3d, 0x22, 0xd8, 0x1e, 0xbf, 0x64, 0x8a, 0x6c, 0x3e,
    0x35, 0xf7, 0x8c, 0x3e, 0xd8, 0x37, 0x11, 0x3e, 0x0f, 0xb6,
    0xad, 0x3d, 0xa1, 0xa7, 0xf0, 0x3d, 0xa3, 0xff, 0xe9, 0x3d,
    0x44, 0xb8, 0xcc, 0xbe, 0x62, 0x44, 0x1f, 0xbe, 0x1c, 0x71,
    0x84, 0xbe, 0xc4, 0x8d, 0x76, 0xbe, 0x81, 0x97, 0xbd, 0xbd,
    0x4d, 0x11, 0x87, 0xbe, 0x5d, 0x53, 0x82, 0xbe, 0x64, 0x29,
    0x6e, 0x3e, 0x0d, 0xb9, 0x03, 0xbf, 0xf9, 0x44, 0x57, 0x3c,
    0x98, 0x6d, 0xa5, 0xbd, 0x11, 0x50, 0x0f, 0xbe, 0x02, 0x6b,
    0x56, 0x3e, 0x88, 0x2c, 0x36, 0x3f, 0x83, 0x9d, 0x2e, 0x3f,
    0x37, 0x30, 0x83, 0xbe, 0xd7, 0xb5, 0x48, 0xbd, 0xd5, 0x8c,
    0x53, 0xbf, 0x93, 0x86, 0x36, 0xbe, 0x1d, 0xa9, 0x7b, 0xbd,
    0x44, 0x06, 0xf5, 0x3c, 0xfa, 0xac, 0x7c, 0xbd, 0x52, 0xc3,
    0x4a, 0x3e, 0xa5, 0x8d, 0x5c, 0xbe, 0x3f, 0xaa, 0x9b, 0xbd,
    0x5a, 0x4c, 0x1d, 0x3d, 0xf3, 0xe5, 0x5e, 0x3e, 0xee, 0xb3,
    0xb1, 0x3e, 0xbc, 0x9f, 0x45, 0xbe, 0x73, 0x07, 0xb3, 0xbd,
    0x0c, 0xf4, 0xec, 0x3d, 0xf7, 0x9c, 0x1d, 0x3e, 0x5d, 0x01,
    0x5a, 0x3f, 0x5d, 0xd5, 0xd9, 0x3e, 0x70, 0xba, 0xdd, 0x3e,
    0x37, 0x99, 0x3a, 0x3e, 0x7d, 0x71, 0x1f, 0xbe, 0xff, 0x6f,
    0x8d, 0xbe, 0xa7, 0x69, 0x41, 0x3e, 0xcf, 0x88, 0x64, 0x3e,
    0x25, 0x53, 0x38, 0x3d, 0x0b, 0x2d, 0xda, 0xba, 0xa2, 0x2b,
    0x08, 0xbe, 0x70, 0x06, 0x98, 0x3e, 0xda, 0x8b, 0xbe, 0xbd,
    0x60, 0xe1, 0xbf, 0x3d, 0x81, 0xd5, 0xa8, 0xbd, 0x3b, 0xdc,
    0x70, 0x3e, 0x20, 0xa9, 0xe1, 0x3d, 0xf8, 0xfd, 0x44, 0x3d,
    0x00, 0x5d, 0x8f, 0xbe, 0x09, 0xe7, 0x0c, 0xbd, 0x00, 0xbd,
    0xad, 0x3d, 0x16, 0x17, 0x11, 0xbe, 0xcc, 0x58, 0x18, 0x3f,
    0x24, 0x8f, 0x07, 0x3e, 0x29, 0x21, 0xe5, 0xbe, 0xde, 0xf2,
    0x8b, 0x3d, 0xad, 0xaa, 0xbe, 0xbe, 0xcd, 0x81, 0x51, 0xbf,
    0xd0, 0xfd, 0xc5, 0x3e, 0x32, 0x0a, 0x32, 0xbf, 0x95, 0xf4,
    0x51, 0x3d, 0x1a, 0x1e, 0xba, 0x3e, 0x53, 0x82, 0xfc, 0xbe,
    0x55, 0xfe, 0x0c, 0x3f, 0xa0, 0x40, 0x9f, 0xbc, 0xcb, 0x67,
    0xde, 0x3e, 0x49, 0xed, 0x32, 0xbe, 0x9a, 0x4a, 0x23, 0x3e,
    0xcd, 0xfd, 0xf4, 0x3d, 0x27, 0xde, 0x66, 0x3e, 0x4a, 0x53,
    0x54, 0xbe, 0x5b, 0x17, 0x37, 0xbc, 0x71, 0x34, 0x4b, 0xbe,
    0x2c, 0x85, 0xfd, 0x3d, 0x81, 0xe7, 0x5b, 0xbe, 0xb3, 0x6a,
    0xb8, 0xbd, 0xbb, 0xcd, 0xba, 0xbe, 0xb9, 0x6e, 0xdd, 0x3e,
    0xc3, 0xb5, 0x85, 0x3e, 0x09, 0xed, 0xc9, 0x3d, 0xea, 0x26,
    0xbb, 0xbb, 0xf5, 0xfc, 0x78, 0x3c, 0xa5, 0x04, 0x47, 0xbd,
    0xf7, 0x43, 0xae, 0x3e, 0x92, 0x67, 0x8e, 0x3e, 0xde, 0xd8,
    0x60, 0xbe, 0xed, 0x01, 0xa6, 0x3c, 0xce, 0x76, 0x21, 0xbe,
    0xf5, 0x6e, 0xa7, 0xbe, 0x15, 0x7f, 0x97, 0xbd, 0xf7, 0xe4,
    0x2f, 0x3e, 0xba, 0xec, 0x41, 0x3e, 0x22, 0xe8, 0x87, 0xbe,
    0x02, 0x4e, 0x16, 0xbe, 0xa2, 0xd1, 0x4f, 0xbe, 0x9f, 0x9b,
    0x6f, 0xbe, 0x4b, 0xc3, 0x53, 0x3f, 0xee, 0x3d, 0x2c, 0x3f,
    0x8c, 0x68, 0x49, 0xbd, 0x6d, 0xb2, 0x69, 0xbd, 0x97, 0x12,
    0x37, 0x3d, 0xa1, 0xf7, 0xca, 0xbe, 0x2f, 0x96, 0x03, 0x3e,
    0x56, 0xe1, 0x8e, 0xbc, 0x9a, 0x39, 0xd2, 0xbe, 0x9a, 0xcb,
    0xae, 0xbe, 0xa7, 0xbc, 0xaa, 0xbe, 0x0e, 0x3f, 0x1f, 0xbe,
    0x34, 0x78, 0x04, 0x3e, 0x8c, 0x37, 0x31, 0x3d, 0x5c, 0x3a,
    0x99, 0x3d, 0xb5, 0x21, 0xb5, 0xbd, 0xf7, 0xf5, 0x5c, 0xbe,
    0x0c, 0xef, 0xf4, 0x3d, 0xd8, 0xa2, 0xc5, 0xbe, 0xda, 0xda,
    0x07, 0xbe, 0x3b, 0xf2, 0x87, 0x3e, 0x2a, 0x38, 0x1f, 0x3f,
    0xc0, 0x46, 0x68, 0xbd, 0x3d, 0x65, 0x53, 0xbe, 0x48, 0x86,
    0x19, 0xbe, 0x45, 0xc7, 0xcb, 0xbe, 0x36, 0xdb, 0x9b, 0x3e,
    0xe9, 0xa1, 0x77, 0x3e, 0x42, 0x2a, 0x5a, 0x3e, 0xbb, 0x22,
    0x27, 0x3e, 0x0a, 0xa5, 0x10, 0xbe, 0x4a, 0x81, 0x0d, 0xbe,
    0x97, 0xf6, 0xe2, 0x3d, 0x85, 0xd6, 0x9a, 0xbd, 0x4a, 0x23,
    0x30, 0xbd, 0x25, 0xc3, 0xe1, 0xbe, 0x39, 0xe8, 0x25, 0xbd,
    0xa0, 0x0d, 0xf9, 0x3e, 0xcf, 0xbf, 0xdf, 0xbd, 0x67, 0xbd,
    0x32, 0xbe, 0xf1, 0x56, 0xac, 0x3e, 0xaa, 0xbf, 0x60, 0xbc,
    0xa3, 0xc0, 0xf8, 0xbe, 0x40, 0xcc, 0xab, 0xbe, 0x77, 0x8a,
    0x87, 0xbe, 0x10, 0xd3, 0xab, 0x3e, 0x2d, 0xd1, 0x23, 0x3e,
    0x63, 0x73, 0x3e, 0xbe, 0xd6, 0xb3, 0xc7, 0xbd, 0x77, 0xef,
    0x08, 0xbf, 0xc7, 0xdf, 0x33, 0x3d, 0x02, 0xa0, 0x62, 0xbe,
    0x16, 0xb4, 0x20, 0xbc, 0x75, 0x62, 0x96, 0xbe, 0x55, 0xaf,
    0x92, 0xbd, 0x4b, 0x5f, 0xc5, 0xbe, 0xd2, 0xf9, 0x51, 0xbe,
    0xd2, 0xf8, 0xc1, 0xbc, 0xda, 0x4d, 0x8e, 0x3d, 0x51, 0xeb,
    0xb8, 0x3e, 0xe9, 0xc0, 0x10, 0x3f, 0x63, 0x60, 0x97, 0x3d,
    0xb9, 0x21, 0xd8, 0x3d, 0x8b, 0x1e, 0x0d, 0x3e, 0x14, 0x26,
    0xf9, 0xbe, 0x5b, 0x2b, 0x9c, 0xbe, 0x2f, 0xf2, 0x98, 0xbe,
    0xb2, 0x62, 0x45, 0x3e, 0x9b, 0x64, 0x73, 0xbc, 0x27, 0x3b,
    0x55, 0xbe, 0xe7, 0x16, 0xb3, 0xbe, 0xb9, 0xbc, 0x12, 0xbf,
    0x4e, 0xd5, 0x8a, 0xbe, 0x60, 0x30, 0xa5, 0x3e, 0xc0, 0x7f,
    0xa2, 0x3d, 0x93, 0xb4, 0x07, 0x3e, 0x18, 0xaf, 0x12, 0xbc,
    0xea, 0xd7, 0xd5, 0xbc, 0x5b, 0xcc, 0x33, 0xbd, 0xfd, 0xd4,
    0xb4, 0xbc, 0xdd, 0x77, 0xd8, 0xbd, 0x8a, 0xdb, 0x57, 0x3d,
    0xc7, 0xaa, 0x11, 0xbe, 0x4d, 0xc3, 0xc8, 0xbe, 0x3a, 0x41,
    0x7b, 0xbe, 0x93, 0x55, 0x0a, 0x3e, 0x5d, 0x7d, 0x0a, 0x3f,
    0xd7, 0x87, 0x61, 0x3d, 0x26, 0xe8, 0xc4, 0x3e, 0x33, 0x6a,
    0x7a, 0xbe, 0x3f, 0xc2, 0xd0, 0xbc, 0xc2, 0x09, 0xac, 0x3d,
    0xce, 0x60, 0x5e, 0xbe, 0xc4, 0x3f, 0x15, 0xbe, 0x59, 0x37,
    0x8e, 0x3e, 0xc9, 0xe5, 0xaf, 0x3e, 0xd7, 0x63, 0x82, 0x3d,
    0x19, 0x83, 0xe8, 0xbe, 0xd3, 0x85, 0x28, 0x3e, 0xfb, 0x20,
    0x92, 0x3c, 0x06, 0x79, 0x7a, 0x3d, 0xf2, 0xba, 0x68, 0x3b,
    0xf8, 0x3d, 0x58, 0x3d, 0x82, 0x38, 0x67, 0x3e, 0x34, 0xde,
    0xf2, 0xbd, 0x79, 0x0c, 0x82, 0xbe, 0x55, 0x54, 0x4c, 0x3d,
    0x1a, 0x20, 0xa8, 0x3e, 0x11, 0x24, 0x90, 0x3e, 0x60, 0x5a,
    0xd0, 0xbe, 0x9a, 0xdc, 0x8b, 0xbd, 0xec, 0x3e, 0xb3, 0x3e,
    0x8d, 0x0f, 0xf8, 0xbe, 0x79, 0x0b, 0xc2, 0x3e, 0xbc, 0x67,
    0xe5, 0xbe, 0xd6, 0x61, 0x0f, 0x3e, 0xd9, 0xc0, 0x18, 0x3e,
    0x27, 0x07, 0x98, 0x3e, 0x26, 0xf6, 0x62, 0x3d, 0x93, 0xa8,
    0x8c, 0x3d, 0x3e, 0xf5, 0x13, 0x3e, 0xa6, 0x0e, 0x12, 0xbf,
    0xd4, 0xa0, 0xec, 0xba, 0x74, 0x03, 0x93, 0x3b, 0x3b, 0x72,
    0x42, 0x3e, 0xc9, 0x97, 0x9c, 0xbd, 0xb2, 0x69, 0xa3, 0x3c,
    0x5b, 0x6b, 0xbe, 0xbd, 0x21, 0x36, 0xa0, 0xbc, 0xcd, 0xd4,
    0x9e, 0xbd, 0x33, 0x72, 0x0e, 0x3e, 0x6a, 0x25, 0xc8, 0x3e,
    0x22, 0x25, 0xe6, 0x3e, 0x3a, 0x78, 0x7f, 0xbe, 0x18, 0xe9,
    0x91, 0xbe, 0x86, 0x55, 0x8d, 0x3e, 0x7c, 0x85, 0x38, 0xbf,
    0x12, 0xa7, 0xeb, 0x3e, 0x9b, 0xcc, 0x83, 0x3e, 0x20, 0x95,
    0x65, 0x3e, 0x4b, 0xda, 0x1f, 0xbd, 0x5d, 0xff, 0x9b, 0xbe,
    0xee, 0xdb, 0x37, 0xbf, 0xaf, 0x06, 0x43, 0xbe, 0xb3, 0x21,
    0x46, 0xbc, 0x3e, 0xfe, 0xc5, 0x3e, 0x80, 0x28, 0x05, 0xbf,
    0xa7, 0x40, 0x3a, 0x3d, 0xbe, 0x86, 0xae, 0xbe, 0xd0, 0x50,
    0xcb, 0xbd, 0x47, 0x1c, 0x74, 0xbe, 0x5b, 0xf9, 0x19, 0xbd,
    0xc0, 0x49, 0x49, 0xbd, 0xdc, 0xc3, 0x35, 0x3d, 0xf2, 0x34,
    0x71, 0xbe, 0x31, 0xdf, 0x86, 0x3d, 0x03, 0xd7, 0x69, 0xbd,
    0x50, 0xf1, 0x2f, 0xbd, 0x6c, 0xaa, 0x97, 0xbe, 0x6a, 0xfa,
    0x8e, 0x3e, 0x8a, 0x54, 0x62, 0xbd, 0xfc, 0xd0, 0x39, 0xbf,
    0xdc, 0x4f, 0x57, 0x3f, 0xe7, 0x58, 0xaa, 0xbc, 0x39, 0xc1,
    0x1b, 0xbe, 0x61, 0x21, 0xb5, 0xbd, 0x79, 0xe0, 0x86, 0xbe,
    0xb7, 0x43, 0x08, 0xbe, 0x6c, 0xea, 0xd2, 0xbd, 0x95, 0x38,
    0x17, 0x3f, 0xe2, 0x72, 0xf8, 0xbc, 0x8e, 0x9a, 0x03, 0xbe,
    0x8c, 0x58, 0xe8, 0xbd, 0x0a, 0x0c, 0x27, 0xbe, 0x97, 0x25,
    0x0d, 0xbe, 0xc1, 0x9e, 0x8d, 0x3b, 0xba, 0xac, 0x1d, 0x3e,
    0x0d, 0xd8, 0x07, 0x3e, 0x30, 0x8a, 0x32, 0xbd, 0x2b, 0xc1,
    0x9a, 0x3d, 0x97, 0xef, 0x3b, 0xbe, 0x58, 0x09, 0x25, 0x3f,
    0x4b, 0x72, 0x0d, 0x3f, 0x78, 0xa5, 0xfe, 0x3c, 0x84, 0x72,
    0xa8, 0xbe, 0xd7, 0x56, 0xe9, 0xbe, 0x48, 0x6d, 0x0d, 0xbf,
    0xe8, 0xec, 0x64, 0x3e, 0x98, 0x42, 0x81, 0x3e, 0xfd, 0x12,
    0x05, 0xbd, 0xc5, 0xad, 0x8d, 0x3e, 0x2b, 0xe6, 0xff, 0x3e,
    0x06, 0x0a, 0xa3, 0xbe, 0x9e, 0x57, 0xc8, 0x3d, 0x9d, 0xf6,
    0x07, 0x3e, 0x04, 0xb9, 0x05, 0xbe, 0x5b, 0x94, 0xfd, 0xbc,
    0x37, 0xb4, 0x4c, 0x3e, 0xa5, 0x61, 0x9f, 0x3e, 0x5e, 0x99,
    0x15, 0xbd, 0xb7, 0x54, 0x89, 0x3e, 0xab, 0xc1, 0xee, 0xbd,
    0x23, 0xf5, 0x66, 0x3e, 0x71, 0xb7, 0x05, 0xbe, 0x12, 0x82,
    0x2c, 0xbe, 0x32, 0x22, 0xca, 0xbd, 0xbe, 0x7a, 0x0c, 0x3e,
    0x9d, 0xee, 0x4e, 0x3e, 0x66, 0xd9, 0xef, 0xbc, 0xf5, 0xbc,
    0x1b, 0x3e, 0x96, 0xb7, 0x91, 0x3e, 0x4d, 0x2f, 0x05, 0x3e,
    0x91, 0x81, 0x78, 0x3d, 0xff, 0x62, 0x29, 0x3c, 0x16, 0x03,
    0x27, 0x3e, 0xa8, 0xc5, 0xda, 0xbd, 0xdf, 0x3b, 0x8b, 0x3d,
    0xa4, 0x67, 0x00, 0xbe, 0xa1, 0x63, 0x19, 0xbc, 0xa1, 0xea,
    0x1b, 0x3b, 0xe7, 0x8b, 0x21, 0x3d, 0x97, 0x29, 0x00, 0x3e,
    0x93, 0xd5, 0xc6, 0xbd, 0x61, 0x82, 0x75, 0x3d, 0xd3, 0x2a,
    0xdc, 0x3d, 0x96, 0x31, 0xc3, 0x3d, 0xa1, 0xac, 0x29, 0xbd,
    0x3c, 0xc2, 0x5f, 0x3c, 0x99, 0xe6, 0x17, 0xbd, 0x11, 0x1a,
    0x81, 0xbc, 0x3d, 0xac, 0x93, 0xbd, 0xfe, 0x1b, 0xd1, 0xbd,
    0x19, 0x0c, 0xd0, 0x3d, 0xcf, 0x67, 0xfa, 0x3d, 0x07, 0x5b,
    0xce, 0x3c, 0xf8, 0x96, 0xd7, 0xbd, 0xfe, 0xe7, 0xf4, 0xbd,
    0x7e, 0x34, 0x91, 0x3d, 0x6b, 0xe9, 0x5c, 0xbe, 0x73, 0x57,
    0xb9, 0xbe, 0x14, 0x43, 0x05, 0x3d, 0x0d, 0x8c, 0x38,
    0xbe, 0x1f, 0xc2, 0xa6, 0x3d, 0xcd, 0x82, 0xd7, 0xbc
  };

  return AI_HANDLE_PTR(s_wn_10_1_weights);

}

